/*
 * BSL Gesture Recognition Model
 *
 * Model Type: CNN_LSTM_Arduino
 * Timestamp:  20250717_230525
 * Model Size: 36128 bytes
 */

#ifndef BSL_MODEL_H_20250717_230525
#define BSL_MODEL_H_20250717_230525

// Feature count for normalization
const int BSL_MODEL_FEATURES = 5;

// Normalization parameters (StandardScaler)
const float scaler_mean[BSL_MODEL_FEATURES] = { 236.43887165f, 152.37936569f, 328.61752741f, 316.69635454f, 101.83935373f };
const float scaler_scale[BSL_MODEL_FEATURES] = { 177.03868095f, 153.40072310f, 204.37148658f, 203.09171501f, 121.78085463f };

// TFLite model data
alignas(16) const unsigned char model_data[] = {
    0x1c, 0x00, 0x00, 0x00, 0x54, 0x46, 0x4c, 0x33, 0x14, 0x00, 0x20, 0x00, 0x1c, 0x00, 0x18, 0x00, 0x14, 0x00, 0x10, 0x00, 0x0c, 0x00, 0x00, 0x00, 0x08, 0x00, 0x04, 0x00, 0x14, 0x00, 0x00, 0x00, 0x1c, 0x00, 0x00, 0x00, 0x1c, 0x00, 0x00, 0x00, 0x9c, 0x00, 0x00, 0x00, 0xd4, 0x5f, 0x00, 0x00, 0xe4, 0x5f, 0x00, 0x00, 0x38, 0x8b, 0x00, 0x00, 0x03, 0x00, 0x00, 0x00, 0x00, 0x00, 0x00, 0x00, 0x03, 0x00, 0x00, 0x00, 0x5c, 0x00, 0x00, 0x00, 0x2c, 0x00, 0x00, 0x00, 0x04, 0x00, 0x00, 0x00, 0x40, 0x89, 0xff, 0xff, 0x61, 0x00, 0x00, 0x00, 0x04, 0x00, 0x00, 0x00, 0x13, 0x00, 0x00, 0x00, 0x43, 0x4f, 0x4e, 0x56, 0x45, 0x52, 0x53, 0x49, 0x4f, 0x4e, 0x5f, 0x4d, 0x45, 0x54, 0x41, 0x44, 0x41, 0x54, 0x41, 0x00, 0x64, 0x89, 0xff, 0xff, 0x60, 0x00, 0x00, 0x00, 0x04, 0x00, 0x00, 0x00, 0x19, 0x00, 0x00, 0x00, 0x72, 0x65, 0x64, 0x75, 0x63, 0x65, 0x64, 0x5f, 0x70, 0x72, 0x65, 0x63, 0x69, 0x73, 0x69, 0x6f, 0x6e, 0x5f, 0x73, 0x75, 0x70, 0x70, 0x6f, 0x72, 0x74, 0x00, 0x00, 0x00, 0x90, 0x89, 0xff, 0xff, 0x5f, 0x00, 0x00, 0x00, 0x04, 0x00, 0x00, 0x00, 0x13, 0x00, 0x00, 0x00, 0x6d, 0x69, 0x6e, 0x5f, 0x72, 0x75, 0x6e, 0x74, 0x69, 0x6d, 0x65, 0x5f, 0x76, 0x65, 0x72, 0x73, 0x69, 0x6f, 0x6e, 0x00, 0x62, 0x00, 0x00, 0x00, 0x34, 0x5f, 0x00, 0x00, 0x2c, 0x5f, 0x00, 0x00, 0x18, 0x5f, 0x00, 0x00, 0xc8, 0x5e, 0x00, 0x00, 0xa0, 0x5e, 0x00, 0x00, 0x88, 0x5e, 0x00, 0x00, 0x74, 0x5e, 0x00, 0x00, 0x64, 0x5d, 0x00, 0x00, 0x14, 0x5d, 0x00, 0x00, 0x00, 0x5d, 0x00, 0x00, 0xf0, 0x54, 0x00, 0x00, 0x20, 0x52, 0x00, 0x00, 0x30, 0x50, 0x00, 0x00, 0x20, 0x44, 0x00, 0x00, 0x04, 0x44, 0x00, 0x00, 0xe8, 0x43, 0x00, 0x00, 0xcc, 0x43, 0x00, 0x00, 0xac, 0x43, 0x00, 0x00, 0x7c, 0x43, 0x00, 0x00, 0x60, 0x43, 0x00, 0x00, 0x10, 0x43, 0x00, 0x00, 0x08, 0x43, 0x00, 0x00, 0x00, 0x43, 0x00, 0x00, 0xf8, 0x42, 0x00, 0x00, 0xf0, 0x42, 0x00, 0x00, 0xe8, 0x42, 0x00, 0x00, 0xe0, 0x42, 0x00, 0x00, 0xd8, 0x42, 0x00, 0x00, 0xd0, 0x42, 0x00, 0x00, 0xc8, 0x42, 0x00, 0x00, 0xc0, 0x42, 0x00, 0x00, 0xb8, 0x42, 0x00, 0x00, 0xb0, 0x42, 0x00, 0x00, 0xa8, 0x42, 0x00, 0x00, 0xa0, 0x42, 0x00, 0x00, 0x98, 0x42, 0x00, 0x00, 0x90, 0x42, 0x00, 0x00, 0x88, 0x42, 0x00, 0x00, 0x80, 0x42, 0x00, 0x00, 0x78, 0x42, 0x00, 0x00, 0x70, 0x42, 0x00, 0x00, 0x68, 0x42, 0x00, 0x00, 0x60, 0x42, 0x00, 0x00, 0x58, 0x42, 0x00, 0x00, 0x50, 0x42, 0x00, 0x00, 0x48, 0x42, 0x00, 0x00, 0x40, 0x42, 0x00, 0x00, 0x38, 0x42, 0x00, 0x00, 0x30, 0x42, 0x00, 0x00, 0x28, 0x42, 0x00, 0x00, 0x20, 0x42, 0x00, 0x00, 0x18, 0x42, 0x00, 0x00, 0x10, 0x42, 0x00, 0x00, 0x08, 0x42, 0x00, 0x00, 0x00, 0x42, 0x00, 0x00, 0xf8, 0x41, 0x00, 0x00, 0xf0, 0x41, 0x00, 0x00, 0xe8, 0x41, 0x00, 0x00, 0xe0, 0x41, 0x00, 0x00, 0xd8, 0x41, 0x00, 0x00, 0xd0, 0x41, 0x00, 0x00, 0xc8, 0x41, 0x00, 0x00, 0xc0, 0x41, 0x00, 0x00, 0xb8, 0x41, 0x00, 0x00, 0xb0, 0x41, 0x00, 0x00, 0xa8, 0x41, 0x00, 0x00, 0xa0, 0x41, 0x00, 0x00, 0x98, 0x41, 0x00, 0x00, 0x90, 0x41, 0x00, 0x00, 0x88, 0x41, 0x00, 0x00, 0x78, 0x21, 0x00, 0x00, 0x68, 0x01, 0x00, 0x00, 0x60, 0x01, 0x00, 0x00, 0x58, 0x01, 0x00, 0x00, 0x50, 0x01, 0x00, 0x00, 0x48, 0x01, 0x00, 0x00, 0x40, 0x01, 0x00, 0x00, 0x38, 0x01, 0x00, 0x00, 0x30, 0x01, 0x00, 0x00, 0x28, 0x01, 0x00, 0x00, 0x20, 0x01, 0x00, 0x00, 0x18, 0x01, 0x00, 0x00, 0x10, 0x01, 0x00, 0x00, 0x08, 0x01, 0x00, 0x00, 0x00, 0x01, 0x00, 0x00, 0xf8, 0x00, 0x00, 0x00, 0xf0, 0x00, 0x00, 0x00, 0xe8, 0x00, 0x00, 0x00, 0xe0, 0x00, 0x00, 0x00, 0xd8, 0x00, 0x00, 0x00, 0xd0, 0x00, 0x00, 0x00, 0xc8, 0x00, 0x00, 0x00, 0xc0, 0x00, 0x00, 0x00, 0xb8, 0x00, 0x00, 0x00, 0xb0, 0x00, 0x00, 0x00, 0x90, 0x00, 0x00, 0x00, 0x74, 0x00, 0x00, 0x00, 0x04, 0x00, 0x00, 0x00, 0xc6, 0x8c, 0xff, 0xff, 0x04, 0x00, 0x00, 0x00, 0x60, 0x00, 0x00, 0x00, 0x0c, 0x00, 0x00, 0x00, 0x08, 0x00, 0x0e, 0x00, 0x08, 0x00, 0x04, 0x00, 0x08, 0x00, 0x00, 0x00, 0x14, 0x00, 0x00, 0x00, 0x30, 0x00, 0x00, 0x00, 0x00, 0x00, 0x0a, 0x00, 0x0c, 0x00, 0x08, 0x00, 0x00, 0x00, 0x07, 0x00, 0x0a, 0x00, 0x00, 0x00, 0x00, 0x00, 0x00, 0x01, 0x04, 0x00, 0x00, 0x00, 0x01, 0x00, 0x00, 0x00, 0xe9, 0x03, 0x00, 0x00, 0x00, 0x00, 0x0a, 0x00, 0x10, 0x00, 0x0c, 0x00, 0x08, 0x00, 0x04, 0x00, 0x0a, 0x00, 0x00, 0x00, 0x03, 0x00, 0x00, 0x00, 0x02, 0x00, 0x00, 0x00, 0x04, 0x00, 0x00, 0x00, 0x06, 0x00, 0x00, 0x00, 0x32, 0x2e, 0x31, 0x36, 0x2e, 0x32, 0x00, 0x00, 0x32, 0x8d, 0xff, 0xff, 0x04, 0x00, 0x00, 0x00, 0x0b, 0x00, 0x00, 0x00, 0x66, 0x70, 0x31, 0x36, 0x61, 0x63, 0x63, 0x66, 0x70, 0x33, 0x32, 0x00, 0x4a, 0x8d, 0xff, 0xff, 0x04, 0x00, 0x00, 0x00, 0x10, 0x00, 0x00, 0x00, 0x31, 0x2e, 0x31, 0x35, 0x2e, 0x30, 0x00, 0x00, 0x00, 0x00, 0x00, 0x00, 0x00, 0x00, 0x00, 0x00, 0xcc, 0x76, 0xff, 0xff, 0xd0, 0x76, 0xff, 0xff, 0xd4, 0x76, 0xff, 0xff, 0xd8, 0x76, 0xff, 0xff, 0xdc, 0x76, 0xff, 0xff, 0xe0, 0x76, 0xff, 0xff, 0xe4, 0x76, 0xff, 0xff, 0xe8, 0x76, 0xff, 0xff, 0xec, 0x76, 0xff, 0xff, 0xf0, 0x76, 0xff, 0xff, 0xf4, 0x76, 0xff, 0xff, 0xf8, 0x76, 0xff, 0xff, 0xfc, 0x76, 0xff, 0xff, 0x00, 0x77, 0xff, 0xff, 0x04, 0x77, 0xff, 0xff, 0x08, 0x77, 0xff, 0xff, 0x0c, 0x77, 0xff, 0xff, 0x10, 0x77, 0xff, 0xff, 0x14, 0x77, 0xff, 0xff, 0x18, 0x77, 0xff, 0xff, 0x1c, 0x77, 0xff, 0xff, 0x20, 0x77, 0xff, 0xff, 0x24, 0x77, 0xff, 0xff, 0xc2, 0x8d, 0xff, 0xff, 0x04, 0x00, 0x00, 0x00, 0x00, 0x20, 0x00, 0x00, 0x81, 0xab, 0xdf, 0x30, 0xe4, 0x2f, 0xff, 0x23, 0xef, 0x32, 0xb9, 0x25, 0x46, 0x33, 0x43, 0x32, 0x35, 0x2b, 0x9d, 0xb0, 0xf4, 0x2f, 0xa2, 0x31, 0x4a, 0xac, 0x52, 0x31, 0x52, 0x33, 0xa3, 0x2e, 0x5f, 0xa2, 0xb6, 0xac, 0x16, 0xaa, 0x9b, 0xa8, 0x39, 0xa8, 0xcc, 0xae, 0xc3, 0x96, 0xd7, 0xad, 0xaf, 0x33, 0xb0, 0x2b, 0x52, 0xab, 0x84, 0x2c, 0x79, 0x2d, 0xea, 0x2d, 0x66, 0x32, 0x8d, 0x2d, 0xd1, 0x2f, 0x26, 0x32, 0xd4, 0x32, 0x44, 0x2d, 0x1d, 0x2b, 0x45, 0x34, 0xd2, 0x16, 0x9a, 0x31, 0xd4, 0xae, 0x9f, 0x27, 0xf9, 0xa9, 0x22, 0x2f, 0x2f, 0xb0, 0xda, 0x30, 0x0e, 0xab, 0xe9, 0x2d, 0x19, 0x33, 0x18, 0x32, 0xdc, 0xad, 0x0d, 0x25, 0xcc, 0xa5, 0x8b, 0x2f, 0x7a, 0x32, 0x0b, 0x32, 0x23, 0xad, 0xad, 0x32, 0x39, 0xa8, 0xb7, 0x30, 0xda, 0x30, 0x10, 0xa8, 0x63, 0x30, 0x5b, 0x32, 0xd5, 0xad, 0xe4, 0xae, 0x4d, 0x2d, 0x6c, 0x32, 0x3b, 0x32, 0x6a, 0xad, 0x09, 0xb0, 0xb5, 0x32, 0x6e, 0xaf, 0xd1, 0x2e, 0x28, 0x2f, 0x84, 0x31, 0xe9, 0x2e, 0xbc, 0xad, 0x38, 0xb0, 0x70, 0x2c, 0xfb, 0xa9, 0xe0, 0xa4, 0x3d, 0xb1, 0xed, 0x30, 0x7d, 0xae, 0x15, 0x2f, 0x36, 0x31, 0x90, 0x2d, 0x6b, 0xab, 0x48, 0xa9, 0xb1, 0xb0, 0x13, 0x2d, 0xec, 0xae, 0xd2, 0xab, 0x51, 0x17, 0x97, 0x2f, 0x22, 0xac, 0xa8, 0xae, 0xf5, 0xaa, 0x5f, 0xa6, 0x36, 0xad, 0x80, 0xac, 0xc7, 0x30, 0x3c, 0x33, 0xab, 0x32, 0x35, 0x31, 0xe8, 0xad, 0xcb, 0xab, 0x65, 0x31, 0xc4, 0x2c, 0xf5, 0x31, 0x34, 0x2c, 0x71, 0x2b, 0x19, 0x25, 0x98, 0x23, 0x5b, 0xac, 0xf1, 0xad, 0xcc, 0x24, 0x9a, 0xb0, 0x29, 0x29, 0xff, 0x27, 0xe8, 0xb1, 0x56, 0xa9, 0xf5, 0x33, 0x7d, 0x31, 0x49, 0x2c, 0x8d, 0x9c, 0xf3, 0xb1, 0x98, 0x31, 0x4b, 0x2b, 0x40, 0xac, 0xf2, 0xae, 0x86, 0x2f, 0xcb, 0x25, 0x88, 0xb2, 0xf7, 0xa5, 0x3f, 0xaa, 0xdc, 0x32, 0x8c, 0x2e, 0x4f, 0x32, 0xa6, 0xaf, 0x95, 0xa1, 0x9c, 0xb0, 0x79, 0xb0, 0xd0, 0x2c, 0xd9, 0xab, 0xa4, 0xaf, 0xaf, 0x2d, 0x4d, 0x32, 0xd8, 0xb2, 0xdb, 0xae, 0x98, 0xac, 0xe7, 0xa9, 0xd0, 0xa7, 0x6b, 0xb0, 0x71, 0x2c, 0x62, 0x2f, 0xf3, 0x30, 0xbc, 0x2b, 0xa9, 0x31, 0x41, 0x30, 0xc0, 0xac, 0x15, 0xa8, 0x7b, 0xab, 0x86, 0x27, 0xe5, 0x19, 0x96, 0x2c, 0x39, 0x32, 0x7f, 0xb2, 0x94, 0xa4, 0xa0, 0x29, 0x8c, 0x23, 0x6a, 0xac, 0x2c, 0x30, 0x6d, 0xb2, 0xda, 0xa6, 0xe7, 0x31, 0x9f, 0xb1, 0xd8, 0x30, 0xea, 0x32, 0x95, 0xad, 0xb4, 0xa6, 0x8f, 0xaf, 0x5e, 0xa3, 0x95, 0xa6, 0xc4, 0xab, 0xad, 0xac, 0x21, 0xa6, 0x12, 0x2c, 0x87, 0x2c, 0xd3, 0x2f, 0xbf, 0x31, 0x4c, 0x25, 0x6a, 0x30, 0xdb, 0xa8, 0x0d, 0x2f, 0x9a, 0x30, 0xeb, 0x31, 0x84, 0x2d, 0xdc, 0x2f, 0x77, 0xa8, 0xba, 0xa1, 0x22, 0x33, 0x2e, 0xb0, 0x70, 0x21, 0xdc, 0xb0, 0xf6, 0x2d, 0x32, 0xa9, 0x1a, 0x2e, 0x95, 0x2e, 0x5a, 0x31, 0x63, 0x2c, 0x9a, 0x2e, 0xfc, 0x2a, 0xfa, 0x30, 0xed, 0x31, 0x5e, 0x2b, 0x5c, 0x29, 0x90, 0x31, 0x6a, 0xad, 0x60, 0x31, 0x3b, 0xaf, 0x2d, 0xaf, 0x9c, 0xb0, 0xe0, 0x2e, 0x4a, 0xae, 0xf6, 0x2c, 0x9a, 0x33, 0x6a, 0xa5, 0xbd, 0x30, 0x1c, 0xb0, 0xb0, 0x2b, 0x91, 0x26, 0x2d, 0x2e, 0xf8, 0xad, 0x88, 0x97, 0x30, 0x2a, 0xaf, 0xb1, 0x80, 0x23, 0x19, 0x33, 0xf0, 0x9e, 0x35, 0x20, 0x2c, 0x30, 0x5f, 0x2e, 0xd9, 0x2b, 0xee, 0x31, 0x62, 0x24, 0xf9, 0x2e, 0xc9, 0x2d, 0x7a, 0x10, 0x58, 0xab, 0x58, 0xa8, 0x40, 0xb1, 0x47, 0x2d, 0x1c, 0x2a, 0x36, 0x30, 0xb1, 0x22, 0x3e, 0xad, 0x54, 0x30, 0x9b, 0xa7, 0xe4, 0x2c, 0x9c, 0xad, 0x1e, 0x9f, 0xe1, 0x2f, 0xe3, 0xa7, 0x58, 0x2f, 0x98, 0xa2, 0x49, 0xac, 0xae, 0xa7, 0x43, 0x31, 0xf7, 0xaa, 0x10, 0xb3, 0x02, 0x33, 0x02, 0xad, 0x25, 0xb0, 0x44, 0xae, 0x1f, 0xb0, 0xf9, 0x31, 0x87, 0xaa, 0x6f, 0xb0, 0x72, 0xa8, 0x47, 0x31, 0x14, 0xa2, 0xe2, 0xa3, 0x07, 0x1d, 0x73, 0x30, 0xad, 0xac, 0x64, 0x34, 0x81, 0xab, 0x7a, 0x2a, 0xf2, 0x32, 0x87, 0x33, 0x47, 0x32, 0x43, 0x2c, 0x0d, 0xad, 0xbc, 0xae, 0x70, 0xb0, 0xc3, 0x31, 0x1e, 0x28, 0xdb, 0xac, 0x43, 0xb0, 0xf9, 0x31, 0xf7, 0xa0, 0xbd, 0xaf, 0x15, 0xad, 0x38, 0xa0, 0x69, 0xaa, 0x98, 0x2e, 0x08, 0xad, 0x5b, 0x32, 0x88, 0x30, 0x11, 0x2e, 0x43, 0xb0, 0xe9, 0x2c, 0x56, 0x31, 0x85, 0x32, 0x37, 0xad, 0x84, 0xb0, 0x77, 0xae, 0x41, 0xad, 0x08, 0x32, 0x4b, 0x27, 0xec, 0x30, 0x7d, 0xa9, 0x2a, 0x32, 0x42, 0x2f, 0x1c, 0xa9, 0x02, 0x26, 0x92, 0xac, 0x0d, 0x27, 0x9d, 0x2c, 0x19, 0x23, 0xee, 0x98, 0x27, 0x31, 0xa8, 0x1c, 0x5c, 0x2f, 0x41, 0x9e, 0xa1, 0x98, 0x39, 0xac, 0x6b, 0x2e, 0xef, 0xac, 0x41, 0x98, 0x6a, 0x32, 0x67, 0x20, 0xfa, 0x29, 0xff, 0xb1, 0x02, 0x30, 0xa0, 0xa2, 0x2c, 0xa9, 0x77, 0x2f, 0x56, 0xae, 0x16, 0xad, 0x38, 0x2f, 0x09, 0x2e, 0x3d, 0xae, 0xec, 0xaf, 0xdf, 0x2f, 0x1f, 0x34, 0x4d, 0x29, 0xad, 0x2a, 0x42, 0xa8, 0x7e, 0xab, 0xd8, 0xad, 0x0b, 0x32, 0xbf, 0x31, 0xde, 0xa9, 0x38, 0xb0, 0x4f, 0x29, 0xa2, 0x1d, 0x02, 0x24, 0x50, 0xaf, 0x81, 0xb0, 0x04, 0xb2, 0x01, 0x29, 0x46, 0x29, 0x67, 0x2d, 0xee, 0x2d, 0x37, 0xb1, 0x58, 0x2a, 0xec, 0x1c, 0x6f, 0xae, 0xd3, 0xaf, 0x60, 0x26, 0x52, 0x31, 0xeb, 0x24, 0xba, 0xb0, 0x9f, 0x24, 0xdc, 0x23, 0x23, 0x32, 0xe4, 0xae, 0x61, 0xac, 0xd9, 0x2b, 0x4a, 0xaf, 0x26, 0x2c, 0x51, 0xa8, 0xc2, 0xa6, 0xce, 0x2e, 0x2e, 0xa4, 0xf4, 0x2b, 0x56, 0xab, 0x06, 0xb1, 0xb6, 0x30, 0xbd, 0xb0, 0xa9, 0x32, 0xb1, 0xa7, 0x14, 0xae, 0x4b, 0x2c, 0xa3, 0x29, 0xb1, 0xb0, 0x87, 0xad, 0x20, 0x2b, 0x60, 0x31, 0xef, 0xb0, 0x02, 0x32, 0xcc, 0xb0, 0x29, 0xb1, 0x10, 0xad, 0xf1, 0xaf, 0x7f, 0xaf, 0x92, 0xaa, 0x1d, 0x2e, 0x77, 0x24, 0x28, 0xaf, 0x21, 0x33, 0x13, 0xb1, 0x5f, 0x32, 0xc6, 0xb1, 0x76, 0x30, 0xf8, 0xad, 0xe8, 0xa2, 0xfa, 0x25, 0x04, 0x32, 0xf2, 0xb0, 0xdf, 0x32, 0x36, 0x2a, 0xa1, 0x32, 0x6f, 0x20, 0x6b, 0x30, 0x4a, 0x24, 0xd3, 0xaa, 0x06, 0x2a, 0xee, 0xaf, 0xba, 0x29, 0x0e, 0x2c, 0xbd, 0xab, 0x1c, 0xae, 0xcf, 0x2c, 0x07, 0xac, 0x54, 0x94, 0x68, 0x2e, 0x31, 0x2d, 0x37, 0xab, 0x2d, 0xae, 0x0b, 0x34, 0x8e, 0x34, 0xf2, 0x28, 0xc7, 0x2c, 0xda, 0xac, 0x95, 0xa8, 0x19, 0xaa, 0xeb, 0x30, 0xb5, 0x28, 0x84, 0x34, 0x48, 0x2e, 0x7f, 0x2f, 0xbd, 0x2d, 0x6f, 0x32, 0x86, 0xae, 0x00, 0xae, 0x08, 0x28, 0xa5, 0xaa, 0xea, 0xa8, 0xc6, 0xa8, 0x80, 0xad, 0x8a, 0x32, 0xaa, 0x2d, 0xf6, 0x2c, 0x1f, 0xa6, 0x01, 0x25, 0x1c, 0xad, 0xa8, 0xa8, 0xaa, 0x21, 0x12, 0x2e, 0x69, 0x2d, 0xa5, 0xae, 0x9e, 0x32, 0xfa, 0x2d, 0x1c, 0xb2, 0xa6, 0xa5, 0x5f, 0xae, 0x7e, 0xb0, 0xb2, 0x33, 0x96, 0x2f, 0xf9, 0x2c, 0xa2, 0x2a, 0xec, 0xaa, 0xb7, 0x2e, 0xbe, 0x31, 0x61, 0x21, 0xa7, 0x2f, 0xe6, 0xb1, 0x6a, 0x32, 0x33, 0xb0, 0xab, 0x32, 0x35, 0xa2, 0x0e, 0x2e, 0xa2, 0xae, 0xe2, 0x28, 0xce, 0x32, 0xb9, 0xad, 0xf1, 0x29, 0x80, 0xad, 0xb2, 0xac, 0x83, 0xa8, 0x32, 0xac, 0x5b, 0x31, 0x5b, 0xac, 0x93, 0x2c, 0xa6, 0x31, 0x52, 0x32, 0x62, 0x30, 0x20, 0x31, 0x8b, 0x30, 0xc4, 0x2e, 0x04, 0xad, 0x21, 0xac, 0x5c, 0xa5, 0xdb, 0xac, 0x30, 0x32, 0xb1, 0x31, 0xe3, 0x30, 0x09, 0x2f, 0x11, 0x30, 0xe0, 0xad, 0x70, 0x20, 0xb5, 0xaa, 0xcd, 0x25, 0xea, 0x2f, 0xc5, 0x31, 0x8f, 0x30, 0x5c, 0xb2, 0x12, 0xb0, 0x9a, 0x31, 0xdf, 0x8b, 0x35, 0xb0, 0x43, 0x2e, 0xd8, 0xac, 0x2d, 0x29, 0xbb, 0x32, 0xf9, 0xa1, 0x29, 0x2d, 0xd3, 0x2f, 0x42, 0xa8, 0x75, 0x32, 0xce, 0x31, 0x40, 0xae, 0x93, 0x20, 0x7f, 0x2e, 0xc2, 0x33, 0xfa, 0xae, 0x63, 0x22, 0xee, 0x30, 0x79, 0xaf, 0x27, 0x30, 0x9d, 0xb1, 0x51, 0x19, 0xc9, 0x33, 0x30, 0x2f, 0xe4, 0xae, 0x7c, 0x2f, 0x15, 0x2b, 0x57, 0xab, 0x96, 0xad, 0xc8, 0x31, 0x9f, 0x94, 0x95, 0x2f, 0x14, 0x2d, 0xf0, 0xae, 0x3c, 0xac, 0x89, 0x31, 0x85, 0xac, 0xfa, 0x2d, 0x71, 0x2e, 0xf0, 0x31, 0x3e, 0xb2, 0x7a, 0x2e, 0xcc, 0x2c, 0x6d, 0x2c, 0xad, 0x24, 0x59, 0x2c, 0xa6, 0xb0, 0x5a, 0x25, 0x66, 0x30, 0x37, 0x21, 0x14, 0xae, 0xda, 0x32, 0x89, 0xaa, 0x6c, 0x23, 0x22, 0xa8, 0x0f, 0x2f, 0xf1, 0xae, 0xb8, 0x2a, 0x32, 0x28, 0x13, 0x2d, 0xfb, 0xad, 0xa9, 0xad, 0xdb, 0x31, 0xb2, 0x30, 0x3a, 0x2c, 0x20, 0xb2, 0xd7, 0x84, 0xad, 0x29, 0xda, 0xb0, 0xdb, 0xb1, 0xe0, 0x26, 0x39, 0x28, 0x7d, 0x30, 0x04, 0x30, 0x0a, 0xb0, 0xf2, 0xb1, 0x96, 0xb0, 0x3d, 0x2c, 0xb1, 0x32, 0xa7, 0xac, 0x31, 0x30, 0x57, 0x31, 0x7d, 0xab, 0x43, 0x29, 0x14, 0xa3, 0x20, 0xac, 0x7d, 0x34, 0xad, 0x31, 0x35, 0x31, 0x60, 0x25, 0x63, 0x2d, 0xb9, 0x33, 0xf2, 0x2b, 0x09, 0xad, 0x72, 0xa8, 0x34, 0xb0, 0xec, 0xb1, 0x3a, 0xb2, 0x42, 0xaf, 0x0e, 0x19, 0xa4, 0x2f, 0x4c, 0x29, 0x8e, 0x33, 0x4a, 0x29, 0x38, 0xb1, 0xae, 0xab, 0x6a, 0x2c, 0xa4, 0xb2, 0x62, 0x2e, 0x23, 0xac, 0xe4, 0x32, 0x22, 0x99, 0xa6, 0xaa, 0x95, 0x2d, 0xa0, 0xb0, 0x31, 0x2a, 0x34, 0xab, 0x73, 0x30, 0xd7, 0xa1, 0x06, 0x23, 0xfa, 0xad, 0x09, 0xb1, 0xee, 0x30, 0x9f, 0x2f, 0x92, 0xa5, 0xb4, 0xad, 0x78, 0xad, 0x54, 0xb2, 0x0d, 0x25, 0x14, 0xa7, 0x69, 0xa6, 0xc8, 0x2e, 0x22, 0x32, 0x6f, 0x2d, 0x7a, 0x32, 0xdd, 0xad, 0x4f, 0x32, 0x33, 0x29, 0x78, 0x1c, 0x05, 0xb2, 0x91, 0x26, 0x12, 0xa9, 0xe7, 0x30, 0x69, 0x28, 0xb2, 0x27, 0x5e, 0x2d, 0xa0, 0x26, 0x3e, 0xae, 0xa4, 0xad, 0x76, 0x28, 0x32, 0x2b, 0x6a, 0x2d, 0x06, 0xb1, 0x71, 0x30, 0x43, 0xad, 0xfe, 0x30, 0xe1, 0xae, 0x6c, 0x32, 0xfc, 0xb0, 0xba, 0xa7, 0xcd, 0x30, 0xf0, 0xb1, 0xf8, 0xa8, 0xea, 0xa8, 0x31, 0xa6, 0xfd, 0x30, 0x47, 0x32, 0x1f, 0xac, 0x0c, 0x30, 0xa9, 0xa9, 0xf0, 0x31, 0x40, 0xa2, 0x5e, 0x30, 0x36, 0x30, 0x91, 0x26, 0xff, 0xb1, 0xd3, 0x31, 0x87, 0x32, 0xb0, 0xb0, 0x15, 0xb0, 0x44, 0x2f, 0xa0, 0x32, 0x9b, 0x32, 0x05, 0xac, 0xaa, 0x1c, 0x35, 0x22, 0xc0, 0xa2, 0x81, 0x2e, 0x4d, 0xb0, 0x3b, 0xad, 0xd9, 0xad, 0x64, 0xa6, 0x75, 0x9d, 0xcf, 0xb1, 0x44, 0xb0, 0xa9, 0x2c, 0x43, 0x2c, 0x86, 0x2b, 0x32, 0xac, 0x90, 0xad, 0x9d, 0x31, 0x67, 0x31, 0x49, 0x2b, 0x5a, 0x1d, 0x11, 0x2b, 0x46, 0xae, 0x37, 0x31, 0x2a, 0xb1, 0xc2, 0x2a, 0x89, 0x2d, 0xa8, 0x2e, 0x27, 0xaf, 0x37, 0xa9, 0x0d, 0x2b, 0x35, 0xb0, 0x17, 0xad, 0x78, 0xac, 0x12, 0xaf, 0x45, 0xb0, 0x7c, 0xb0, 0x74, 0xae, 0x92, 0xae, 0xbd, 0xb0, 0x7c, 0x2e, 0x63, 0xaf, 0x60, 0xa9, 0x8a, 0xb0, 0xd1, 0xaa, 0xc2, 0xad, 0x9d, 0x2a, 0x3c, 0xa9, 0x37, 0xae, 0xfb, 0x32, 0x32, 0xac, 0x28, 0x21, 0xe4, 0x2f, 0xa1, 0x2c, 0x38, 0x32, 0x00, 0x32, 0x8f, 0x2e, 0x06, 0x2a, 0xa2, 0x30, 0x5c, 0xab, 0x4e, 0x2b, 0x24, 0x30, 0x12, 0xae, 0xee, 0x2c, 0xe3, 0x33, 0x54, 0x32, 0x2c, 0x31, 0xe0, 0xb0, 0x92, 0xa5, 0xd0, 0x2d, 0xe6, 0x32, 0xa6, 0xac, 0x42, 0xb0, 0x69, 0x2d, 0x1a, 0xb1, 0xb5, 0x2c, 0x48, 0x2c, 0x65, 0x31, 0x0f, 0xb0, 0xb6, 0x32, 0x6e, 0x31, 0x4f, 0x2d, 0x66, 0x2f, 0x0e, 0xae, 0xa4, 0x2c, 0x63, 0x33, 0xe5, 0xaf, 0x6f, 0xb0, 0x62, 0x8f, 0xc1, 0x32, 0xbb, 0xb0, 0xe5, 0x2b, 0xd0, 0x2c, 0x08, 0xb2, 0x21, 0x2b, 0x9f, 0x2f, 0x01, 0xa4, 0xdf, 0x32, 0x3b, 0xb1, 0xe5, 0xab, 0xeb, 0xaa, 0x88, 0x30, 0xf2, 0xae, 0xde, 0x9e, 0x3e, 0x31, 0x3b, 0x2d, 0x5f, 0x2c, 0x27, 0xaf, 0xe1, 0xae, 0xf2, 0x2f, 0xc7, 0xa6, 0x55, 0x31, 0xab, 0xac, 0x96, 0x31, 0x25, 0xb0, 0x4b, 0x34, 0xca, 0xac, 0x34, 0x30, 0xf5, 0x2f, 0x16, 0x33, 0x39, 0x28, 0x05, 0xaf, 0x1b, 0xac, 0x54, 0x30, 0x62, 0x9e, 0x2f, 0x2f, 0x17, 0xa5, 0xdb, 0x23, 0x27, 0x34, 0x75, 0x32, 0x78, 0x30, 0x41, 0x2b, 0x12, 0x29, 0xfa, 0xaf, 0xc5, 0x31, 0x6f, 0x31, 0x10, 0x31, 0x4b, 0x2a, 0x15, 0x33, 0x83, 0xb0, 0x34, 0xb0, 0x79, 0xa9, 0x36, 0x31, 0xd0, 0x2a, 0x0a, 0xad, 0x75, 0xa4, 0x2d, 0xac, 0x86, 0xb2, 0xc5, 0xb2, 0x30, 0x2d, 0x70, 0x33, 0xec, 0xaa, 0x44, 0xaf, 0x17, 0xaf, 0x51, 0x31, 0xcc, 0xad, 0x19, 0x32, 0x30, 0x33, 0x04, 0x28, 0xde, 0xb1, 0xf5, 0x30, 0x0c, 0x2a, 0x0e, 0x30, 0x1f, 0x28, 0x6d, 0xac, 0x2d, 0x2c, 0x1d, 0x25, 0x56, 0x23, 0x0d, 0xaa, 0x97, 0x2a, 0x88, 0x2f, 0x86, 0x32, 0xb4, 0xaf, 0x7e, 0x31, 0xa1, 0x2d, 0xac, 0x32, 0x99, 0x24, 0xb5, 0x27, 0x30, 0x2e, 0xcb, 0x32, 0x5b, 0x30, 0x09, 0x29, 0x87, 0x2a, 0x1c, 0x34, 0x86, 0x2d, 0x3f, 0xa1, 0xea, 0x2d, 0x20, 0x2f, 0x1e, 0xac, 0x5a, 0x2f, 0x5e, 0xac, 0xb6, 0xae, 0x89, 0xa8, 0x54, 0xad, 0x25, 0x26, 0x8a, 0x30, 0xba, 0xae, 0xd3, 0x2d, 0x83, 0x2c, 0xb9, 0xad, 0x06, 0xae, 0xd3, 0xac, 0x5e, 0x27, 0x37, 0x33, 0x40, 0x32, 0x68, 0xac, 0x68, 0x2c, 0x33, 0x26, 0x16, 0x32, 0xcf, 0x2f, 0xc5, 0x27, 0x30, 0x30, 0x74, 0x2f, 0xe7, 0xab, 0x3a, 0xaf, 0x18, 0x33, 0x64, 0xa5, 0xcf, 0x24, 0x51, 0xb1, 0xf2, 0xaf, 0x8c, 0x2a, 0xaa, 0x31, 0x4f, 0x30, 0x3e, 0x33, 0xc9, 0xa7, 0xdd, 0xa7, 0x31, 0x2f, 0x6d, 0x30, 0xb0, 0x2c, 0x97, 0xab, 0x66, 0xb2, 0x41, 0x30, 0xeb, 0xae, 0xcd, 0x26, 0x29, 0xac, 0x01, 0x33, 0x44, 0xad, 0x08, 0x34, 0x8e, 0x25, 0x0c, 0xa6, 0xd3, 0x32, 0x7d, 0x2d, 0xca, 0xae, 0x13, 0xa5, 0x3b, 0x2d, 0x3e, 0xad, 0x5c, 0xac, 0xdb, 0xa6, 0xdc, 0x31, 0x3c, 0x2d, 0x81, 0xad, 0x8a, 0x2d, 0xa5, 0x34, 0x26, 0x2c, 0x0f, 0xb0, 0x20, 0x33, 0xca, 0x31, 0x2c, 0xae, 0x5e, 0x32, 0x6a, 0x2d, 0xbc, 0xae, 0xd5, 0x1c, 0x26, 0xa6, 0xaa, 0xae, 0x0c, 0x2d, 0xbb, 0x28, 0xe6, 0xaf, 0xe9, 0xb0, 0x66, 0xb2, 0x3a, 0x31, 0x06, 0x2d, 0x36, 0x29, 0xfe, 0x30, 0xb5, 0xac, 0xd7, 0x2b, 0x74, 0xa8, 0x5a, 0xb1, 0x1a, 0x2e, 0xce, 0x2d, 0xd9, 0xb0, 0xbf, 0xa6, 0xbf, 0xb0, 0x99, 0xad, 0xa1, 0xa3, 0x18, 0x31, 0x52, 0xa8, 0x5b, 0xa4, 0x45, 0x2f, 0xb8, 0x32, 0x64, 0x30, 0x72, 0xad, 0x32, 0x9c, 0x08, 0x2e, 0x6e, 0xb0, 0x36, 0xad, 0x54, 0xb0, 0xf6, 0x2f, 0xd5, 0x32, 0xf4, 0x32, 0xa8, 0x2d, 0x0f, 0xab, 0x71, 0x33, 0xf0, 0x23, 0x47, 0xb0, 0x56, 0x33, 0xa2, 0x2c, 0x0a, 0x33, 0x9c, 0xad, 0x31, 0x31, 0x45, 0xaf, 0x32, 0x32, 0xde, 0x28, 0x2e, 0xa3, 0x1a, 0x2b, 0xcf, 0x28, 0xce, 0x2a, 0xb4, 0x2f, 0xfd, 0x33, 0xe1, 0x98, 0x62, 0xa8, 0x19, 0xad, 0xae, 0x2e, 0xcd, 0x9d, 0x57, 0x2b, 0xe9, 0x2d, 0x79, 0xa9, 0x58, 0xad, 0x70, 0xa9, 0xab, 0x31, 0x7e, 0x24, 0xad, 0xa8, 0x4d, 0x1c, 0xac, 0x2e, 0x6e, 0x32, 0x83, 0x2c, 0x79, 0x30, 0x17, 0x31, 0x0e, 0xb4, 0x97, 0x2e, 0x8f, 0x27, 0xd2, 0xaf, 0x7e, 0x2d, 0xa2, 0x27, 0x87, 0x29, 0xb2, 0xab, 0x28, 0xac, 0x77, 0x2c, 0x85, 0xac, 0xe9, 0x2c, 0xab, 0x33, 0xd5, 0x9e, 0x71, 0x26, 0xe0, 0xae, 0x04, 0x2f, 0x18, 0x25, 0x99, 0x27, 0x8d, 0x2c, 0x2e, 0x30, 0x3b, 0x33, 0x16, 0x14, 0x6f, 0x31, 0x40, 0x2c, 0xc4, 0x2c, 0x47, 0x2c, 0x42, 0x33, 0x32, 0x2f, 0xd7, 0x30, 0x4a, 0xb1, 0x72, 0x32, 0x4d, 0xa6, 0x83, 0x2f, 0x60, 0x31, 0xdf, 0xaa, 0x0e, 0xaf, 0x51, 0xb1, 0xcb, 0x2c, 0x64, 0xae, 0x70, 0xae, 0x42, 0xaf, 0xdd, 0x2c, 0x70, 0xa0, 0x01, 0x2d, 0x18, 0xad, 0xbf, 0x31, 0xe5, 0xb1, 0xfd, 0xb0, 0xd5, 0xa9, 0xf1, 0x31, 0x96, 0x2c, 0xc1, 0x27, 0x3a, 0x28, 0xa1, 0xb1, 0x7d, 0x31, 0xf1, 0x31, 0xc7, 0xb0, 0xae, 0x29, 0xec, 0xab, 0x80, 0x32, 0xf6, 0xab, 0x93, 0xae, 0x78, 0x31, 0xcf, 0x33, 0x27, 0xb1, 0x58, 0x31, 0xd9, 0xae, 0xc0, 0x29, 0x1d, 0x2d, 0x0e, 0x28, 0x76, 0x32, 0x6f, 0x2e, 0xf7, 0x9b, 0x02, 0x30, 0xfe, 0x31, 0xf2, 0xa9, 0x9c, 0x29, 0x78, 0x31, 0xac, 0x31, 0x25, 0x32, 0x74, 0x2c, 0x3e, 0x31, 0x65, 0xa9, 0x1a, 0x29, 0xdb, 0xac, 0x62, 0x2c, 0xdd, 0x30, 0x2e, 0x2a, 0x00, 0xaf, 0x0c, 0xb1, 0xf4, 0x30, 0xb2, 0x20, 0x0e, 0x2a, 0x19, 0xb2, 0x2c, 0xb1, 0x00, 0xb2, 0x1e, 0x34, 0xea, 0xaa, 0x3f, 0x2c, 0x09, 0xaf, 0x19, 0x31, 0x5e, 0x30, 0xa1, 0xa6, 0x98, 0x2e, 0xce, 0x28, 0x85, 0x2d, 0x9a, 0xac, 0x4a, 0x30, 0x44, 0xaf, 0x71, 0x32, 0xd7, 0x2c, 0x24, 0x30, 0x37, 0xad, 0x95, 0x1f, 0x9e, 0x1f, 0xdf, 0x30, 0x90, 0x2f, 0xcc, 0xac, 0xb5, 0xb0, 0x21, 0x30, 0xe7, 0x2f, 0xc9, 0x2c, 0x25, 0xa4, 0x4f, 0x2b, 0xb3, 0xa0, 0x7c, 0x2c, 0x37, 0x2b, 0xf8, 0x2a, 0xef, 0x2c, 0xef, 0x2d, 0x9e, 0x2f, 0x10, 0xaf, 0x62, 0x30, 0xaf, 0xb2, 0x5e, 0x32, 0x73, 0xb1, 0xfe, 0xad, 0xf9, 0x31, 0x71, 0x31, 0x4c, 0x20, 0x83, 0x30, 0x13, 0xaa, 0xbd, 0x2b, 0x41, 0x32, 0x10, 0xaa, 0xa5, 0x1e, 0xa9, 0xb3, 0x57, 0xb0, 0xee, 0x33, 0xdc, 0x30, 0xe4, 0x18, 0xa7, 0x22, 0xff, 0xad, 0x03, 0xa7, 0x80, 0x30, 0x4c, 0xb0, 0x41, 0x30, 0x75, 0x32, 0x01, 0x9d, 0xc9, 0x27, 0x18, 0x31, 0x1e, 0xb0, 0x0b, 0xaf, 0x2e, 0x30, 0x44, 0x32, 0xf8, 0xa9, 0xf9, 0x30, 0x0f, 0x2a, 0xa8, 0xa8, 0xb5, 0xaf, 0x88, 0x31, 0x84, 0x92, 0x31, 0x30, 0x52, 0xa4, 0x13, 0xb0, 0x62, 0x31, 0xd3, 0xb0, 0xe2, 0xaf, 0x26, 0x2d, 0x81, 0xaf, 0xf8, 0x27, 0xa9, 0xa8, 0x6e, 0xa9, 0x04, 0x28, 0xe0, 0xae, 0xdb, 0xac, 0xb6, 0x2c, 0x66, 0xac, 0xeb, 0x2e, 0x4b, 0x32, 0x82, 0xad, 0x0f, 0x30, 0x26, 0x30, 0x97, 0x30, 0xa5, 0x31, 0xeb, 0xa2, 0xa0, 0x2c, 0x98, 0x2f, 0x40, 0xad, 0xd5, 0xaa, 0xac, 0xb1, 0xeb, 0x32, 0x81, 0xaf, 0x55, 0x30, 0xe5, 0xac, 0x3c, 0x29, 0x6b, 0x31, 0x7b, 0xb0, 0x07, 0xab, 0x98, 0x2a, 0xe5, 0x2b, 0x6e, 0x2f, 0x4f, 0x30, 0x1f, 0xae, 0xae, 0x33, 0x01, 0x30, 0xbc, 0x29, 0xf9, 0x2c, 0x40, 0xa9, 0xce, 0xae, 0xdd, 0x2f, 0x6a, 0x96, 0x0a, 0xaf, 0xde, 0x33, 0xc3, 0x2e, 0x73, 0x2a, 0x89, 0x26, 0x37, 0x21, 0x9e, 0x25, 0xcc, 0xb0, 0x0b, 0xb1, 0x17, 0xad, 0x2f, 0x31, 0xc9, 0xa9, 0x26, 0x2c, 0x60, 0x2f, 0x7c, 0xaa, 0xab, 0xaf, 0x5c, 0xa3, 0x6b, 0xa8, 0x72, 0xa6, 0xac, 0x10, 0xc4, 0x2d, 0x4c, 0x2e, 0x01, 0xb0, 0x8a, 0xad, 0x3b, 0x34, 0x89, 0x2f, 0x8b, 0xac, 0x55, 0x33, 0xe6, 0x98, 0x7a, 0x2d, 0x9c, 0xac, 0xf9, 0x31, 0xa5, 0x2f, 0xfb, 0x31, 0x8c, 0xb1, 0x38, 0x31, 0x71, 0x2b, 0x94, 0xad, 0x1e, 0x32, 0x4f, 0xb0, 0x05, 0xb1, 0x7e, 0xa1, 0x15, 0xb0, 0x29, 0xaf, 0xbf, 0xb0, 0x02, 0x2e, 0x38, 0xaa, 0x44, 0x32, 0xea, 0xaf, 0xbc, 0x29, 0xdf, 0xa2, 0x6d, 0xb0, 0xaf, 0xa6, 0xdb, 0xb0, 0xb0, 0xa8, 0x52, 0xa8, 0xed, 0x24, 0xe1, 0xae, 0x6e, 0x33, 0xaf, 0x31, 0x06, 0x31, 0x82, 0x30, 0xbe, 0xad, 0x85, 0x2a, 0x6a, 0xa2, 0x3d, 0x24, 0xa2, 0x31, 0xd4, 0x2e, 0xd0, 0x24, 0x30, 0x29, 0xb5, 0x2b, 0x52, 0x2f, 0x63, 0x29, 0xbc, 0xac, 0x83, 0xa9, 0x73, 0x2d, 0x46, 0x32, 0xc6, 0x18, 0xad, 0x2e, 0x2f, 0x32, 0xe2, 0x2c, 0x35, 0xa6, 0x3b, 0x9c, 0xcc, 0xaf, 0x3b, 0x30, 0xa8, 0xad, 0x4f, 0x2d, 0x88, 0xac, 0x98, 0x30, 0x46, 0xad, 0xe6, 0x2d, 0x50, 0x1c, 0x60, 0xa8, 0x47, 0x2d, 0x4f, 0x2e, 0x34, 0xb0, 0xde, 0xa4, 0xad, 0x32, 0xdc, 0x26, 0xeb, 0x2f, 0x67, 0x28, 0x11, 0x2d, 0x99, 0xa8, 0xbc, 0xb2, 0xcf, 0xac, 0x76, 0x24, 0x6a, 0x31, 0xba, 0xb0, 0xd7, 0xac, 0xdf, 0xaf, 0x4d, 0x2e, 0xb1, 0xb1, 0x5e, 0x2f, 0x2e, 0x30, 0x17, 0xb0, 0x2e, 0x28, 0xa8, 0x30, 0x31, 0x31, 0x14, 0x30, 0xe8, 0x9c, 0x15, 0xb1, 0x16, 0x30, 0x6b, 0xae, 0x40, 0xad, 0x10, 0x32, 0x86, 0x2e, 0x65, 0xb0, 0x31, 0x29, 0x6b, 0xa9, 0x10, 0xad, 0xa2, 0x30, 0xa4, 0x25, 0x82, 0x2a, 0x5a, 0xac, 0x83, 0x33, 0xc4, 0x2b, 0x47, 0x2c, 0xbe, 0xac, 0xb4, 0x2f, 0xd3, 0x2c, 0x9a, 0x31, 0xe6, 0x2c, 0x47, 0xb0, 0x77, 0xb1, 0xd1, 0xad, 0xdf, 0x2e, 0x9e, 0x2f, 0x64, 0x2c, 0xad, 0xae, 0x67, 0xae, 0x0f, 0xac, 0xac, 0x30, 0xbb, 0xa4, 0xed, 0xae, 0x8c, 0x30, 0x34, 0x29, 0x44, 0x31, 0x28, 0xa4, 0x96, 0xac, 0x3f, 0xb1, 0x61, 0x2f, 0x17, 0x2e, 0x85, 0x2e, 0xda, 0x2d, 0x2c, 0x2c, 0x4f, 0xa8, 0x21, 0xa4, 0xa3, 0xaf, 0x5a, 0xa8, 0xd7, 0xb0, 0xe2, 0x33, 0x20, 0x30, 0x2b, 0x30, 0x52, 0xaa, 0xf0, 0x31, 0x40, 0xb1, 0x05, 0x2c, 0x20, 0x94, 0xdb, 0xa5, 0xc5, 0xae, 0x5e, 0x30, 0x4e, 0x31, 0x44, 0x32, 0x6f, 0xaa, 0xbc, 0xae, 0x11, 0xae, 0xb3, 0xaf, 0x9e, 0x2e, 0x7a, 0x27, 0x81, 0xaa, 0xcd, 0x1c, 0x03, 0xb1, 0xa2, 0x24, 0x77, 0x2b, 0x6c, 0x2a, 0x5f, 0xb2, 0x43, 0xaf, 0xb5, 0x2c, 0xe0, 0x2e, 0xe0, 0x2b, 0xdc, 0x9f, 0x64, 0x31, 0x7f, 0x33, 0xc3, 0xac, 0xa4, 0x30, 0x03, 0x30, 0xb8, 0x9e, 0xd5, 0xac, 0x5f, 0xa5, 0xb5, 0xae, 0x5f, 0xb0, 0x64, 0xae, 0x45, 0x33, 0x58, 0x32, 0x5e, 0x28, 0x52, 0xac, 0x8b, 0x28, 0x7b, 0xb1, 0x10, 0x26, 0x0a, 0x30, 0xe9, 0x2b, 0x50, 0xae, 0x11, 0x2b, 0x3b, 0xb0, 0x38, 0x2d, 0x12, 0xab, 0xbc, 0xb0, 0xd4, 0x26, 0x29, 0x2e, 0x20, 0xac, 0x62, 0xa7, 0x98, 0xa9, 0x0c, 0x94, 0xb2, 0x32, 0xb8, 0xa3, 0x84, 0x30, 0x2a, 0x2d, 0x5b, 0xa5, 0x0c, 0x2d, 0x46, 0x2b, 0x32, 0x31, 0x68, 0xa6, 0x72, 0xaa, 0x03, 0x30, 0x9a, 0xaf, 0x22, 0x23, 0x84, 0xb0, 0xa4, 0x99, 0xfd, 0x2f, 0x80, 0x33, 0xa6, 0x2c, 0x9e, 0xa6, 0xee, 0x2c, 0x48, 0x2f, 0xb0, 0x29, 0x07, 0x32, 0x94, 0xb0, 0xde, 0xb2, 0x0c, 0x2a, 0xbf, 0xb1, 0xe1, 0xb1, 0xc0, 0xa8, 0x42, 0x2d, 0x7e, 0xab, 0xc2, 0x2a, 0x9b, 0x31, 0x23, 0x2c, 0x27, 0xaf, 0xab, 0x32, 0xb1, 0x2f, 0xee, 0x2f, 0xcd, 0x30, 0x2e, 0xa9, 0x6e, 0xa4, 0xc6, 0xae, 0x9f, 0x2c, 0x68, 0xb0, 0x56, 0x2f, 0x86, 0x2b, 0x57, 0xb0, 0x68, 0xa8, 0x6f, 0xaa, 0x80, 0xa9, 0x39, 0x33, 0x72, 0xaa, 0xea, 0x94, 0x70, 0x32, 0x43, 0xb1, 0x5d, 0xab, 0x17, 0xac, 0x45, 0x2c, 0x69, 0xa9, 0x47, 0xb1, 0x7a, 0x26, 0xd0, 0xa9, 0xd0, 0xa5, 0x9a, 0xac, 0x1d, 0x32, 0x04, 0x33, 0x4b, 0xa5, 0x70, 0x31, 0xd8, 0xac, 0xdc, 0x30, 0xbe, 0xa8, 0x9f, 0xa7, 0xeb, 0xad, 0xba, 0xab, 0x65, 0x31, 0x88, 0xa8, 0xe7, 0x32, 0x33, 0x33, 0xab, 0xa8, 0x55, 0xb0, 0x1b, 0x2e, 0xfb, 0xa3, 0x28, 0xa6, 0x09, 0x32, 0xe1, 0x31, 0xe8, 0xaf, 0xfb, 0xb0, 0x45, 0x33, 0x0f, 0xa6, 0xa3, 0x2e, 0x9b, 0x2d, 0x50, 0x33, 0xd8, 0x31, 0xb3, 0xb1, 0x8b, 0x30, 0x81, 0x29, 0x9a, 0xb0, 0x98, 0xb0, 0x0d, 0x31, 0xda, 0xad, 0xef, 0x21, 0x34, 0x24, 0xa4, 0x28, 0x4d, 0x2f, 0x7c, 0xac, 0x2c, 0x2f, 0x1b, 0x2f, 0x7a, 0xab, 0x43, 0x2b, 0x04, 0x28, 0x77, 0xb1, 0x01, 0x2f, 0xdd, 0xa0, 0x01, 0xaf, 0x3b, 0xb2, 0x2f, 0xac, 0x55, 0xa2, 0x03, 0xaf, 0x84, 0xa3, 0xf0, 0x30, 0xc7, 0x2a, 0x3f, 0x2d, 0x70, 0xb0, 0x8c, 0x29, 0xb3, 0xb0, 0xf6, 0x30, 0x2b, 0x30, 0xcf, 0xa8, 0x37, 0xac, 0x16, 0x30, 0x77, 0xab, 0x26, 0x1d, 0x01, 0xac, 0x24, 0x31, 0x2f, 0xb1, 0x58, 0xac, 0xd4, 0xa4, 0xed, 0x30, 0xc4, 0x30, 0x82, 0x2d, 0xdd, 0x31, 0x28, 0xb1, 0xee, 0xae, 0x96, 0x30, 0x2e, 0xb1, 0xf2, 0x30, 0xe6, 0x31, 0xc8, 0x31, 0x9b, 0x2f, 0x29, 0xb1, 0xcf, 0x2b, 0x14, 0xb0, 0x0b, 0x2f, 0x02, 0xb0, 0x5a, 0xa9, 0xe7, 0x30, 0x8d, 0xae, 0x31, 0x2d, 0xe6, 0x32, 0x96, 0x28, 0x3d, 0x20, 0xa6, 0xb0, 0x58, 0xa2, 0x66, 0x33, 0xf8, 0x30, 0x09, 0x34, 0x9b, 0x29, 0x20, 0xa9, 0x3b, 0xb2, 0x47, 0xb1, 0x44, 0x2c, 0x44, 0x26, 0x5c, 0x2d, 0xc5, 0x2c, 0x23, 0x2d, 0x3d, 0xb0, 0x0b, 0x34, 0x02, 0x2b, 0x3f, 0x32, 0x5a, 0x30, 0xd3, 0x25, 0x5f, 0xa8, 0x84, 0x2f, 0x00, 0x2a, 0x0e, 0x2e, 0xee, 0xad, 0x53, 0x30, 0x2a, 0xaa, 0x85, 0x31, 0x2e, 0x28, 0x44, 0xa9, 0x5d, 0x30, 0x27, 0x32, 0xf7, 0xaf, 0x92, 0xa4, 0x53, 0xad, 0x66, 0xab, 0x36, 0x30, 0x3f, 0xa7, 0xe2, 0xa9, 0xc2, 0x2c, 0xbe, 0xae, 0x01, 0x33, 0xac, 0xad, 0xe6, 0xad, 0x78, 0x32, 0x05, 0xb1, 0x05, 0x33, 0xf8, 0x26, 0x65, 0x9e, 0xf9, 0x2d, 0xa9, 0xaa, 0xfe, 0x31, 0x12, 0x31, 0x60, 0x2e, 0x32, 0x31, 0x98, 0x31, 0x2e, 0x26, 0xd8, 0xb2, 0xae, 0xb0, 0x2f, 0xab, 0x18, 0x2d, 0x76, 0xb1, 0x15, 0x31, 0x91, 0x24, 0xdd, 0x2b, 0x4a, 0xae, 0x81, 0x29, 0xb3, 0xaf, 0xd5, 0x2b, 0xbf, 0x25, 0xd9, 0xb0, 0xd0, 0x28, 0x74, 0x28, 0x23, 0xac, 0x2c, 0x30, 0x51, 0x2f, 0x06, 0x1d, 0x01, 0x30, 0xd8, 0x2b, 0x99, 0xb2, 0x84, 0x2b, 0x6a, 0x2a, 0x0b, 0xaa, 0xd7, 0xa4, 0x9c, 0x25, 0x09, 0x2f, 0xc2, 0x1c, 0x74, 0x2a, 0x0e, 0xaf, 0x5a, 0x24, 0xd7, 0xaf, 0x0c, 0x30, 0xb9, 0xb1, 0xd5, 0x29, 0x1d, 0xab, 0x9f, 0x31, 0x07, 0x28, 0xc2, 0x32, 0xdc, 0x29, 0x0e, 0xb4, 0xc5, 0xa6, 0xc8, 0xae, 0x0a, 0x2f, 0x75, 0xab, 0xbc, 0x32, 0x7b, 0x29, 0x22, 0x29, 0x07, 0x23, 0x43, 0xb1, 0xfb, 0x2c, 0x76, 0x30, 0x44, 0xa5, 0x43, 0x31, 0xd3, 0xa5, 0x20, 0x2d, 0xda, 0x2f, 0xe6, 0x2a, 0x2e, 0x30, 0xdb, 0x2c, 0x14, 0xb0, 0xdd, 0xa1, 0x45, 0x31, 0x1a, 0x33, 0x75, 0x2e, 0x05, 0x30, 0x3a, 0x30, 0xb3, 0xae, 0x1c, 0xae, 0xe6, 0xac, 0x50, 0x32, 0x48, 0x22, 0x47, 0x2d, 0x62, 0xb0, 0xed, 0x31, 0x5e, 0x2e, 0x5e, 0x30, 0xf1, 0xa4, 0x87, 0x2c, 0x48, 0x2a, 0x35, 0x1c, 0xdd, 0x30, 0x14, 0xb2, 0xca, 0x2c, 0x35, 0x34, 0xdb, 0x31, 0x24, 0xb0, 0x75, 0x29, 0x18, 0x30, 0x79, 0x32, 0x72, 0xa4, 0x81, 0xb0, 0x2b, 0x33, 0x4a, 0x31, 0xc4, 0xa9, 0x15, 0x2f, 0xe5, 0x2c, 0x92, 0xaf, 0x88, 0x2e, 0xd4, 0xae, 0x05, 0xa6, 0x31, 0xac, 0xc4, 0x27, 0x4b, 0x2a, 0xec, 0xa8, 0x06, 0xac, 0x79, 0xa4, 0x68, 0x29, 0x05, 0xad, 0x6f, 0xa8, 0x06, 0x31, 0x87, 0x2e, 0xeb, 0x32, 0x27, 0xa9, 0x41, 0xad, 0x68, 0x2e, 0x4a, 0x30, 0x5a, 0x33, 0x13, 0xae, 0x5c, 0x33, 0xd0, 0x33, 0x8b, 0xaf, 0x9f, 0x2e, 0x6d, 0xb0, 0x29, 0xb1, 0x95, 0x30, 0x6a, 0xa3, 0x19, 0xa9, 0xf8, 0x30, 0x40, 0x24, 0x01, 0x32, 0x5a, 0x33, 0x26, 0xaf, 0xfe, 0x33, 0x88, 0x20, 0xe7, 0x32, 0x78, 0x2f, 0x8a, 0xae, 0xc6, 0x2c, 0x83, 0x2a, 0x46, 0xa8, 0x64, 0xb0, 0x0e, 0x33, 0x27, 0x2e, 0x54, 0x33, 0x83, 0xa9, 0x41, 0xa8, 0xeb, 0x30, 0x2d, 0x33, 0x3f, 0x32, 0xe7, 0x9a, 0x04, 0xab, 0xf8, 0x20, 0xaa, 0x31, 0xda, 0x24, 0x80, 0xaf, 0xd2, 0x1a, 0x23, 0xad, 0x1e, 0x27, 0xfe, 0xad, 0xc0, 0x1e, 0xbf, 0xa1, 0xa8, 0x30, 0xe5, 0xaa, 0x14, 0x2f, 0xc5, 0x31, 0x9f, 0x24, 0xea, 0x2e, 0xe5, 0x2a, 0x0e, 0x2f, 0x27, 0x2e, 0x8c, 0x9a, 0x30, 0x29, 0x8a, 0xac, 0xd4, 0x30, 0x06, 0x33, 0xab, 0x30, 0x52, 0x26, 0x84, 0x30, 0x6f, 0xb2, 0x55, 0x30, 0x92, 0xad, 0xb3, 0x2a, 0x91, 0x2f, 0x66, 0x2f, 0x7a, 0x31, 0x82, 0x32, 0x02, 0x2f, 0x2f, 0xb0, 0x3b, 0xa0, 0x10, 0x2f, 0xba, 0x33, 0xbf, 0x2d, 0xeb, 0xad, 0x6b, 0x31, 0xe0, 0xac, 0xfe, 0x30, 0x85, 0x2f, 0xb4, 0x30, 0x08, 0xb0, 0x46, 0x31, 0xcb, 0x2e, 0x39, 0x2c, 0xbe, 0x2d, 0x4d, 0x1c, 0x05, 0x2e, 0x84, 0xb0, 0x73, 0x2c, 0x39, 0x27, 0x7f, 0x32, 0xc6, 0x32, 0x9c, 0x27, 0x10, 0xa2, 0x3a, 0x32, 0x07, 0xb0, 0xdb, 0x1e, 0x40, 0x2f, 0x10, 0xa9, 0x06, 0xa2, 0x35, 0xa3, 0x2e, 0x2f, 0x26, 0x31, 0xdb, 0x30, 0xbb, 0xb0, 0x64, 0x32, 0x1c, 0xa4, 0xe7, 0x31, 0x00, 0x32, 0x93, 0xa8, 0x55, 0x31, 0x15, 0xb0, 0xde, 0x30, 0x0a, 0xad, 0x46, 0x30, 0xa5, 0x32, 0x7a, 0xb0, 0xc4, 0xad, 0xbf, 0x31, 0xc6, 0x2f, 0xd1, 0x32, 0xd6, 0xa5, 0x2d, 0xae, 0x8a, 0xaf, 0x04, 0x2c, 0x8f, 0x30, 0x07, 0x32, 0xbe, 0x2e, 0xdd, 0xa6, 0x62, 0x30, 0x65, 0x33, 0x0f, 0x30, 0x82, 0x2b, 0x4e, 0xb1, 0x33, 0x33, 0x0c, 0xa9, 0x0d, 0x31, 0xeb, 0xa8, 0xb4, 0x32, 0xc1, 0x2f, 0x50, 0xb2, 0x1a, 0x32, 0x9c, 0x32, 0xdc, 0xab, 0xa6, 0xa8, 0xeb, 0xaf, 0x0c, 0xae, 0x79, 0x32, 0xa1, 0x2e, 0x7b, 0xaf, 0x27, 0xae, 0xb1, 0x2e, 0x4e, 0x30, 0x69, 0x31, 0x8f, 0x2f, 0xd0, 0xa1, 0x3b, 0x2d, 0x44, 0xb1, 0xb3, 0xb2, 0x8b, 0xb0, 0x8a, 0xae, 0x9f, 0x28, 0x75, 0xaf, 0xd2, 0xaa, 0x7e, 0x30, 0xfa, 0x15, 0x7f, 0xac, 0x84, 0x9b, 0x82, 0x26, 0xd7, 0xa4, 0x94, 0xab, 0x7f, 0x2e, 0x62, 0x2c, 0x51, 0x30, 0x7a, 0x2e, 0xa1, 0xb0, 0x9c, 0xaa, 0x6f, 0xab, 0x92, 0x27, 0xe5, 0xb0, 0x51, 0x2d, 0x9e, 0x2d, 0x1c, 0xa8, 0x8a, 0xaf, 0x86, 0xaf, 0x6f, 0x30, 0x0d, 0xb2, 0x54, 0x31, 0x8f, 0xad, 0x0f, 0xb0, 0x1e, 0x30, 0xc0, 0x2c, 0x90, 0x33, 0xca, 0xae, 0xe2, 0xb1, 0x2e, 0x32, 0x39, 0x31, 0xdf, 0xb2, 0x53, 0x31, 0x19, 0xad, 0x69, 0xa0, 0x50, 0x31, 0xa5, 0xb1, 0x47, 0x29, 0x0d, 0x22, 0xae, 0x32, 0x3c, 0xb2, 0xb8, 0x31, 0x1b, 0x30, 0x4f, 0x31, 0x29, 0xac, 0x7c, 0xa1, 0x13, 0x2a, 0x5c, 0x31, 0x30, 0x32, 0xb6, 0x2f, 0xd2, 0x2f, 0x36, 0xb2, 0x91, 0x31, 0x5e, 0x2a, 0x37, 0x2f, 0x34, 0x31, 0x1c, 0xac, 0xb8, 0xb1, 0x4e, 0xb0, 0xd9, 0xa6, 0x6b, 0x1e, 0x25, 0x28, 0x96, 0xb2, 0x21, 0xb0, 0x4b, 0xb2, 0xe4, 0xa8, 0x69, 0x2d, 0xa6, 0x31, 0xbd, 0xae, 0x3a, 0x27, 0x96, 0x9b, 0x2d, 0xa8, 0xa8, 0xae, 0x99, 0xaf, 0x26, 0xac, 0x57, 0xa1, 0x65, 0x31, 0x8a, 0xb2, 0x91, 0xb2, 0x42, 0x24, 0x56, 0xb2, 0x8b, 0x31, 0x0b, 0xa6, 0x3a, 0x32, 0xa2, 0x32, 0xe3, 0xae, 0x33, 0x23, 0xb5, 0x22, 0xbf, 0x2d, 0x08, 0x10, 0x38, 0x25, 0x87, 0x30, 0x28, 0xb0, 0x2e, 0xb1, 0x3d, 0x32, 0x2d, 0x2a, 0xc6, 0x2d, 0xc6, 0x32, 0xe0, 0x30, 0x2c, 0x30, 0x4a, 0xb2, 0xb0, 0xad, 0x7b, 0x2f, 0xfd, 0x30, 0x7f, 0xa8, 0xb6, 0xae, 0x60, 0x2e, 0xd2, 0xad, 0x12, 0xa9, 0xf4, 0x2c, 0x3e, 0x2c, 0x60, 0xb0, 0x83, 0x30, 0xeb, 0x2d, 0xa3, 0x18, 0x6b, 0x30, 0xb3, 0xae, 0x34, 0x2f, 0xfe, 0x2b, 0xbd, 0x2a, 0x75, 0x31, 0xfa, 0xac, 0xc0, 0xa5, 0xf0, 0x2e, 0xf4, 0x30, 0x1c, 0xad, 0xb8, 0x28, 0xfd, 0xa9, 0x9f, 0xad, 0x5f, 0x28, 0x73, 0xad, 0x29, 0xaf, 0x2d, 0x30, 0x72, 0xb2, 0x00, 0xad, 0x5b, 0xb2, 0x34, 0x32, 0xaa, 0x2a, 0x94, 0x2c, 0x7c, 0x30, 0x72, 0x2f, 0x3c, 0xae, 0x97, 0x2a, 0xd2, 0x30, 0xf6, 0xad, 0xbd, 0x2e, 0x64, 0x31, 0x8f, 0x2d, 0xcc, 0xaf, 0xbb, 0x2f, 0x59, 0x25, 0xfe, 0x24, 0x9e, 0xb0, 0xd0, 0xab, 0xe2, 0xaf, 0xc5, 0xa9, 0xb9, 0x30, 0xf5, 0xab, 0x90, 0x31, 0x6b, 0xa5, 0x97, 0xaa, 0xa3, 0xb1, 0x7e, 0xab, 0xd0, 0xae, 0x17, 0x10, 0x60, 0x28, 0xe4, 0xad, 0x08, 0x2f, 0x2b, 0xb0, 0xe8, 0xb1, 0x2e, 0x2e, 0xca, 0x2c, 0x40, 0xac, 0x7f, 0xa0, 0x50, 0x32, 0xf3, 0x2d, 0xad, 0xae, 0x83, 0xaf, 0x5d, 0x33, 0x48, 0x2f, 0xcc, 0x2f, 0x93, 0x29, 0x36, 0x30, 0x00, 0xb0, 0x09, 0x2c, 0xf9, 0xb2, 0xfd, 0x1a, 0x0e, 0x2b, 0x88, 0xb1, 0x88, 0xb3, 0x22, 0x30, 0xbf, 0x30, 0x7b, 0xa7, 0x98, 0xb0, 0x99, 0x32, 0x5d, 0x2e, 0x77, 0xac, 0x10, 0x31, 0x59, 0x33, 0x3c, 0x24, 0x74, 0xb1, 0x43, 0xb0, 0x64, 0x30, 0xfc, 0x27, 0x77, 0xad, 0x64, 0x30, 0xed, 0x1b, 0x52, 0x21, 0x49, 0xaa, 0x6f, 0x2b, 0x9e, 0x25, 0xb8, 0xa9, 0xe0, 0xb2, 0x17, 0xb2, 0x0c, 0xa9, 0x18, 0x30, 0x4c, 0xad, 0xb6, 0x2f, 0x1c, 0xaf, 0x64, 0x9f, 0xba, 0xb0, 0xea, 0x31, 0x7c, 0xb2, 0x7d, 0xb2, 0xca, 0xb2, 0x4e, 0x30, 0x5e, 0x2a, 0x3f, 0x30, 0x45, 0xa3, 0xd1, 0xb0, 0x8b, 0xab, 0x47, 0xa1, 0x1b, 0x1f, 0x7e, 0xb1, 0x63, 0x2f, 0x1e, 0x32, 0x7b, 0xa9, 0xfc, 0x2c, 0xcb, 0xb3, 0xa2, 0x2d, 0x4b, 0xb0, 0x74, 0x9d, 0x4b, 0x30, 0x47, 0xad, 0xdb, 0x2e, 0xca, 0x27, 0x26, 0xa5, 0xa8, 0xad, 0xa7, 0x2f, 0x16, 0xb2, 0xc6, 0xae, 0x9e, 0xa9, 0x19, 0x2e, 0xe0, 0x31, 0x95, 0x2d, 0x8c, 0xae, 0x38, 0x31, 0x94, 0x25, 0x74, 0x2d, 0x25, 0xac, 0xa9, 0x29, 0x7c, 0x28, 0x3c, 0xb0, 0xf9, 0xaf, 0x1e, 0x2a, 0x6b, 0x2c, 0x5a, 0x29, 0x1e, 0x2d, 0xcd, 0x30, 0x8a, 0xb2, 0x1f, 0xa8, 0xd6, 0xaf, 0x04, 0xa9, 0xdd, 0x31, 0xb6, 0xb0, 0xc5, 0x2d, 0xe0, 0xa9, 0x7e, 0xb0, 0x8b, 0x30, 0x12, 0xb1, 0xc1, 0x30, 0x43, 0xa6, 0xdb, 0x29, 0x55, 0x2e, 0x79, 0xaa, 0xf5, 0xad, 0x9d, 0xad, 0x40, 0xa5, 0xa6, 0x15, 0xc5, 0x23, 0x54, 0xaf, 0xe5, 0x2e, 0x61, 0xb0, 0xf0, 0x1a, 0xa9, 0x30, 0x3a, 0xa3, 0x61, 0xa7, 0xad, 0x30, 0x8a, 0x25, 0x12, 0xb0, 0x78, 0x26, 0xa3, 0xb2, 0x18, 0x2c, 0x41, 0x2e, 0x9d, 0x2e, 0x85, 0xb1, 0xb2, 0xb0, 0x45, 0x30, 0xcc, 0xa7, 0xe7, 0xac, 0xd7, 0xb1, 0x44, 0xaf, 0x28, 0xa5, 0x41, 0x31, 0x60, 0x29, 0xd1, 0x31, 0xcd, 0x2b, 0xe3, 0xae, 0xc7, 0xae, 0x09, 0x9f, 0x69, 0x24, 0x81, 0xad, 0xc0, 0x1b, 0xc8, 0x2a, 0x16, 0x31, 0x2f, 0x25, 0xb3, 0xb1, 0x4c, 0x31, 0xf6, 0x2f, 0x55, 0x32, 0xda, 0x2e, 0x5b, 0xac, 0x5f, 0xac, 0xa8, 0xaa, 0x32, 0xa2, 0x99, 0x2f, 0x58, 0xae, 0x68, 0x2e, 0xf1, 0x2a, 0x4d, 0xad, 0xb1, 0xa9, 0x15, 0x2f, 0xaa, 0x1e, 0x3f, 0xb2, 0x8c, 0x30, 0x08, 0xb2, 0x03, 0xb1, 0x7a, 0x2f, 0x3c, 0xab, 0xc6, 0xac, 0x45, 0xb0, 0xeb, 0xb0, 0x93, 0x23, 0xaa, 0x8e, 0x49, 0xb1, 0x10, 0xb2, 0x5e, 0xb1, 0x7a, 0x30, 0x56, 0x30, 0x8b, 0x2e, 0xd0, 0xad, 0x56, 0xb3, 0x36, 0x31, 0x59, 0x31, 0x10, 0xad, 0xdc, 0x2a, 0x38, 0x2e, 0x2f, 0xa9, 0x6d, 0x30, 0xbb, 0xa5, 0x75, 0x2f, 0xc9, 0x2e, 0x2f, 0xaf, 0x15, 0xb3, 0xd2, 0x2d, 0xa7, 0x2f, 0x37, 0x2d, 0x02, 0x26, 0x03, 0xab, 0x40, 0xa8, 0x5a, 0xb1, 0x40, 0xb0, 0x02, 0x2e, 0xac, 0x1f, 0x1b, 0x30, 0xe4, 0x26, 0x87, 0x25, 0x19, 0xb2, 0x2f, 0x32, 0x27, 0x29, 0x2a, 0xb2, 0x98, 0x2d, 0x04, 0xb1, 0xc2, 0xb0, 0x20, 0xb1, 0x84, 0x2f, 0x07, 0xb1, 0x6e, 0x31, 0x07, 0x31, 0x87, 0x32, 0xaa, 0x27, 0x4c, 0x31, 0x5c, 0xa3, 0x41, 0xad, 0x46, 0xa2, 0xcb, 0xa8, 0x70, 0x30, 0x83, 0x30, 0xf5, 0xa3, 0xb0, 0xa0, 0x2b, 0x2e, 0x8c, 0x2f, 0xef, 0x29, 0xd2, 0xb0, 0x8c, 0xb2, 0xec, 0x15, 0x5e, 0xb0, 0x46, 0xb1, 0xb9, 0xa8, 0x2f, 0xa8, 0x29, 0x28, 0x64, 0x1e, 0x84, 0xb0, 0xbd, 0xa9, 0x80, 0x32, 0xa7, 0xaf, 0x23, 0x25, 0xd1, 0xa9, 0x0e, 0xac, 0x2a, 0x2f, 0xaa, 0xb0, 0x2b, 0x2f, 0x85, 0xaf, 0x50, 0xaf, 0x0e, 0xb2, 0xcc, 0xac, 0xcc, 0x27, 0x99, 0x30, 0x64, 0xaf, 0x8b, 0x2f, 0x41, 0x34, 0xb1, 0xa4, 0x0b, 0xb0, 0xf5, 0x32, 0xbd, 0xa0, 0xd9, 0x2f, 0x0a, 0xa8, 0x98, 0x2a, 0xd9, 0x2d, 0xb9, 0xad, 0x39, 0x31, 0x99, 0xb1, 0x3b, 0x32, 0x8a, 0xb1, 0xcc, 0xaf, 0x03, 0xaa, 0xba, 0x2f, 0x65, 0x31, 0x2e, 0x2d, 0xdd, 0xb0, 0x4d, 0x2f, 0x60, 0xb2, 0x57, 0x30, 0x16, 0x30, 0x5d, 0xb1, 0xba, 0x98, 0x51, 0xa4, 0x3c, 0x2d, 0xd3, 0x2f, 0xfc, 0xae, 0xf7, 0xad, 0x4f, 0xac, 0xb1, 0xaa, 0xc5, 0xad, 0x2c, 0x31, 0x97, 0x30, 0x57, 0xae, 0x18, 0x2e, 0x1c, 0xb4, 0x42, 0xb4, 0x04, 0x2e, 0x93, 0xac, 0xbb, 0x1d, 0x72, 0xa8, 0x03, 0xa5, 0xed, 0x30, 0x30, 0x2b, 0x8b, 0x31, 0x84, 0x2e, 0x77, 0x2e, 0x77, 0xaf, 0xbf, 0xb1, 0xb7, 0xa6, 0xac, 0xad, 0x93, 0xb2, 0x00, 0xaa, 0xf9, 0xac, 0x6c, 0xae, 0xcc, 0xad, 0x81, 0xa7, 0xdb, 0x30, 0x29, 0xb0, 0x62, 0x26, 0x5d, 0x2c, 0xfa, 0xa7, 0x6b, 0xab, 0x5d, 0x2e, 0x0b, 0x30, 0xc9, 0x31, 0x21, 0xb3, 0xf1, 0x25, 0xf6, 0xa3, 0xc4, 0xb0, 0xd6, 0xa4, 0x64, 0xaa, 0x80, 0xad, 0xf1, 0x29, 0xd0, 0xab, 0xd2, 0x31, 0x85, 0x00, 0x94, 0x31, 0x3c, 0xaf, 0x97, 0x30, 0x85, 0x2e, 0x25, 0xa5, 0xe6, 0xb1, 0x75, 0x2f, 0x82, 0x2d, 0x74, 0xb2, 0x5b, 0x31, 0x10, 0xa8, 0x80, 0xad, 0xae, 0x2c, 0xe1, 0xb0, 0xe0, 0x2c, 0x18, 0xb1, 0x37, 0x2f, 0xe1, 0xb0, 0x8f, 0x31, 0xeb, 0x29, 0x5a, 0x2e, 0xe8, 0xb2, 0xf4, 0x2d, 0xcb, 0x28, 0xe9, 0x22, 0x32, 0x9a, 0xd0, 0x30, 0xf0, 0xad, 0xe9, 0x30, 0x24, 0xa8, 0xa6, 0x2f, 0x23, 0x28, 0x09, 0x32, 0x97, 0x2f, 0x2b, 0x22, 0x12, 0xb1, 0x6e, 0xb0, 0x97, 0x2d, 0xa1, 0xaf, 0xe8, 0xac, 0xe2, 0x26, 0x1c, 0xa6, 0xad, 0x30, 0x0a, 0x2c, 0xe1, 0x2e, 0xe8, 0x2d, 0xa9, 0xb1, 0xfa, 0x28, 0xb3, 0xb1, 0x10, 0xa9, 0xda, 0xb3, 0x5e, 0xa9, 0x42, 0x2d, 0x64, 0xaf, 0x4d, 0xb0, 0x85, 0x2a, 0xd2, 0xa5, 0x1e, 0xb1, 0xb7, 0xb1, 0x2b, 0xaa, 0x00, 0x28, 0x65, 0xa9, 0x1d, 0xb2, 0x82, 0xb3, 0xa6, 0x30, 0x35, 0xaf, 0x07, 0x2c, 0xf0, 0xb2, 0x8c, 0x32, 0x0c, 0xa5, 0x10, 0xb1, 0x23, 0x30, 0x26, 0xb2, 0xe8, 0xa1, 0xf4, 0xa9, 0x29, 0xab, 0x9b, 0x2b, 0xb1, 0xac, 0x64, 0xb1, 0xea, 0x2c, 0x5e, 0xa8, 0x92, 0x2f, 0xf0, 0xaf, 0x6d, 0xa4, 0x8e, 0x31, 0xee, 0x9f, 0x50, 0x30, 0xbb, 0x95, 0x67, 0x28, 0x71, 0xb0, 0x7e, 0xb3, 0x0d, 0x2f, 0xa9, 0x98, 0xb3, 0xa8, 0xcb, 0xaa, 0x03, 0xb2, 0x9d, 0xad, 0x54, 0x30, 0x9a, 0xad, 0x36, 0xa2, 0x90, 0xb1, 0x22, 0x2f, 0x0a, 0xaf, 0x66, 0x31, 0x85, 0xa4, 0x0b, 0xae, 0x35, 0x2a, 0x08, 0xb2, 0x2c, 0xac, 0x7b, 0x28, 0x84, 0x32, 0x02, 0xad, 0x7a, 0xa9, 0x14, 0x32, 0x55, 0x31, 0xd0, 0xb1, 0x19, 0xad, 0x7a, 0x24, 0x21, 0x2e, 0xa9, 0xb3, 0xf3, 0x2c, 0xba, 0xb0, 0x1d, 0x2e, 0x39, 0x26, 0xbf, 0x28, 0xbe, 0x2b, 0x12, 0xb1, 0xc0, 0x32, 0xf5, 0xb0, 0x32, 0xb1, 0x50, 0xae, 0x17, 0xad, 0xa8, 0xac, 0xa1, 0x2f, 0x54, 0xb0, 0xc3, 0x2c, 0x51, 0x32, 0xfc, 0x30, 0x90, 0xa8, 0x1e, 0xb0, 0x83, 0x31, 0xf7, 0x29, 0xcd, 0xac, 0x7f, 0xac, 0xff, 0x31, 0x59, 0xae, 0xd6, 0xac, 0xb1, 0x31, 0xfc, 0x22, 0xc9, 0x2c, 0x11, 0xa9, 0x3e, 0x30, 0x6e, 0x2f, 0x84, 0xb1, 0x10, 0x2d, 0x11, 0xb1, 0xf0, 0xa8, 0x24, 0xab, 0x58, 0x2f, 0x47, 0x31, 0x80, 0xad, 0x74, 0xb0, 0xc9, 0x30, 0xce, 0xad, 0x19, 0x2f, 0x6b, 0xaa, 0xe3, 0xb0, 0xf2, 0x17, 0xac, 0x2a, 0x14, 0xaf, 0xee, 0xb2, 0x8f, 0x23, 0x51, 0xb2, 0xa9, 0x25, 0xe2, 0x25, 0x8f, 0xb2, 0x29, 0x25, 0x10, 0x2a, 0x0e, 0xad, 0x20, 0xac, 0x61, 0x2a, 0x99, 0x2f, 0x36, 0x31, 0xc8, 0xa3, 0xdc, 0x93, 0x00, 0x32, 0x61, 0xb0, 0x47, 0x33, 0x8a, 0xb1, 0x08, 0x30, 0x89, 0xa4, 0x21, 0xab, 0x79, 0x28, 0x1a, 0x33, 0x45, 0xa9, 0xb8, 0xb1, 0xa8, 0xad, 0xb0, 0x1f, 0xfb, 0x29, 0x1b, 0x28, 0x86, 0xad, 0xa6, 0xb1, 0xcf, 0xad, 0xf3, 0xa0, 0x40, 0xb1, 0x3f, 0x24, 0xf0, 0x32, 0x16, 0xaf, 0x50, 0xaf, 0xfa, 0xaf, 0x57, 0x2d, 0x5c, 0xab, 0x7d, 0xb0, 0xda, 0xb0, 0xe7, 0x2f, 0x82, 0x30, 0x38, 0xb1, 0xbc, 0xb2, 0x03, 0x2e, 0x03, 0xac, 0xc1, 0x2c, 0x7a, 0xa9, 0x48, 0x2e, 0xf6, 0x20, 0x89, 0x32, 0xf4, 0xa8, 0xe3, 0x2b, 0xb4, 0x30, 0x1a, 0x32, 0xa3, 0x31, 0x75, 0x2f, 0x0d, 0x31, 0x30, 0xb3, 0xfd, 0xb1, 0xe6, 0x32, 0xdb, 0x31, 0xa4, 0xae, 0x0b, 0x2c, 0xc5, 0x30, 0x6b, 0xb0, 0x48, 0xa9, 0xab, 0xb1, 0x45, 0xb1, 0xb1, 0x2d, 0x3a, 0xb0, 0xc1, 0xae, 0xed, 0xaa, 0xa2, 0x2b, 0x4e, 0x2e, 0xa2, 0xb1, 0x0e, 0xb0, 0x5e, 0xb0, 0xce, 0xa6, 0x6d, 0xae, 0x10, 0xa9, 0x71, 0x28, 0x91, 0x30, 0x6f, 0xac, 0x03, 0xb1, 0x79, 0x2f, 0xc0, 0xb2, 0xef, 0xa8, 0xf6, 0xb1, 0x0b, 0xb2, 0x08, 0xad, 0x88, 0xa5, 0x74, 0xb0, 0xbc, 0xad, 0x95, 0x24, 0x07, 0xb2, 0x6f, 0x2f, 0x1a, 0x2c, 0x45, 0x2f, 0x3a, 0x2d, 0x6c, 0xa9, 0x42, 0x27, 0xd0, 0x32, 0x4c, 0xb2, 0x0d, 0xac, 0x62, 0x2a, 0xd6, 0xaa, 0x91, 0x25, 0xe5, 0x2f, 0x22, 0x2e, 0xf8, 0x2b, 0x7a, 0x32, 0xc0, 0x30, 0xe0, 0x2b, 0x1d, 0xac, 0x96, 0xac, 0xc3, 0x2a, 0x6c, 0x2c, 0x6b, 0x32, 0x11, 0xad, 0x20, 0xad, 0x20, 0xa9, 0xa8, 0x22, 0x32, 0xa7, 0x2d, 0x2e, 0x5a, 0x26, 0xd1, 0xb2, 0x36, 0x2e, 0x72, 0x1e, 0xd2, 0xb0, 0x1e, 0xac, 0x54, 0xab, 0x4b, 0xad, 0xba, 0x2d, 0xff, 0x24, 0xd7, 0x8c, 0x84, 0x2e, 0x44, 0x32, 0x03, 0x2c, 0xde, 0x2c, 0x10, 0xa4, 0x4d, 0xa5, 0x70, 0xa8, 0x98, 0xa6, 0x0d, 0xad, 0x15, 0xaf, 0x67, 0xb1, 0x19, 0x32, 0x76, 0x31, 0x68, 0xb2, 0x19, 0x32, 0x85, 0xac, 0x50, 0xb0, 0xf6, 0xab, 0xc3, 0xb0, 0x28, 0x24, 0xa0, 0x31, 0xf6, 0x30, 0x09, 0x29, 0x2a, 0x2f, 0xf5, 0xaf, 0x74, 0x32, 0xd5, 0xaf, 0x5c, 0x2a, 0x40, 0x31, 0xbd, 0x28, 0x01, 0x29, 0x72, 0xb1, 0x11, 0x99, 0xd6, 0xad, 0x5b, 0xae, 0x6d, 0xac, 0x48, 0xb0, 0x4e, 0x30, 0xe3, 0x26, 0xbc, 0xa2, 0x30, 0x9f, 0x75, 0xa5, 0x89, 0x32, 0x53, 0x2c, 0x3f, 0xaf, 0x31, 0x33, 0x71, 0x30, 0xad, 0x32, 0xfd, 0xb0, 0x9a, 0x2e, 0xc6, 0x30, 0x3f, 0xb1, 0x5b, 0xab, 0xd2, 0x96, 0xd9, 0x32, 0x49, 0x9c, 0xb7, 0x27, 0x22, 0x32, 0x6a, 0x31, 0xac, 0x2f, 0x88, 0xaf, 0xd5, 0x2f, 0x0f, 0xa0, 0x4c, 0xb0, 0x60, 0xa6, 0x02, 0xa8, 0x4f, 0x2e, 0xdf, 0xaf, 0x26, 0x2d, 0x4a, 0xac, 0x1f, 0xad, 0xe8, 0x2e, 0x01, 0x2f, 0xb5, 0xaf, 0x26, 0x29, 0x50, 0xb1, 0x84, 0x2e, 0xad, 0x2d, 0x11, 0xaf, 0x6d, 0xab, 0x41, 0xae, 0x9d, 0xa8, 0x6a, 0xac, 0x9f, 0x2b, 0xa0, 0xb2, 0x17, 0x22, 0xe2, 0xaf, 0x8a, 0x22, 0x0e, 0xa9, 0x02, 0xa8, 0x03, 0x2b, 0xd0, 0x2f, 0x4c, 0xb0, 0xbd, 0xaf, 0xe1, 0x2e, 0x16, 0x33, 0x60, 0x1d, 0xc6, 0x2e, 0x4b, 0xad, 0x43, 0x24, 0x2c, 0xaa, 0x6d, 0x30, 0x2a, 0x29, 0x51, 0x30, 0xe5, 0x2e, 0xb8, 0x31, 0xa0, 0x2e, 0xe4, 0xa8, 0x8a, 0xaf, 0x4f, 0x31, 0x59, 0x32, 0x86, 0x2f, 0x4a, 0xb1, 0xed, 0xad, 0x80, 0xac, 0x52, 0x26, 0x64, 0x2c, 0xbf, 0x31, 0x33, 0xb0, 0x3a, 0xb0, 0x41, 0x2a, 0x16, 0xb0, 0x25, 0xb1, 0x7b, 0x33, 0xb0, 0xad, 0xb3, 0xa9, 0xb4, 0xb0, 0xa0, 0x1e, 0x82, 0x32, 0x70, 0x30, 0xd7, 0x32, 0x7d, 0x2d, 0xdb, 0xab, 0x38, 0x32, 0xfc, 0x2e, 0x81, 0x32, 0xc4, 0x28, 0x0e, 0x32, 0xf1, 0xad, 0x30, 0xa6, 0x19, 0xa9, 0x25, 0x2f, 0xbf, 0x2f, 0x11, 0xb2, 0x38, 0x31, 0x7b, 0xa9, 0xaa, 0xa8, 0xdf, 0x9f, 0x54, 0x2e, 0x76, 0x20, 0x3b, 0xa1, 0x44, 0x2a, 0x57, 0x2e, 0x10, 0xaf, 0xc7, 0x2f, 0xc2, 0x30, 0x2d, 0xb2, 0x60, 0x27, 0x65, 0xaa, 0xd5, 0xac, 0x01, 0xad, 0x6a, 0xb0, 0x65, 0x31, 0x95, 0xac, 0x35, 0x2c, 0xf4, 0xab, 0xa3, 0x31, 0x11, 0x33, 0xf3, 0x2f, 0x09, 0xa8, 0x67, 0xb2, 0x01, 0xaf, 0xe7, 0x20, 0xdf, 0x31, 0x4a, 0x27, 0x48, 0xac, 0x53, 0xb2, 0xba, 0x2c, 0xbe, 0xb0, 0xc5, 0x30, 0x0b, 0x2a, 0x0d, 0x31, 0x9e, 0x33, 0x7c, 0x31, 0x9c, 0xb3, 0xf9, 0xa0, 0xe0, 0x30, 0x4f, 0xb2, 0x96, 0x31, 0xed, 0xad, 0xb3, 0xaa, 0x56, 0x2a, 0x03, 0xb4, 0xc5, 0xb0, 0x2a, 0x18, 0xf6, 0xac, 0x73, 0x32, 0x67, 0xac, 0xd6, 0x99, 0x15, 0x2f, 0x88, 0xa1, 0x58, 0xb2, 0x77, 0x2d, 0x71, 0xa8, 0xb4, 0xb2, 0x94, 0x2d, 0x8d, 0x25, 0x28, 0x2f, 0x06, 0x2a, 0x6e, 0xb1, 0xb2, 0xaf, 0x50, 0xa9, 0xfa, 0xaf, 0x89, 0xb2, 0x02, 0xb0, 0xab, 0xb2, 0xfa, 0x2c, 0xbc, 0x30, 0x94, 0x2e, 0x7e, 0x1c, 0x58, 0x32, 0x53, 0x33, 0x3d, 0x28, 0x2a, 0x29, 0xa2, 0x32, 0x59, 0xaf, 0x7d, 0x32, 0x33, 0xa5, 0x49, 0x2d, 0x48, 0x31, 0x9e, 0x30, 0x38, 0x32, 0x77, 0x34, 0x5f, 0xaa, 0x89, 0x2e, 0x12, 0xac, 0xa9, 0x2a, 0x86, 0xad, 0x70, 0x2c, 0xe8, 0xac, 0x6f, 0xa4, 0x27, 0x2b, 0x66, 0xb0, 0x6d, 0x31, 0x93, 0xad, 0x55, 0xab, 0x14, 0x31, 0x8b, 0x2b, 0x05, 0x32, 0xd4, 0x26, 0x75, 0x2d, 0x04, 0x23, 0xaa, 0xad, 0xb9, 0x30, 0x42, 0x33, 0x91, 0x30, 0xac, 0x99, 0x75, 0x22, 0x32, 0x34, 0x83, 0x25, 0x52, 0xb0, 0x43, 0x2a, 0x0b, 0x2d, 0x42, 0x30, 0xe4, 0xae, 0x2d, 0x2d, 0xb3, 0x2c, 0xfd, 0xac, 0xc2, 0x32, 0x75, 0xad, 0xc7, 0x1c, 0x51, 0x2a, 0xc2, 0x2e, 0xea, 0x32, 0x00, 0x33, 0xae, 0xad, 0x7f, 0x32, 0x30, 0x32, 0xa2, 0xa5, 0xe8, 0x28, 0xb6, 0x2d, 0xdc, 0xa8, 0xbf, 0xa9, 0xe2, 0xab, 0x1c, 0x2d, 0x6d, 0xa8, 0xb7, 0x33, 0x9e, 0x32, 0x3c, 0x31, 0xb9, 0x29, 0x94, 0x30, 0x60, 0x29, 0x82, 0xa6, 0x49, 0x2b, 0x43, 0x33, 0x00, 0x34, 0x5b, 0x32, 0xa0, 0xa1, 0xf5, 0xaf, 0x37, 0x1c, 0x2c, 0x31, 0x23, 0x34, 0xed, 0x31, 0xd3, 0x27, 0xa4, 0x2e, 0x35, 0xa0, 0x93, 0xa0, 0xec, 0x31, 0x23, 0x9f, 0x03, 0x1f, 0xc0, 0x33, 0x15, 0x2f, 0x71, 0x2c, 0x3a, 0x30, 0xed, 0x32, 0x19, 0x31, 0x0b, 0xaf, 0x8b, 0x30, 0x75, 0xad, 0x44, 0xaa, 0x6d, 0x30, 0x1b, 0x9f, 0x83, 0x2b, 0x89, 0xb0, 0x05, 0x34, 0xd1, 0x31, 0x58, 0xae, 0x37, 0x30, 0x73, 0x33, 0x52, 0xb0, 0xe9, 0xa9, 0x17, 0xae, 0x07, 0x33, 0x60, 0xb1, 0xd8, 0x31, 0x3b, 0x9d, 0x76, 0xaa, 0x84, 0x32, 0xc6, 0x1e, 0x82, 0x31, 0xc4, 0x2e, 0x48, 0xa4, 0x40, 0x31, 0xdd, 0x22, 0xfd, 0xae, 0x42, 0x2b, 0xd9, 0x29, 0x53, 0x33, 0x9b, 0xa9, 0xc2, 0x2e, 0x99, 0x21, 0xab, 0x32, 0x3c, 0x8e, 0x88, 0xb1, 0x64, 0xa9, 0x72, 0x32, 0xc2, 0x30, 0x11, 0x2c, 0x79, 0xac, 0x12, 0x2e, 0xed, 0x27, 0x00, 0x2c, 0xc9, 0x9b, 0x4c, 0x34, 0x6d, 0x34, 0xd2, 0x30, 0xcc, 0xb1, 0xb4, 0xb1, 0x29, 0x2e, 0xde, 0x25, 0xae, 0xa2, 0xf3, 0x2e, 0x15, 0x2e, 0xc6, 0xa0, 0x7b, 0x28, 0x18, 0x2a, 0xf2, 0x2d, 0x4c, 0x31, 0xa5, 0x2d, 0x60, 0xae, 0xb2, 0xae, 0x56, 0x34, 0x5e, 0x2c, 0xc4, 0x34, 0x66, 0xa5, 0xde, 0xac, 0x12, 0x30, 0xd0, 0x2f, 0x55, 0x32, 0x63, 0x21, 0x26, 0x32, 0x09, 0xa6, 0x13, 0x25, 0x37, 0x32, 0xc3, 0x2f, 0xb4, 0x29, 0xbc, 0x2e, 0xbe, 0x22, 0x84, 0x99, 0x55, 0x30, 0xce, 0x9f, 0x2e, 0xaa, 0x35, 0xb0, 0x9a, 0x9c, 0x61, 0x31, 0x0a, 0x35, 0x34, 0x35, 0xf9, 0xae, 0xec, 0x32, 0x5d, 0x2d, 0x1b, 0x90, 0x1d, 0x2d, 0xdf, 0x30, 0x32, 0x30, 0x6c, 0x30, 0x8d, 0xa9, 0x0f, 0x2f, 0x5a, 0x30, 0x4e, 0x2e, 0xed, 0xac, 0x04, 0xac, 0x2f, 0x2f, 0x2e, 0x30, 0x73, 0x2d, 0xe9, 0xae, 0xd0, 0x33, 0xe4, 0x29, 0xc6, 0xaa, 0x33, 0x2b, 0x7e, 0xb0, 0xbf, 0xab, 0x34, 0x32, 0x53, 0x31, 0xfc, 0x33, 0xcc, 0x2d, 0xf9, 0x30, 0x22, 0x33, 0xf9, 0x1b, 0x20, 0x33, 0x16, 0x32, 0x39, 0x33, 0x5a, 0x31, 0xcf, 0xa9, 0x39, 0x26, 0x99, 0x29, 0x87, 0x33, 0xa4, 0x24, 0x6d, 0xad, 0x39, 0x1b, 0xdc, 0xaf, 0xe3, 0x2f, 0x08, 0x25, 0x2a, 0xb0, 0x33, 0x2c, 0xf1, 0x31, 0xd6, 0x2b, 0xe2, 0x2e, 0xfe, 0x2c, 0x79, 0x2c, 0x03, 0x31, 0x30, 0x33, 0x3d, 0xab, 0x17, 0xa7, 0xb2, 0x29, 0x40, 0xae, 0x16, 0x30, 0xbe, 0x2a, 0xff, 0x2e, 0x68, 0x33, 0x06, 0x32, 0x40, 0x32, 0xac, 0x1b, 0x13, 0x30, 0x44, 0xac, 0x6b, 0x32, 0x8c, 0xaa, 0x11, 0x2c, 0xb4, 0x2c, 0x26, 0x33, 0x99, 0x29, 0xab, 0x2d, 0x00, 0x34, 0x13, 0x27, 0x7e, 0xaa, 0x6c, 0x2e, 0x77, 0x2b, 0xa9, 0x31, 0x79, 0x31, 0x17, 0x2c, 0x59, 0x2d, 0x21, 0x30, 0xcf, 0x32, 0x3c, 0x32, 0xf1, 0x2e, 0xa8, 0x33, 0x00, 0x33, 0xdd, 0x2c, 0x7f, 0xa1, 0x31, 0x24, 0xfa, 0xa5, 0xf3, 0x32, 0x3e, 0x32, 0xda, 0x2e, 0x47, 0x34, 0x7b, 0x33, 0xcb, 0xaf, 0x1c, 0xa8, 0x5d, 0x9c, 0x98, 0xab, 0xd7, 0x32, 0xab, 0xa6, 0x02, 0xad, 0xac, 0x32, 0x47, 0x2d, 0x19, 0xb0, 0xe9, 0x31, 0x76, 0xb1, 0x4b, 0xad, 0xf1, 0x32, 0xb0, 0x23, 0xb3, 0x22, 0x14, 0x34, 0x7a, 0x30, 0x8d, 0xac, 0xf4, 0x28, 0xc4, 0xae, 0x3d, 0xa2, 0x9d, 0xae, 0x89, 0x28, 0x5b, 0x2b, 0x52, 0x29, 0x6a, 0x28, 0x45, 0x2d, 0x4b, 0x33, 0x99, 0x2d, 0x47, 0x28, 0xa8, 0x32, 0xb0, 0x30, 0xcf, 0x31, 0x2a, 0x15, 0x5b, 0x30, 0x9c, 0x18, 0x57, 0x31, 0xb6, 0xa2, 0xf7, 0x2d, 0x0a, 0xae, 0x67, 0x34, 0x98, 0x2f, 0x68, 0x2b, 0x21, 0x34, 0xed, 0x34, 0x0b, 0x31, 0xcd, 0x2f, 0x58, 0x31, 0x0e, 0xa4, 0x34, 0x34, 0x05, 0x34, 0x51, 0x34, 0x51, 0xa9, 0x74, 0x2f, 0xb7, 0x2e, 0x9c, 0x2d, 0x04, 0xa6, 0x59, 0x31, 0xcc, 0x34, 0xd2, 0xa8, 0xb5, 0x2f, 0x12, 0x31, 0xbc, 0x21, 0x9e, 0x34, 0x8e, 0x34, 0x6a, 0x30, 0x3e, 0x2c, 0xa4, 0xaa, 0x7d, 0x33, 0x4c, 0x2f, 0xb4, 0xac, 0x0c, 0x33, 0x1b, 0x25, 0xda, 0xa8, 0x59, 0xa2, 0x2f, 0x9b, 0x4a, 0xaa, 0x83, 0xa9, 0x92, 0xa9, 0xe2, 0x2c, 0x2c, 0x34, 0x00, 0x2f, 0x4f, 0x2d, 0x47, 0xa8, 0x6f, 0x28, 0xc2, 0x2c, 0xa7, 0x30, 0x22, 0x32, 0x4e, 0xaf, 0xad, 0x33, 0xca, 0x30, 0x9a, 0x1f, 0x24, 0xab, 0xbf, 0x28, 0xaf, 0x2c, 0x2f, 0x2e, 0x16, 0x32, 0x2c, 0x2b, 0xf2, 0x1b, 0x4b, 0x33, 0x9d, 0xa9, 0x48, 0x32, 0x26, 0xa4, 0x06, 0xaf, 0x6c, 0x2b, 0x3d, 0xae, 0x07, 0x31, 0xd2, 0x30, 0x7b, 0xa8, 0xd2, 0x2e, 0x81, 0x33, 0xd1, 0xae, 0xbb, 0x26, 0x1c, 0x31, 0x52, 0x31, 0xeb, 0x2f, 0x01, 0x32, 0xa8, 0x2e, 0x74, 0x30, 0xf2, 0xad, 0x22, 0x34, 0x8f, 0x26, 0x51, 0x34, 0x13, 0x34, 0x54, 0x29, 0xaa, 0x31, 0xa3, 0xac, 0x32, 0x31, 0xc3, 0x9d, 0xf3, 0xac, 0xb2, 0x30, 0x94, 0x2e, 0xf9, 0xa6, 0xeb, 0xac, 0x68, 0x27, 0x59, 0x32, 0x95, 0x2d, 0xf9, 0x30, 0x34, 0xa5, 0xf3, 0x2b, 0xd6, 0x34, 0x5b, 0x23, 0x19, 0xa8, 0x44, 0x13, 0xc7, 0xae, 0xc8, 0xa9, 0xfe, 0x31, 0x53, 0x31, 0x76, 0x31, 0xff, 0x30, 0xbb, 0x33, 0x4f, 0xac, 0xaa, 0x32, 0xe8, 0x25, 0x7c, 0xa9, 0x38, 0xad, 0x1b, 0x32, 0xd1, 0xaf, 0xc3, 0xb0, 0x11, 0x2f, 0x32, 0xae, 0x0b, 0x31, 0x02, 0x31, 0x84, 0x22, 0x15, 0x32, 0x0d, 0xac, 0xdc, 0x2b, 0x7a, 0x34, 0xa5, 0x2c, 0xb7, 0x2e, 0x58, 0x2b, 0x31, 0xaa, 0x77, 0x34, 0x02, 0x30, 0x41, 0x23, 0x2b, 0xad, 0x3a, 0x34, 0x03, 0x2d, 0x75, 0x32, 0xd0, 0x1c, 0x65, 0x2f, 0x10, 0x2d, 0xa9, 0x28, 0x43, 0x27, 0xc6, 0x2a, 0x80, 0xa3, 0x8e, 0x34, 0x32, 0x34, 0xcd, 0xa4, 0x4e, 0x30, 0xba, 0x2f, 0xa6, 0x2e, 0x58, 0xaf, 0x3f, 0xa5, 0x4b, 0x1c, 0x47, 0xa8, 0xfc, 0x8f, 0xc2, 0x30, 0x00, 0x33, 0xba, 0x18, 0xb8, 0x2d, 0xa5, 0x2f, 0x38, 0xb0, 0x17, 0xad, 0x78, 0x2e, 0xfd, 0xa3, 0xf2, 0x2a, 0xa4, 0x2b, 0xb2, 0x2e, 0xf1, 0xad, 0xaf, 0xaf, 0xd7, 0x2d, 0x25, 0x2f, 0x2f, 0xab, 0x3c, 0x34, 0xf5, 0x32, 0xba, 0x1a, 0x35, 0x25, 0x55, 0xae, 0x84, 0xaa, 0x39, 0xb0, 0x46, 0x30, 0xf0, 0xaa, 0xee, 0x33, 0x7b, 0x30, 0xbe, 0x2e, 0x18, 0xaf, 0x25, 0x31, 0xc3, 0x28, 0x90, 0x2d, 0x69, 0x32, 0x03, 0x29, 0x7f, 0xab, 0x90, 0x28, 0x10, 0xb2, 0x12, 0xb2, 0x88, 0x2b, 0xde, 0xb1, 0x20, 0x2b, 0x99, 0x29, 0xf2, 0x2e, 0xe0, 0x30, 0xa3, 0x31, 0x27, 0x31, 0x60, 0xb0, 0xeb, 0xac, 0xcf, 0x2e, 0x4c, 0xae, 0x30, 0x30, 0x5b, 0xac, 0x0e, 0x9e, 0xec, 0x29, 0x10, 0xa4, 0xac, 0x28, 0xab, 0x33, 0x7a, 0x34, 0x74, 0x32, 0x43, 0x30, 0xd6, 0xa2, 0xcb, 0x2f, 0x82, 0x29, 0xcd, 0x21, 0x81, 0x30, 0x4b, 0x97, 0x1c, 0xab, 0x5f, 0x2f, 0x24, 0x2c, 0x7b, 0x30, 0x9b, 0xa9, 0x15, 0x28, 0x19, 0xac, 0x54, 0x03, 0x3d, 0xae, 0x48, 0x33, 0x46, 0xad, 0xd5, 0x30, 0x58, 0x34, 0xa9, 0x31, 0xaa, 0x2b, 0x1c, 0x2e, 0xe1, 0x30, 0x41, 0x31, 0x1d, 0x31, 0xb6, 0xac, 0x45, 0x2b, 0x06, 0x34, 0x2d, 0x31, 0x28, 0x24, 0x42, 0x2d, 0x64, 0x28, 0x1f, 0xa2, 0x4d, 0x33, 0x0b, 0x33, 0x7e, 0x2a, 0x4c, 0xa2, 0x39, 0xb1, 0xf7, 0x2f, 0xc1, 0x2f, 0x72, 0x30, 0x53, 0xb0, 0x55, 0x2d, 0xd9, 0xa9, 0x05, 0xa8, 0x72, 0xb2, 0x13, 0x23, 0xdb, 0xb0, 0x86, 0xab, 0x84, 0x28, 0xce, 0x2e, 0xae, 0xa9, 0x30, 0xb1, 0xa4, 0x2e, 0xf6, 0xb1, 0x5c, 0x2a, 0x63, 0x1a, 0x16, 0x33, 0x16, 0x34, 0x78, 0x29, 0x29, 0x32, 0x2d, 0xa9, 0x61, 0x30, 0x1e, 0x9e, 0xf8, 0x25, 0xee, 0x2c, 0xea, 0x30, 0xd8, 0xb0, 0xea, 0xa0, 0xe5, 0x33, 0x38, 0xb0, 0xd5, 0xb0, 0x8c, 0x30, 0x9b, 0x2d, 0xef, 0x33, 0x30, 0xa5, 0x67, 0xa5, 0xae, 0x92, 0xb5, 0x2f, 0xfe, 0x30, 0x41, 0x30, 0xdf, 0x1a, 0x89, 0xb0, 0x53, 0x34, 0x5d, 0x30, 0x46, 0x31, 0xc1, 0x30, 0x19, 0x2c, 0xcc, 0x2b, 0x3c, 0x31, 0xa7, 0xab, 0x7c, 0x2f, 0x7d, 0x30, 0x2f, 0x31, 0x18, 0xb1, 0x68, 0x9b, 0xf3, 0xb1, 0x96, 0x26, 0x81, 0x31, 0x9d, 0xad, 0x9e, 0xad, 0xad, 0x21, 0x15, 0x33, 0x86, 0x28, 0x64, 0xb0, 0xad, 0xaa, 0x35, 0x2f, 0x01, 0x31, 0x23, 0xaf, 0x58, 0x2f, 0x63, 0xac, 0x5b, 0x2e, 0x28, 0x2f, 0x41, 0x2f, 0x44, 0x34, 0x4e, 0xb0, 0x7a, 0x25, 0xe5, 0x30, 0x2b, 0x2d, 0xeb, 0x32, 0xfa, 0x32, 0xc1, 0x32, 0x2a, 0x2d, 0x8c, 0x33, 0xad, 0x2b, 0x81, 0x34, 0x6c, 0x31, 0xfb, 0xa2, 0x58, 0x32, 0xdc, 0x2f, 0xaa, 0x34, 0x42, 0x2e, 0xd2, 0xac, 0x81, 0x32, 0x31, 0xa8, 0x25, 0xa9, 0x3a, 0x30, 0xb3, 0x2e, 0xba, 0x34, 0x06, 0x2d, 0x42, 0xa8, 0x86, 0x2c, 0xf5, 0x29, 0x8d, 0x31, 0xfd, 0x26, 0x46, 0xa9, 0xf3, 0xb0, 0xe1, 0xad, 0x9f, 0x31, 0x31, 0x07, 0x3f, 0xae, 0x36, 0xac, 0x4d, 0xae, 0x6f, 0x2a, 0x89, 0x30, 0xf5, 0xad, 0x3d, 0x24, 0xb4, 0x33, 0xdf, 0x33, 0x7c, 0x25, 0x81, 0x2d, 0xf9, 0x24, 0x0b, 0x34, 0xd0, 0xae, 0x5c, 0xac, 0x7a, 0x33, 0x34, 0xa8, 0xc0, 0x31, 0xf1, 0xac, 0x75, 0x25, 0xa4, 0x34, 0x3d, 0x33, 0x26, 0x9a, 0x11, 0xa9, 0x61, 0x29, 0x02, 0x31, 0xd7, 0xaa, 0x00, 0xa4, 0xa2, 0x31, 0x77, 0xaf, 0x5a, 0xac, 0xac, 0xa5, 0x99, 0x32, 0xbd, 0x31, 0xf0, 0xaa, 0x66, 0x32, 0xe5, 0xad, 0xfb, 0x2b, 0x17, 0x2b, 0x7c, 0xae, 0x9b, 0x2c, 0x12, 0xae, 0xa6, 0x30, 0x73, 0x29, 0x38, 0x2c, 0xa5, 0x33, 0x66, 0x2e, 0xfc, 0x2e, 0xf4, 0xaf, 0x64, 0xb1, 0x1c, 0xb2, 0x76, 0x30, 0x38, 0xb0, 0xec, 0x21, 0x41, 0xb2, 0xf5, 0xad, 0xaa, 0xaf, 0x75, 0xb1, 0x44, 0xb1, 0x22, 0x30, 0xca, 0x2f, 0x31, 0x26, 0x25, 0xaf, 0x30, 0xad, 0x47, 0x94, 0xf0, 0x31, 0x87, 0x2c, 0x57, 0x2e, 0x06, 0x29, 0x8c, 0xb0, 0xe6, 0x2a, 0x67, 0x32, 0x56, 0xa5, 0x9d, 0x2f, 0xad, 0x32, 0xc6, 0x25, 0x30, 0xa9, 0xcb, 0xb1, 0x15, 0xa5, 0xfb, 0x32, 0xdc, 0x30, 0xe9, 0x2c, 0xfd, 0x33, 0x89, 0xa4, 0xa9, 0x30, 0x52, 0x30, 0x04, 0xa2, 0xab, 0x30, 0x8f, 0x2c, 0x94, 0x31, 0x7c, 0xad, 0x43, 0x2c, 0x9e, 0xae, 0x48, 0xac, 0x08, 0x2a, 0x73, 0xa3, 0x5c, 0x31, 0xae, 0x33, 0xc8, 0x24, 0x99, 0x30, 0x57, 0x31, 0x3f, 0xab, 0x4c, 0xaa, 0x23, 0xa1, 0x99, 0x34, 0x07, 0xb0, 0x7c, 0x2f, 0x6f, 0xa8, 0xcd, 0x33, 0x98, 0x33, 0x9a, 0x2e, 0xc0, 0x30, 0xb4, 0x24, 0x3e, 0x23, 0x12, 0x2b, 0xef, 0x30, 0x05, 0x34, 0x40, 0x30, 0x17, 0xa2, 0x3c, 0xae, 0x02, 0xa8, 0xa6, 0x32, 0x4a, 0x35, 0x27, 0x32, 0x77, 0x32, 0xd2, 0xb0, 0xae, 0x32, 0x1f, 0x30, 0x33, 0xb0, 0x28, 0x2c, 0xe1, 0x2a, 0xa7, 0x2c, 0x40, 0x30, 0x66, 0x31, 0x75, 0xb0, 0x19, 0x34, 0xd7, 0xa9, 0xab, 0x32, 0xd1, 0x2b, 0x54, 0x30, 0x94, 0xaa, 0x13, 0xab, 0x00, 0x2e, 0x2b, 0x31, 0x0a, 0x29, 0xfd, 0xae, 0x7b, 0x31, 0x5d, 0x32, 0xba, 0x26, 0xda, 0x31, 0xc4, 0x30, 0xc7, 0x9f, 0x62, 0x2c, 0x17, 0xac, 0xd0, 0xa9, 0xb5, 0x32, 0x48, 0x26, 0xa6, 0x31, 0x4a, 0x30, 0xdc, 0x23, 0x5b, 0xae, 0x30, 0xad, 0xf8, 0xa8, 0x94, 0x33, 0xec, 0x2d, 0x15, 0x30, 0x1b, 0x34, 0x4e, 0xa7, 0x3b, 0x31, 0x2a, 0x32, 0xd6, 0xa8, 0x7c, 0xab, 0xcf, 0xad, 0x26, 0xad, 0x5c, 0x9b, 0x57, 0x31, 0x6d, 0xa0, 0x68, 0x2c, 0xce, 0x32, 0x7b, 0xaa, 0x69, 0x2f, 0x46, 0x34, 0x32, 0x32, 0x29, 0xa9, 0xcf, 0x34, 0x87, 0x2c, 0x08, 0x32, 0x4d, 0x33, 0x97, 0x25, 0x58, 0x33, 0x21, 0x34, 0xe1, 0xab, 0x6e, 0x2b, 0x17, 0x2d, 0xad, 0x2e, 0xac, 0x34, 0xe3, 0x22, 0x6a, 0x2e, 0x50, 0xad, 0x4d, 0x2e, 0x7a, 0x30, 0xbc, 0x2e, 0x68, 0x2e, 0x29, 0x31, 0x5b, 0x2e, 0x12, 0xad, 0x02, 0xa9, 0xbd, 0x2c, 0x15, 0x33, 0x0c, 0xad, 0x5a, 0xa2, 0x8c, 0x24, 0x42, 0x02, 0xef, 0x33, 0xa3, 0x27, 0x7a, 0x34, 0x73, 0x20, 0xde, 0x02, 0x26, 0x2e, 0x9d, 0x2a, 0x2d, 0xa6, 0x97, 0x9a, 0x87, 0x2d, 0x05, 0x34, 0x03, 0x31, 0x81, 0x33, 0x63, 0xa9, 0xb8, 0x34, 0xaf, 0xad, 0xb9, 0x26, 0x03, 0x2f, 0x75, 0xa9, 0xec, 0x31, 0x09, 0x33, 0x82, 0x30, 0x6c, 0x2c, 0x70, 0x31, 0xc8, 0x33, 0x43, 0x2f, 0x13, 0x34, 0x14, 0x29, 0xe0, 0x30, 0x73, 0x32, 0x2b, 0x34, 0x3b, 0xab, 0xe5, 0xad, 0xe9, 0x31, 0xd0, 0x31, 0x4e, 0x30, 0x87, 0xa4, 0x8a, 0x33, 0xd1, 0x31, 0x3d, 0x30, 0x9e, 0x2c, 0x27, 0x32, 0xcf, 0x26, 0xeb, 0xaf, 0x82, 0x32, 0xbb, 0x28, 0xdf, 0x31, 0xc0, 0xad, 0x3b, 0x31, 0xe1, 0x2a, 0xd3, 0x2e, 0x9e, 0x21, 0x8f, 0x2e, 0xd3, 0x30, 0x15, 0x34, 0xea, 0x2a, 0x1c, 0x2f, 0xab, 0x32, 0x0d, 0x31, 0x22, 0xaa, 0xed, 0x2e, 0xe4, 0x30, 0xdf, 0x33, 0xc9, 0x34, 0x37, 0x34, 0x70, 0x30, 0x2d, 0x31, 0x6b, 0x34, 0xb0, 0x32, 0x2c, 0x34, 0x86, 0x29, 0xe0, 0x20, 0xa8, 0xab, 0x9d, 0x33, 0x02, 0x2c, 0x60, 0x2d, 0x2f, 0x31, 0x95, 0x9e, 0x08, 0xa5, 0x8f, 0x2f, 0x76, 0x33, 0xb6, 0x32, 0x37, 0xaa, 0x64, 0x10, 0x87, 0x31, 0x04, 0xac, 0x54, 0x2c, 0x10, 0xae, 0xd4, 0xac, 0x94, 0x2e, 0xb6, 0x29, 0xc8, 0x23, 0xef, 0xb1, 0x68, 0xaa, 0x9c, 0xad, 0x31, 0xb0, 0xad, 0x2d, 0x4b, 0x2f, 0xcb, 0x33, 0x7b, 0xad, 0xe5, 0xb0, 0xe2, 0x31, 0x4b, 0x30, 0xbd, 0x2d, 0x86, 0x2b, 0xbd, 0xac, 0xeb, 0x2f, 0xa3, 0xa7, 0x31, 0x31, 0x2a, 0xad, 0x1e, 0xa9, 0x13, 0x28, 0x77, 0xb0, 0x1c, 0xab, 0xce, 0xad, 0xff, 0xff, 0x04, 0x00, 0x00, 0x00, 0x00, 0x20, 0x00, 0x00, 0xf0, 0x1e, 0x59, 0xac, 0xa8, 0xa4, 0xf0, 0x2b, 0x4f, 0xa8, 0xcd, 0x2e, 0x1e, 0xad, 0xa4, 0xac, 0x0f, 0xa8, 0x20, 0x23, 0x13, 0x28, 0x3e, 0xaa, 0x4e, 0xb1, 0x51, 0x2c, 0xd7, 0x1e, 0x0e, 0xb4, 0xc2, 0x2b, 0x43, 0xae, 0x25, 0xa9, 0xb9, 0x2d, 0x1e, 0xac, 0x73, 0x2f, 0x53, 0x2e, 0xc8, 0xae, 0xd5, 0x23, 0x5b, 0xa3, 0x41, 0xb0, 0xa3, 0x9f, 0x0c, 0x2e, 0x1b, 0xa3, 0x78, 0x20, 0xbb, 0xa3, 0xa6, 0x2a, 0xa3, 0xad, 0x12, 0x27, 0xda, 0xaa, 0x72, 0xac, 0xe0, 0xa9, 0x38, 0x27, 0x53, 0x2a, 0x2f, 0x23, 0x67, 0x31, 0xda, 0xac, 0x66, 0x25, 0xfb, 0x28, 0x9c, 0x2d, 0x41, 0xb1, 0x37, 0x2d, 0x3e, 0xad, 0x5f, 0xa9, 0x8d, 0xa7, 0xfc, 0x22, 0x3c, 0x9d, 0xc0, 0x25, 0xca, 0xab, 0xf2, 0xad, 0x02, 0xab, 0x09, 0xa7, 0xf7, 0x2b, 0x59, 0x9f, 0xe6, 0x2e, 0x95, 0x30, 0xad, 0xae, 0x3b, 0xa5, 0x8e, 0x33, 0x85, 0xad, 0xdc, 0x1f, 0xc8, 0xae, 0xad, 0x1d, 0x72, 0xaf, 0x62, 0xab, 0x32, 0x2e, 0xa2, 0x25, 0x01, 0x30, 0x2e, 0xab, 0x18, 0xb1, 0xbc, 0xa8, 0x67, 0xa5, 0xa2, 0x27, 0x06, 0xa9, 0xda, 0x30, 0x9a, 0xa6, 0xc2, 0xa9, 0x80, 0x2f, 0x94, 0x24, 0x40, 0x1c, 0x5b, 0x2e, 0x97, 0x2e, 0xc7, 0xb0, 0x46, 0xae, 0x71, 0xa6, 0x59, 0xb1, 0x30, 0x2e, 0xb9, 0xb1, 0x95, 0x2c, 0x92, 0xad, 0x6d, 0x28, 0x18, 0x25, 0x8e, 0x9c, 0x9e, 0x2b, 0x51, 0xb0, 0x4b, 0x2b, 0xed, 0xa2, 0x92, 0xa4, 0x73, 0xaa, 0x79, 0x30, 0xca, 0xad, 0x26, 0x26, 0xad, 0x2b, 0x6f, 0x2e, 0x6d, 0xaa, 0xc3, 0x2f, 0x53, 0x26, 0x5b, 0xa1, 0xeb, 0x27, 0xe4, 0x31, 0x04, 0x2d, 0x87, 0x2c, 0xb5, 0x2c, 0x86, 0xa9, 0x73, 0x2e, 0xb1, 0x27, 0xa5, 0x2e, 0xca, 0xa8, 0xaf, 0xac, 0xfd, 0xa8, 0x62, 0x2f, 0xa7, 0x2b, 0x46, 0x26, 0xd7, 0xa9, 0x0b, 0x1a, 0x4d, 0x25, 0x78, 0xb0, 0x0c, 0x2f, 0x84, 0xa5, 0xeb, 0x2c, 0x01, 0xb0, 0xd7, 0xaf, 0xa9, 0xa6, 0x34, 0xac, 0x3f, 0xa0, 0xb1, 0xa7, 0x3d, 0xaf, 0x33, 0xac, 0x71, 0x2c, 0x9e, 0xac, 0xaf, 0xae, 0x2d, 0x29, 0x99, 0x30, 0x2c, 0x91, 0xc5, 0xad, 0x9f, 0x01, 0x90, 0xa6, 0x85, 0xae, 0x6d, 0x29, 0x09, 0x2c, 0x8b, 0xa5, 0x35, 0x2c, 0xd3, 0xa6, 0xab, 0xb1, 0xa4, 0xa6, 0xa1, 0xb0, 0x24, 0x31, 0x0d, 0xac, 0x2d, 0xb3, 0xdb, 0x20, 0xef, 0x30, 0x9f, 0x2f, 0x84, 0xa8, 0x59, 0x28, 0x5e, 0xab, 0x0c, 0xa6, 0x2a, 0x2e, 0x0d, 0x31, 0x2f, 0x29, 0xa1, 0x2d, 0x56, 0x31, 0x98, 0xae, 0xb1, 0xb0, 0xf9, 0x26, 0x77, 0x31, 0x5a, 0xae, 0x05, 0xb1, 0x43, 0xb0, 0xe6, 0x20, 0xff, 0x29, 0x87, 0x2d, 0x2e, 0xa8, 0x59, 0xa1, 0x7f, 0x33, 0x6b, 0x30, 0x1e, 0x28, 0x12, 0x2d, 0x32, 0xb0, 0x30, 0x2c, 0xcd, 0x31, 0xdf, 0x94, 0x76, 0x31, 0x51, 0x30, 0xdf, 0x2e, 0xf8, 0xb0, 0xf8, 0xac, 0x77, 0xb4, 0xf6, 0xae, 0xa4, 0x2c, 0x86, 0x2c, 0xff, 0xa9, 0x73, 0xa9, 0x12, 0xad, 0xe1, 0xae, 0x88, 0x28, 0x41, 0xb0, 0x43, 0xae, 0x9c, 0xa5, 0xe9, 0x21, 0x96, 0xa4, 0xb5, 0xaa, 0xa1, 0x2d, 0x47, 0xa9, 0xfc, 0xa5, 0x9d, 0xac, 0xae, 0xa2, 0xf1, 0xa8, 0x68, 0xa8, 0x01, 0x26, 0xd1, 0xa7, 0xc7, 0x28, 0x99, 0x2c, 0x25, 0xb3, 0xe5, 0xb0, 0xfd, 0x2c, 0xe6, 0xa1, 0x4a, 0x2f, 0x16, 0x12, 0x90, 0xac, 0x93, 0x25, 0xee, 0x2d, 0x40, 0xaf, 0x89, 0x2c, 0x0f, 0x2a, 0x19, 0xa4, 0xd2, 0xae, 0x00, 0x28, 0x0c, 0x2f, 0x03, 0x2d, 0xd6, 0x30, 0x13, 0x2a, 0xc4, 0xad, 0x98, 0x9b, 0xdc, 0x30, 0x52, 0xa4, 0x10, 0x1f, 0x77, 0xac, 0x62, 0x9f, 0x1d, 0x20, 0x27, 0x28, 0xcf, 0x2c, 0x3a, 0xb1, 0x24, 0x2c, 0x85, 0x30, 0x10, 0xa9, 0xbc, 0xb0, 0x7c, 0x96, 0xd1, 0x28, 0x04, 0xaf, 0x66, 0x2e, 0x0b, 0x2d, 0x66, 0xa9, 0xb7, 0x27, 0xc8, 0x2c, 0x74, 0x20, 0x04, 0x2c, 0x25, 0xb0, 0x0a, 0x2f, 0x72, 0xb0, 0x62, 0xa2, 0x96, 0xae, 0x0c, 0x2f, 0x97, 0x2c, 0x7c, 0xad, 0x35, 0x2e, 0x76, 0xa0, 0xd4, 0xa3, 0x32, 0x2e, 0x30, 0x29, 0x39, 0x2a, 0x50, 0xb3, 0x81, 0xb6, 0xe0, 0x2c, 0x6f, 0xb2, 0xfe, 0x2d, 0x8a, 0xa8, 0x87, 0xb1, 0x7d, 0x1e, 0x74, 0x2f, 0x22, 0x28, 0xdf, 0xa5, 0x98, 0x32, 0xd0, 0xaf, 0x0d, 0xa3, 0x15, 0x18, 0x72, 0xa3, 0xed, 0x2f, 0x5a, 0x18, 0xec, 0x24, 0xbd, 0xab, 0xd7, 0x30, 0x79, 0xa6, 0xf7, 0x98, 0x50, 0xa9, 0x77, 0xae, 0x20, 0xaf, 0xd0, 0xab, 0xce, 0xa8, 0x93, 0xad, 0xfd, 0xb0, 0xb1, 0xad, 0xf8, 0x27, 0xc1, 0xaf, 0x28, 0xaf, 0x39, 0x2f, 0x01, 0xab, 0x36, 0x95, 0xa7, 0x24, 0x11, 0x2c, 0x86, 0xae, 0xe0, 0x2a, 0x87, 0x2d, 0x7a, 0xab, 0x7b, 0x27, 0xcc, 0xb2, 0x23, 0x2d, 0x12, 0x30, 0x3c, 0x25, 0xa0, 0x1c, 0xf3, 0xaf, 0x77, 0x29, 0xab, 0x2f, 0x5d, 0xae, 0x2d, 0xac, 0x77, 0x2c, 0x7a, 0x9e, 0x15, 0x13, 0x8f, 0xaa, 0x5d, 0x2d, 0x22, 0xad, 0x1a, 0x30, 0xb1, 0xb3, 0xd3, 0x2c, 0x6c, 0x2b, 0x23, 0x1c, 0x6a, 0xa9, 0xce, 0x2e, 0xe7, 0xaf, 0xc9, 0x30, 0xa4, 0x2f, 0xdc, 0xb2, 0x2e, 0xb2, 0x48, 0x1a, 0xa6, 0x26, 0x51, 0xa0, 0x09, 0x30, 0xb0, 0xb1, 0x87, 0xb3, 0x44, 0x30, 0xc0, 0xa2, 0x1a, 0x2d, 0x56, 0xad, 0x4c, 0x2f, 0x84, 0x28, 0x0f, 0xab, 0x0a, 0xb0, 0x26, 0xb0, 0xe0, 0x2e, 0x51, 0x2f, 0xe1, 0xac, 0x9f, 0x30, 0xff, 0x9e, 0x1e, 0x35, 0x27, 0xb2, 0x65, 0x2e, 0x8b, 0xb1, 0x08, 0xa8, 0x44, 0xa9, 0xb2, 0x2e, 0xaf, 0xb0, 0x73, 0x2d, 0x26, 0x28, 0xbf, 0x24, 0x5f, 0xb3, 0x31, 0xa2, 0x5b, 0xa9, 0xc0, 0xa8, 0x40, 0x30, 0xd1, 0x2b, 0x89, 0xac, 0xbd, 0x2e, 0xde, 0x2f, 0xc1, 0x27, 0x06, 0x26, 0x63, 0xa1, 0x54, 0xab, 0x43, 0xad, 0xfe, 0xa5, 0xb8, 0xaa, 0x08, 0xac, 0x26, 0x2f, 0xee, 0xaf, 0xcb, 0xaf, 0x63, 0xb1, 0xca, 0xad, 0x78, 0x2c, 0x3c, 0xab, 0x17, 0xaa, 0xe3, 0xa6, 0x88, 0xa4, 0x29, 0x32, 0x04, 0xaa, 0x32, 0x29, 0xfb, 0xaf, 0xdb, 0xb1, 0x30, 0x9c, 0x0b, 0x2d, 0x23, 0x2a, 0x92, 0xb1, 0x74, 0x2f, 0xb2, 0x2e, 0x65, 0x2d, 0x8f, 0x30, 0x3e, 0x28, 0x17, 0xac, 0xf6, 0xaf, 0x46, 0xab, 0x54, 0x2d, 0x22, 0x18, 0xde, 0x30, 0x7a, 0xa8, 0x2b, 0x2b, 0xc8, 0x24, 0x63, 0xb0, 0x79, 0x28, 0xd8, 0x26, 0x47, 0xa5, 0xcf, 0xb1, 0xb9, 0x2d, 0xfe, 0x2e, 0x7e, 0xac, 0xde, 0xab, 0xae, 0x2b, 0x7d, 0x26, 0x3b, 0x31, 0x87, 0xaa, 0x23, 0xae, 0xef, 0xac, 0x6b, 0x2b, 0x31, 0x2d, 0x6c, 0xb1, 0xf3, 0x32, 0xb3, 0xa9, 0x28, 0xaf, 0x1b, 0x9d, 0x1e, 0x34, 0xc6, 0xa5, 0xb7, 0x2c, 0x43, 0xa4, 0x2f, 0xa7, 0x59, 0xa9, 0x59, 0x2c, 0x5a, 0xb0, 0x79, 0xa8, 0x67, 0x31, 0x81, 0xaf, 0xe3, 0xad, 0x3c, 0x2d, 0x48, 0xad, 0xc5, 0xb4, 0xe6, 0xac, 0xc1, 0x35, 0x02, 0x26, 0x1e, 0xad, 0x01, 0x2b, 0x73, 0xae, 0x4f, 0x16, 0x20, 0x20, 0x21, 0x31, 0x68, 0xa7, 0x2d, 0x30, 0xc6, 0xa8, 0xc2, 0xab, 0xfa, 0xa8, 0x13, 0xa9, 0x74, 0xb1, 0xf5, 0xa0, 0xa6, 0x30, 0x25, 0xaa, 0x1f, 0xab, 0x5f, 0xae, 0x92, 0x22, 0xb6, 0xae, 0x10, 0xaa, 0x21, 0xae, 0x0b, 0x2c, 0x84, 0xa0, 0x37, 0xa2, 0xd7, 0xa1, 0xc7, 0x30, 0x94, 0x2c, 0x54, 0xb1, 0x2f, 0x31, 0x71, 0x2e, 0x3c, 0x24, 0x50, 0xb0, 0x60, 0x23, 0x59, 0xa9, 0x96, 0x31, 0x45, 0xaf, 0x65, 0xb0, 0xb1, 0xab, 0x5a, 0xa6, 0x30, 0xac, 0xcf, 0xac, 0x5b, 0x30, 0xcc, 0x2a, 0x82, 0x2c, 0xb7, 0x28, 0xa7, 0x2c, 0x80, 0xaf, 0x3c, 0xad, 0xf0, 0x28, 0xa5, 0xa0, 0xc9, 0x31, 0xef, 0xac, 0xba, 0x2b, 0xf4, 0x24, 0xa7, 0xb1, 0xf3, 0x29, 0xff, 0x2c, 0xc5, 0x28, 0x3c, 0xaa, 0xba, 0x2c, 0xfd, 0xae, 0x03, 0xb1, 0xbd, 0xb3, 0xd3, 0x14, 0xdc, 0xad, 0x30, 0x29, 0x5f, 0xac, 0x50, 0x2c, 0x2f, 0xac, 0x3b, 0x30, 0x33, 0xa7, 0xa0, 0xaa, 0x6a, 0x20, 0x67, 0x1e, 0xec, 0xa8, 0x5c, 0xa5, 0x6c, 0xae, 0x10, 0x2f, 0x34, 0xb0, 0xd1, 0xa7, 0x15, 0x31, 0x9c, 0x2a, 0x1c, 0xa0, 0x73, 0xa6, 0x82, 0xb5, 0x7e, 0x2b, 0x95, 0xa9, 0x84, 0xad, 0x26, 0x2d, 0x59, 0xac, 0x32, 0x30, 0x93, 0xaf, 0xd3, 0x2d, 0x2c, 0x30, 0x26, 0xa7, 0x2e, 0xac, 0x62, 0x28, 0x9e, 0xae, 0x28, 0xab, 0xa9, 0xa9, 0x1e, 0xb1, 0x7e, 0xb0, 0x25, 0xac, 0x63, 0x18, 0x8e, 0xaf, 0xe1, 0xa5, 0x70, 0xa6, 0x6f, 0x2c, 0xd8, 0x2e, 0x9e, 0x24, 0x5d, 0x1e, 0x79, 0x2f, 0x3a, 0xa6, 0x41, 0xa7, 0x59, 0xaf, 0xb9, 0xa4, 0xcc, 0x29, 0xb8, 0xb1, 0x03, 0xae, 0x90, 0x2c, 0xb7, 0x23, 0x27, 0x32, 0x90, 0x34, 0x9d, 0xaa, 0xb1, 0xa5, 0xbd, 0xad, 0xcf, 0xb0, 0x86, 0xaf, 0xcc, 0x2c, 0xcf, 0xaf, 0xc4, 0x1e, 0x85, 0xb1, 0x14, 0x2d, 0xe7, 0x2f, 0x21, 0x2c, 0x90, 0xac, 0xe7, 0x26, 0xc6, 0x2b, 0x00, 0xa5, 0xd0, 0x9f, 0xcc, 0x9c, 0xea, 0xa9, 0x8f, 0x2e, 0x4d, 0xac, 0x81, 0xa8, 0x53, 0x2a, 0x72, 0xa2, 0x4f, 0x29, 0xb3, 0x24, 0x3c, 0x30, 0x8a, 0x28, 0x91, 0x2f, 0x3d, 0x2e, 0x1e, 0xab, 0xf9, 0x2e, 0xba, 0x1c, 0x59, 0x2e, 0x2e, 0x23, 0x52, 0x2b, 0xd8, 0x31, 0xd9, 0xad, 0x15, 0x2c, 0xb4, 0xab, 0x0a, 0xb2, 0xec, 0x28, 0x26, 0x29, 0x29, 0x31, 0xc8, 0x1f, 0xb2, 0xae, 0x5f, 0xab, 0xb1, 0xaf, 0xf4, 0xb3, 0x22, 0x25, 0xde, 0xb0, 0x40, 0xad, 0x32, 0xad, 0xdb, 0xb0, 0x36, 0x26, 0x55, 0x28, 0x0b, 0xae, 0xb0, 0xaf, 0xe8, 0x2d, 0x61, 0x22, 0x03, 0xb1, 0x4a, 0x2d, 0x55, 0x2d, 0x9f, 0xaf, 0xc1, 0xac, 0xfe, 0x31, 0x42, 0x2c, 0x98, 0x32, 0x56, 0xb0, 0xe2, 0x2b, 0x9a, 0xab, 0x5e, 0x31, 0x48, 0xa3, 0x74, 0xae, 0xb8, 0xb1, 0x24, 0x1f, 0x36, 0x28, 0xa8, 0x22, 0xdc, 0x8a, 0xcc, 0xa9, 0x15, 0x16, 0xe0, 0xb2, 0x9f, 0x2f, 0x51, 0xac, 0x67, 0xa1, 0xc9, 0x30, 0x9f, 0x2c, 0x63, 0xb1, 0x5a, 0x2d, 0x22, 0xad, 0x7d, 0xae, 0x69, 0x2a, 0xbc, 0x26, 0xd4, 0x1e, 0x74, 0xb0, 0x47, 0xa5, 0x74, 0x25, 0xa1, 0x31, 0x52, 0x2d, 0x33, 0x2d, 0x83, 0xaf, 0x27, 0x30, 0x82, 0xa9, 0xb0, 0x30, 0xa7, 0x33, 0xe8, 0x20, 0x0b, 0x30, 0x95, 0xa1, 0x02, 0x2c, 0xc9, 0xa8, 0x04, 0x2d, 0x01, 0xac, 0xf9, 0x2b, 0x85, 0xa4, 0xbc, 0x32, 0xb4, 0x24, 0xdf, 0xa8, 0x4d, 0xab, 0x30, 0xab, 0xe7, 0x2a, 0x2d, 0xb1, 0x1c, 0x31, 0x8a, 0xac, 0x6a, 0xae, 0xc6, 0xab, 0xe1, 0xa6, 0x66, 0xa9, 0x90, 0x2e, 0xa8, 0xae, 0x62, 0x1b, 0x1d, 0x15, 0xd5, 0xb0, 0x66, 0xb0, 0xb5, 0x2b, 0x24, 0x2f, 0x2e, 0x2a, 0x51, 0x2d, 0x2d, 0xaf, 0x3c, 0x2a, 0x18, 0xa6, 0x6a, 0x2c, 0x7c, 0xa7, 0x39, 0x26, 0xbe, 0xae, 0x1e, 0xac, 0x5f, 0xac, 0x9d, 0x29, 0xc9, 0x24, 0xa3, 0x9d, 0x15, 0x20, 0x88, 0x2f, 0x38, 0x2b, 0x16, 0xaf, 0xe1, 0x2b, 0x60, 0x28, 0x08, 0xae, 0x67, 0x2b, 0x33, 0x2f, 0xbc, 0x2f, 0x85, 0x25, 0x22, 0xa9, 0x19, 0xaf, 0x7a, 0x27, 0x16, 0xa1, 0xa0, 0xaf, 0x78, 0x2a, 0xc1, 0x28, 0xf1, 0xa8, 0x09, 0xb0, 0x4d, 0xb1, 0x98, 0x18, 0x08, 0x23, 0x79, 0xae, 0xf5, 0xae, 0xd6, 0x2f, 0xc5, 0x27, 0x41, 0x31, 0x00, 0x2c, 0x7f, 0xa8, 0x4d, 0xae, 0x20, 0xae, 0x1f, 0x2f, 0x25, 0x30, 0x7f, 0x9a, 0x46, 0x22, 0x69, 0x25, 0x34, 0xb1, 0xa3, 0xa6, 0xfa, 0x2f, 0x9e, 0xa9, 0x77, 0x2e, 0xf8, 0x22, 0xa4, 0xb0, 0x58, 0x29, 0x63, 0xab, 0xf2, 0x34, 0x28, 0xb2, 0x34, 0x15, 0xfd, 0xa9, 0x4a, 0x9f, 0x61, 0xa9, 0xb7, 0x81, 0xf9, 0xa9, 0x1e, 0x30, 0x44, 0xa1, 0x4c, 0xb2, 0x71, 0x0b, 0x41, 0x1a, 0x3b, 0x32, 0x08, 0xac, 0x3c, 0x2b, 0xae, 0x2c, 0x5e, 0x1a, 0x86, 0x30, 0x1b, 0xae, 0x84, 0x2d, 0x3b, 0x2f, 0x5c, 0xad, 0xa1, 0xaa, 0x64, 0x1b, 0x2d, 0x30, 0x27, 0x32, 0x03, 0x2b, 0x9a, 0xae, 0x6b, 0xac, 0x79, 0x29, 0x2c, 0xa2, 0xf8, 0xa9, 0x07, 0xa8, 0x5e, 0x26, 0x86, 0x1c, 0x79, 0x2c, 0x9b, 0x2d, 0xad, 0x30, 0x2e, 0xaf, 0xfd, 0x2c, 0x88, 0xb0, 0xda, 0xab, 0xa2, 0x26, 0xb8, 0x9f, 0xe9, 0x26, 0x96, 0xa9, 0x8d, 0xae, 0x2b, 0x8d, 0x96, 0x2e, 0x4f, 0x2a, 0x57, 0x27, 0x2b, 0xb4, 0xec, 0x2e, 0xee, 0xb1, 0x97, 0x2d, 0x69, 0x26, 0xe3, 0x2b, 0x5b, 0xb3, 0xa8, 0xaa, 0xe0, 0x2e, 0xe6, 0xa7, 0x5a, 0x27, 0x00, 0x31, 0x0b, 0x29, 0x30, 0x95, 0x6d, 0x2b, 0xad, 0xaf, 0x2d, 0x2e, 0xde, 0xa4, 0x22, 0xa3, 0x6e, 0x20, 0xa8, 0x28, 0xbf, 0xb3, 0xea, 0xb4, 0xf9, 0x2a, 0xbe, 0xad, 0xfc, 0x2a, 0xca, 0xad, 0x0e, 0x29, 0x37, 0xb0, 0x61, 0xb1, 0x76, 0xae, 0x44, 0xb0, 0x6f, 0x2d, 0x88, 0x2c, 0xd2, 0xa9, 0xd5, 0x30, 0x35, 0x2e, 0x2f, 0xae, 0x0f, 0x2e, 0x72, 0x2f, 0x58, 0xa9, 0xa5, 0x1c, 0xab, 0xb0, 0xd8, 0x29, 0xa7, 0xa9, 0xc5, 0xb1, 0x21, 0x34, 0x43, 0xb0, 0xb5, 0x32, 0x53, 0x30, 0x74, 0xa2, 0x1c, 0x2a, 0xf5, 0xa8, 0x8c, 0xad, 0x8b, 0xae, 0xf4, 0x2b, 0xb2, 0xae, 0xaf, 0xb0, 0x28, 0xb4, 0x11, 0x9c, 0x7d, 0xb2, 0x20, 0xaf, 0x0d, 0x28, 0x03, 0xad, 0x52, 0xae, 0x5d, 0x24, 0x6c, 0x2b, 0x49, 0x1b, 0x6a, 0x2b, 0x81, 0xb5, 0xcf, 0x19, 0x48, 0x2d, 0x20, 0x25, 0x38, 0xaa, 0xf5, 0x2f, 0xaa, 0x2a, 0x3c, 0xac, 0xa1, 0xae, 0x0f, 0x2d, 0x9d, 0xae, 0x14, 0x30, 0x4d, 0x27, 0xba, 0xb4, 0x45, 0xad, 0xe4, 0xa7, 0xbc, 0x22, 0x4a, 0xb0, 0xe6, 0xaa, 0x4a, 0x2e, 0xaf, 0xb3, 0xbd, 0x1d, 0x70, 0xb0, 0xcf, 0xae, 0x19, 0xa4, 0x85, 0xb1, 0x1e, 0x18, 0xfd, 0x1e, 0x77, 0xa5, 0x1a, 0xae, 0x36, 0xa5, 0x21, 0xac, 0x4e, 0x94, 0x5f, 0x2e, 0x2b, 0xa6, 0x54, 0x2f, 0xce, 0x2f, 0x1d, 0x2a, 0x1d, 0x33, 0x2c, 0xac, 0xb3, 0x29, 0x78, 0x2d, 0x52, 0xae, 0x3c, 0xac, 0xd8, 0x29, 0xee, 0xaf, 0xd0, 0xaf, 0x6f, 0x34, 0xa7, 0xb0, 0x47, 0xa1, 0x63, 0x30, 0xaa, 0xb2, 0x00, 0xa2, 0x74, 0x25, 0x8f, 0x30, 0x02, 0xb1, 0x1f, 0xab, 0x86, 0x25, 0x6f, 0xac, 0x27, 0xa8, 0xb9, 0xa8, 0xea, 0xad, 0x56, 0xb1, 0x34, 0x31, 0x96, 0xa5, 0x02, 0x2a, 0xdf, 0x29, 0x8b, 0x2a, 0x49, 0xb3, 0xf0, 0xa4, 0xee, 0x31, 0x15, 0xa9, 0x64, 0xb1, 0x70, 0x2c, 0xde, 0x31, 0x9a, 0xb1, 0xf4, 0x2c, 0x4c, 0x2a, 0x2f, 0x29, 0x5c, 0xa9, 0xc7, 0x30, 0x20, 0xac, 0x8a, 0x2d, 0x41, 0x1f, 0xed, 0x99, 0x46, 0x29, 0x36, 0x2c, 0x6d, 0xb1, 0xd0, 0xb3, 0x26, 0xb2, 0xfd, 0x9d, 0x16, 0x31, 0x40, 0xae, 0x55, 0x2e, 0x16, 0x2d, 0xb4, 0xb0, 0x83, 0x2a, 0x39, 0xab, 0xbe, 0x18, 0x96, 0xad, 0xdc, 0xa8, 0xef, 0xa6, 0x35, 0xa9, 0x56, 0xad, 0xe4, 0x2b, 0x2f, 0xab, 0x75, 0x22, 0x39, 0x2b, 0x9d, 0x30, 0x6d, 0xad, 0x52, 0xad, 0xd1, 0xa8, 0x59, 0x25, 0xb4, 0xae, 0x82, 0x30, 0xc0, 0xad, 0x53, 0x2f, 0xb9, 0xad, 0xf3, 0x23, 0x56, 0xac, 0x92, 0xb1, 0x81, 0xa9, 0x58, 0xad, 0x48, 0xb6, 0x2b, 0x30, 0xb0, 0xa7, 0x5a, 0xb1, 0x92, 0xae, 0x78, 0xae, 0x3c, 0x24, 0x3a, 0xae, 0x3e, 0x2c, 0xce, 0xa9, 0x89, 0x2c, 0x19, 0x29, 0xe3, 0x25, 0x7e, 0xae, 0xd4, 0x2e, 0x6b, 0xb0, 0x0c, 0xa0, 0x4f, 0x2d, 0x61, 0xa8, 0x33, 0x2c, 0x52, 0x30, 0x08, 0x9f, 0x82, 0xa7, 0x19, 0x2d, 0x8d, 0xab, 0x66, 0x2c, 0x9e, 0xa9, 0x03, 0xae, 0x61, 0x2d, 0xfd, 0x29, 0xa9, 0xa8, 0x62, 0xad, 0x6c, 0x2c, 0x21, 0x31, 0x3e, 0xac, 0x91, 0x2e, 0xc2, 0xad, 0x5b, 0xa9, 0x84, 0xac, 0xc9, 0xb1, 0x2a, 0x2d, 0x5c, 0xa8, 0x9a, 0x34, 0xe7, 0xae, 0xe1, 0xad, 0xe5, 0x2c, 0xbb, 0x30, 0x0b, 0xb0, 0x22, 0x2e, 0x4c, 0x2c, 0xf7, 0xa4, 0x8a, 0xb0, 0x0f, 0x30, 0x2d, 0x2d, 0xb9, 0xad, 0xcc, 0x2e, 0xf2, 0xab, 0x70, 0xaf, 0x5e, 0xa1, 0x14, 0x2d, 0xca, 0xad, 0xa8, 0x9c, 0xd1, 0xb2, 0xdb, 0x2e, 0x51, 0x2d, 0xa3, 0xaa, 0xba, 0x24, 0x36, 0x2d, 0xf3, 0x21, 0x97, 0x15, 0xec, 0x2e, 0x2c, 0x29, 0x96, 0x9e, 0x6f, 0x2d, 0x88, 0x34, 0x36, 0xaa, 0x03, 0x26, 0xce, 0xad, 0x54, 0x24, 0xfa, 0xa7, 0x12, 0xa1, 0x03, 0x31, 0x17, 0x2e, 0xf4, 0xaf, 0x2c, 0x2c, 0x9c, 0x2d, 0xae, 0xa9, 0xb7, 0x2c, 0xc3, 0x28, 0x3d, 0x9b, 0xfb, 0x27, 0x1a, 0x30, 0x61, 0x2c, 0x86, 0xae, 0x5f, 0xa0, 0xc7, 0xaa, 0x18, 0x33, 0x85, 0xa5, 0xe2, 0x2f, 0xba, 0x2f, 0xa0, 0x20, 0xdf, 0xad, 0xbc, 0x27, 0xb9, 0x31, 0x11, 0x2a, 0x61, 0x26, 0x2e, 0x2e, 0x2f, 0x30, 0xd9, 0x9d, 0x5a, 0xb0, 0x36, 0x33, 0xc1, 0x24, 0xf7, 0x2f, 0xcf, 0xb0, 0xa0, 0xaa, 0x59, 0xad, 0xc0, 0x30, 0x56, 0xa5, 0x77, 0x29, 0x32, 0xa7, 0xe0, 0x32, 0x12, 0xaa, 0xd8, 0x30, 0x58, 0x2f, 0x32, 0x1b, 0xeb, 0x18, 0x3e, 0x30, 0xf5, 0xad, 0x54, 0xb1, 0x10, 0xac, 0x6e, 0x2c, 0x75, 0xab, 0x96, 0x30, 0xe6, 0xb0, 0x38, 0xa5, 0x0c, 0x2c, 0xba, 0x21, 0x44, 0xb0, 0x84, 0x29, 0x8c, 0x28, 0x91, 0x2f, 0xf5, 0x23, 0x4f, 0xa5, 0xe6, 0xb0, 0x06, 0x2d, 0xe4, 0x27, 0x35, 0x9d, 0xe9, 0xa6, 0xc7, 0x29, 0x4a, 0x2d, 0x89, 0x2c, 0xab, 0x2a, 0x82, 0xb1, 0xac, 0x2e, 0xda, 0xa2, 0xed, 0xaa, 0x9a, 0xab, 0xa9, 0x21, 0x4e, 0x2b, 0x79, 0x22, 0xb8, 0x20, 0x5a, 0xaa, 0x78, 0x2c, 0x0a, 0x30, 0xe7, 0xb1, 0xb9, 0x2f, 0x4c, 0xb0, 0x7f, 0x2e, 0xdb, 0xac, 0xe7, 0x26, 0x72, 0x2f, 0x04, 0x32, 0x32, 0xa5, 0x1e, 0xaf, 0x5a, 0x34, 0xd6, 0x18, 0x86, 0xab, 0x86, 0xaa, 0x4c, 0x2d, 0x61, 0xae, 0x9f, 0x2c, 0x02, 0xad, 0xba, 0x9d, 0x63, 0x2f, 0x86, 0x2f, 0xd5, 0x2b, 0x8e, 0xa6, 0xcb, 0x9d, 0x37, 0xad, 0xf8, 0x2b, 0x5f, 0x2d, 0x10, 0xb2, 0x0d, 0x2d, 0xf0, 0xad, 0x39, 0xa8, 0x15, 0x20, 0x12, 0x27, 0x16, 0x2b, 0x36, 0x2f, 0xa7, 0xa0, 0x9a, 0x2e, 0xd8, 0xaf, 0x1b, 0x29, 0x2e, 0x29, 0x12, 0xad, 0xd4, 0xae, 0xca, 0x2a, 0xc5, 0x2e, 0xa6, 0x2e, 0x42, 0x21, 0x83, 0xac, 0xc8, 0xa8, 0xb2, 0x2d, 0x73, 0x2c, 0x38, 0x09, 0x4c, 0x29, 0x10, 0xab, 0x2b, 0xad, 0xcb, 0xb0, 0xdd, 0x28, 0xdc, 0xa5, 0xa6, 0xad, 0x6b, 0xa2, 0xe2, 0x2c, 0x41, 0xa2, 0xbe, 0xa8, 0x59, 0x30, 0x0b, 0x2d, 0x54, 0xad, 0x22, 0xaf, 0xe8, 0x0f, 0x74, 0x18, 0x71, 0x29, 0x09, 0x1d, 0x03, 0xa0, 0xa1, 0xa5, 0xcc, 0x21, 0x4e, 0xa5, 0x82, 0x2c, 0x6d, 0x30, 0x1d, 0x29, 0x49, 0x2b, 0xd5, 0xae, 0x41, 0xaf, 0x36, 0x2f, 0x8c, 0xac, 0xa4, 0xa8, 0x28, 0x2e, 0x1b, 0xad, 0x66, 0x30, 0x0d, 0xa1, 0x75, 0xa7, 0x2c, 0x28, 0x19, 0xb2, 0x1d, 0xa6, 0xe5, 0x1e, 0x46, 0x29, 0x47, 0xb2, 0x62, 0xb3, 0x11, 0xa9, 0x09, 0x2c, 0xc3, 0x9f, 0xbb, 0x28, 0x8e, 0x2c, 0xb7, 0x2c, 0x47, 0x31, 0x21, 0xab, 0x48, 0x18, 0x6c, 0xa8, 0xbc, 0x27, 0xa7, 0x32, 0x36, 0x2c, 0x94, 0x19, 0xc7, 0x31, 0x5e, 0xac, 0x87, 0xae, 0xa4, 0x2e, 0x18, 0x29, 0x48, 0xa1, 0x67, 0x2c, 0xbd, 0xb1, 0x8f, 0x14, 0xfa, 0x2b, 0x4d, 0x2f, 0x12, 0x2c, 0xc7, 0x92, 0xc7, 0xa1, 0xda, 0x2d, 0x15, 0x28, 0x45, 0xa5, 0x19, 0xac, 0x96, 0x99, 0xe2, 0xa3, 0x33, 0xb2, 0xcc, 0xb1, 0xe1, 0xa6, 0x55, 0x2e, 0x26, 0xa9, 0x06, 0xad, 0x9b, 0x2d, 0xeb, 0x21, 0xfe, 0xb0, 0x78, 0x2a, 0x08, 0x28, 0x50, 0x32, 0xa5, 0x2c, 0x74, 0xa7, 0x6a, 0x2b, 0xe6, 0x2e, 0xde, 0xa8, 0xc2, 0xad, 0x6c, 0x2e, 0x88, 0x9e, 0xb8, 0xb2, 0x55, 0xa7, 0xe0, 0x2d, 0x36, 0x2a, 0xf0, 0xa9, 0x57, 0xa2, 0x7d, 0x21, 0x6c, 0x21, 0x2b, 0xb2, 0xa5, 0xac, 0x1d, 0x29, 0x0c, 0x30, 0x7e, 0x29, 0x11, 0x2d, 0x5c, 0xa2, 0xed, 0x31, 0xd3, 0xb1, 0x6a, 0x27, 0x05, 0x30, 0xe2, 0x2e, 0xfd, 0xb2, 0xf0, 0x30, 0x61, 0xa7, 0x75, 0x2f, 0x5c, 0x2e, 0xa2, 0xb0, 0x19, 0xb1, 0x73, 0xa7, 0x52, 0xad, 0xe7, 0x29, 0xd2, 0xac, 0x55, 0xb1, 0x75, 0x26, 0x96, 0x29, 0x41, 0x2f, 0xef, 0x2a, 0xc1, 0xa8, 0x43, 0xaf, 0x40, 0x21, 0x50, 0x2b, 0x4a, 0x21, 0xb8, 0xb0, 0xd5, 0xad, 0x82, 0x30, 0xd8, 0xac, 0x08, 0x2e, 0x4a, 0x2d, 0x9d, 0xae, 0xe1, 0xb0, 0x10, 0x30, 0x14, 0x33, 0xf1, 0x2a, 0x9e, 0xac, 0xc5, 0x2c, 0x3d, 0x2b, 0x35, 0xa8, 0x19, 0x31, 0xc9, 0xb1, 0xb6, 0xb1, 0x8d, 0x26, 0x8e, 0x32, 0x62, 0xb1, 0xd6, 0x2d, 0x30, 0xb2, 0x2e, 0xa2, 0xde, 0xb0, 0x49, 0x31, 0xcd, 0xac, 0x4d, 0xa8, 0x8a, 0xaf, 0x05, 0x18, 0xda, 0xa2, 0x0c, 0xac, 0x6c, 0xaf, 0x25, 0x20, 0x91, 0xb0, 0xdd, 0xaf, 0xcb, 0xa4, 0x84, 0x2f, 0xd1, 0xa0, 0xd9, 0xaf, 0x9d, 0xa3, 0x20, 0xa7, 0xd2, 0x2c, 0x6b, 0xaf, 0x11, 0xae, 0x3c, 0x29, 0xee, 0xab, 0x5b, 0x2a, 0x30, 0xb3, 0xe6, 0xab, 0x08, 0xb1, 0x18, 0x2d, 0x07, 0xa9, 0x60, 0xaa, 0x93, 0x27, 0x84, 0xa8, 0xd7, 0xa8, 0xc1, 0xaf, 0xfb, 0xac, 0x70, 0x32, 0x04, 0x2d, 0xaa, 0xa8, 0x32, 0xac, 0xf9, 0x1f, 0xf2, 0x2f, 0x06, 0x2d, 0x64, 0x2d, 0x7e, 0x1f, 0x75, 0xac, 0xb1, 0xab, 0x44, 0x26, 0x7b, 0x2d, 0x3a, 0xa9, 0x49, 0x9f, 0xfe, 0x2d, 0xa3, 0xb1, 0xcb, 0x29, 0x02, 0xa4, 0xcc, 0xae, 0xf8, 0x32, 0x82, 0xa6, 0x3c, 0x22, 0xd4, 0x30, 0xaa, 0xa4, 0x66, 0xaf, 0xa2, 0xa1, 0xfc, 0x2c, 0x3c, 0xac, 0xe0, 0x2d, 0x24, 0x98, 0x74, 0xa3, 0xb9, 0x9d, 0x3a, 0xad, 0x40, 0x30, 0xb7, 0x29, 0xa0, 0xaf, 0xc4, 0x24, 0x80, 0xa5, 0x1b, 0x2f, 0xf0, 0xac, 0xe4, 0x27, 0xd6, 0xa9, 0x52, 0xa9, 0xb8, 0xa9, 0x48, 0xb1, 0xc2, 0xa4, 0x3f, 0xac, 0xca, 0xae, 0x2e, 0xa9, 0xe8, 0xa8, 0xa1, 0xaa, 0x65, 0x31, 0x0e, 0xa4, 0x53, 0xae, 0xb4, 0x2a, 0x87, 0x2f, 0xac, 0x29, 0x74, 0xa8, 0x6b, 0x2c, 0x9e, 0xb1, 0x11, 0xaf, 0x24, 0xac, 0x02, 0xb0, 0x00, 0xa9, 0x3e, 0xb2, 0xaa, 0xad, 0xbe, 0xaf, 0xca, 0xac, 0x0a, 0xb0, 0xa2, 0xaa, 0x45, 0x28, 0x9f, 0xac, 0x95, 0x30, 0x43, 0x31, 0x7c, 0x26, 0xb3, 0xb5, 0xb4, 0xa6, 0x8f, 0xa9, 0xe0, 0xae, 0xd2, 0x25, 0x13, 0xa0, 0xd3, 0x2a, 0x53, 0xa8, 0x2b, 0x2f, 0x11, 0xb0, 0x4b, 0x26, 0x09, 0x23, 0x2b, 0x30, 0x64, 0x2d, 0xab, 0xa1, 0x1f, 0xa9, 0xe4, 0x2e, 0x7d, 0xac, 0x8a, 0x26, 0xdd, 0xa7, 0xda, 0x2b, 0x64, 0xa6, 0x94, 0x2a, 0x4c, 0x2e, 0x1b, 0xaa, 0xf6, 0x2c, 0x70, 0xa9, 0x3c, 0x2c, 0xb9, 0xb3, 0xda, 0xac, 0xfb, 0x2e, 0xde, 0x28, 0x7e, 0x83, 0xa2, 0x28, 0x1f, 0x2b, 0x7b, 0xb4, 0xf0, 0x28, 0x54, 0xa9, 0x4d, 0xb3, 0x6c, 0x24, 0x7b, 0x9f, 0x38, 0xb4, 0xb8, 0xa5, 0x5c, 0xad, 0x20, 0x1d, 0xa3, 0x30, 0x3b, 0x20, 0xe6, 0xa9, 0xac, 0xac, 0x34, 0xb0, 0xe7, 0x29, 0x66, 0xaa, 0x8e, 0x2d, 0x82, 0xb1, 0x93, 0xae, 0x73, 0xb0, 0xc8, 0xb1, 0xd1, 0xac, 0x40, 0x26, 0x01, 0x2d, 0x63, 0xaa, 0xff, 0x28, 0x50, 0xb3, 0x94, 0x30, 0xc6, 0xb0, 0x8f, 0xad, 0x97, 0x33, 0x2a, 0x2f, 0x82, 0xae, 0x16, 0x2c, 0xdb, 0xb1, 0xe1, 0xa3, 0x26, 0x30, 0x42, 0x26, 0x78, 0x2e, 0xdc, 0xa6, 0x4e, 0x33, 0x65, 0xa9, 0x15, 0x2b, 0x09, 0x30, 0xd7, 0xb0, 0xa4, 0xad, 0x46, 0x2c, 0x9e, 0x24, 0x24, 0xb1, 0xca, 0x2f, 0xce, 0xa8, 0x5a, 0x30, 0xc8, 0x2a, 0x54, 0x30, 0x34, 0xb2, 0x59, 0xb4, 0x97, 0xa5, 0x3f, 0xb0, 0xa2, 0x2d, 0x1e, 0xad, 0x79, 0x2d, 0x3c, 0xb0, 0xb7, 0x27, 0x6a, 0x30, 0xda, 0xac, 0x31, 0x2b, 0x5b, 0xaf, 0x4f, 0x28, 0xac, 0x32, 0xff, 0x2e, 0x36, 0x2a, 0x9d, 0x9d, 0x14, 0xb0, 0x41, 0xa9, 0xa6, 0x24, 0x97, 0x28, 0x0d, 0xad, 0xe2, 0xa0, 0x35, 0x25, 0xd1, 0x2d, 0x24, 0xae, 0x76, 0x27, 0xaa, 0xaf, 0x52, 0xab, 0x06, 0x20, 0xf1, 0x31, 0xbd, 0xac, 0xc2, 0x2e, 0x94, 0x2c, 0x52, 0x2e, 0xce, 0xac, 0xec, 0x28, 0x84, 0x23, 0x40, 0xa9, 0xf0, 0x30, 0xe3, 0xa9, 0x28, 0x28, 0x01, 0x2a, 0x08, 0x24, 0x06, 0x25, 0x2e, 0x2d, 0x32, 0x10, 0xf3, 0x2d, 0x2c, 0x2f, 0xfa, 0xae, 0x4e, 0xae, 0x37, 0xa9, 0x12, 0x30, 0xab, 0xa9, 0xe3, 0xaf, 0x5b, 0x2b, 0x68, 0xa7, 0x21, 0xa7, 0xea, 0xad, 0x25, 0x31, 0xaf, 0x1d, 0x2e, 0x2f, 0x20, 0xac, 0x84, 0x30, 0x54, 0x28, 0x3d, 0x2e, 0x0c, 0x30, 0xb0, 0x30, 0xd1, 0x29, 0xea, 0xac, 0x23, 0x32, 0x3a, 0x2f, 0x1e, 0xac, 0x27, 0xa6, 0x2e, 0x2f, 0xd2, 0xb2, 0xb5, 0xa5, 0xb0, 0xa5, 0xb5, 0xac, 0x33, 0x2f, 0xbc, 0xb0, 0x38, 0x26, 0x19, 0xad, 0x71, 0x2f, 0x28, 0xad, 0xac, 0xa0, 0xe5, 0x2d, 0xc0, 0x31, 0x0a, 0x24, 0x75, 0xa9, 0xfe, 0xa2, 0xc1, 0x2d, 0x99, 0xad, 0x16, 0xb0, 0xcf, 0xad, 0x91, 0xad, 0xff, 0x2e, 0x97, 0xa5, 0xb9, 0xa4, 0x6a, 0x2c, 0xa4, 0x32, 0xca, 0xb1, 0xc7, 0xa9, 0xd6, 0x2d, 0x0f, 0x26, 0xae, 0xb0, 0xe4, 0x2e, 0x3e, 0x30, 0x03, 0xa4, 0x89, 0xa5, 0xeb, 0x2a, 0x0d, 0xae, 0xd5, 0xab, 0xd4, 0xae, 0x0a, 0x30, 0x41, 0x34, 0x3e, 0xab, 0x76, 0xa0, 0xb1, 0xb1, 0xe5, 0x21, 0x20, 0xa9, 0x36, 0x2d, 0x15, 0xad, 0x36, 0x2b, 0xff, 0x2f, 0x1c, 0x2c, 0x03, 0x25, 0xd8, 0xa7, 0x12, 0xa8, 0x4f, 0xad, 0x2f, 0xac, 0xc1, 0x30, 0x15, 0x30, 0x70, 0x25, 0x38, 0xb1, 0x12, 0x2d, 0xc1, 0xaa, 0x89, 0xad, 0x80, 0x2e, 0xb9, 0x29, 0x5b, 0xac, 0x5f, 0x2a, 0x7e, 0x2e, 0x6c, 0x9f, 0x93, 0x2c, 0xc0, 0x2d, 0x8f, 0xaf, 0x8a, 0xac, 0x65, 0xb3, 0xde, 0x26, 0x6e, 0x2f, 0x6f, 0x2f, 0x97, 0xb0, 0xa6, 0xac, 0xb7, 0xac, 0x2d, 0xac, 0x62, 0x24, 0xf9, 0x30, 0xa4, 0x25, 0x9e, 0x2d, 0xea, 0x13, 0x4e, 0x28, 0x4f, 0x2c, 0x27, 0x28, 0x07, 0x2e, 0x19, 0x28, 0x88, 0xb1, 0x9f, 0x2d, 0x85, 0xa6, 0x18, 0xaa, 0x4b, 0x2b, 0xf2, 0x31, 0x6a, 0x29, 0x45, 0xb0, 0xbe, 0x9d, 0x5a, 0xb2, 0xf8, 0x2a, 0x56, 0xb1, 0xd9, 0xa4, 0x82, 0x9e, 0x29, 0xad, 0x1e, 0x2d, 0x69, 0x32, 0xb2, 0x2e, 0x4e, 0xa6, 0x86, 0xac, 0x2d, 0x29, 0xe5, 0x2e, 0xfc, 0xa9, 0xb7, 0xb1, 0xe9, 0xb0, 0x3c, 0x2c, 0xd9, 0x28, 0x63, 0xb0, 0xc8, 0x23, 0x1b, 0xad, 0x5b, 0x31, 0x8e, 0xab, 0x17, 0xa9, 0x3a, 0x2b, 0xf5, 0x2c, 0xd9, 0x29, 0x3d, 0x32, 0xee, 0xad, 0x3f, 0x30, 0x82, 0x30, 0x74, 0xaa, 0x43, 0xad, 0xc8, 0xa9, 0x9e, 0x29, 0x89, 0xb0, 0x95, 0x9b, 0x71, 0xad, 0x21, 0xa1, 0x46, 0x26, 0xe2, 0x1f, 0x94, 0xaf, 0x10, 0x2d, 0xb9, 0x2c, 0x4f, 0x2c, 0x9b, 0xaf, 0x01, 0x9b, 0x7e, 0xa0, 0xba, 0x29, 0x62, 0xac, 0x76, 0xb1, 0x1b, 0xaf, 0xb6, 0x23, 0xc9, 0xa8, 0xfd, 0xb2, 0xbc, 0x9c, 0xb1, 0x21, 0x72, 0x2e, 0xeb, 0xa8, 0x68, 0xa3, 0x96, 0xb1, 0x25, 0x32, 0x6a, 0x29, 0x93, 0xae, 0xaf, 0xae, 0x70, 0x2e, 0xbc, 0xa9, 0x9e, 0xb3, 0x7a, 0x2f, 0x80, 0xae, 0x68, 0x2f, 0xe7, 0x2c, 0x8e, 0xab, 0x15, 0x09, 0x5a, 0xb0, 0x15, 0x31, 0x9d, 0x32, 0xc0, 0xb0, 0xba, 0xa4, 0xda, 0xad, 0x90, 0xb3, 0xfc, 0x2b, 0xc9, 0xb0, 0x99, 0x2f, 0x9f, 0xac, 0x1e, 0x31, 0xcc, 0xad, 0x5b, 0x2d, 0x84, 0x30, 0xe4, 0x2f, 0xcb, 0xb0, 0x39, 0x28, 0xc9, 0xac, 0x35, 0xa8, 0x3d, 0x2c, 0xa9, 0x22, 0xee, 0x20, 0xf6, 0x2e, 0x92, 0x21, 0x3e, 0x2e, 0x80, 0x2b, 0xd7, 0xa5, 0x43, 0x30, 0x28, 0x30, 0xf1, 0x31, 0x08, 0xad, 0xc8, 0xa5, 0x7f, 0xa8, 0x7d, 0xa8, 0x4c, 0xb0, 0x56, 0x2f, 0xf5, 0xaa, 0xe9, 0xa8, 0x68, 0x28, 0x6b, 0xaf, 0x45, 0xa1, 0xe6, 0x26, 0x8e, 0x2c, 0xc6, 0xad, 0xb9, 0xa9, 0x5a, 0x28, 0x22, 0x2a, 0x83, 0xb1, 0x19, 0xae, 0x14, 0xb3, 0x8c, 0x2d, 0xc3, 0x2c, 0xe9, 0xa9, 0x9b, 0xaf, 0xc9, 0x32, 0x98, 0x27, 0x72, 0xa9, 0x50, 0x22, 0xbe, 0xaf, 0x16, 0xac, 0xeb, 0xb0, 0xd8, 0x31, 0xaf, 0xb1, 0x17, 0xae, 0xf1, 0xa5, 0x66, 0xad, 0x64, 0xae, 0xf2, 0x2d, 0x84, 0xae, 0x9c, 0xa9, 0x59, 0x34, 0xce, 0xac, 0x34, 0xb4, 0xc3, 0x25, 0x53, 0x33, 0xea, 0xac, 0xbb, 0x30, 0xad, 0xa1, 0x2f, 0xac, 0x52, 0xaa, 0x13, 0x2c, 0xeb, 0xa4, 0x08, 0x30, 0x87, 0x2d, 0x27, 0xb0, 0x5d, 0x2e, 0x88, 0x31, 0xc0, 0xa7, 0xd8, 0x1f, 0x6a, 0x1c, 0xe8, 0x22, 0x34, 0xad, 0x57, 0xa9, 0xf7, 0x2f, 0x29, 0xa1, 0xfe, 0xb0, 0xf8, 0xab, 0x03, 0xaa, 0x8d, 0xaf, 0x66, 0x2e, 0xc1, 0xaf, 0x23, 0x28, 0x73, 0xab, 0xa2, 0x10, 0xba, 0xaa, 0xc5, 0x2d, 0x49, 0x2c, 0x59, 0x32, 0x34, 0x33, 0xdb, 0xa7, 0xba, 0xac, 0x6b, 0xab, 0x82, 0x34, 0x5f, 0xaf, 0x10, 0x25, 0x1f, 0x9c, 0x5b, 0xaf, 0x29, 0x20, 0x25, 0xa9, 0xfe, 0x30, 0xd1, 0x24, 0x94, 0xac, 0x40, 0xa7, 0x7b, 0xad, 0xd5, 0x29, 0x04, 0x2f, 0x5e, 0xae, 0x5b, 0xaa, 0x5b, 0xae, 0x57, 0xac, 0xdb, 0xad, 0x06, 0x22, 0x36, 0xb4, 0x90, 0xa7, 0x15, 0x28, 0xe5, 0xb0, 0xd8, 0x2e, 0x1b, 0x2e, 0xc8, 0xad, 0x12, 0x25, 0xe1, 0xa4, 0xd5, 0xa2, 0x36, 0x2e, 0x39, 0x28, 0xee, 0x2d, 0x7f, 0xa0, 0x5e, 0xa7, 0x27, 0x2f, 0xce, 0x24, 0x9c, 0xa8, 0x98, 0x32, 0x7a, 0x32, 0xa6, 0x2d, 0x62, 0xaa, 0x27, 0xb2, 0x32, 0x29, 0x54, 0x29, 0xca, 0x1f, 0x2a, 0xb0, 0xf8, 0xab, 0x0f, 0x25, 0x9a, 0x31, 0x19, 0x30, 0x1c, 0xa9, 0x26, 0xa6, 0x67, 0x27, 0xb2, 0xad, 0xa7, 0xaf, 0xa9, 0x31, 0x0d, 0xa9, 0x4d, 0xa9, 0x0e, 0xac, 0xae, 0xaa, 0x98, 0x2f, 0x2d, 0xb1, 0x8b, 0xa9, 0x12, 0x20, 0xb4, 0xac, 0xc3, 0x30, 0x1e, 0x2d, 0x21, 0x28, 0x90, 0xaf, 0x12, 0x2c, 0x0a, 0x18, 0x3b, 0xa9, 0x7e, 0x93, 0xb6, 0x2b, 0x2d, 0x32, 0x06, 0xa5, 0xc2, 0xa8, 0xe0, 0xa4, 0xe8, 0xa8, 0x03, 0x27, 0x23, 0x9c, 0x7e, 0xa1, 0x82, 0x28, 0xea, 0x18, 0xae, 0xae, 0x63, 0xa3, 0xa6, 0xa8, 0x2c, 0xb3, 0xd2, 0xaf, 0x33, 0x2e, 0x3b, 0xb1, 0x7b, 0xb4, 0xd7, 0xa9, 0xdc, 0xac, 0x29, 0x2b, 0x82, 0xac, 0xa1, 0x29, 0xc1, 0xac, 0xbe, 0x26, 0x5e, 0xac, 0x44, 0x2f, 0xc8, 0x21, 0x8f, 0x9b, 0x39, 0x2f, 0xc3, 0x26, 0x05, 0x23, 0xa3, 0xae, 0xc5, 0x2a, 0x59, 0xac, 0x63, 0xa7, 0x33, 0xaf, 0x5e, 0x2c, 0x72, 0x32, 0x65, 0xac, 0x21, 0x9a, 0xdd, 0x25, 0xd9, 0x24, 0xcb, 0x2d, 0x6e, 0xa4, 0x35, 0x25, 0x3c, 0xa1, 0x1b, 0x24, 0x80, 0xaa, 0x53, 0xad, 0xf1, 0xa0, 0x1b, 0xa5, 0xc3, 0xb0, 0x98, 0x31, 0xa9, 0xa6, 0x4e, 0x2b, 0x33, 0xa7, 0xee, 0x28, 0x09, 0x2d, 0xf9, 0xad, 0x4b, 0x30, 0xc4, 0x2d, 0x7c, 0x31, 0x7d, 0x2d, 0xa4, 0xb1, 0xff, 0xa5, 0x98, 0xb0, 0xcc, 0xac, 0xce, 0xa6, 0x47, 0x30, 0xda, 0xa9, 0x51, 0xa5, 0x51, 0x2f, 0xfc, 0xa9, 0xf4, 0xaf, 0x8c, 0xac, 0x92, 0x2d, 0x87, 0x9f, 0x3c, 0x29, 0xf8, 0x2d, 0xa9, 0x25, 0x16, 0x31, 0xe3, 0x2b, 0xd6, 0xb0, 0xf7, 0x2f, 0x1d, 0xb1, 0x3f, 0x30, 0x65, 0x23, 0xf7, 0x27, 0x1f, 0xac, 0x8c, 0xb2, 0x97, 0xaa, 0x72, 0x2f, 0xda, 0xae, 0xaf, 0x30, 0xca, 0xad, 0x59, 0x98, 0xdf, 0x31, 0xe7, 0xac, 0xf3, 0xa3, 0xf6, 0x32, 0x36, 0xad, 0xc2, 0x21, 0x8c, 0x26, 0x96, 0xaa, 0xf4, 0xb0, 0xd7, 0xab, 0xd1, 0x2a, 0x4e, 0x29, 0x5d, 0x30, 0xd4, 0x22, 0xcb, 0xac, 0xe3, 0x1c, 0x73, 0x2d, 0xba, 0xac, 0xa7, 0xae, 0x42, 0xa6, 0x25, 0x29, 0x42, 0x32, 0x56, 0xb1, 0xaf, 0x28, 0xa0, 0xaf, 0x7b, 0xb1, 0x06, 0x2f, 0x8d, 0x2e, 0xb8, 0xad, 0x40, 0x23, 0xf4, 0xae, 0x1b, 0x25, 0x04, 0xb0, 0x57, 0x23, 0x95, 0x33, 0x5b, 0xa8, 0x9c, 0xb4, 0x42, 0xaa, 0xc8, 0x2f, 0xc9, 0x2d, 0x17, 0x2c, 0x23, 0xad, 0x88, 0x29, 0x27, 0x2e, 0x7e, 0xae, 0x39, 0xae, 0xee, 0x2b, 0xb8, 0x29, 0xa7, 0xa7, 0x2e, 0xb2, 0x03, 0xaa, 0xe8, 0xad, 0xa1, 0xa8, 0xab, 0xaa, 0x48, 0xad, 0x27, 0x9c, 0xe5, 0xa9, 0x27, 0x2a, 0xf0, 0xae, 0x5e, 0xac, 0xd8, 0x31, 0xe0, 0xad, 0xb4, 0x2f, 0xcb, 0xad, 0x04, 0x31, 0x3a, 0x31, 0x0a, 0x25, 0x55, 0x29, 0x4a, 0x2c, 0x80, 0xad, 0xab, 0xb0, 0x07, 0xa6, 0xa6, 0x9b, 0x91, 0x28, 0xd3, 0xb2, 0x80, 0x2e, 0x02, 0xb0, 0x76, 0x30, 0x3f, 0x29, 0xa1, 0x2c, 0xf1, 0xad, 0x12, 0x29, 0x7a, 0xaa, 0xbf, 0xb1, 0x4a, 0x25, 0x5a, 0xa7, 0xbf, 0xaf, 0xa8, 0x2a, 0x7f, 0xab, 0xa9, 0xa9, 0xac, 0x30, 0x45, 0xa3, 0x65, 0xac, 0x93, 0x2f, 0xc6, 0xaf, 0xae, 0xae, 0xef, 0xa9, 0x5d, 0x30, 0x31, 0xae, 0xb7, 0x25, 0x18, 0x28, 0xa1, 0xb1, 0xa6, 0xad, 0x76, 0x2a, 0x43, 0xac, 0x1f, 0xab, 0x76, 0x2a, 0x4d, 0xac, 0xa0, 0x25, 0x52, 0x1e, 0xbc, 0x28, 0x22, 0x9f, 0xf6, 0x25, 0x06, 0x2f, 0xf5, 0x2f, 0xec, 0xa5, 0x7d, 0xaf, 0x58, 0xaf, 0x69, 0xa6, 0x72, 0x2f, 0xad, 0x27, 0xc3, 0x2c, 0xbd, 0xa8, 0xb9, 0x30, 0xc9, 0x30, 0x48, 0x14, 0x58, 0xaa, 0x59, 0xa1, 0xdc, 0x2e, 0xa1, 0x2c, 0x52, 0x33, 0x9b, 0xad, 0xc6, 0xac, 0x5a, 0xae, 0x67, 0x2b, 0x56, 0xa9, 0xf6, 0x1d, 0x08, 0xa8, 0x8a, 0xa8, 0x7b, 0xac, 0x24, 0x2f, 0xd4, 0x2d, 0xb0, 0x2b, 0xdd, 0x2f, 0xc2, 0xb0, 0x73, 0xa5, 0xaa, 0x28, 0x48, 0x32, 0x22, 0xaf, 0x35, 0xb1, 0x11, 0x30, 0xad, 0xac, 0xae, 0xa8, 0x34, 0x10, 0x8b, 0x1a, 0x73, 0xb1, 0x6a, 0x2b, 0x1e, 0xaf, 0x47, 0x21, 0xce, 0x2b, 0x26, 0xad, 0xbf, 0xac, 0xaf, 0xa1, 0x1a, 0x2e, 0xd7, 0x2e, 0x7e, 0x28, 0x2d, 0x2d, 0xde, 0xad, 0x28, 0xb1, 0xb2, 0x2c, 0x4e, 0x27, 0x9e, 0x20, 0x04, 0x2d, 0x13, 0xa1, 0xd9, 0x2c, 0xdd, 0xaa, 0x90, 0xaf, 0x2e, 0xab, 0xa5, 0x2f, 0xea, 0x2d, 0xbd, 0x2e, 0x59, 0x28, 0x6d, 0x24, 0xaf, 0x2c, 0x82, 0xaa, 0xe7, 0xa8, 0xc3, 0xab, 0x7c, 0xae, 0x3b, 0xac, 0xb1, 0xaa, 0x75, 0xae, 0x80, 0x20, 0x8e, 0x23, 0x36, 0x2c, 0x6c, 0xae, 0xcd, 0xa5, 0x7f, 0xa8, 0xc1, 0xa4, 0x93, 0x93, 0x27, 0xae, 0x8f, 0xa3, 0xd1, 0xaf, 0x60, 0x2d, 0xc5, 0xac, 0x2e, 0xab, 0x9c, 0x26, 0x9e, 0x32, 0x1a, 0x2d, 0x4d, 0x2f, 0xb9, 0x30, 0x9c, 0x28, 0xd2, 0xac, 0x8a, 0x2d, 0xba, 0xab, 0xea, 0xac, 0x34, 0xa7, 0xad, 0x2b, 0xcb, 0x26, 0x1b, 0x28, 0x4a, 0xaf, 0x40, 0x20, 0x71, 0xb2, 0x07, 0x28, 0xe3, 0xad, 0xe8, 0x1c, 0x8e, 0xa8, 0xda, 0xb1, 0xeb, 0x29, 0xfa, 0x2c, 0x44, 0x2a, 0xe6, 0x8f, 0x77, 0x31, 0x7d, 0xae, 0xee, 0xa4, 0x7e, 0x30, 0x36, 0x30, 0xd0, 0x2e, 0x23, 0xb4, 0xed, 0xa6, 0x5f, 0xa8, 0xb8, 0x2b, 0xbd, 0xa4, 0x26, 0xa0, 0xf1, 0x29, 0xdd, 0xaa, 0x14, 0x29, 0x4f, 0x22, 0x31, 0x2e, 0x39, 0xa6, 0xe8, 0xaf, 0x6a, 0x2e, 0x7d, 0x1d, 0x4e, 0x2e, 0x68, 0xb0, 0x64, 0x1e, 0x24, 0xac, 0x04, 0x2e, 0x41, 0x2d, 0x43, 0xb0, 0x85, 0xa0, 0xa6, 0xaa, 0xc2, 0xa5, 0x8b, 0x2e, 0xb9, 0x26, 0xc7, 0x27, 0xb7, 0x29, 0xa9, 0xaf, 0x6f, 0x2c, 0x62, 0xaf, 0xe3, 0xa5, 0xbe, 0xa3, 0x4c, 0xac, 0x95, 0xaf, 0xd2, 0xb1, 0x6f, 0xb1, 0x6c, 0x26, 0xf2, 0x9f, 0xe1, 0x31, 0x02, 0x26, 0x37, 0x33, 0x3a, 0x24, 0xd0, 0x2b, 0x50, 0xa6, 0x91, 0xb0, 0xd2, 0x2b, 0x4a, 0x33, 0x36, 0x26, 0xcb, 0x29, 0x2e, 0x33, 0x1e, 0x2f, 0xaa, 0x2f, 0x72, 0x28, 0xa8, 0xaf, 0x47, 0xad, 0x47, 0xb2, 0xfa, 0x2e, 0x66, 0xb0, 0x7c, 0xb1, 0x8d, 0xa9, 0xde, 0x1b, 0x37, 0x2a, 0xed, 0xa8, 0x21, 0x2c, 0x13, 0xae, 0xa4, 0x20, 0x36, 0xa8, 0xc0, 0x2b, 0x05, 0xad, 0xb5, 0xae, 0x94, 0x2e, 0x44, 0x32, 0x24, 0x29, 0xde, 0x26, 0x8e, 0xa6, 0x32, 0xb1, 0xbf, 0x2d, 0x39, 0xad, 0xca, 0xac, 0x53, 0xac, 0x0b, 0xa1, 0xb8, 0x2a, 0x1d, 0xab, 0x0b, 0x2b, 0x46, 0x2d, 0xe5, 0xa7, 0x94, 0xac, 0x77, 0xa7, 0xb9, 0x2a, 0xbc, 0x31, 0x1e, 0xae, 0x3a, 0x1c, 0xca, 0x2c, 0xe1, 0xac, 0xe3, 0x33, 0x2c, 0x2a, 0x5a, 0xa0, 0x10, 0x24, 0x4c, 0x30, 0xa1, 0x28, 0x66, 0x2d, 0xda, 0xb1, 0x8e, 0x2d, 0xdd, 0xb2, 0xe4, 0xa9, 0x5a, 0xa8, 0x68, 0xa9, 0xe2, 0x2e, 0x25, 0xaf, 0x1a, 0x22, 0x4a, 0xb2, 0x1f, 0x2b, 0xa6, 0x2c, 0x6f, 0x2e, 0x4a, 0xb1, 0x6b, 0x31, 0x52, 0xb0, 0xc4, 0xa2, 0xbd, 0x21, 0x6c, 0x2c, 0x38, 0xab, 0xc8, 0x25, 0x25, 0xac, 0x63, 0x2d, 0xf4, 0xa9, 0x74, 0x2d, 0x2d, 0xb0, 0x79, 0xac, 0x44, 0xb0, 0x8e, 0xa5, 0xf5, 0xa9, 0x0b, 0x2e, 0xd8, 0xab, 0x63, 0xa4, 0x70, 0x2f, 0xc0, 0x2d, 0xbd, 0x25, 0x4c, 0x2f, 0x58, 0x2b, 0xfe, 0xac, 0x7e, 0xa4, 0x07, 0x32, 0xf8, 0xac, 0xbd, 0xa5, 0x35, 0x31, 0x8f, 0x2f, 0x35, 0xb4, 0x99, 0xa1, 0xac, 0xac, 0x08, 0x2f, 0x5c, 0x1f, 0x24, 0xa3, 0xc3, 0x31, 0x03, 0x30, 0x21, 0x22, 0xdd, 0xa9, 0x0d, 0x2a, 0x5e, 0xac, 0xe1, 0x9c, 0x93, 0x30, 0x39, 0xa6, 0xc7, 0xa8, 0x9b, 0xad, 0xba, 0x2e, 0x48, 0x25, 0xd9, 0x2c, 0x2b, 0x29, 0xa7, 0xae, 0x20, 0xb1, 0xee, 0x2a, 0x76, 0x30, 0x5e, 0xaa, 0x7c, 0xa4, 0xf8, 0xa2, 0xa3, 0x27, 0xc3, 0xa8, 0xea, 0xa7, 0xe9, 0x2d, 0x22, 0x2a, 0xb2, 0x1b, 0x54, 0x31, 0x32, 0x27, 0xa3, 0xac, 0x10, 0xb0, 0x7c, 0x31, 0x67, 0xa5, 0x46, 0x30, 0xe5, 0xaa, 0x72, 0xa8, 0x74, 0x30, 0x31, 0x21, 0x8b, 0xa4, 0x46, 0xaa, 0xca, 0xa9, 0x9b, 0x29, 0xea, 0xa2, 0x41, 0x20, 0x07, 0xab, 0xe5, 0xac, 0xbb, 0xae, 0x7e, 0x2b, 0xe4, 0x30, 0x60, 0xae, 0x88, 0xaf, 0x1d, 0x2c, 0x73, 0xaf, 0x5f, 0x27, 0x32, 0xb1, 0xc3, 0xab, 0xff, 0x28, 0x09, 0x22, 0xc8, 0x2b, 0xc9, 0x2a, 0x95, 0xa7, 0x57, 0x24, 0x49, 0x2d, 0xf2, 0xae, 0x6d, 0xab, 0x04, 0x26, 0xc8, 0xa0, 0x5c, 0xb0, 0x91, 0x24, 0x9f, 0x2a, 0xa8, 0xa5, 0x9d, 0xac, 0xeb, 0x2f, 0x73, 0xad, 0xf5, 0x95, 0x4e, 0x2e, 0xee, 0x2c, 0x45, 0x24, 0x6b, 0xad, 0xb8, 0xb0, 0x1c, 0xa6, 0x00, 0xab, 0x1c, 0x2c, 0x08, 0x2b, 0xe9, 0xaf, 0x83, 0x27, 0xae, 0xad, 0x5a, 0x1c, 0x22, 0xb3, 0x23, 0x2d, 0x05, 0x2d, 0x9a, 0x2c, 0x39, 0xa4, 0xbc, 0x29, 0xc8, 0x29, 0x2c, 0xac, 0x6b, 0x28, 0xfb, 0x16, 0x39, 0xa9, 0xf2, 0xa5, 0xf7, 0xab, 0xe2, 0x2e, 0x42, 0x28, 0xd2, 0xab, 0x71, 0xae, 0x0b, 0xa4, 0x19, 0x26, 0xfb, 0x31, 0x47, 0xab, 0x6a, 0xaa, 0x55, 0x2a, 0x59, 0xb0, 0xb0, 0x2f, 0xd1, 0xaf, 0x42, 0xb2, 0x77, 0xac, 0x75, 0x2d, 0x3e, 0x29, 0xbd, 0x28, 0x04, 0xa7, 0x39, 0xa9, 0xef, 0x2c, 0x48, 0xb3, 0xb4, 0xb2, 0x52, 0xb4, 0x7d, 0x29, 0x3b, 0x28, 0x9e, 0x30, 0x48, 0xab, 0xa5, 0x24, 0x09, 0xaa, 0xf5, 0xad, 0x7e, 0x2a, 0x13, 0xb0, 0x1c, 0x30, 0x9c, 0xa8, 0x45, 0x25, 0x63, 0xa9, 0x1a, 0xab, 0x05, 0xa5, 0x93, 0x2b, 0xc0, 0x9d, 0xda, 0x24, 0xe2, 0xb1, 0xb6, 0x25, 0x79, 0x2d, 0xd2, 0xb0, 0x8e, 0x33, 0x70, 0xaf, 0x73, 0x1f, 0x32, 0xae, 0x2f, 0xa8, 0x94, 0x14, 0xb7, 0xa9, 0x92, 0x28, 0x25, 0xad, 0x3d, 0x2f, 0x4e, 0xaf, 0x35, 0xa7, 0x58, 0xab, 0x09, 0xa2, 0x0d, 0x2d, 0x01, 0x30, 0x44, 0x2a, 0xa2, 0xb0, 0x60, 0x24, 0xa0, 0x25, 0x16, 0x2c, 0x94, 0xaf, 0xf2, 0x20, 0xea, 0xb4, 0x27, 0x22, 0x05, 0xa7, 0x27, 0xa9, 0x9b, 0x31, 0x32, 0x2b, 0x64, 0xac, 0x5a, 0x2f, 0xb3, 0x19, 0x31, 0x2f, 0xe9, 0xb0, 0x2f, 0xa6, 0x11, 0x34, 0x35, 0xab, 0xb8, 0x2a, 0xe5, 0xaf, 0x42, 0xaf, 0x1a, 0x25, 0x5f, 0x23, 0xb9, 0xaf, 0x0a, 0x2a, 0x30, 0x27, 0xe1, 0x2b, 0x55, 0x23, 0x55, 0xac, 0x3b, 0xb0, 0xd5, 0x2c, 0xd9, 0x2e, 0x5e, 0xaf, 0x24, 0x1b, 0x97, 0x24, 0xf8, 0x25, 0xe7, 0x9c, 0x8f, 0x2f, 0x5c, 0x2f, 0x4e, 0xb0, 0x7a, 0xa8, 0x89, 0x2b, 0xf6, 0x1d, 0x64, 0xb1, 0xc8, 0x32, 0x1d, 0xaf, 0x92, 0xaa, 0xfd, 0x2f, 0x76, 0x2f, 0x5a, 0x9e, 0x22, 0xa5, 0x0c, 0x2e, 0x04, 0xa9, 0xed, 0xa8, 0x0e, 0xac, 0xc6, 0xa7, 0x5e, 0xb0, 0xcc, 0xa1, 0x40, 0xac, 0x45, 0x2b, 0x5f, 0xa9, 0xfa, 0x2f, 0x64, 0xb0, 0xf8, 0xac, 0xe7, 0x2f, 0x21, 0xb0, 0x96, 0x22, 0x49, 0xab, 0x40, 0x2f, 0x1e, 0x21, 0xa1, 0x22, 0xde, 0x29, 0x4d, 0x30, 0xf2, 0xb1, 0xa3, 0xa4, 0x3d, 0x2c, 0xd1, 0x2e, 0xe7, 0xaa, 0x22, 0x30, 0xa2, 0x9f, 0xeb, 0xb1, 0x27, 0x2b, 0x82, 0xa7, 0xa4, 0x91, 0x72, 0xaf, 0xb8, 0x29, 0xb3, 0xac, 0x05, 0xb3, 0xeb, 0xac, 0xd9, 0x1d, 0xf3, 0x2e, 0x5f, 0xae, 0x12, 0x30, 0x5b, 0x2c, 0x9c, 0x27, 0x4f, 0xb4, 0xed, 0xaf, 0xf8, 0x98, 0x5c, 0x1f, 0x16, 0xae, 0x13, 0xa9, 0x72, 0x2b, 0x22, 0x27, 0x2d, 0xae, 0xb2, 0x2d, 0xb2, 0x1e, 0xad, 0xab, 0x00, 0x2d, 0x92, 0xa9, 0xff, 0xa9, 0x32, 0x2e, 0xf3, 0xb2, 0x18, 0x1c, 0xaa, 0x2c, 0xaa, 0xa9, 0x01, 0x2d, 0xe3, 0xb0, 0xe1, 0x28, 0x0d, 0x2c, 0xec, 0x27, 0x6a, 0x2d, 0x89, 0x2b, 0xd3, 0xac, 0x09, 0x98, 0x20, 0x2d, 0x86, 0x2a, 0xbc, 0x28, 0xeb, 0x2d, 0x0e, 0x29, 0xce, 0xad, 0x4d, 0x2a, 0x4c, 0xac, 0xb6, 0xb0, 0xdd, 0xa9, 0x17, 0x2b, 0x11, 0x30, 0x0d, 0xaa, 0x4a, 0x2d, 0xa2, 0x24, 0xaf, 0x1b, 0x08, 0x24, 0x8c, 0x2f, 0x48, 0x2c, 0xea, 0xac, 0xd3, 0x28, 0x47, 0x2e, 0x19, 0xb2, 0xe3, 0x2b, 0x75, 0x31, 0xdb, 0x2c, 0xf7, 0x2a, 0x21, 0x26, 0x53, 0x28, 0x48, 0xb0, 0x06, 0xb0, 0xc6, 0x24, 0x73, 0x28, 0x8d, 0x22, 0xdf, 0xa1, 0x46, 0x2d, 0x28, 0xa9, 0xae, 0x29, 0x34, 0x2e, 0x63, 0x26, 0x15, 0x2f, 0xf5, 0xa2, 0x7e, 0xb0, 0x0e, 0x08, 0xbf, 0xa8, 0xb3, 0xa7, 0x55, 0xa9, 0x42, 0x2d, 0xd7, 0x32, 0x60, 0x21, 0x15, 0xac, 0x88, 0x2a, 0xf8, 0x94, 0x7d, 0xae, 0x18, 0x2d, 0x1f, 0xac, 0x75, 0x30, 0x1a, 0x33, 0x34, 0xa9, 0x29, 0x32, 0x0d, 0xab, 0x66, 0x2d, 0x63, 0xa4, 0x55, 0xa6, 0x47, 0x29, 0x66, 0xae, 0xd3, 0xb0, 0x94, 0xaf, 0x24, 0x30, 0x1c, 0x2c, 0x31, 0xab, 0x80, 0x2b, 0xdc, 0x2d, 0xea, 0xad, 0x54, 0x9c, 0x64, 0xb0, 0x0e, 0x31, 0x01, 0xb0, 0x46, 0x2a, 0xae, 0xae, 0x75, 0xa6, 0x67, 0x31, 0x9f, 0xa3, 0x95, 0xb4, 0x16, 0xa5, 0x7f, 0xa7, 0x5e, 0xa9, 0x67, 0x1e, 0x15, 0x30, 0xf3, 0xae, 0xaa, 0xb3, 0x12, 0xa8, 0x07, 0x2d, 0x0a, 0x20, 0x2b, 0x9e, 0x18, 0xa6, 0xca, 0xb3, 0xd2, 0x31, 0xfe, 0x29, 0xa3, 0xa8, 0xa6, 0xae, 0xac, 0xaa, 0x65, 0xac, 0x2b, 0x2d, 0x49, 0xb4, 0xfb, 0x2d, 0x53, 0x2c, 0xe8, 0xaf, 0x48, 0xa7, 0x74, 0xa9, 0x95, 0x28, 0x00, 0x2c, 0x79, 0xa3, 0x5b, 0xae, 0x34, 0xae, 0x2d, 0xa3, 0x19, 0x25, 0x81, 0x2b, 0x8d, 0xa9, 0x01, 0xb0, 0x40, 0xad, 0x39, 0xac, 0x5b, 0xb0, 0x22, 0x20, 0x4a, 0xb1, 0xa1, 0x2e, 0xae, 0xab, 0x61, 0x2d, 0xf9, 0x27, 0x56, 0xb4, 0x9a, 0xa1, 0xb2, 0x2c, 0xbe, 0xab, 0xe6, 0x25, 0x35, 0x2d, 0x9d, 0xad, 0x22, 0xac, 0xf4, 0xaa, 0x0f, 0x2e, 0x0c, 0x30, 0xfd, 0x2d, 0x55, 0x1c, 0x9d, 0xae, 0x5a, 0x29, 0xca, 0x30, 0xf7, 0xb0, 0x9d, 0xab, 0x4a, 0x22, 0x69, 0xa8, 0x41, 0xb3, 0x62, 0xa8, 0xbd, 0x22, 0xac, 0x2b, 0x49, 0xae, 0xa2, 0xa8, 0xf2, 0x28, 0x22, 0xa9, 0x0c, 0x30, 0x8d, 0xb2, 0x4b, 0x2f, 0x7b, 0xb0, 0x6d, 0xb0, 0x95, 0xac, 0x80, 0x2e, 0xe1, 0x25, 0x07, 0xa8, 0x05, 0xa7, 0x31, 0x2a, 0xa0, 0x23, 0xf5, 0x2c, 0x31, 0x24, 0xed, 0x2d, 0xc4, 0x29, 0x87, 0xaa, 0xbe, 0xac, 0x5d, 0x2c, 0x75, 0x2c, 0xca, 0xb0, 0xd3, 0x2f, 0xe9, 0x2e, 0x51, 0xa9, 0x3c, 0x93, 0x20, 0xaa, 0x56, 0xa6, 0x62, 0x2d, 0x2e, 0x2d, 0x79, 0xad, 0x6c, 0x2f, 0xef, 0xab, 0xde, 0xa4, 0x06, 0xa9, 0x19, 0x28, 0xfb, 0x28, 0xa7, 0x24, 0x04, 0x29, 0x94, 0xad, 0x46, 0xb0, 0x6a, 0x2e, 0x66, 0x2e, 0xe9, 0x29, 0xb0, 0x9c, 0x12, 0x2c, 0x99, 0x24, 0x0c, 0x30, 0x09, 0xa4, 0xff, 0xab, 0xe3, 0xa7, 0x1e, 0xaf, 0xa2, 0xa8, 0x52, 0xb0, 0x4e, 0xae, 0xd3, 0xb2, 0xd3, 0x24, 0x3b, 0xaa, 0x65, 0xa0, 0x67, 0x1d, 0xbe, 0x2b, 0xed, 0x29, 0x33, 0x2f, 0xe6, 0xaf, 0x34, 0xb1, 0x55, 0xb0, 0x1a, 0x2a, 0x42, 0x29, 0x55, 0xac, 0x4a, 0x2a, 0x56, 0xae, 0xce, 0xa8, 0x46, 0xac, 0xb7, 0x1d, 0x57, 0x2b, 0x02, 0xad, 0xff, 0x29, 0x3a, 0x2a, 0x3c, 0x2d, 0xcd, 0xae, 0x3e, 0x30, 0x1a, 0x31, 0x8f, 0xb0, 0xa0, 0xad, 0xbe, 0x2e, 0xd7, 0xad, 0xac, 0xb1, 0xde, 0x30, 0x52, 0xb3, 0x0d, 0xb0, 0x63, 0xab, 0xc6, 0xa9, 0x7a, 0xb2, 0x33, 0xa9, 0x28, 0x9d, 0xfc, 0xb3, 0x1e, 0x34, 0xbc, 0x29, 0xcf, 0xb1, 0x9d, 0xaf, 0x58, 0xa8, 0x90, 0xac, 0xa2, 0x27, 0x5c, 0x2c, 0x21, 0x33, 0x49, 0xad, 0x9b, 0x28, 0x74, 0x30, 0xef, 0x28, 0x42, 0xb1, 0x42, 0x31, 0x2d, 0x9c, 0x1c, 0x32, 0xb3, 0x30, 0xcd, 0xae, 0x87, 0xad, 0x89, 0x2c, 0x70, 0x2e, 0x7e, 0xb3, 0x39, 0x2a, 0x21, 0xad, 0x61, 0x21, 0x59, 0xa7, 0x5f, 0x34, 0x2b, 0xb1, 0xbc, 0xaf, 0x74, 0x1d, 0x3d, 0xa8, 0x3b, 0xa8, 0x44, 0x21, 0x7e, 0x8e, 0xaa, 0x25, 0x24, 0x2b, 0xb3, 0xb2, 0x8c, 0x2d, 0x57, 0xaa, 0xfc, 0x32, 0xc6, 0x24, 0xd4, 0x29, 0x71, 0x2a, 0x4a, 0xa0, 0xb7, 0xae, 0x8d, 0x31, 0xbc, 0xa5, 0x09, 0xac, 0xfc, 0x30, 0x94, 0xb3, 0xae, 0xb1, 0x20, 0x20, 0xc9, 0xb0, 0xfc, 0x9e, 0x3d, 0x2f, 0xdb, 0xab, 0xb4, 0x2b, 0x62, 0xa6, 0x48, 0x2d, 0x51, 0xb2, 0x00, 0xb0, 0x5b, 0x1d, 0x13, 0xb0, 0x3c, 0x25, 0x35, 0xb0, 0xa9, 0x27, 0x08, 0xa9, 0x60, 0x0f, 0xb1, 0xae, 0xc6, 0xa7, 0xf3, 0xa4, 0x51, 0x2b, 0x12, 0xb0, 0xfb, 0x30, 0x00, 0x34, 0xcf, 0xa6, 0xe0, 0xaf, 0x35, 0x30, 0xca, 0xaf, 0xda, 0xa5, 0x20, 0x2d, 0x48, 0x2d, 0x0e, 0xb2, 0xb0, 0x31, 0x14, 0x2d, 0x91, 0x29, 0x13, 0x32, 0x37, 0xaf, 0xd4, 0xb0, 0xff, 0xa9, 0x9a, 0xb1, 0x7d, 0xb1, 0x29, 0xaf, 0xad, 0xac, 0x97, 0x2d, 0x9b, 0xa1, 0x58, 0x97, 0xe6, 0x24, 0x4a, 0xa4, 0x0f, 0xab, 0xff, 0xad, 0xb3, 0x2c, 0x78, 0x84, 0xb2, 0x17, 0xb4, 0xaf, 0x06, 0xaf, 0x8e, 0x31, 0x71, 0x2a, 0x61, 0xaa, 0xe6, 0x99, 0x67, 0xae, 0x2d, 0x29, 0x5f, 0xaf, 0xf2, 0xac, 0x72, 0x2b, 0x83, 0x1d, 0x6f, 0xae, 0x3c, 0xb4, 0x70, 0x32, 0x78, 0xb0, 0x60, 0xad, 0xf9, 0x2b, 0x86, 0x30, 0xb3, 0x20, 0x36, 0xab, 0x1e, 0x2c, 0x81, 0x26, 0xdd, 0xab, 0xa0, 0x9e, 0x04, 0xab, 0xed, 0xad, 0x49, 0xab, 0xd1, 0xa3, 0xe0, 0xaa, 0x90, 0xaf, 0x92, 0x31, 0x82, 0xaf, 0x1f, 0x1f, 0x99, 0x26, 0x47, 0x33, 0x47, 0xb1, 0xda, 0x30, 0xa6, 0xb4, 0xd2, 0x2e, 0xb8, 0x27, 0xb9, 0xac, 0x7f, 0xa8, 0x49, 0xac, 0xd7, 0x2d, 0xd2, 0xaf, 0x46, 0x31, 0xbb, 0xb1, 0xa5, 0x2c, 0x7c, 0x30, 0xf3, 0x30, 0xb3, 0xad, 0xc5, 0x9e, 0x2b, 0x22, 0x40, 0xb2, 0x35, 0x1d, 0xe4, 0xad, 0xf4, 0x2c, 0x35, 0x9e, 0x5c, 0xa8, 0x60, 0xb0, 0x8e, 0xb2, 0x40, 0x2b, 0xf0, 0xad, 0x4e, 0xae, 0x9f, 0x2e, 0xb7, 0x22, 0x54, 0x30, 0xcc, 0xb1, 0x34, 0x33, 0x61, 0xb0, 0x76, 0x2b, 0xb2, 0x30, 0x27, 0xb1, 0x63, 0xa3, 0x09, 0x31, 0x5d, 0x2e, 0x1e, 0xb4, 0x07, 0x2b, 0xc6, 0xad, 0x01, 0x2f, 0xff, 0xad, 0xf6, 0x2f, 0x89, 0xb3, 0x7b, 0xb1, 0x6d, 0x2b, 0xa5, 0x2d, 0x04, 0xb0, 0x27, 0xa1, 0x9c, 0xa8, 0x64, 0x2d, 0x9f, 0x2d, 0x13, 0xac, 0x08, 0x2f, 0xcb, 0x31, 0x58, 0xa7, 0x04, 0xa8, 0xb4, 0xad, 0x92, 0x2e, 0xea, 0x2a, 0x54, 0x25, 0x18, 0xad, 0x0b, 0xaf, 0xa6, 0xac, 0xae, 0x31, 0x82, 0xaf, 0x05, 0x98, 0x00, 0x30, 0xe2, 0xb1, 0x47, 0xb1, 0x24, 0x30, 0x58, 0xac, 0xd5, 0xaf, 0xc8, 0xac, 0xf2, 0xa2, 0x4f, 0xb1, 0x3c, 0xad, 0x4e, 0x29, 0x68, 0xaf, 0x36, 0x21, 0xc1, 0x9f, 0x05, 0xa7, 0xbc, 0x33, 0x50, 0xa3, 0x59, 0xa1, 0xf7, 0xa9, 0x16, 0xad, 0x1a, 0xaa, 0x0a, 0xb0, 0xad, 0x35, 0x9d, 0x31, 0x63, 0xac, 0x7a, 0x29, 0x4e, 0x29, 0x82, 0x2c, 0xe2, 0x31, 0x1c, 0x32, 0xbe, 0x29, 0x00, 0xad, 0x37, 0xb0, 0x61, 0x2f, 0x89, 0xb3, 0xf5, 0x2e, 0xae, 0xae, 0x20, 0x2e, 0x48, 0x2a, 0x83, 0x2b, 0x03, 0xb1, 0x29, 0xa7, 0x4f, 0xa8, 0xd2, 0xa9, 0xd5, 0x2e, 0x8b, 0x29, 0xa8, 0xae, 0x15, 0x31, 0xa8, 0x34, 0x7d, 0x2f, 0xbc, 0x1e, 0xed, 0xad, 0xaf, 0xaa, 0x4c, 0xb1, 0x12, 0xa4, 0xc3, 0x2d, 0x42, 0xb0, 0x18, 0x1c, 0x56, 0x2f, 0x38, 0xa2, 0x61, 0x2e, 0x9f, 0xae, 0x6c, 0x32, 0x65, 0xab, 0xea, 0x2a, 0x12, 0x2e, 0x40, 0xb2, 0xf3, 0x90, 0x46, 0x26, 0x67, 0x32, 0x97, 0xa6, 0x87, 0xa0, 0x80, 0x1c, 0x79, 0xaa, 0xf7, 0xaa, 0x89, 0xb2, 0x21, 0x2a, 0x37, 0xb1, 0x9e, 0xa6, 0x74, 0xad, 0x43, 0xa6, 0x1c, 0xb5, 0x98, 0xaa, 0x85, 0xaf, 0xa1, 0x30, 0x1c, 0xa9, 0x13, 0x30, 0x31, 0x29, 0x59, 0xb1, 0x7b, 0xb2, 0xfe, 0x30, 0xea, 0xa5, 0x29, 0x32, 0xd2, 0xa5, 0x7b, 0xa9, 0x9d, 0x21, 0xda, 0x34, 0x1a, 0x2c, 0x00, 0xa7, 0x39, 0x29, 0x02, 0xac, 0x43, 0x2a, 0x6c, 0xad, 0x7e, 0x2d, 0xf6, 0xb0, 0xf2, 0xa7, 0xad, 0xab, 0x17, 0xb0, 0x30, 0x2f, 0x31, 0x25, 0xa3, 0xb0, 0x71, 0xa1, 0x1a, 0x2f, 0xdb, 0xb1, 0xfc, 0x1e, 0x95, 0x2b, 0xb8, 0x31, 0x8d, 0xb0, 0x0b, 0x24, 0xa3, 0x1c, 0x2c, 0x30, 0x74, 0xb4, 0xb4, 0x30, 0x3b, 0xa8, 0x9f, 0x32, 0x03, 0x32, 0x3e, 0xa9, 0x5e, 0xaf, 0x44, 0x2d, 0xc3, 0xae, 0x99, 0xa7, 0x7b, 0x2f, 0xdd, 0xb0, 0x7f, 0xaa, 0xbf, 0xab, 0x74, 0x20, 0xd4, 0xa3, 0x33, 0xac, 0xf2, 0xab, 0x18, 0x30, 0xbb, 0x22, 0x13, 0xb0, 0x0a, 0xb4, 0xe9, 0x2b, 0x94, 0x2e, 0xb4, 0xac, 0xef, 0x30, 0xa7, 0x28, 0x6f, 0x23, 0x63, 0xac, 0x0c, 0xa6, 0x79, 0x30, 0x12, 0x33, 0xef, 0xae, 0xdc, 0x33, 0xf0, 0xac, 0xec, 0x1e, 0xa6, 0x2e, 0xe5, 0xb2, 0x7f, 0x2d, 0x13, 0x2a, 0x8b, 0xaf, 0xb4, 0xad, 0x9c, 0x30, 0x53, 0xb2, 0x9f, 0xb0, 0xed, 0x20, 0x9e, 0x31, 0x54, 0xb0, 0xdb, 0xae, 0x44, 0xa6, 0xd0, 0x30, 0x07, 0xac, 0xd2, 0xaf, 0x8a, 0xad, 0xee, 0xb0, 0x17, 0x2d, 0x7a, 0xb0, 0xb0, 0xab, 0x40, 0x2a, 0xb5, 0xa9, 0x91, 0xb1, 0xff, 0x30, 0x1e, 0x32, 0xb9, 0xa5, 0x97, 0x28, 0xec, 0x2d, 0xc0, 0xad, 0x30, 0xa9, 0xa4, 0x2a, 0xa9, 0xaf, 0x71, 0x26, 0x21, 0x2e, 0x9c, 0x25, 0x31, 0xb0, 0xfc, 0x2f, 0xec, 0xb0, 0x93, 0x2d, 0xc8, 0xa2, 0xe4, 0x19, 0x07, 0xb0, 0x4c, 0xac, 0x98, 0x2c, 0x4e, 0xac, 0x0d, 0xb5, 0x5d, 0xac, 0xb9, 0x2c, 0x59, 0x1f, 0x72, 0x31, 0x89, 0xaf, 0x0d, 0x2c, 0x08, 0x31, 0x71, 0x31, 0xeb, 0xaf, 0x9a, 0x28, 0xa0, 0x2d, 0x35, 0xa8, 0x0c, 0xac, 0xdd, 0x2f, 0x47, 0xb1, 0x19, 0xad, 0x7f, 0x26, 0xf4, 0xa9, 0x5c, 0xb2, 0x18, 0x30, 0x01, 0xa9, 0xde, 0xae, 0x6c, 0x2d, 0x6d, 0xb1, 0xb8, 0xb0, 0x38, 0x28, 0x60, 0x2f, 0x59, 0xae, 0xc4, 0xae, 0x4c, 0x2e, 0x6f, 0xac, 0xa4, 0xaa, 0x9b, 0xa3, 0xdb, 0x22, 0x2a, 0xb0, 0x90, 0x32, 0x86, 0xb0, 0xc8, 0x31, 0x9f, 0x2e, 0x8c, 0x30, 0x1b, 0x26, 0xb9, 0xa8, 0x29, 0x2c, 0x5f, 0xac, 0x04, 0xb3, 0x14, 0x2f, 0x90, 0xaa, 0x32, 0xb0, 0x7f, 0x25, 0xfe, 0xad, 0x05, 0xb2, 0x2b, 0xae, 0x4a, 0xaa, 0xa8, 0xb0, 0xec, 0xab, 0xf8, 0x26, 0x44, 0xac, 0x1c, 0x31, 0x99, 0x29, 0x48, 0xac, 0x2f, 0xa5, 0x8a, 0x2d, 0x40, 0x26, 0x41, 0x31, 0x4e, 0x30, 0x40, 0x2d, 0xf5, 0x31, 0xca, 0x28, 0x0b, 0xb4, 0x72, 0xaf, 0x1f, 0xb1, 0x42, 0x34, 0xd8, 0xa8, 0x04, 0x31, 0x92, 0x31, 0x35, 0xab, 0x7e, 0x2d, 0x70, 0x2d, 0x50, 0xb0, 0xa6, 0xa2, 0xbc, 0x29, 0x1c, 0xad, 0x3a, 0x23, 0x50, 0x23, 0x7e, 0x2e, 0x65, 0xaf, 0xca, 0x2e, 0x49, 0xae, 0xce, 0x2f, 0x13, 0x28, 0x1e, 0xac, 0x0b, 0xaf, 0x15, 0xb0, 0xd7, 0xb3, 0x6c, 0x2d, 0x56, 0x2a, 0x5f, 0xad, 0x85, 0x34, 0x85, 0x2d, 0xc4, 0x28, 0x95, 0x2c, 0x8b, 0xb1, 0x76, 0x31, 0xd8, 0xa5, 0xf3, 0x33, 0x66, 0xaf, 0x5b, 0xaf, 0x18, 0xb1, 0xb6, 0x28, 0x01, 0x25, 0x01, 0x28, 0x8e, 0x32, 0x78, 0x2d, 0xac, 0xb0, 0xbc, 0xb1, 0x9a, 0x2e, 0x65, 0x30, 0x59, 0xa4, 0x41, 0x28, 0x6d, 0xb0, 0x33, 0xb0, 0x44, 0x30, 0x94, 0x2a, 0x80, 0xb0, 0xe0, 0xb5, 0x83, 0x2c, 0x93, 0xac, 0xd1, 0x28, 0x26, 0xa4, 0x7b, 0xb3, 0x3d, 0x1f, 0xdf, 0x30, 0xee, 0xa4, 0x5b, 0xac, 0xc0, 0x24, 0x82, 0xa4, 0x0b, 0x2c, 0x69, 0x2c, 0x9c, 0x31, 0x30, 0x2c, 0xcb, 0xb2, 0x12, 0x18, 0x7b, 0xaf, 0xeb, 0x31, 0x06, 0x2f, 0x8d, 0x27, 0x40, 0xa9, 0xe5, 0xa3, 0x26, 0xa8, 0x37, 0xb1, 0xf4, 0x2f, 0x7a, 0xab, 0x4e, 0xa3, 0xc2, 0x2a, 0x05, 0x2f, 0x9c, 0xad, 0xab, 0xab, 0x16, 0x2e, 0xbb, 0xb4, 0x36, 0xa7, 0x9a, 0x28, 0xe0, 0x2d, 0x5c, 0x23, 0x44, 0xb0, 0xa2, 0xae, 0xeb, 0x0f, 0x81, 0xad, 0xd9, 0xa9, 0xd2, 0x2f, 0x4e, 0xaf, 0xa0, 0x25, 0x13, 0xa7, 0x36, 0x16, 0x3f, 0xb0, 0x89, 0x1a, 0x10, 0x25, 0xc4, 0xa8, 0x3a, 0xa6, 0xc3, 0xb0, 0x44, 0x2a, 0xa1, 0x1e, 0x63, 0xa5, 0x60, 0x33, 0x22, 0xb2, 0x23, 0xac, 0x41, 0x2f, 0xab, 0x33, 0x58, 0xb0, 0x3b, 0xb1, 0xf3, 0x31, 0x9f, 0x2a, 0x57, 0xad, 0xc6, 0xa8, 0xfd, 0x26, 0x0d, 0x14, 0x05, 0x2c, 0x7f, 0xb0, 0xca, 0x30, 0xd9, 0xa7, 0x79, 0x2c, 0x80, 0x28, 0xc1, 0x8c, 0x31, 0x2e, 0x71, 0x2e, 0x8f, 0x23, 0xbb, 0xae, 0xe5, 0xad, 0x4d, 0x31, 0x99, 0x27, 0x22, 0xad, 0x2f, 0xb0, 0x5f, 0x21, 0xd7, 0xaa, 0xa7, 0x25, 0x18, 0x2c, 0xd5, 0x1a, 0xc6, 0xa5, 0x0d, 0xb2, 0xa1, 0x2d, 0x80, 0x29, 0xec, 0xa9, 0x1c, 0xb3, 0xd4, 0x27, 0x93, 0x2a, 0xf6, 0xab, 0x9d, 0x2f, 0x8c, 0x31, 0xdc, 0x23, 0x67, 0xa6, 0x24, 0x2c, 0x28, 0x30, 0x42, 0x24, 0x01, 0xad, 0x85, 0x32, 0x80, 0x2c, 0xf6, 0x34, 0x76, 0x2d, 0xb3, 0x92, 0x6b, 0x2e, 0x4c, 0x34, 0xef, 0x2f, 0x4b, 0xaf, 