/*
 * BSL Gesture Recognition Model
 *
 * Model Type: 1D_CNN_Arduino
 * Timestamp:  20250718_151146
 * Model Size: 11144 bytes
 * Status:     有效的TFLite模型
 * 
 * 归一化参数来自训练数据的StandardScaler
 */

#ifndef BSL_MODEL_H_20250718_151146
#define BSL_MODEL_H_20250718_151146

// 模型配置
const int BSL_MODEL_FEATURES = 5;
const int BSL_MODEL_CLASSES = 11;
const bool BSL_MODEL_VALID = true;

// 归一化参数 (StandardScaler)
const float scaler_mean[BSL_MODEL_FEATURES] = { 236.43887165f, 152.37936569f, 328.61752741f, 316.69635454f, 101.83935373f };
const float scaler_scale[BSL_MODEL_FEATURES] = { 177.03868095f, 153.40072310f, 204.37148658f, 203.09171501f, 121.78085463f };

// 归一化函数
inline void normalize_features(float* features, int length) {
    for (int i = 0; i < length && i < BSL_MODEL_FEATURES; i++) {
        features[i] = (features[i] - scaler_mean[i]) / scaler_scale[i];
    }
}

// TFLite模型数据
alignas(16) const unsigned char model_data[] = {
    0x1c, 0x00, 0x00, 0x00, 0x54, 0x46, 0x4c, 0x33, 0x14, 0x00, 0x20, 0x00, 0x1c, 0x00, 0x18, 0x00, 0x14, 0x00, 0x10, 0x00, 0x0c, 0x00, 0x00, 0x00, 0x08, 0x00, 0x04, 0x00, 0x14, 0x00, 0x00, 0x00, 0x1c, 0x00, 0x00, 0x00, 0x1c, 0x00, 0x00, 0x00, 0xa4, 0x00, 0x00, 0x00, 0x10, 0x1c, 0x00, 0x00, 0x20, 0x1c, 0x00, 0x00, 0xc4, 0x2a, 0x00, 0x00, 0x03, 0x00, 0x00, 0x00, 0x00, 0x00, 0x00, 0x00, 0x03, 0x00, 0x00, 0x00, 0x64, 0x00, 0x00, 0x00, 0x2c, 0x00, 0x00, 0x00, 0x04, 0x00, 0x00, 0x00, 0xb0, 0xff, 0xff, 0xff, 0x21, 0x00, 0x00, 0x00, 0x04, 0x00, 0x00, 0x00, 0x13, 0x00, 0x00, 0x00, 0x43, 0x4f, 0x4e, 0x56, 0x45, 0x52, 0x53, 0x49, 0x4f, 0x4e, 0x5f, 0x4d, 0x45, 0x54, 0x41, 0x44, 0x41, 0x54, 0x41, 0x00, 0xd4, 0xff, 0xff, 0xff, 0x20, 0x00, 0x00, 0x00, 0x04, 0x00, 0x00, 0x00, 0x19, 0x00, 0x00, 0x00, 0x72, 0x65, 0x64, 0x75, 0x63, 0x65, 0x64, 0x5f, 0x70, 0x72, 0x65, 0x63, 0x69, 0x73, 0x69, 0x6f, 0x6e, 0x5f, 0x73, 0x75, 0x70, 0x70, 0x6f, 0x72, 0x74, 0x00, 0x00, 0x00, 0x08, 0x00, 0x0c, 0x00, 0x08, 0x00, 0x04, 0x00, 0x08, 0x00, 0x00, 0x00, 0x1f, 0x00, 0x00, 0x00, 0x04, 0x00, 0x00, 0x00, 0x13, 0x00, 0x00, 0x00, 0x6d, 0x69, 0x6e, 0x5f, 0x72, 0x75, 0x6e, 0x74, 0x69, 0x6d, 0x65, 0x5f, 0x76, 0x65, 0x72, 0x73, 0x69, 0x6f, 0x6e, 0x00, 0x22, 0x00, 0x00, 0x00, 0x68, 0x1b, 0x00, 0x00, 0x60, 0x1b, 0x00, 0x00, 0x40, 0x1b, 0x00, 0x00, 0xf0, 0x1a, 0x00, 0x00, 0xc8, 0x1a, 0x00, 0x00, 0xb4, 0x1a, 0x00, 0x00, 0xa4, 0x12, 0x00, 0x00, 0xd4, 0x0f, 0x00, 0x00, 0xe4, 0x0d, 0x00, 0x00, 0xd4, 0x01, 0x00, 0x00, 0xb8, 0x01, 0x00, 0x00, 0x88, 0x01, 0x00, 0x00, 0x38, 0x01, 0x00, 0x00, 0x30, 0x01, 0x00, 0x00, 0x28, 0x01, 0x00, 0x00, 0x20, 0x01, 0x00, 0x00, 0x18, 0x01, 0x00, 0x00, 0x10, 0x01, 0x00, 0x00, 0x08, 0x01, 0x00, 0x00, 0x00, 0x01, 0x00, 0x00, 0xf8, 0x00, 0x00, 0x00, 0xf0, 0x00, 0x00, 0x00, 0xe8, 0x00, 0x00, 0x00, 0xe0, 0x00, 0x00, 0x00, 0xd8, 0x00, 0x00, 0x00, 0xd0, 0x00, 0x00, 0x00, 0xc8, 0x00, 0x00, 0x00, 0xc0, 0x00, 0x00, 0x00, 0xb8, 0x00, 0x00, 0x00, 0xb0, 0x00, 0x00, 0x00, 0xa8, 0x00, 0x00, 0x00, 0x88, 0x00, 0x00, 0x00, 0x6c, 0x00, 0x00, 0x00, 0x04, 0x00, 0x00, 0x00, 0x66, 0xe4, 0xff, 0xff, 0x04, 0x00, 0x00, 0x00, 0x58, 0x00, 0x00, 0x00, 0x0c, 0x00, 0x00, 0x00, 0x08, 0x00, 0x0e, 0x00, 0x08, 0x00, 0x04, 0x00, 0x08, 0x00, 0x00, 0x00, 0x10, 0x00, 0x00, 0x00, 0x28, 0x00, 0x00, 0x00, 0x00, 0x00, 0x06, 0x00, 0x08, 0x00, 0x04, 0x00, 0x06, 0x00, 0x00, 0x00, 0x04, 0x00, 0x00, 0x00, 0x01, 0x00, 0x00, 0x00, 0xe9, 0x03, 0x00, 0x00, 0x00, 0x00, 0x0a, 0x00, 0x10, 0x00, 0x0c, 0x00, 0x08, 0x00, 0x04, 0x00, 0x0a, 0x00, 0x00, 0x00, 0x03, 0x00, 0x00, 0x00, 0x02, 0x00, 0x00, 0x00, 0x04, 0x00, 0x00, 0x00, 0x06, 0x00, 0x00, 0x00, 0x32, 0x2e, 0x31, 0x36, 0x2e, 0x32, 0x00, 0x00, 0xca, 0xe4, 0xff, 0xff, 0x04, 0x00, 0x00, 0x00, 0x0b, 0x00, 0x00, 0x00, 0x66, 0x70, 0x31, 0x36, 0x61, 0x63, 0x63, 0x66, 0x70, 0x33, 0x32, 0x00, 0xe2, 0xe4, 0xff, 0xff, 0x04, 0x00, 0x00, 0x00, 0x10, 0x00, 0x00, 0x00, 0x31, 0x2e, 0x31, 0x35, 0x2e, 0x30, 0x00, 0x00, 0x00, 0x00, 0x00, 0x00, 0x00, 0x00, 0x00, 0x00, 0x18, 0xd7, 0xff, 0xff, 0x1c, 0xd7, 0xff, 0xff, 0x20, 0xd7, 0xff, 0xff, 0x24, 0xd7, 0xff, 0xff, 0x28, 0xd7, 0xff, 0xff, 0x2c, 0xd7, 0xff, 0xff, 0x30, 0xd7, 0xff, 0xff, 0x34, 0xd7, 0xff, 0xff, 0x38, 0xd7, 0xff, 0xff, 0x3c, 0xd7, 0xff, 0xff, 0x40, 0xd7, 0xff, 0xff, 0x44, 0xd7, 0xff, 0xff, 0x48, 0xd7, 0xff, 0xff, 0x4c, 0xd7, 0xff, 0xff, 0x50, 0xd7, 0xff, 0xff, 0x54, 0xd7, 0xff, 0xff, 0x58, 0xd7, 0xff, 0xff, 0x5c, 0xd7, 0xff, 0xff, 0x46, 0xe5, 0xff, 0xff, 0x04, 0x00, 0x00, 0x00, 0x40, 0x00, 0x00, 0x00, 0x54, 0x25, 0x69, 0x2c, 0x12, 0x2d, 0x91, 0x28, 0x9f, 0x24, 0xf5, 0x2d, 0x2f, 0x25, 0xb4, 0x2d, 0x55, 0x2b, 0x5a, 0x27, 0x01, 0x29, 0xad, 0x2c, 0x08, 0x29, 0xb7, 0x2e, 0x77, 0x2c, 0x85, 0x18, 0x9f, 0x2e, 0x7f, 0x2d, 0x22, 0x23, 0xc6, 0x29, 0x42, 0x2c, 0x06, 0x28, 0xd5, 0x2a, 0x1c, 0x2d, 0x2c, 0x2f, 0x08, 0x2f, 0x4f, 0x15, 0x01, 0x2b, 0x7e, 0x26, 0xdd, 0x2d, 0xb8, 0x2c, 0xcf, 0x21, 0x92, 0xe5, 0xff, 0xff, 0x04, 0x00, 0x00, 0x00, 0x20, 0x00, 0x00, 0x00, 0x8a, 0x2c, 0xda, 0x2d, 0x2b, 0x2e, 0xc6, 0x2c, 0xa3, 0x31, 0xb9, 0x2d, 0x5e, 0x31, 0x23, 0x2e, 0x37, 0x31, 0xf8, 0x2c, 0x23, 0x32, 0x19, 0x30, 0x45, 0x31, 0xc2, 0x30, 0x09, 0x2b, 0x9f, 0x2d, 0xbe, 0xe5, 0xff, 0xff, 0x04, 0x00, 0x00, 0x00, 0x0c, 0x00, 0x00, 0x00, 0x01, 0x00, 0x00, 0x00, 0x17, 0x00, 0x00, 0x00, 0x20, 0x00, 0x00, 0x00, 0xd6, 0xe5, 0xff, 0xff, 0x04, 0x00, 0x00, 0x00, 0x00, 0x0c, 0x00, 0x00, 0x75, 0x2c, 0x76, 0x2f, 0x5b, 0x33, 0x37, 0xa4, 0x8c, 0xb5, 0xcd, 0xac, 0x83, 0xad, 0xb7, 0x31, 0x2f, 0xb4, 0xca, 0xad, 0xe0, 0x34, 0x74, 0x34, 0x1a, 0xae, 0x4d, 0xae, 0x17, 0xb1, 0x97, 0xb0, 0x3b, 0x33, 0x98, 0xb2, 0xc3, 0x32, 0x4c, 0x2e, 0xab, 0xb4, 0xf3, 0xa8, 0x1a, 0xb4, 0xfb, 0xaf, 0x96, 0xaf, 0x7d, 0x29, 0xa5, 0x31, 0x1b, 0x2f, 0x06, 0x30, 0xd5, 0x2d, 0x9a, 0x29, 0xaa, 0xb1, 0x23, 0x32, 0xcb, 0xa4, 0xf6, 0x21, 0x46, 0x31, 0x08, 0xb5, 0x24, 0xad, 0xac, 0x92, 0x9c, 0x33, 0xab, 0xb3, 0xf5, 0x2e, 0x0e, 0x30, 0xe9, 0x2d, 0xde, 0xa8, 0x4e, 0x31, 0x56, 0x2b, 0xdc, 0x32, 0xe1, 0x2c, 0xcc, 0x21, 0x76, 0xa9, 0x4f, 0x1e, 0x6d, 0x2c, 0x6d, 0x2e, 0xf2, 0x31, 0x38, 0x28, 0x7b, 0x2c, 0x45, 0xb2, 0xd9, 0xae, 0x36, 0x28, 0xa1, 0x32, 0xd9, 0x29, 0x61, 0x2d, 0xa9, 0xb0, 0xa0, 0x24, 0x57, 0xae, 0xb0, 0xa8, 0x98, 0xae, 0xd5, 0xb2, 0x47, 0x33, 0xcd, 0x24, 0x76, 0x23, 0xc7, 0x31, 0xf1, 0xaf, 0x72, 0x2d, 0x45, 0xb1, 0x5b, 0x34, 0xa3, 0xa3, 0x7a, 0xb1, 0x89, 0xb2, 0xbe, 0x24, 0xd8, 0x32, 0xc0, 0xab, 0xb1, 0xb0, 0x09, 0xb3, 0xd8, 0x2a, 0x91, 0x28, 0x36, 0x9e, 0x7d, 0x2f, 0x41, 0x2d, 0x31, 0x32, 0x19, 0xa3, 0x2e, 0x34, 0xc0, 0xb1, 0xac, 0xaf, 0x9d, 0xb3, 0xc8, 0x9d, 0x91, 0xa2, 0x64, 0xa2, 0x9b, 0xa9, 0xcb, 0x35, 0xc3, 0x30, 0x11, 0x30, 0x41, 0x2e, 0x2a, 0x2e, 0x88, 0xa4, 0x48, 0x30, 0xc3, 0xa3, 0x14, 0xad, 0x46, 0xac, 0xc5, 0xb1, 0xb1, 0x26, 0xdd, 0x90, 0x68, 0xaa, 0x83, 0x98, 0x11, 0xb3, 0x8a, 0x2f, 0x02, 0xae, 0x98, 0x31, 0x7d, 0x1b, 0xf8, 0x30, 0xac, 0xb4, 0xc9, 0x2f, 0xc3, 0x34, 0x8d, 0xae, 0x40, 0x30, 0x7f, 0x2a, 0x06, 0xb3, 0xed, 0xb4, 0xac, 0x31, 0x37, 0x29, 0xbe, 0xae, 0x70, 0x35, 0xf1, 0x33, 0x16, 0xb0, 0x4b, 0x31, 0x04, 0xaa, 0xdb, 0xb4, 0x40, 0x34, 0xa7, 0x33, 0x16, 0xa9, 0xae, 0xac, 0x2a, 0xb2, 0x5c, 0x26, 0xc5, 0x30, 0x67, 0xad, 0x64, 0x9b, 0xcb, 0x33, 0x3c, 0x30, 0x1c, 0x32, 0x0f, 0xae, 0xee, 0x9d, 0xcf, 0x2c, 0x49, 0x32, 0x87, 0xac, 0x11, 0xac, 0x09, 0x33, 0xcb, 0x30, 0x71, 0x1f, 0x71, 0xb0, 0x25, 0x35, 0xf8, 0xae, 0x6d, 0xaf, 0x76, 0x34, 0x41, 0x2a, 0xdf, 0xb0, 0x99, 0xac, 0x1d, 0xb3, 0x64, 0xb0, 0x3a, 0x21, 0x97, 0x31, 0x1d, 0xa8, 0x61, 0x31, 0x56, 0xb2, 0xca, 0x32, 0x67, 0xa6, 0x45, 0x34, 0xfe, 0x30, 0x11, 0x31, 0x81, 0x1e, 0x6e, 0x2b, 0xf8, 0xb1, 0x56, 0x34, 0x4a, 0xb0, 0xe8, 0xa9, 0x4c, 0x33, 0x64, 0xae, 0x9f, 0x30, 0x48, 0x33, 0xd4, 0x30, 0x10, 0x32, 0xc5, 0x31, 0xf8, 0x27, 0xca, 0xa9, 0x28, 0x2d, 0xd8, 0xaa, 0x72, 0xa1, 0x4e, 0x2b, 0xce, 0xb1, 0xac, 0x2f, 0x72, 0xb0, 0xe2, 0xa7, 0xf6, 0x26, 0xd1, 0x32, 0x1e, 0x2d, 0x53, 0x2d, 0x33, 0x2b, 0x55, 0x20, 0x6d, 0x29, 0xb6, 0xad, 0x65, 0xb1, 0x21, 0x25, 0x45, 0x1b, 0x0b, 0xa5, 0x13, 0x9b, 0x2c, 0xb0, 0x05, 0x2f, 0xe8, 0x28, 0xa9, 0x31, 0x3d, 0x31, 0xb8, 0x1c, 0x79, 0x2e, 0x51, 0x2a, 0x68, 0xb3, 0x4a, 0x32, 0x0c, 0xb0, 0xee, 0x2d, 0x54, 0x31, 0x96, 0xa6, 0xc4, 0x33, 0x0a, 0xb4, 0x9a, 0x2f, 0xf8, 0x26, 0x1a, 0xa2, 0xf0, 0x32, 0x9e, 0x32, 0xa7, 0xb1, 0x07, 0xab, 0x78, 0x2e, 0xbd, 0x9f, 0xec, 0xaf, 0x1d, 0xa9, 0xe4, 0xa8, 0xed, 0xb0, 0xe9, 0x30, 0x2a, 0xac, 0x39, 0x32, 0xf2, 0x2d, 0xee, 0x2e, 0x8e, 0x1f, 0xba, 0x32, 0xf5, 0xac, 0xaa, 0x91, 0x01, 0x31, 0x26, 0xac, 0x82, 0x30, 0xce, 0x24, 0x3d, 0xae, 0xc1, 0xab, 0xa3, 0xb0, 0x36, 0xb0, 0x5c, 0x30, 0x4c, 0xae, 0xf1, 0x34, 0x96, 0x33, 0xa5, 0x2f, 0x01, 0x2e, 0x71, 0x2d, 0x65, 0xb0, 0x9a, 0x30, 0x4d, 0xa5, 0xbd, 0x34, 0x70, 0xb4, 0xa2, 0xaf, 0x3f, 0x2a, 0x50, 0x33, 0x6a, 0xaf, 0x38, 0x31, 0x1c, 0x33, 0x22, 0xa4, 0xc0, 0x32, 0xdb, 0x31, 0x98, 0x29, 0xd2, 0x2d, 0x2b, 0xb0, 0x9c, 0xa6, 0x83, 0xab, 0x31, 0xa2, 0x9b, 0xac, 0x1a, 0x34, 0x6e, 0x2d, 0xe2, 0xaf, 0x15, 0x2c, 0x80, 0xb0, 0x3d, 0xab, 0x72, 0xb0, 0x79, 0xad, 0x92, 0x20, 0x66, 0xad, 0x7a, 0xac, 0x89, 0xb2, 0xb8, 0x32, 0xbb, 0x33, 0x6d, 0x2e, 0x0c, 0x2d, 0x43, 0x34, 0x72, 0x30, 0x3a, 0x33, 0xda, 0x35, 0x10, 0xa5, 0x35, 0x2d, 0x61, 0xb2, 0x91, 0xb1, 0xe0, 0x31, 0x63, 0x30, 0x92, 0x32, 0x47, 0x2d, 0xcf, 0x32, 0xdb, 0x32, 0x16, 0xb2, 0x40, 0x29, 0x67, 0xa9, 0x41, 0x26, 0xed, 0x33, 0xe9, 0x33, 0x38, 0xb3, 0x76, 0x32, 0x34, 0xa4, 0xdc, 0xad, 0xf1, 0x31, 0x35, 0x30, 0x3d, 0x31, 0xe6, 0xa8, 0x6b, 0x2d, 0xfd, 0x14, 0x59, 0xab, 0x6f, 0x31, 0xf5, 0x32, 0xd6, 0xae, 0x7d, 0xad, 0x66, 0x34, 0xd6, 0x29, 0xe2, 0x2f, 0x5f, 0xb0, 0xa4, 0x2c, 0x7a, 0xa9, 0x7b, 0x34, 0x64, 0x2f, 0x30, 0x30, 0x72, 0x30, 0xda, 0xb0, 0xe4, 0x30, 0x6c, 0x31, 0x6a, 0x32, 0x18, 0x2f, 0xd3, 0x30, 0xa9, 0x2b, 0xd1, 0xa1, 0x8e, 0x33, 0x9a, 0x2a, 0x7a, 0x31, 0x4f, 0x30, 0x0b, 0x31, 0x02, 0x31, 0x4e, 0x30, 0x2c, 0xae, 0xd2, 0xac, 0x41, 0x25, 0x59, 0x31, 0x78, 0x33, 0xaf, 0xb0, 0xbe, 0x32, 0x71, 0x34, 0x7e, 0x2c, 0x8d, 0xab, 0x1f, 0x27, 0xfd, 0x2f, 0x06, 0xa5, 0x4d, 0x9b, 0x0d, 0x2f, 0x89, 0x2e, 0x21, 0xb1, 0x7b, 0x2f, 0x77, 0x2c, 0x47, 0x33, 0x44, 0xae, 0x3a, 0xa4, 0xd6, 0x22, 0x81, 0xb3, 0x26, 0x29, 0x05, 0x31, 0x8c, 0xa3, 0xff, 0x30, 0x2f, 0xa7, 0xe8, 0xa7, 0x8d, 0xa7, 0xde, 0x31, 0xd7, 0x2d, 0x1d, 0x34, 0x09, 0x30, 0xf0, 0x34, 0x42, 0x34, 0xa3, 0xb0, 0x2b, 0x23, 0xa6, 0xad, 0x1f, 0x33, 0x07, 0xa7, 0x7a, 0xad, 0x7f, 0x25, 0x74, 0x2e, 0xab, 0xb1, 0xd9, 0x2f, 0xb5, 0x35, 0xc9, 0xae, 0x8d, 0x25, 0x7e, 0xb3, 0x04, 0x36, 0x24, 0x30, 0x18, 0xae, 0xd7, 0xa9, 0x7b, 0xad, 0x0b, 0x9d, 0xf0, 0x2f, 0x8a, 0xab, 0xd7, 0x2d, 0x8b, 0xad, 0x41, 0x2f, 0xe6, 0x2c, 0x59, 0x2f, 0xb8, 0xa8, 0xab, 0x2f, 0xdf, 0xb2, 0x18, 0x34, 0xc8, 0x33, 0xc5, 0x32, 0x75, 0x32, 0x70, 0xad, 0x18, 0x30, 0x80, 0x31, 0x00, 0x2c, 0x1b, 0xad, 0xf7, 0x32, 0x28, 0xae, 0xcd, 0xa3, 0x45, 0x26, 0x2a, 0xa7, 0x3a, 0x2c, 0x16, 0xaf, 0x04, 0x34, 0xde, 0x31, 0xe9, 0xb0, 0x3e, 0x35, 0x6f, 0x2c, 0xef, 0xb1, 0xd8, 0xb1, 0xa3, 0x2e, 0x56, 0x30, 0x5e, 0x21, 0xc6, 0x2b, 0xf3, 0xaf, 0x63, 0x20, 0xfd, 0xaf, 0x78, 0xa6, 0xa1, 0x30, 0x2b, 0x9f, 0x48, 0xb0, 0x8d, 0xac, 0x65, 0x34, 0x1b, 0x94, 0x62, 0x31, 0x2a, 0xad, 0xeb, 0x2e, 0x62, 0xaa, 0x40, 0x34, 0x7e, 0xaf, 0xf3, 0xad, 0x82, 0x2f, 0xc0, 0x9e, 0x1b, 0xa9, 0x5e, 0x2c, 0x39, 0x2e, 0x2f, 0xb0, 0x75, 0xa9, 0x52, 0x2a, 0x25, 0xb3, 0x96, 0xa9, 0x23, 0xb4, 0x1e, 0xae, 0x96, 0xb1, 0x8a, 0x29, 0x1a, 0x35, 0xad, 0x2a, 0xcc, 0xb4, 0xee, 0x2f, 0xcf, 0xac, 0xbf, 0xac, 0xa6, 0x28, 0x40, 0xb3, 0x8f, 0x2d, 0x33, 0xab, 0xeb, 0x25, 0x2d, 0x30, 0x7f, 0x2e, 0x64, 0x2d, 0x8e, 0xb3, 0x1d, 0x2d, 0xab, 0xa9, 0x3f, 0x34, 0xc5, 0x22, 0xd4, 0x34, 0xbf, 0x2b, 0x93, 0xae, 0x8a, 0xb1, 0x28, 0x27, 0xad, 0x2e, 0x8f, 0xad, 0x27, 0x30, 0x10, 0x35, 0xd2, 0xad, 0x2d, 0x34, 0x99, 0xb5, 0xdc, 0x32, 0xfa, 0x31, 0x23, 0x35, 0xee, 0xad, 0xd2, 0xab, 0x6a, 0xb2, 0xde, 0x2c, 0xc6, 0x2d, 0x9b, 0x2c, 0x2f, 0x35, 0x14, 0x32, 0xd3, 0x2d, 0x3c, 0xb4, 0xb0, 0x2c, 0x53, 0xb4, 0xbb, 0xae, 0xda, 0x31, 0xf9, 0x25, 0x1c, 0xb1, 0x7b, 0x31, 0xe7, 0xab, 0xb3, 0x33, 0xb4, 0x28, 0x45, 0xac, 0xaf, 0x34, 0x23, 0x27, 0xd5, 0xae, 0xef, 0x31, 0xe7, 0xae, 0x77, 0x32, 0x0e, 0xb2, 0x30, 0xb0, 0x30, 0xab, 0xa8, 0xa7, 0xc8, 0x32, 0xcf, 0x31, 0x11, 0xa8, 0xec, 0x99, 0x3d, 0xaf, 0x1a, 0x2e, 0x3e, 0x34, 0x05, 0xac, 0xcb, 0xaa, 0xbc, 0x31, 0x71, 0xb1, 0x81, 0xa9, 0x89, 0x28, 0x9a, 0x2e, 0x24, 0xad, 0xe5, 0xa3, 0x8b, 0x30, 0xf9, 0x26, 0xe0, 0xac, 0xe0, 0x2c, 0xcb, 0x89, 0x3b, 0x31, 0x15, 0x34, 0xae, 0x29, 0xe3, 0xac, 0xc1, 0xb0, 0xd0, 0xb1, 0xbe, 0xaa, 0xe3, 0x34, 0x8a, 0x32, 0xf5, 0x30, 0x78, 0x2f, 0x41, 0xad, 0x45, 0xb0, 0xcb, 0x29, 0xa4, 0x31, 0xef, 0x30, 0xab, 0x21, 0x26, 0x34, 0xdc, 0xb2, 0x77, 0xa7, 0xce, 0x28, 0x7a, 0x30, 0x55, 0x29, 0xd6, 0x11, 0xb6, 0x21, 0x3d, 0xa1, 0x68, 0x2f, 0xbc, 0x30, 0x60, 0x30, 0x12, 0xb0, 0x28, 0x34, 0xee, 0x21, 0x58, 0xb0, 0x18, 0x30, 0x8c, 0xae, 0xe7, 0xa6, 0xd9, 0x20, 0xfc, 0x2b, 0x9a, 0x34, 0xb2, 0x34, 0x0d, 0x2d, 0xda, 0x2f, 0x8a, 0x35, 0xe7, 0x2c, 0xa2, 0x20, 0x54, 0xac, 0xe2, 0x2e, 0x07, 0x2f, 0xb5, 0x33, 0x81, 0xb3, 0x9d, 0xa8, 0x78, 0x30, 0x55, 0xb1, 0xe6, 0x2d, 0xd6, 0xb1, 0xd3, 0xaf, 0x5d, 0x34, 0x07, 0x28, 0x03, 0x28, 0x30, 0x2d, 0x9d, 0x2e, 0xa8, 0x32, 0xeb, 0xb0, 0x6f, 0x30, 0x51, 0xa4, 0x8b, 0x23, 0x02, 0x31, 0x40, 0x2e, 0xa0, 0xb1, 0x23, 0x31, 0x9e, 0x29, 0x2b, 0xb2, 0x19, 0x2e, 0x65, 0xa5, 0xc4, 0x24, 0x24, 0xb1, 0x57, 0x35, 0x8b, 0x31, 0x13, 0xb0, 0x38, 0x2b, 0x0d, 0xac, 0x2f, 0xad, 0x39, 0xaf, 0x2b, 0xaa, 0x24, 0x2f, 0x41, 0x2f, 0x5a, 0xb1, 0x86, 0xaf, 0x2b, 0xaa, 0xcb, 0xb0, 0x89, 0xad, 0x7d, 0x28, 0xd4, 0x33, 0x27, 0x2b, 0x62, 0xb0, 0xfd, 0x28, 0xb8, 0xae, 0x2e, 0xa1, 0x22, 0x31, 0x5f, 0xb0, 0x7d, 0x2d, 0xf8, 0x2c, 0xf0, 0x34, 0x74, 0x33, 0xea, 0x31, 0xa5, 0x35, 0xb9, 0x2a, 0x28, 0xaf, 0xd6, 0xac, 0xa5, 0x31, 0x44, 0x33, 0xed, 0x33, 0x33, 0x23, 0xf9, 0xaa, 0xd3, 0x2c, 0xb2, 0x32, 0x73, 0xaf, 0x4d, 0x2a, 0x01, 0x31, 0x49, 0x35, 0x19, 0xaa, 0x14, 0x34, 0x27, 0x32, 0x1a, 0xad, 0x39, 0xac, 0x89, 0x2f, 0x99, 0x31, 0x84, 0x34, 0x62, 0xb0, 0x36, 0xa1, 0xf2, 0xaa, 0xd4, 0x33, 0x67, 0xb2, 0x5d, 0x2c, 0x9b, 0xa9, 0x96, 0x33, 0xcb, 0x32, 0x50, 0x25, 0xde, 0x2f, 0x9b, 0xb4, 0x58, 0xb2, 0x2e, 0xb0, 0x66, 0xad, 0x22, 0xa1, 0xb2, 0xaa, 0x3d, 0xac, 0xb5, 0x2f, 0xb2, 0xaf, 0x2f, 0x98, 0x72, 0xb1, 0x9f, 0x31, 0xd5, 0x2c, 0x0a, 0x2d, 0x5a, 0xae, 0xe0, 0x25, 0xef, 0xa0, 0xb4, 0xac, 0x3c, 0xaa, 0xe5, 0xa4, 0x80, 0x30, 0xe0, 0x27, 0xc0, 0xaf, 0x7e, 0xaf, 0xd8, 0xa0, 0x6f, 0x30, 0x14, 0x31, 0x9b, 0xac, 0xea, 0x2a, 0x2f, 0xb0, 0x9b, 0xb2, 0xd3, 0x32, 0x64, 0x31, 0x79, 0xb0, 0x8a, 0xb1, 0x74, 0xad, 0x58, 0xa6, 0xe0, 0x32, 0xc9, 0xad, 0xe8, 0xa1, 0x66, 0x2a, 0x13, 0xb2, 0xcd, 0xb1, 0x23, 0x2a, 0x6c, 0x30, 0x16, 0xa7, 0xb5, 0xb1, 0x8d, 0xa9, 0xde, 0xaf, 0x77, 0x28, 0x32, 0xb3, 0xe6, 0x30, 0x4f, 0x26, 0x3b, 0xb4, 0x82, 0x2f, 0xac, 0xab, 0x67, 0xae, 0x01, 0x33, 0x51, 0x2d, 0x53, 0x2d, 0x32, 0xb4, 0xf6, 0x34, 0xd8, 0xb4, 0x49, 0x34, 0x3e, 0x30, 0x34, 0x2d, 0x77, 0xab, 0xa4, 0x30, 0x06, 0xb1, 0x6f, 0xb3, 0x73, 0xa9, 0xd5, 0xa6, 0xd5, 0xaf, 0x18, 0x34, 0xcf, 0x2d, 0x8f, 0x34, 0x56, 0xae, 0x3c, 0x30, 0xbd, 0x28, 0xb2, 0x31, 0x2b, 0x34, 0x08, 0x28, 0x2a, 0xb0, 0x6f, 0x2f, 0x25, 0x2f, 0x04, 0x2c, 0x5b, 0x2e, 0x90, 0x31, 0x35, 0xb4, 0x54, 0x31, 0x90, 0xac, 0xf9, 0x34, 0x54, 0xb4, 0x22, 0x31, 0x7a, 0xb0, 0xca, 0x32, 0x46, 0x32, 0x21, 0xb0, 0xac, 0xa9, 0x3d, 0xb3, 0xde, 0xaa, 0xa4, 0x34, 0x0a, 0x34, 0x38, 0xa4, 0x58, 0x34, 0x1e, 0x33, 0xf2, 0xb0, 0x55, 0x33, 0x70, 0x2d, 0xb7, 0xa8, 0x3d, 0x30, 0x9c, 0x22, 0x3f, 0xa0, 0x61, 0x2e, 0xde, 0xa8, 0xe9, 0x31, 0xc1, 0xac, 0x54, 0x2b, 0x7c, 0x34, 0xa5, 0x2f, 0x88, 0x2b, 0x13, 0x34, 0xf0, 0x2b, 0x81, 0xae, 0xd1, 0x2c, 0xe3, 0x2e, 0xb2, 0xad, 0x06, 0x31, 0xe1, 0xa0, 0x4c, 0x2a, 0xac, 0xb0, 0x15, 0xa9, 0xff, 0xae, 0x8a, 0xa4, 0x9c, 0x2a, 0xdf, 0x33, 0xe9, 0x18, 0x7d, 0xa2, 0x05, 0x2b, 0x82, 0x33, 0x86, 0xab, 0x47, 0x35, 0x09, 0x25, 0xd9, 0xae, 0x5e, 0xa4, 0x93, 0x34, 0x7e, 0xb2, 0xdf, 0x2f, 0xe2, 0x28, 0x1b, 0xb1, 0xd3, 0xac, 0x10, 0x2f, 0xba, 0x1f, 0x0a, 0xab, 0xbd, 0x32, 0x0e, 0xa7, 0x42, 0xb1, 0x2e, 0xb0, 0x83, 0x30, 0x1c, 0x2d, 0xc5, 0x1c, 0xa5, 0x32, 0x07, 0x30, 0xd8, 0x30, 0x28, 0x30, 0x85, 0xb1, 0x9b, 0xaf, 0xd5, 0x30, 0xca, 0xae, 0xab, 0x2f, 0xfc, 0xa8, 0x31, 0xaf, 0x89, 0x31, 0x11, 0xad, 0x4c, 0x31, 0xd0, 0x2b, 0x6f, 0x33, 0x96, 0x35, 0x29, 0x31, 0x28, 0x33, 0x34, 0x2b, 0xab, 0xb1, 0x82, 0xae, 0xa3, 0x2f, 0xa7, 0x26, 0xeb, 0xb3, 0x0f, 0x29, 0x85, 0xa9, 0x2c, 0xb0, 0x29, 0x2e, 0x65, 0xad, 0x94, 0x2b, 0x9d, 0x2c, 0x48, 0x35, 0xbf, 0x31, 0xb8, 0x2e, 0xc8, 0x2a, 0x4d, 0x2d, 0x58, 0x30, 0xd3, 0x34, 0x0e, 0xac, 0x08, 0xa7, 0x1f, 0x31, 0x1b, 0xab, 0x13, 0xae, 0x36, 0xb1, 0x59, 0x31, 0x00, 0x31, 0x43, 0x34, 0xd8, 0xa9, 0x88, 0x2d, 0x5c, 0xb3, 0x98, 0xb1, 0xaf, 0x30, 0x68, 0x29, 0x03, 0x32, 0x69, 0x2e, 0x43, 0x35, 0x09, 0x9e, 0x49, 0x33, 0x1c, 0xa4, 0x26, 0xb4, 0xdc, 0x2c, 0x2b, 0x2a, 0x62, 0xa9, 0x7f, 0xb2, 0x6c, 0x34, 0xb4, 0x2c, 0x77, 0x2f, 0x72, 0xaf, 0x07, 0xb1, 0xa5, 0x22, 0x94, 0x2c, 0xa2, 0x34, 0x8c, 0x26, 0x37, 0x33, 0x27, 0x30, 0xf4, 0x2c, 0xd8, 0x2c, 0x7c, 0x2d, 0x82, 0x34, 0x89, 0xae, 0xa7, 0x32, 0xd8, 0xb2, 0x88, 0xb1, 0xd8, 0x2d, 0xad, 0x31, 0x36, 0x34, 0x10, 0xaa, 0x98, 0xac, 0xc0, 0xb0, 0x7b, 0x30, 0x8a, 0x2f, 0xf2, 0xb3, 0x2d, 0xb2, 0x4c, 0xb1, 0x6c, 0x28, 0x64, 0xa3, 0x47, 0xb2, 0x6b, 0x34, 0x47, 0xad, 0xf2, 0x2e, 0x6c, 0x2c, 0xd8, 0xa9, 0x5b, 0xad, 0x30, 0x29, 0xb0, 0xb1, 0x16, 0xaa, 0x65, 0x2a, 0xc7, 0xb1, 0xc5, 0x2d, 0x5a, 0xb1, 0x42, 0x2a, 0x36, 0xaa, 0xf1, 0xb2, 0x56, 0xac, 0xa7, 0xb2, 0x88, 0x35, 0x01, 0x35, 0xa2, 0x2c, 0x6e, 0x2e, 0x1f, 0x35, 0x29, 0xaa, 0x21, 0xb0, 0x9d, 0x26, 0x02, 0x21, 0x3f, 0x29, 0x85, 0x28, 0xb1, 0x32, 0xe0, 0x2c, 0x12, 0x2e, 0xf5, 0x33, 0x1c, 0xae, 0x82, 0x34, 0xe4, 0x31, 0x9e, 0x30, 0xee, 0x31, 0x07, 0x30, 0x8b, 0x32, 0x42, 0x31, 0xa0, 0x2d, 0x2b, 0xb1, 0x1d, 0xb2, 0xfd, 0x1f, 0x9e, 0x34, 0x77, 0x32, 0x69, 0x2a, 0x63, 0x2c, 0x0b, 0x31, 0x43, 0x34, 0x8b, 0x2d, 0x44, 0x32, 0xb8, 0x29, 0x4d, 0xad, 0x40, 0x30, 0x7f, 0xa1, 0xc0, 0x22, 0x9c, 0xaa, 0xc8, 0x2f, 0x4b, 0xae, 0x37, 0x98, 0x15, 0x30, 0x9b, 0xab, 0x05, 0x34, 0x08, 0xb0, 0x82, 0xa5, 0x99, 0x32, 0xfa, 0xaf, 0x8a, 0x27, 0x41, 0x34, 0xf2, 0xa5, 0xe5, 0xad, 0x2f, 0x30, 0x0d, 0xa9, 0x9e, 0x29, 0x80, 0xb3, 0x47, 0x32, 0x01, 0xa9, 0x89, 0x22, 0xfa, 0x33, 0xbf, 0x20, 0x3f, 0x33, 0x39, 0x34, 0x12, 0x2c, 0xc3, 0x2d, 0x66, 0x35, 0x58, 0xb0, 0x6a, 0x24, 0x59, 0x2b, 0x3d, 0x29, 0x44, 0xae, 0x95, 0xb2, 0x8f, 0xa5, 0xad, 0x17, 0x42, 0x2e, 0x04, 0x30, 0x4e, 0xab, 0xd2, 0x28, 0x7e, 0x32, 0xef, 0x2a, 0x84, 0xad, 0xd3, 0x2d, 0xdd, 0xac, 0x11, 0x28, 0x96, 0xaf, 0xbd, 0xb2, 0x99, 0xb1, 0x62, 0xb3, 0xfa, 0x33, 0xab, 0x2d, 0x05, 0xb3, 0xa6, 0x31, 0xb8, 0xac, 0xd5, 0x34, 0x58, 0x33, 0x6f, 0x2a, 0x49, 0xa5, 0x48, 0xa5, 0x8e, 0xb0, 0x9d, 0x2d, 0xd4, 0xb1, 0x7c, 0xb0, 0xb8, 0x2b, 0xf3, 0xb1, 0x98, 0x28, 0x91, 0xac, 0x2f, 0x30, 0x73, 0x34, 0xee, 0xae, 0x8a, 0x34, 0xd1, 0xac, 0x74, 0x33, 0x8e, 0x2f, 0x5b, 0x31, 0xa4, 0xb4, 0xea, 0x33, 0x99, 0x34, 0x33, 0x34, 0x75, 0xac, 0x85, 0x32, 0xc8, 0xb0, 0xaa, 0xa9, 0x2e, 0x31, 0x32, 0xa9, 0x58, 0x2d, 0x7f, 0xaa, 0x3a, 0x33, 0x75, 0x35, 0xae, 0x21, 0x71, 0x28, 0x95, 0xb0, 0x3d, 0x31, 0x0a, 0x2d, 0xc8, 0x2e, 0x49, 0x33, 0x9c, 0x2c, 0x6e, 0xad, 0xbc, 0x30, 0xf2, 0xaf, 0xc0, 0x2c, 0x93, 0x30, 0x95, 0x34, 0xd3, 0x32, 0x81, 0x32, 0x6e, 0xad, 0xd0, 0xae, 0x26, 0xb2, 0x20, 0x32, 0xb6, 0x34, 0x76, 0x34, 0x75, 0x28, 0x15, 0x2d, 0x79, 0x9e, 0x9d, 0xaf, 0xa0, 0x2e, 0x44, 0x31, 0x39, 0x33, 0x7f, 0xb1, 0x00, 0xaa, 0x91, 0x32, 0xe4, 0x2e, 0x17, 0x34, 0x91, 0xaf, 0xd4, 0xb0, 0x6e, 0xac, 0x99, 0x2c, 0xa7, 0x2a, 0x96, 0x2d, 0x5a, 0xa5, 0x5b, 0x2d, 0x11, 0x34, 0xb5, 0xae, 0x92, 0x28, 0x9a, 0xb2, 0x85, 0x2f, 0x55, 0x28, 0x9d, 0xb0, 0x20, 0x22, 0x18, 0xb0, 0x66, 0xa4, 0xb8, 0x30, 0xcc, 0x24, 0x63, 0x22, 0x1b, 0xac, 0x14, 0xa5, 0xf8, 0x33, 0x5a, 0x35, 0xef, 0xb2, 0x33, 0x34, 0xac, 0xb2, 0x55, 0xad, 0x41, 0x34, 0xe2, 0xaf, 0x35, 0xab, 0x1b, 0xb3, 0x0e, 0x24, 0x37, 0x2d, 0xaf, 0x2f, 0xd4, 0x30, 0x95, 0x1e, 0x5f, 0xb3, 0xb7, 0x34, 0x45, 0x35, 0x89, 0xa7, 0x12, 0x35, 0x68, 0x2f, 0xc4, 0xb2, 0x10, 0x2b, 0xc0, 0xa8, 0x75, 0x2a, 0x43, 0x32, 0xf2, 0xa4, 0x58, 0xa0, 0x14, 0x32, 0x1f, 0x28, 0x10, 0x35, 0x6d, 0x35, 0xec, 0xaf, 0xa6, 0x2e, 0x5f, 0x28, 0xd3, 0xa7, 0x25, 0x31, 0xd9, 0x2e, 0x38, 0x32, 0x1a, 0x2f, 0x45, 0x2e, 0xbe, 0x35, 0xe8, 0xaa, 0x2d, 0xb0, 0x8c, 0xb1, 0xb9, 0xaa, 0x1a, 0x31, 0x42, 0x33, 0xb8, 0x31, 0x45, 0x34, 0x60, 0x2c, 0xde, 0x18, 0xf1, 0xa7, 0x70, 0xb0, 0x84, 0x2d, 0x21, 0xac, 0xbb, 0x2c, 0xe9, 0x23, 0x63, 0xad, 0x31, 0x29, 0x08, 0xac, 0x20, 0x32, 0xb2, 0x30, 0x86, 0x35, 0x66, 0xa8, 0x60, 0x33, 0x99, 0xb1, 0x97, 0xb1, 0x20, 0x34, 0x6f, 0xb2, 0xa6, 0x2d, 0xfd, 0xa9, 0x2f, 0xb1, 0x01, 0xa1, 0x11, 0xb1, 0x13, 0xb0, 0x23, 0xaa, 0x19, 0x32, 0x8a, 0x26, 0xea, 0x32, 0x4a, 0x2a, 0x14, 0x31, 0xfc, 0xa1, 0xd0, 0x1f, 0x42, 0xad, 0xd8, 0x2d, 0x0d, 0x34, 0x24, 0x30, 0xd5, 0x2c, 0xb4, 0x30, 0x47, 0x28, 0xd3, 0xb4, 0x7a, 0xaf, 0x93, 0x28, 0xcc, 0xaf, 0x47, 0x33, 0xd8, 0xb2, 0x62, 0x16, 0xf8, 0xb2, 0xf5, 0xb5, 0xf1, 0x30, 0x34, 0xa8, 0x30, 0x26, 0x00, 0xaa, 0x36, 0x32, 0x69, 0x2d, 0x03, 0xae, 0xb8, 0xa7, 0xe4, 0xa0, 0xa6, 0x34, 0xc7, 0xb0, 0xc9, 0x32, 0x4b, 0x2a, 0x60, 0x29, 0xe8, 0xa4, 0xd0, 0xb6, 0x73, 0xb0, 0xbf, 0xa7, 0x93, 0x33, 0x09, 0x24, 0x9d, 0x36, 0x2b, 0x32, 0xd0, 0x2f, 0xbe, 0xad, 0x9a, 0xb0, 0x89, 0x32, 0x7f, 0xb1, 0xd4, 0x2c, 0xe3, 0x30, 0x12, 0x28, 0x7c, 0x2a, 0x16, 0xb4, 0xa3, 0x2e, 0xc0, 0x33, 0x11, 0x32, 0xc6, 0xa8, 0xa0, 0x35, 0x7a, 0xb0, 0x75, 0x22, 0xd9, 0x30, 0x5c, 0xaa, 0xac, 0x96, 0xbc, 0xa4, 0xfc, 0xac, 0x24, 0x2a, 0xf2, 0x31, 0x18, 0xae, 0x6f, 0xb3, 0xf2, 0xaf, 0x1a, 0xad, 0x0a, 0x34, 0x21, 0xa9, 0x74, 0x31, 0xef, 0x31, 0x8f, 0xad, 0x9b, 0x29, 0x78, 0x28, 0x21, 0x20, 0x0c, 0xaa, 0x72, 0xa1, 0x47, 0x95, 0x0e, 0x30, 0xb0, 0x28, 0x8a, 0xb4, 0x8b, 0xb2, 0x0a, 0xad, 0x6f, 0xa8, 0x65, 0x28, 0x92, 0x2b, 0x36, 0x31, 0x41, 0xb0, 0x73, 0x31, 0x37, 0xaa, 0x6d, 0xad, 0x3d, 0x31, 0x2f, 0x35, 0xf4, 0xa7, 0x8c, 0x34, 0x63, 0x2f, 0x20, 0xac, 0x26, 0x2f, 0xb5, 0xaf, 0x19, 0x27, 0x3b, 0x97, 0x06, 0x30, 0x91, 0x2e, 0x89, 0x31, 0xd1, 0xad, 0xfa, 0xa3, 0x10, 0x32, 0x41, 0x34, 0x6e, 0x2d, 0xd2, 0xb3, 0xe1, 0x1b, 0x13, 0x27, 0xc9, 0xa8, 0x62, 0xb2, 0x6e, 0x2b, 0xdd, 0x34, 0xb0, 0x2c, 0x7a, 0x34, 0xa2, 0x25, 0x15, 0x25, 0x42, 0xb0, 0x58, 0x29, 0xc5, 0x30, 0xfe, 0x31, 0x55, 0x35, 0x75, 0x2c, 0x8e, 0x34, 0x68, 0x2c, 0x97, 0xab, 0x05, 0xb1, 0xbe, 0xb1, 0x09, 0xb4, 0xd7, 0x22, 0x19, 0x30, 0x17, 0x35, 0x21, 0x31, 0xec, 0xaf, 0xd7, 0x2d, 0x1d, 0xb4, 0xb8, 0x30, 0x00, 0x35, 0x3e, 0xac, 0xd4, 0x28, 0xd6, 0xb2, 0x5a, 0x1a, 0x7b, 0x2f, 0x24, 0x2b, 0x72, 0xb2, 0xda, 0xb1, 0xf0, 0x2e, 0xb3, 0x34, 0x0c, 0x33, 0x4b, 0x27, 0x39, 0x31, 0xc3, 0xb0, 0xb5, 0x35, 0xf2, 0x29, 0xaa, 0xaa, 0x24, 0x2d, 0xc8, 0xb0, 0x17, 0xab, 0x1d, 0xaa, 0x67, 0xb2, 0xc3, 0xb0, 0x3e, 0xb2, 0x11, 0x34, 0xd9, 0x35, 0xfb, 0x2c, 0x06, 0x2c, 0x81, 0xb1, 0x63, 0xb2, 0xa7, 0x35, 0x57, 0x34, 0xa2, 0x2a, 0x0b, 0x2c, 0x3b, 0xb3, 0xfc, 0x29, 0x22, 0x2e, 0x57, 0xb0, 0x36, 0x2f, 0xfa, 0xb2, 0x91, 0x32, 0xc0, 0x22, 0x8b, 0x2f, 0x27, 0xae, 0xc9, 0x24, 0x2f, 0x1c, 0x8e, 0x2b, 0x01, 0x30, 0x6a, 0x34, 0x93, 0x2e, 0x0e, 0x32, 0xa7, 0x31, 0xdb, 0x2d, 0xf7, 0xb0, 0x9a, 0xb1, 0x2a, 0x21, 0xfb, 0x03, 0x53, 0x32, 0x22, 0x34, 0x85, 0x30, 0x78, 0xab, 0x4d, 0x22, 0x1a, 0x30, 0x76, 0x26, 0x03, 0x2c, 0xf5, 0xac, 0x8c, 0x2e, 0x7c, 0x30, 0x4a, 0x2d, 0x12, 0xae, 0x4b, 0x18, 0xcb, 0xb0, 0x41, 0x33, 0x79, 0x2e, 0x2d, 0xa6, 0x12, 0x1a, 0x8a, 0xae, 0x59, 0x33, 0x40, 0xa8, 0x3b, 0x31, 0x99, 0x20, 0xad, 0x33, 0x6e, 0xa9, 0x75, 0x33, 0x8a, 0x32, 0x57, 0xb1, 0x8c, 0xb1, 0x7b, 0x30, 0x55, 0xb3, 0x50, 0x1e, 0x8f, 0xb0, 0xb6, 0xac, 0x3a, 0x32, 0x19, 0x30, 0x4d, 0xb3, 0x0f, 0x33, 0x0f, 0x34, 0x5a, 0x30, 0xe8, 0xac, 0x78, 0xb2, 0xc6, 0x12, 0x26, 0xb0, 0xcf, 0x28, 0xc3, 0x32, 0x5f, 0xb1, 0xd6, 0x33, 0xfd, 0xac, 0x47, 0x2f, 0x54, 0x2e, 0x75, 0x32, 0xe9, 0xaa, 0xf8, 0x30, 0x01, 0x31, 0xfe, 0x24, 0x73, 0xb0, 0xf4, 0xb0, 0x26, 0xaa, 0xd5, 0xb0, 0x2c, 0x30, 0x37, 0xb0, 0xf8, 0xaf, 0x0b, 0xa9, 0x16, 0xa7, 0xab, 0x30, 0x64, 0xb1, 0xd5, 0x31, 0xe6, 0xa2, 0x2a, 0xac, 0x57, 0x31, 0x88, 0x2f, 0xa7, 0xa1, 0x23, 0x2f, 0xe2, 0xf1, 0xff, 0xff, 0x04, 0x00, 0x00, 0x00, 0xe0, 0x01, 0x00, 0x00, 0xf5, 0x35, 0x41, 0x36, 0x9a, 0x31, 0xee, 0x1e, 0x4f, 0xaf, 0x18, 0xad, 0xe4, 0x24, 0x73, 0x30, 0x95, 0x2d, 0x87, 0xb3, 0x0d, 0x36, 0x8f, 0x99, 0x1a, 0xad, 0xa7, 0xa3, 0x5e, 0xb4, 0x38, 0x2d, 0xa7, 0xb4, 0xe4, 0xaa, 0x4b, 0x2e, 0x1a, 0x35, 0xef, 0x34, 0x29, 0x32, 0x2d, 0x2b, 0xbc, 0xb1, 0x41, 0xb0, 0xf8, 0x33, 0x6d, 0xb1, 0xd7, 0xb2, 0x9f, 0xb4, 0x8b, 0xa6, 0x45, 0x36, 0x93, 0x25, 0x43, 0xb1, 0xc3, 0xb0, 0x1e, 0xa9, 0x48, 0x2e, 0xaa, 0xb1, 0x2a, 0x34, 0x86, 0x31, 0x9f, 0x2c, 0x60, 0xae, 0xa4, 0xb4, 0x18, 0x36, 0x5b, 0x36, 0x7a, 0x33, 0x58, 0xb4, 0xdf, 0xb3, 0x32, 0x30, 0x04, 0x33, 0xf7, 0xb2, 0x60, 0x32, 0x17, 0xac, 0x29, 0x34, 0xb1, 0xae, 0xe7, 0xb4, 0xb1, 0x34, 0xd6, 0x33, 0x91, 0x34, 0x04, 0xaf, 0x51, 0xb6, 0x8c, 0x33, 0xd3, 0xb1, 0xb4, 0xb3, 0x7e, 0x28, 0x1f, 0x36, 0x35, 0x31, 0xf5, 0xaf, 0xff, 0xb5, 0xb6, 0x34, 0x1b, 0x30, 0x26, 0x30, 0x10, 0xb7, 0x03, 0xb3, 0x3c, 0xa4, 0x3f, 0x35, 0xcc, 0xb0, 0xeb, 0x32, 0x87, 0xa6, 0x6b, 0x36, 0x69, 0xb2, 0x67, 0xad, 0x39, 0xb2, 0x70, 0xb5, 0xed, 0x34, 0xb9, 0xb2, 0x41, 0xb5, 0xec, 0x35, 0x4f, 0x31, 0xa5, 0x36, 0x1e, 0xae, 0xa7, 0x29, 0x46, 0xb5, 0x3f, 0xb5, 0x9c, 0x2a, 0x64, 0x33, 0x95, 0xb4, 0xac, 0xb6, 0x6b, 0xa5, 0x81, 0xb5, 0x9f, 0x34, 0xaa, 0x32, 0x87, 0x30, 0x53, 0xb3, 0x0b, 0xb5, 0x82, 0x33, 0xc2, 0xb5, 0xfa, 0xa9, 0xea, 0xad, 0x18, 0xaa, 0xd8, 0xb6, 0xc0, 0x21, 0x22, 0x24, 0xbb, 0xac, 0xd2, 0xb3, 0xf9, 0xaf, 0x1c, 0xb4, 0x9f, 0xb4, 0xed, 0xb5, 0x5d, 0xb6, 0xbe, 0xb5, 0xdb, 0xb5, 0xc8, 0xaa, 0xa4, 0x18, 0x46, 0xb5, 0x47, 0x2f, 0xf7, 0x9f, 0x7f, 0x29, 0x0c, 0xb1, 0x52, 0xb6, 0x2a, 0x32, 0xdf, 0xae, 0x5c, 0x30, 0xb4, 0x33, 0x48, 0xaf, 0x01, 0xa9, 0x82, 0xb4, 0xa9, 0xb2, 0x39, 0x1e, 0x00, 0x33, 0xec, 0xb4, 0xa4, 0x31, 0x31, 0xb5, 0x3c, 0x33, 0x3e, 0xb4, 0x0e, 0x2f, 0x36, 0x28, 0x91, 0xb6, 0x15, 0x36, 0xf9, 0xa9, 0x4b, 0xb0, 0x12, 0xb5, 0xbb, 0xac, 0xe9, 0x98, 0x3a, 0x35, 0x16, 0xb0, 0x61, 0xaf, 0x25, 0xb4, 0x0d, 0x1e, 0x9a, 0x34, 0x28, 0x34, 0x98, 0xb7, 0x8b, 0xad, 0x29, 0xa2, 0xf3, 0x1d, 0x78, 0x31, 0x5c, 0x34, 0xd5, 0x32, 0x89, 0xb0, 0x44, 0x37, 0x32, 0xb3, 0x77, 0xb1, 0xdb, 0xab, 0xac, 0xb2, 0x71, 0x20, 0xec, 0xb0, 0x05, 0xa3, 0x72, 0xb3, 0xe1, 0x2f, 0x4b, 0x34, 0x7d, 0xb2, 0xcf, 0x36, 0xd6, 0x2a, 0x5b, 0xaf, 0xb2, 0xb3, 0x29, 0x32, 0x52, 0xa8, 0xfb, 0x35, 0xeb, 0x36, 0x96, 0x33, 0x1b, 0x34, 0x33, 0x36, 0xda, 0x36, 0xd1, 0x34, 0x54, 0xb0, 0x0b, 0x2e, 0xc2, 0xb2, 0x1b, 0xb6, 0x99, 0x30, 0xaa, 0x36, 0x4c, 0x31, 0x6e, 0x2f, 0x66, 0xb5, 0xf9, 0x35, 0x6a, 0x36, 0x75, 0x34, 0x99, 0x34, 0xfc, 0x31, 0xfe, 0x35, 0xd5, 0x34, 0x8f, 0x90, 0x6a, 0x30, 0x28, 0xa6, 0x8f, 0xb4, 0x35, 0xb0, 0x1b, 0xb0, 0x83, 0x34, 0xf2, 0xb0, 0x9d, 0xa3, 0xa0, 0x32, 0x94, 0xae, 0x3e, 0x33, 0x17, 0x26, 0x79, 0xac, 0xe1, 0xb5, 0x21, 0xb1, 0xaa, 0xb5, 0xff, 0xb5, 0x17, 0x34, 0x9c, 0xb5, 0xb8, 0xa8, 0xfe, 0x18, 0xb3, 0xaf, 0xc5, 0xb5, 0x37, 0xb5, 0x83, 0xb5, 0xfe, 0xb4, 0x1d, 0xb4, 0xa5, 0xb4, 0x60, 0xb3, 0xed, 0xae, 0xce, 0xf3, 0xff, 0xff, 0x04, 0x00, 0x00, 0x00, 0xc0, 0x02, 0x00, 0x00, 0xc0, 0xb0, 0xb5, 0x28, 0x58, 0xb7, 0xb4, 0xb2, 0x24, 0x2c, 0x5b, 0x2d, 0x41, 0xb5, 0xbc, 0xb6, 0x9d, 0xa8, 0x84, 0xb5, 0xee, 0x33, 0x40, 0xac, 0x1c, 0x32, 0x1e, 0xb8, 0xa5, 0xb1, 0x5b, 0x35, 0x8f, 0xb4, 0xc1, 0xb4, 0x9a, 0xb1, 0x01, 0xb0, 0x71, 0xb4, 0x2e, 0x33, 0x0d, 0x2a, 0x8a, 0xb2, 0x0c, 0xae, 0x57, 0x34, 0xb6, 0x31, 0x0f, 0xb8, 0xd7, 0x32, 0x4e, 0x36, 0x00, 0x22, 0xb2, 0xad, 0x58, 0xb5, 0x8d, 0x2b, 0xbc, 0xb0, 0x2f, 0xb0, 0xe7, 0xb3, 0x5c, 0x34, 0x25, 0x2d, 0xd6, 0x30, 0xa1, 0x21, 0x29, 0xb9, 0x6a, 0xb1, 0xaf, 0xb8, 0x05, 0xa8, 0x29, 0xb2, 0x1d, 0xb4, 0x8e, 0x30, 0x0c, 0x2a, 0x27, 0x36, 0x5c, 0x2a, 0x5d, 0x33, 0x4d, 0x2d, 0xfa, 0x33, 0x85, 0xae, 0x61, 0x32, 0x1d, 0x2f, 0x72, 0x35, 0x0a, 0x31, 0x2e, 0xb7, 0x15, 0xab, 0xdb, 0x30, 0x0d, 0xb5, 0x74, 0x30, 0x7d, 0xb5, 0x60, 0xb7, 0x7b, 0x24, 0xcc, 0x1d, 0xdb, 0x36, 0xe9, 0x2b, 0x3c, 0xb4, 0xbf, 0x34, 0x3a, 0x32, 0x4b, 0xb1, 0x43, 0x35, 0x58, 0x2d, 0x3d, 0x27, 0xa5, 0xb5, 0x83, 0x2a, 0xf1, 0xb5, 0x75, 0x35, 0xf5, 0x34, 0x0b, 0xa4, 0x03, 0x34, 0xab, 0xa9, 0x75, 0x37, 0x3e, 0xb7, 0xb7, 0x34, 0xe1, 0xb4, 0x68, 0x34, 0x96, 0x2d, 0x1e, 0x34, 0x49, 0xb7, 0x0f, 0x35, 0xab, 0xb5, 0xfc, 0xac, 0x0a, 0xa4, 0x73, 0xb8, 0x7a, 0x33, 0xda, 0x32, 0x83, 0x36, 0xcc, 0x30, 0x5a, 0x32, 0xad, 0xb3, 0xb2, 0xb0, 0x48, 0x34, 0x35, 0x2e, 0x8d, 0xb7, 0xcd, 0x35, 0x06, 0xb8, 0xc0, 0x35, 0x1d, 0x2a, 0x12, 0xb6, 0xba, 0xb2, 0xec, 0x30, 0x27, 0xa8, 0x9b, 0xb4, 0xcb, 0x32, 0x3c, 0xa8, 0xbc, 0xb6, 0x13, 0xb6, 0x67, 0xb5, 0x4a, 0xb6, 0x3f, 0xb0, 0xed, 0x32, 0x63, 0x31, 0x6f, 0x34, 0x3e, 0x2b, 0xb0, 0x29, 0x61, 0xb1, 0xb2, 0xa3, 0x5c, 0xb3, 0x83, 0x34, 0xc8, 0x33, 0xc0, 0x37, 0x25, 0xae, 0x46, 0x34, 0x9d, 0x35, 0xa9, 0xae, 0x5f, 0xb5, 0x0a, 0xac, 0xbd, 0x34, 0x49, 0xae, 0x74, 0xa2, 0x1b, 0x2e, 0x29, 0x33, 0x57, 0x2c, 0x18, 0x30, 0x7e, 0x35, 0x42, 0x36, 0x6a, 0xb6, 0xc3, 0xad, 0x8c, 0x34, 0xe5, 0xa7, 0x82, 0xb8, 0x93, 0xb0, 0x59, 0x2c, 0xa9, 0xb5, 0x6b, 0x2d, 0x3d, 0x36, 0xb5, 0x9c, 0xfa, 0x34, 0xad, 0xb5, 0xb6, 0x35, 0x16, 0xb7, 0xa3, 0xb4, 0x89, 0xb6, 0x7e, 0xb5, 0x7a, 0x34, 0x10, 0x35, 0x55, 0x34, 0xd6, 0xb6, 0x12, 0xb4, 0x65, 0xa0, 0x37, 0x35, 0x19, 0x36, 0xbc, 0xb9, 0x78, 0x31, 0xf6, 0x28, 0xf8, 0x2e, 0xce, 0xb8, 0x82, 0xaa, 0x68, 0x34, 0x83, 0x9f, 0x20, 0xb4, 0x1f, 0xb2, 0x1b, 0xb0, 0xb4, 0xb6, 0x2a, 0x34, 0x77, 0xb3, 0x06, 0x37, 0xa4, 0xb8, 0x27, 0x24, 0xb1, 0x34, 0x51, 0xb6, 0x68, 0x22, 0xba, 0x34, 0x0c, 0xb4, 0xec, 0xb4, 0x07, 0xb0, 0x33, 0x33, 0xb5, 0xaf, 0xa4, 0x35, 0x5e, 0xa5, 0x31, 0xb1, 0xc6, 0xa9, 0x62, 0x32, 0x80, 0x2e, 0x16, 0x31, 0x79, 0x34, 0xd0, 0x1b, 0xbe, 0xb5, 0xef, 0x2b, 0x8e, 0xb8, 0xce, 0x24, 0xc2, 0xb8, 0x55, 0x35, 0x36, 0xb8, 0x6f, 0x32, 0xcb, 0xb5, 0x5f, 0x35, 0x18, 0x2c, 0x24, 0x1e, 0x4f, 0xb7, 0xb8, 0x30, 0x82, 0xb7, 0x57, 0x34, 0x06, 0x34, 0x15, 0x34, 0x4d, 0xb5, 0x78, 0x32, 0xcd, 0x35, 0xd7, 0xaf, 0x64, 0xb5, 0xf9, 0x34, 0x9b, 0xa8, 0xc3, 0x1f, 0x90, 0x30, 0x36, 0xb4, 0xd7, 0x32, 0xe4, 0xb5, 0xd5, 0x33, 0x7f, 0x37, 0x15, 0x31, 0x55, 0x23, 0x4d, 0xad, 0x46, 0x2d, 0x47, 0xad, 0x45, 0xb5, 0x7c, 0x36, 0xd7, 0x33, 0xd1, 0xb8, 0xbb, 0xb5, 0x62, 0xb6, 0xb2, 0x2d, 0x0e, 0x32, 0x13, 0x32, 0x39, 0xb8, 0x02, 0xb4, 0xe3, 0xaf, 0x1d, 0xb7, 0x27, 0xb8, 0x32, 0xb6, 0x43, 0x34, 0x9b, 0xaf, 0x10, 0xb6, 0x7e, 0xb0, 0x6d, 0x34, 0xf9, 0xb1, 0x82, 0xae, 0xf3, 0x36, 0xdd, 0xb8, 0x41, 0x35, 0xe4, 0x34, 0x23, 0xb1, 0xef, 0xb1, 0x18, 0xaa, 0xa1, 0xb4, 0x24, 0xb1, 0xfc, 0xa3, 0x38, 0xb4, 0x45, 0xb5, 0x14, 0x37, 0xb6, 0xb7, 0xfd, 0xae, 0xcd, 0xb3, 0x2c, 0x36, 0xd9, 0xb1, 0xa7, 0x2d, 0x27, 0x32, 0x65, 0xb0, 0x99, 0x33, 0xa8, 0x26, 0xe7, 0xb8, 0xde, 0x23, 0x76, 0xa5, 0x63, 0x35, 0xc6, 0xb3, 0xb7, 0xb4, 0x5e, 0xb1, 0xdc, 0x29, 0xd6, 0x2f, 0x92, 0x36, 0x28, 0xb4, 0x60, 0xaa, 0x0a, 0x33, 0x2d, 0xb5, 0xd8, 0x33, 0xfe, 0xb5, 0x19, 0x34, 0x6d, 0xb7, 0x2a, 0x36, 0x95, 0xa9, 0x67, 0x2f, 0x6d, 0x2f, 0x9b, 0x2e, 0x01, 0xb8, 0x4f, 0xb3, 0xa5, 0x32, 0xf5, 0x35, 0xda, 0xb4, 0xa3, 0x35, 0x92, 0xb5, 0x77, 0x9e, 0xe1, 0xb5, 0x09, 0x36, 0x86, 0x2c, 0x98, 0xb5, 0x34, 0x33, 0x0b, 0xb1, 0xac, 0xb1, 0xb5, 0x30, 0xe3, 0xb5, 0x0c, 0xb3, 0x25, 0x34, 0x87, 0xb4, 0xc2, 0xa9, 0x4e, 0x99, 0x44, 0xaf, 0x6e, 0x32, 0x42, 0x36, 0x1d, 0xb4, 0xe6, 0x32, 0x1b, 0x2b, 0xfe, 0xae, 0xd7, 0xb6, 0xa0, 0xae, 0x44, 0x31, 0x52, 0x12, 0xfb, 0xa5, 0x5b, 0x32, 0x7b, 0xb4, 0x9a, 0xf6, 0xff, 0xff, 0x04, 0x00, 0x00, 0x00, 0x00, 0x08, 0x00, 0x00, 0x14, 0x23, 0x9c, 0xb4, 0x11, 0x31, 0x8e, 0x33, 0xc2, 0x1f, 0x2b, 0xb2, 0xac, 0xb1, 0xcf, 0xac, 0x64, 0xab, 0xfc, 0xb4, 0x9c, 0xb4, 0xfc, 0x28, 0x46, 0xb0, 0x0e, 0xb4, 0xb3, 0xaa, 0x3e, 0x2e, 0x9a, 0x24, 0x39, 0xb4, 0xd2, 0xae, 0x18, 0xb4, 0x15, 0xb2, 0x69, 0x2d, 0xdd, 0x30, 0x9b, 0x2d, 0xfd, 0xa8, 0x5e, 0xb4, 0x07, 0xa4, 0x03, 0x32, 0xa7, 0x28, 0xaf, 0x33, 0x70, 0xb0, 0xfb, 0x32, 0x6e, 0xb0, 0x81, 0xa7, 0x23, 0xb5, 0xb7, 0x2c, 0xc4, 0x31, 0xf3, 0x35, 0x49, 0xb4, 0x7b, 0x34, 0x14, 0xac, 0xd9, 0x31, 0xf9, 0x20, 0xd7, 0xaf, 0xca, 0xa4, 0x6f, 0x37, 0x82, 0x36, 0xbf, 0x21, 0xd1, 0xa7, 0xaf, 0x2d, 0x03, 0xa5, 0x09, 0xb4, 0x13, 0x2e, 0x84, 0xb3, 0xdc, 0xb5, 0x5c, 0x34, 0x14, 0x37, 0x59, 0xad, 0x14, 0xb4, 0x48, 0xb1, 0xeb, 0xb4, 0x00, 0xb3, 0x85, 0x36, 0xe1, 0x2e, 0x0f, 0xaf, 0xf6, 0xae, 0x2b, 0x31, 0x22, 0x32, 0x2a, 0xae, 0xf7, 0xb4, 0x61, 0xab, 0x0e, 0x2f, 0x33, 0xb3, 0x28, 0x31, 0x85, 0xaf, 0xb3, 0xb1, 0x3d, 0xae, 0x3a, 0x2b, 0xef, 0xad, 0xca, 0x32, 0xae, 0x34, 0x70, 0x33, 0x52, 0xab, 0x39, 0x35, 0xcc, 0xa3, 0xc9, 0x25, 0xb0, 0xb1, 0x1d, 0x34, 0x2b, 0xb5, 0x72, 0x2d, 0xa0, 0x34, 0x62, 0x2e, 0x94, 0x1d, 0xa1, 0xb5, 0xda, 0xb2, 0x37, 0x2d, 0x76, 0xb3, 0x90, 0xb2, 0x02, 0xb0, 0x3a, 0xb0, 0x29, 0x29, 0x95, 0xb4, 0xa2, 0xae, 0x56, 0xaf, 0xa6, 0xb0, 0xa9, 0xb2, 0x64, 0xb0, 0xd7, 0xad, 0xc0, 0xb3, 0xaa, 0x34, 0xe3, 0xb1, 0x92, 0x32, 0xe0, 0xb4, 0x37, 0x31, 0xd1, 0xae, 0x0e, 0xb3, 0xc0, 0x2a, 0xb3, 0x23, 0x5a, 0x2d, 0x22, 0xb1, 0xb5, 0x25, 0x73, 0x29, 0x02, 0xb1, 0xb9, 0x2e, 0x18, 0x34, 0x0b, 0x2e, 0xc4, 0x31, 0x68, 0xa5, 0x84, 0xac, 0x3e, 0xb1, 0x5c, 0xac, 0xa5, 0x34, 0xa4, 0xb2, 0x39, 0xb4, 0xbb, 0x35, 0x92, 0x34, 0x02, 0x35, 0xd2, 0x34, 0x0f, 0xb6, 0x8b, 0x30, 0x42, 0xb4, 0xea, 0xaf, 0x7d, 0xb3, 0x8f, 0x33, 0x4b, 0x36, 0xf4, 0x36, 0x44, 0xb4, 0x99, 0x34, 0xd0, 0x2d, 0x72, 0x34, 0x62, 0x36, 0xdb, 0x2d, 0xb8, 0xb5, 0x53, 0xac, 0x84, 0x31, 0xa3, 0xae, 0x7d, 0x31, 0x45, 0x2e, 0x18, 0x17, 0xe9, 0x13, 0x6b, 0xb1, 0x90, 0xb6, 0x94, 0xb1, 0xde, 0xac, 0xb1, 0xb1, 0x0c, 0xac, 0x8a, 0x36, 0x7d, 0xaa, 0xfc, 0xb4, 0x4d, 0x32, 0x73, 0xb1, 0xa6, 0xb2, 0xfc, 0x31, 0x1d, 0xb0, 0x0c, 0x2e, 0x19, 0xae, 0x41, 0xb3, 0xa2, 0x35, 0xe4, 0x30, 0xf9, 0xb1, 0x51, 0x34, 0xec, 0x30, 0xe2, 0x28, 0xf2, 0x32, 0x37, 0x35, 0x25, 0xae, 0xb5, 0x30, 0xc1, 0x35, 0xe2, 0xb0, 0xa3, 0xb5, 0x09, 0x24, 0x14, 0xab, 0x6b, 0xa7, 0x29, 0xb4, 0x90, 0x26, 0x0e, 0xb5, 0x84, 0xb5, 0xc2, 0xb2, 0x0a, 0x31, 0x34, 0x34, 0xb1, 0xa7, 0x7c, 0xb1, 0x23, 0xb7, 0xfc, 0x34, 0x6e, 0x35, 0xcf, 0xa2, 0x0e, 0x34, 0x45, 0x31, 0xfa, 0xb2, 0xa6, 0x31, 0x50, 0xb2, 0x64, 0xb3, 0x76, 0xa9, 0xe3, 0x29, 0x7c, 0x32, 0x64, 0x34, 0xfd, 0xb2, 0x86, 0xb5, 0x15, 0xb4, 0x0c, 0xb7, 0x99, 0xb0, 0x8d, 0x2b, 0x74, 0x2b, 0xb3, 0xaf, 0x31, 0x31, 0x67, 0xb4, 0x65, 0x33, 0x74, 0xb0, 0xb4, 0xa0, 0x57, 0x33, 0x89, 0x35, 0xf4, 0x33, 0x7a, 0xb4, 0x17, 0xb1, 0x8d, 0x36, 0x1e, 0xac, 0xa3, 0xb2, 0x50, 0xae, 0x39, 0xad, 0x71, 0xb5, 0x4c, 0xb1, 0xab, 0xb3, 0x91, 0xad, 0x63, 0x35, 0x8d, 0xa8, 0x76, 0x30, 0x80, 0xb6, 0xdd, 0xb2, 0x1e, 0x34, 0x21, 0x33, 0x0e, 0x32, 0xd4, 0x2c, 0x9b, 0x36, 0x01, 0x2f, 0xbe, 0x25, 0x2e, 0xb0, 0x21, 0x2e, 0x37, 0xae, 0x0b, 0xb4, 0x08, 0xb2, 0xee, 0x2c, 0xb2, 0xb2, 0x30, 0xa6, 0x50, 0x2c, 0x87, 0xb2, 0x32, 0xb4, 0xba, 0x21, 0x99, 0x2d, 0x8b, 0xa9, 0x4d, 0xb4, 0xcc, 0xb4, 0x50, 0xb3, 0x98, 0x22, 0x7a, 0x32, 0x03, 0xaa, 0x46, 0x32, 0xe2, 0xb3, 0x3f, 0xac, 0x4a, 0x31, 0x1e, 0xa9, 0xaf, 0xb2, 0x98, 0x13, 0xf1, 0xb4, 0x1c, 0x32, 0x8c, 0xb4, 0xa3, 0xb0, 0xe9, 0x30, 0x82, 0xac, 0x63, 0x34, 0x82, 0x32, 0x12, 0x2b, 0xa4, 0x35, 0xf7, 0xaf, 0xd4, 0xb0, 0xf8, 0xaf, 0xa8, 0xad, 0xba, 0xaa, 0x98, 0x31, 0x18, 0x30, 0x60, 0x36, 0x58, 0x32, 0xb3, 0xb3, 0x58, 0xae, 0xba, 0x2c, 0x3a, 0x35, 0xbd, 0x36, 0x67, 0xa7, 0x64, 0x30, 0xad, 0x35, 0x61, 0x2b, 0x9c, 0x32, 0x54, 0x2f, 0xdd, 0xa0, 0x4c, 0xb5, 0x78, 0xb2, 0xf5, 0xa5, 0x38, 0xa5, 0x5c, 0xb5, 0x3d, 0x2d, 0xd7, 0xaf, 0xc2, 0x30, 0x06, 0x32, 0xa8, 0x2d, 0x4f, 0x33, 0xbd, 0xb0, 0x19, 0xb4, 0x2f, 0xb1, 0x77, 0x28, 0x2e, 0x30, 0xba, 0xb4, 0x1e, 0x34, 0x35, 0xb1, 0xf3, 0xb1, 0x19, 0xaf, 0x31, 0x21, 0xe3, 0x34, 0xfb, 0x2b, 0xb7, 0xb1, 0x12, 0xaf, 0x25, 0xa8, 0xcc, 0xb3, 0xbf, 0xac, 0xd6, 0xb1, 0x11, 0xa5, 0xd3, 0x28, 0xd1, 0xa4, 0x8b, 0xb2, 0xce, 0xb4, 0xf3, 0xb2, 0xc2, 0x2f, 0xf9, 0xb3, 0xfa, 0x30, 0x10, 0x28, 0xee, 0x2d, 0xd0, 0x30, 0x01, 0xb4, 0xd9, 0xaa, 0xc0, 0x2d, 0xec, 0x2e, 0x30, 0xb2, 0x33, 0xaa, 0x62, 0x30, 0x97, 0x32, 0x6b, 0xac, 0xd2, 0xb0, 0x91, 0xaa, 0x16, 0xb4, 0x36, 0x32, 0xd6, 0x33, 0x67, 0xb1, 0xad, 0xb2, 0x3b, 0x34, 0xf8, 0xb1, 0x52, 0x35, 0xe9, 0x31, 0xf0, 0xaf, 0xef, 0xb2, 0x2f, 0x34, 0xe0, 0xb0, 0xdf, 0xb1, 0x1c, 0x36, 0x65, 0x32, 0x83, 0x31, 0x3c, 0xb2, 0xb4, 0x2f, 0x0d, 0x32, 0xf6, 0x9f, 0x1d, 0x34, 0x08, 0x33, 0x3f, 0xaf, 0x33, 0x35, 0x78, 0x2f, 0x0f, 0x28, 0x7f, 0x33, 0xe3, 0x2b, 0xc0, 0x35, 0x30, 0x23, 0x5b, 0x23, 0x7e, 0xa5, 0x3a, 0xb1, 0xdb, 0x35, 0xb0, 0x31, 0x15, 0xb5, 0x02, 0x34, 0xe2, 0x33, 0x23, 0xb3, 0x26, 0x2d, 0x02, 0x33, 0x7b, 0x1e, 0xb2, 0x32, 0x17, 0x2c, 0x95, 0x34, 0x76, 0x30, 0xcb, 0x30, 0xd9, 0xb0, 0x8d, 0x99, 0xa7, 0x2b, 0x7a, 0x31, 0x9d, 0xb2, 0x79, 0x30, 0x28, 0xb5, 0x6a, 0xaf, 0x40, 0x32, 0x8d, 0xaf, 0xaa, 0xa9, 0xd5, 0x34, 0xa8, 0x2c, 0x1b, 0x30, 0xee, 0x32, 0x30, 0x2c, 0x8e, 0x31, 0x62, 0xb0, 0x35, 0x29, 0x7a, 0xb4, 0x42, 0xb2, 0x36, 0xb6, 0xae, 0x34, 0x34, 0x2e, 0x59, 0x31, 0xb3, 0xb2, 0x1b, 0xb3, 0x35, 0xb6, 0xf9, 0xb5, 0x5a, 0xa2, 0x49, 0xb2, 0x7f, 0x2b, 0x43, 0x32, 0xc8, 0xb5, 0x94, 0x2e, 0x76, 0x34, 0x7a, 0x37, 0x44, 0x22, 0x64, 0x35, 0xdf, 0x34, 0x71, 0x2e, 0x1b, 0x34, 0x1c, 0xb2, 0x9b, 0xb4, 0xdf, 0xaf, 0xa2, 0x2f, 0x86, 0x34, 0xf0, 0xaf, 0x15, 0x28, 0x1d, 0xae, 0x1a, 0x38, 0xb5, 0xb3, 0x84, 0xb1, 0x7e, 0x2c, 0xc5, 0xb0, 0x90, 0x30, 0x93, 0x32, 0xcb, 0xa9, 0xd7, 0x2d, 0x59, 0xb1, 0x68, 0xa8, 0x9c, 0xae, 0xb2, 0xac, 0xeb, 0x32, 0xa9, 0x34, 0xf7, 0xb0, 0x87, 0x32, 0x92, 0x2a, 0x90, 0xb6, 0x23, 0x31, 0xa9, 0xb1, 0x2f, 0x33, 0x45, 0x32, 0x66, 0xad, 0x94, 0x36, 0x53, 0x32, 0xc4, 0x2a, 0x78, 0x29, 0xf8, 0x2d, 0xd2, 0x1f, 0x01, 0x2c, 0xc4, 0xb4, 0x54, 0xb5, 0x55, 0x33, 0x8c, 0x33, 0x78, 0xb1, 0xa4, 0xb3, 0x56, 0x35, 0x9f, 0xb0, 0xc3, 0x33, 0xa3, 0x35, 0xed, 0x31, 0x53, 0x35, 0x89, 0xb1, 0x53, 0x2f, 0xea, 0xb2, 0x72, 0x25, 0x9f, 0x2e, 0xa9, 0x9f, 0x82, 0x31, 0x1e, 0x36, 0x09, 0x2f, 0x6f, 0x2c, 0x06, 0xac, 0xa4, 0xb5, 0x12, 0xb2, 0x1a, 0x33, 0x90, 0xab, 0x7a, 0x2b, 0xa7, 0xb4, 0x92, 0xa8, 0x47, 0xad, 0xaa, 0xb0, 0x7f, 0x28, 0xa1, 0x34, 0x16, 0x34, 0xe3, 0x28, 0x84, 0xb1, 0x13, 0x31, 0x74, 0x34, 0xca, 0xb3, 0xb7, 0xb2, 0x3d, 0xb4, 0x25, 0x35, 0x37, 0x33, 0xc7, 0x9c, 0x13, 0xac, 0x2a, 0x34, 0xc1, 0x34, 0x9c, 0xae, 0xef, 0xa3, 0x90, 0xb0, 0xfc, 0x2d, 0x5d, 0x2f, 0xd4, 0xb1, 0x0f, 0x2a, 0x15, 0x34, 0x7d, 0xb5, 0x17, 0xb0, 0x45, 0x20, 0x61, 0x2c, 0x24, 0xb5, 0x94, 0xa5, 0x63, 0xb0, 0x14, 0xa8, 0x4b, 0xb0, 0x69, 0x35, 0xb5, 0xaf, 0x2b, 0x33, 0x2a, 0x36, 0xaa, 0xb6, 0x8d, 0xa0, 0xa7, 0xb6, 0xae, 0x2a, 0xfc, 0x34, 0x1d, 0x30, 0x28, 0xad, 0x62, 0x26, 0x74, 0x35, 0xd7, 0x34, 0x2a, 0x22, 0x6a, 0x1a, 0xab, 0x35, 0x90, 0xad, 0x46, 0x28, 0x0d, 0x30, 0x5b, 0x31, 0xe7, 0x29, 0x5e, 0x35, 0xb0, 0xb4, 0x04, 0x27, 0xcb, 0x35, 0x7c, 0x33, 0x03, 0xb7, 0x79, 0xb5, 0x3d, 0xb0, 0xca, 0x2b, 0x49, 0xaf, 0x2d, 0xa9, 0x5b, 0xb4, 0x9f, 0x2f, 0xea, 0x34, 0x05, 0xaf, 0xa5, 0x30, 0x25, 0xb4, 0x03, 0xb4, 0x6c, 0x30, 0xd6, 0xa9, 0xfa, 0x2f, 0x4f, 0x26, 0x14, 0x2c, 0xe2, 0xb0, 0xe6, 0xb4, 0x55, 0x34, 0x57, 0xb4, 0x5c, 0x31, 0xdf, 0x2a, 0xde, 0xb4, 0x33, 0x32, 0xc8, 0x2b, 0x12, 0xb5, 0xd9, 0xaf, 0x6b, 0xaa, 0x94, 0xb4, 0xd4, 0xb4, 0xfb, 0xb4, 0x5a, 0x2d, 0x30, 0xb4, 0x7e, 0xad, 0x53, 0xb5, 0x34, 0x30, 0x2b, 0xb4, 0x6c, 0x21, 0xba, 0xb4, 0x93, 0xaa, 0xa9, 0x31, 0x4a, 0x30, 0xf4, 0xb4, 0x3f, 0xb0, 0x4e, 0x30, 0x6c, 0x31, 0x84, 0xac, 0x5d, 0xb5, 0x36, 0x31, 0x64, 0x32, 0x50, 0xac, 0x02, 0xb5, 0x34, 0xad, 0x3b, 0x2e, 0x5a, 0x31, 0xc6, 0x31, 0x23, 0x34, 0x32, 0xb5, 0x9d, 0xad, 0x20, 0x34, 0x0c, 0x34, 0x36, 0x2d, 0xa1, 0xb0, 0x72, 0x28, 0xa1, 0xb2, 0x67, 0x35, 0xeb, 0xb1, 0xa4, 0x23, 0x90, 0x2e, 0x77, 0xb4, 0x1f, 0xb0, 0xd5, 0x2e, 0x85, 0x2f, 0x9c, 0x34, 0x3f, 0xad, 0x85, 0xb3, 0x68, 0xb2, 0xc8, 0x2e, 0x21, 0xac, 0x5d, 0xb6, 0xa1, 0xb2, 0xc9, 0xad, 0xbf, 0x2f, 0xc7, 0xb5, 0x64, 0xb5, 0x51, 0x36, 0x4b, 0x23, 0xa2, 0xae, 0xca, 0x30, 0x0b, 0x36, 0x0a, 0x31, 0x15, 0x31, 0xd9, 0x28, 0x8d, 0xb3, 0x39, 0x35, 0xc9, 0xaf, 0xc1, 0xb1, 0x86, 0xaf, 0x3e, 0x99, 0xd0, 0xac, 0x69, 0x30, 0xf6, 0xb0, 0xa0, 0x24, 0x98, 0x34, 0x61, 0x29, 0x49, 0x33, 0xe4, 0x33, 0x0f, 0x34, 0x3c, 0x2c, 0x19, 0xb1, 0x9a, 0x34, 0x1e, 0x33, 0xcc, 0xaf, 0x6d, 0xad, 0x19, 0xb1, 0x2d, 0x37, 0xc8, 0x2c, 0x93, 0xb4, 0x64, 0x9a, 0x0d, 0x30, 0x49, 0x2d, 0x91, 0xb3, 0x05, 0xa9, 0x0b, 0x2e, 0x64, 0x30, 0xfd, 0xac, 0x0a, 0xb4, 0x99, 0x26, 0x24, 0x35, 0x94, 0x30, 0x5e, 0xb4, 0x5c, 0xb0, 0x17, 0x24, 0x5d, 0x34, 0x72, 0xa0, 0x29, 0xb5, 0x7b, 0xb0, 0x85, 0xb1, 0x6f, 0x34, 0xc6, 0xa2, 0xa3, 0xb2, 0xcd, 0x30, 0x6f, 0x33, 0x20, 0xac, 0xe1, 0xb6, 0x97, 0x2d, 0x5a, 0x32, 0x17, 0xb0, 0x88, 0xb3, 0x4e, 0x31, 0x6a, 0x30, 0x1f, 0xaf, 0x92, 0xb0, 0x70, 0xb3, 0xab, 0xae, 0x40, 0xb3, 0xc8, 0x32, 0x70, 0x35, 0x92, 0xa3, 0x0f, 0xb0, 0xf6, 0x2d, 0x9d, 0x33, 0xde, 0x30, 0x28, 0x34, 0x7c, 0xa6, 0x32, 0xb1, 0x9b, 0x36, 0xb5, 0xb4, 0xe4, 0xaf, 0x78, 0x9d, 0x32, 0x36, 0x08, 0x35, 0xd8, 0xb0, 0x99, 0xae, 0x98, 0xb3, 0x09, 0x2d, 0xeb, 0xae, 0x12, 0x34, 0x0d, 0xab, 0x4f, 0x34, 0x22, 0xb4, 0xc0, 0xb1, 0x1e, 0x2c, 0xa4, 0x2e, 0xc2, 0x22, 0x0c, 0xb1, 0x49, 0xb1, 0x7c, 0xb4, 0x24, 0xa7, 0xe8, 0x2c, 0xc4, 0x32, 0xf7, 0xb4, 0x81, 0x89, 0x5f, 0xb4, 0x0e, 0xa8, 0x77, 0xae, 0x9d, 0x33, 0x11, 0xb2, 0xc6, 0x31, 0xf5, 0xb0, 0x50, 0xb4, 0x8c, 0xa1, 0x7b, 0xb4, 0x63, 0xab, 0x0e, 0x34, 0x77, 0x23, 0xd7, 0x2d, 0x65, 0x30, 0x6d, 0xb5, 0xad, 0xaa, 0xda, 0xb4, 0x57, 0x30, 0x8b, 0xa8, 0x16, 0xb4, 0x20, 0xa3, 0x66, 0xae, 0x6e, 0xae, 0xf5, 0x9b, 0xb5, 0xb0, 0x9d, 0xad, 0xd6, 0xb2, 0x8c, 0x36, 0xac, 0x2f, 0x3d, 0xb2, 0xd5, 0x2a, 0x28, 0x28, 0x54, 0x26, 0xdc, 0xb5, 0x4c, 0xb3, 0x3c, 0xab, 0x35, 0x36, 0x8b, 0x2d, 0x8b, 0x29, 0xc1, 0x29, 0xeb, 0x27, 0x1f, 0x32, 0x3b, 0x31, 0x9c, 0x36, 0x3a, 0x30, 0xef, 0x35, 0x5e, 0xb5, 0xa9, 0x34, 0x6f, 0xb0, 0xaf, 0xa8, 0x32, 0x30, 0x0f, 0x34, 0x2a, 0x26, 0xa7, 0x35, 0x3d, 0x34, 0xf0, 0x2b, 0x0e, 0x32, 0x58, 0xb2, 0xdf, 0xa7, 0x6c, 0x36, 0xa0, 0xa5, 0x0e, 0xa9, 0x42, 0x35, 0xe6, 0x34, 0xf4, 0xb5, 0x52, 0x34, 0x7f, 0xa1, 0x47, 0x34, 0xda, 0x36, 0x7a, 0xaf, 0x3b, 0xb4, 0xd8, 0xb4, 0x95, 0xb4, 0x07, 0x31, 0x60, 0x37, 0x93, 0xad, 0x9e, 0x34, 0xf1, 0x36, 0x94, 0x36, 0x85, 0x32, 0x56, 0xa0, 0x48, 0xb1, 0x86, 0xb7, 0xe1, 0x30, 0xba, 0xae, 0x41, 0xb1, 0x98, 0x34, 0xe5, 0xb3, 0x28, 0x2e, 0x76, 0xb4, 0x27, 0x2c, 0x78, 0xb0, 0xcc, 0xa8, 0x38, 0x36, 0x56, 0xb4, 0xa6, 0x2d, 0x03, 0x2e, 0x54, 0xac, 0xde, 0xa0, 0x9f, 0xb1, 0x2e, 0xa8, 0xbe, 0xaa, 0x06, 0x30, 0xec, 0xb4, 0x41, 0x34, 0x81, 0x30, 0x0a, 0xb3, 0x4c, 0xb2, 0x19, 0x35, 0xdc, 0xb1, 0xb2, 0x2e, 0x35, 0xaf, 0x9b, 0xb0, 0xae, 0x2a, 0x3b, 0x34, 0xe1, 0xb0, 0x55, 0x30, 0x69, 0x35, 0x19, 0x34, 0x12, 0xad, 0x42, 0x33, 0x45, 0x37, 0x58, 0x32, 0xdd, 0xb2, 0xae, 0x2c, 0xb9, 0xa6, 0xc8, 0x31, 0xe2, 0xb1, 0x5b, 0x34, 0x94, 0xae, 0x8c, 0xae, 0xbe, 0x31, 0x00, 0xab, 0xa2, 0xa4, 0xb4, 0x36, 0xaf, 0xad, 0x86, 0x17, 0xa4, 0x30, 0xfe, 0xb2, 0x3c, 0xb4, 0x1c, 0xb0, 0x99, 0xac, 0xb4, 0xb3, 0x79, 0x31, 0x1a, 0x34, 0x70, 0xb4, 0x2c, 0x32, 0x9d, 0x34, 0x33, 0x24, 0x62, 0xb5, 0xab, 0x95, 0x0e, 0x25, 0xed, 0x2f, 0xb8, 0xac, 0x7f, 0xb4, 0x29, 0xaf, 0x1d, 0x31, 0xe9, 0xb2, 0x95, 0x30, 0x97, 0xaf, 0xbf, 0x31, 0x43, 0x33, 0xfc, 0x31, 0xc7, 0x34, 0xb3, 0x31, 0x62, 0x34, 0x26, 0x31, 0x5e, 0xad, 0x54, 0xb3, 0x0a, 0x34, 0x1b, 0x19, 0x3c, 0x31, 0x76, 0x35, 0xcf, 0xb3, 0xd4, 0xb4, 0xe0, 0xa9, 0x7d, 0x34, 0xae, 0x36, 0x45, 0xb0, 0x2c, 0x34, 0xfe, 0x2b, 0xb0, 0x32, 0x91, 0x36, 0x9a, 0xb4, 0xc4, 0x34, 0xf6, 0x2c, 0x5d, 0xb1, 0x53, 0x36, 0xda, 0x31, 0x0a, 0x30, 0x9c, 0xb3, 0x7a, 0x36, 0x03, 0xb1, 0x8a, 0x2c, 0xd5, 0x31, 0x07, 0xa4, 0x4a, 0xab, 0x5a, 0x34, 0x0b, 0xb2, 0x05, 0xb4, 0x25, 0x33, 0x4d, 0xb5, 0x68, 0x30, 0x00, 0xb3, 0x16, 0xac, 0x78, 0xa6, 0xb0, 0xac, 0xfa, 0x31, 0x9c, 0x31, 0xfa, 0xb4, 0xf7, 0xb4, 0xa0, 0x2d, 0xd6, 0x31, 0x23, 0xb4, 0x27, 0x9a, 0x85, 0xaf, 0x92, 0x33, 0x39, 0x34, 0x42, 0x31, 0x55, 0xb2, 0x68, 0x26, 0x89, 0x32, 0x20, 0xb6, 0x50, 0x1d, 0xa3, 0x33, 0x99, 0x34, 0x8c, 0x34, 0xcc, 0xb4, 0xf1, 0xb4, 0x59, 0x31, 0xf5, 0x2a, 0x56, 0x32, 0x23, 0x24, 0x9f, 0x30, 0xe5, 0xb6, 0x27, 0x2d, 0x1b, 0xb6, 0x3b, 0xb0, 0xbd, 0x33, 0x94, 0xb1, 0xc9, 0xb4, 0xa6, 0xfe, 0xff, 0xff, 0x04, 0x00, 0x00, 0x00, 0x04, 0x00, 0x00, 0x00, 0x01, 0x00, 0x00, 0x00, 0xb6, 0xfe, 0xff, 0xff, 0x04, 0x00, 0x00, 0x00, 0x16, 0x00, 0x00, 0x00, 0x7b, 0x2d, 0xdb, 0xab, 0xbf, 0x28, 0xba, 0x9f, 0x81, 0xa4, 0x53, 0x29, 0x3e, 0x25, 0x46, 0xaf, 0xf1, 0xa5, 0x17, 0x8b, 0x91, 0x21, 0x00, 0x00, 0xda, 0xfe, 0xff, 0xff, 0x04, 0x00, 0x00, 0x00, 0x40, 0x00, 0x00, 0x00, 0x0e, 0xa4, 0x47, 0x2f, 0x08, 0x16, 0xed, 0xa3, 0x03, 0xa2, 0x99, 0x2b, 0x26, 0x09, 0xaa, 0xa7, 0x5c, 0xa4, 0xdf, 0x2a, 0x00, 0x00, 0xd9, 0x29, 0x25, 0x10, 0x24, 0xa8, 0x3d, 0x2a, 0xc5, 0x12, 0x78, 0x29, 0x2f, 0xaa, 0xcb, 0xa9, 0xd6, 0xa7, 0x07, 0xa4, 0x9b, 0x2a, 0xa8, 0x21, 0xb7, 0x28, 0x95, 0xa6, 0x67, 0x29, 0x2f, 0x2a, 0x34, 0x2e, 0xf4, 0x2d, 0xdd, 0x2b, 0xbd, 0x25, 0xbc, 0x21, 0x26, 0xff, 0xff, 0xff, 0x04, 0x00, 0x00, 0x00, 0x10, 0x00, 0x00, 0x00, 0x01, 0x00, 0x00, 0x00, 0x01, 0x00, 0x00, 0x00, 0x64, 0x00, 0x00, 0x00, 0x05, 0x00, 0x00, 0x00, 0x5c, 0xf1, 0xff, 0xff, 0x60, 0xf1, 0xff, 0xff, 0x0f, 0x00, 0x00, 0x00, 0x4d, 0x4c, 0x49, 0x52, 0x20, 0x43, 0x6f, 0x6e, 0x76, 0x65, 0x72, 0x74, 0x65, 0x64, 0x2e, 0x00, 0x01, 0x00, 0x00, 0x00, 0x14, 0x00, 0x00, 0x00, 0x00, 0x00, 0x0e, 0x00, 0x18, 0x00, 0x14, 0x00, 0x10, 0x00, 0x0c, 0x00, 0x08, 0x00, 0x04, 0x00, 0x0e, 0x00, 0x00, 0x00, 0x14, 0x00, 0x00, 0x00, 0x1c, 0x00, 0x00, 0x00, 0xb4, 0x03, 0x00, 0x00, 0xb8, 0x03, 0x00, 0x00, 0xbc, 0x03, 0x00, 0x00, 0x04, 0x00, 0x00, 0x00, 0x6d, 0x61, 0x69, 0x6e, 0x00, 0x00, 0x00, 0x00, 0x12, 0x00, 0x00, 0x00, 0x7c, 0x03, 0x00, 0x00, 0x50, 0x03, 0x00, 0x00, 0x30, 0x03, 0x00, 0x00, 0x10, 0x03, 0x00, 0x00, 0xf0, 0x02, 0x00, 0x00, 0xd0, 0x02, 0x00, 0x00, 0xb0, 0x02, 0x00, 0x00, 0x90, 0x02, 0x00, 0x00, 0x68, 0x02, 0x00, 0x00, 0x08, 0x02, 0x00, 0x00, 0xa4, 0x01, 0x00, 0x00, 0x5c, 0x01, 0x00, 0x00, 0x18, 0x01, 0x00, 0x00, 0xf0, 0x00, 0x00, 0x00, 0xbc, 0x00, 0x00, 0x00, 0x78, 0x00, 0x00, 0x00, 0x40, 0x00, 0x00, 0x00, 0x04, 0x00, 0x00, 0x00, 0x2a, 0xfe, 0xff, 0xff, 0x1c, 0x00, 0x00, 0x00, 0x00, 0x00, 0x00, 0x09, 0x1c, 0x00, 0x00, 0x00, 0x20, 0x00, 0x00, 0x00, 0x06, 0x00, 0x00, 0x00, 0x00, 0x00, 0x06, 0x00, 0x08, 0x00, 0x04, 0x00, 0x06, 0x00, 0x00, 0x00, 0x00, 0x00, 0x80, 0x3f, 0x01, 0x00, 0x00, 0x00, 0x1d, 0x00, 0x00, 0x00, 0x01, 0x00, 0x00, 0x00, 0x1c, 0x00, 0x00, 0x00, 0x62, 0xfe, 0xff, 0xff, 0x14, 0x00, 0x00, 0x00, 0x00, 0x00, 0x00, 0x08, 0x10, 0x00, 0x00, 0x00, 0x14, 0x00, 0x00, 0x00, 0x05, 0x00, 0x00, 0x00, 0x50, 0xf2, 0xff, 0xff, 0x01, 0x00, 0x00, 0x00, 0x1c, 0x00, 0x00, 0x00, 0x03, 0x00, 0x00, 0x00, 0x1b, 0x00, 0x00, 0x00, 0x10, 0x00, 0x00, 0x00, 0x12, 0x00, 0x00, 0x00, 0x96, 0xfe, 0xff, 0xff, 0x1c, 0x00, 0x00, 0x00, 0x00, 0x00, 0x00, 0x08, 0x1c, 0x00, 0x00, 0x00, 0x20, 0x00, 0x00, 0x00, 0x05, 0x00, 0x00, 0x00, 0x00, 0x00, 0x06, 0x00, 0x08, 0x00, 0x07, 0x00, 0x06, 0x00, 0x00, 0x00, 0x00, 0x00, 0x00, 0x01, 0x01, 0x00, 0x00, 0x00, 0x1b, 0x00, 0x00, 0x00, 0x03, 0x00, 0x00, 0x00, 0x1a, 0x00, 0x00, 0x00, 0x11, 0x00, 0x00, 0x00, 0x13, 0x00, 0x00, 0x00, 0xd6, 0xfe, 0xff, 0xff, 0x14, 0x00, 0x00, 0x00, 0x00, 0x00, 0x00, 0x1b, 0x10, 0x00, 0x00, 0x00, 0x14, 0x00, 0x00, 0x00, 0x04, 0x00, 0x00, 0x00, 0xc4, 0xf2, 0xff, 0xff, 0x01, 0x00, 0x00, 0x00, 0x1a, 0x00, 0x00, 0x00, 0x02, 0x00, 0x00, 0x00, 0x19, 0x00, 0x00, 0x00, 0x04, 0x00, 0x00, 0x00, 0xa6, 0xfe, 0xff, 0xff, 0x0c, 0x00, 0x00, 0x00, 0x10, 0x00, 0x00, 0x00, 0x01, 0x00, 0x00, 0x00, 0x01, 0x00, 0x00, 0x00, 0x19, 0x00, 0x00, 0x00, 0x02, 0x00, 0x00, 0x00, 0x18, 0x00, 0x00, 0x00, 0x09, 0x00, 0x00, 0x00, 0x2a, 0xff, 0xff, 0xff, 0x14, 0x00, 0x00, 0x00, 0x00, 0x00, 0x00, 0x05, 0x24, 0x00, 0x00, 0x00, 0x28, 0x00, 0x00, 0x00, 0x03, 0x00, 0x00, 0x00, 0x7a, 0xff, 0xff, 0xff, 0x01, 0x00, 0x00, 0x00, 0x02, 0x00, 0x00, 0x00, 0x01, 0x00, 0x00, 0x00, 0x02, 0x00, 0x00, 0x00, 0x00, 0x00, 0x00, 0x01, 0x01, 0x00, 0x00, 0x00, 0x18, 0x00, 0x00, 0x00, 0x01, 0x00, 0x00, 0x00, 0x17, 0x00, 0x00, 0x00, 0x6a, 0xff, 0xff, 0xff, 0x14, 0x00, 0x00, 0x00, 0x00, 0x00, 0x00, 0x01, 0x20, 0x00, 0x00, 0x00, 0x24, 0x00, 0x00, 0x00, 0x02, 0x00, 0x00, 0x00, 0x5c, 0xff, 0xff, 0xff, 0x00, 0x00, 0x00, 0x01, 0x01, 0x00, 0x00, 0x00, 0x01, 0x00, 0x00, 0x00, 0x00, 0x00, 0x00, 0x01, 0x01, 0x00, 0x00, 0x00, 0x17, 0x00, 0x00, 0x00, 0x03, 0x00, 0x00, 0x00, 0x16, 0x00, 0x00, 0x00, 0x0e, 0x00, 0x00, 0x00, 0x0c, 0x00, 0x00, 0x00, 0xae, 0xff, 0xff, 0xff, 0x24, 0x00, 0x00, 0x00, 0x00, 0x00, 0x00, 0x05, 0x34, 0x00, 0x00, 0x00, 0x38, 0x00, 0x00, 0x00, 0x03, 0x00, 0x00, 0x00, 0x00, 0x00, 0x0e, 0x00, 0x18, 0x00, 0x17, 0x00, 0x10, 0x00, 0x0c, 0x00, 0x08, 0x00, 0x04, 0x00, 0x0e, 0x00, 0x00, 0x00, 0x01, 0x00, 0x00, 0x00, 0x02, 0x00, 0x00, 0x00, 0x01, 0x00, 0x00, 0x00, 0x02, 0x00, 0x00, 0x00, 0x00, 0x00, 0x00, 0x01, 0x01, 0x00, 0x00, 0x00, 0x16, 0x00, 0x00, 0x00, 0x01, 0x00, 0x00, 0x00, 0x15, 0x00, 0x00, 0x00, 0x00, 0x00, 0x0e, 0x00, 0x18, 0x00, 0x14, 0x00, 0x10, 0x00, 0x0c, 0x00, 0x0b, 0x00, 0x04, 0x00, 0x0e, 0x00, 0x00, 0x00, 0x20, 0x00, 0x00, 0x00, 0x00, 0x00, 0x00, 0x01, 0x2c, 0x00, 0x00, 0x00, 0x30, 0x00, 0x00, 0x00, 0x02, 0x00, 0x00, 0x00, 0x0c, 0x00, 0x14, 0x00, 0x13, 0x00, 0x0c, 0x00, 0x08, 0x00, 0x07, 0x00, 0x0c, 0x00, 0x00, 0x00, 0x00, 0x00, 0x00, 0x01, 0x01, 0x00, 0x00, 0x00, 0x01, 0x00, 0x00, 0x00, 0x00, 0x00, 0x00, 0x01, 0x01, 0x00, 0x00, 0x00, 0x15, 0x00, 0x00, 0x00, 0x03, 0x00, 0x00, 0x00, 0x14, 0x00, 0x00, 0x00, 0x0f, 0x00, 0x00, 0x00, 0x0d, 0x00, 0x00, 0x00, 0x00, 0x00, 0x0a, 0x00, 0x10, 0x00, 0x0c, 0x00, 0x08, 0x00, 0x04, 0x00, 0x0a, 0x00, 0x00, 0x00, 0x0c, 0x00, 0x00, 0x00, 0x10, 0x00, 0x00, 0x00, 0x01, 0x00, 0x00, 0x00, 0x01, 0x00, 0x00, 0x00, 0x14, 0x00, 0x00, 0x00, 0x02, 0x00, 0x00, 0x00, 0x00, 0x00, 0x00, 0x00, 0x01, 0x00, 0x00, 0x00, 0x3a, 0xff, 0xff, 0xff, 0x08, 0x00, 0x00, 0x00, 0x0c, 0x00, 0x00, 0x00, 0x01, 0x00, 0x00, 0x00, 0x13, 0x00, 0x00, 0x00, 0x01, 0x00, 0x00, 0x00, 0x02, 0x00, 0x00, 0x00, 0x56, 0xff, 0xff, 0xff, 0x08, 0x00, 0x00, 0x00, 0x0c, 0x00, 0x00, 0x00, 0x01, 0x00, 0x00, 0x00, 0x12, 0x00, 0x00, 0x00, 0x01, 0x00, 0x00, 0x00, 0x03, 0x00, 0x00, 0x00, 0x72, 0xff, 0xff, 0xff, 0x08, 0x00, 0x00, 0x00, 0x0c, 0x00, 0x00, 0x00, 0x01, 0x00, 0x00, 0x00, 0x11, 0x00, 0x00, 0x00, 0x01, 0x00, 0x00, 0x00, 0x05, 0x00, 0x00, 0x00, 0x8e, 0xff, 0xff, 0xff, 0x08, 0x00, 0x00, 0x00, 0x0c, 0x00, 0x00, 0x00, 0x01, 0x00, 0x00, 0x00, 0x10, 0x00, 0x00, 0x00, 0x01, 0x00, 0x00, 0x00, 0x06, 0x00, 0x00, 0x00, 0xaa, 0xff, 0xff, 0xff, 0x08, 0x00, 0x00, 0x00, 0x0c, 0x00, 0x00, 0x00, 0x01, 0x00, 0x00, 0x00, 0x0f, 0x00, 0x00, 0x00, 0x01, 0x00, 0x00, 0x00, 0x07, 0x00, 0x00, 0x00, 0xc6, 0xff, 0xff, 0xff, 0x08, 0x00, 0x00, 0x00, 0x0c, 0x00, 0x00, 0x00, 0x01, 0x00, 0x00, 0x00, 0x0e, 0x00, 0x00, 0x00, 0x01, 0x00, 0x00, 0x00, 0x08, 0x00, 0x00, 0x00, 0xe2, 0xff, 0xff, 0xff, 0x08, 0x00, 0x00, 0x00, 0x0c, 0x00, 0x00, 0x00, 0x01, 0x00, 0x00, 0x00, 0x0d, 0x00, 0x00, 0x00, 0x01, 0x00, 0x00, 0x00, 0x0a, 0x00, 0x00, 0x00, 0x00, 0x00, 0x0a, 0x00, 0x0c, 0x00, 0x00, 0x00, 0x08, 0x00, 0x04, 0x00, 0x0a, 0x00, 0x00, 0x00, 0x08, 0x00, 0x00, 0x00, 0x0c, 0x00, 0x00, 0x00, 0x01, 0x00, 0x00, 0x00, 0x0c, 0x00, 0x00, 0x00, 0x01, 0x00, 0x00, 0x00, 0x0b, 0x00, 0x00, 0x00, 0x01, 0x00, 0x00, 0x00, 0x1d, 0x00, 0x00, 0x00, 0x01, 0x00, 0x00, 0x00, 0x00, 0x00, 0x00, 0x00, 0x1e, 0x00, 0x00, 0x00, 0x84, 0x0a, 0x00, 0x00, 0x2c, 0x0a, 0x00, 0x00, 0xd4, 0x09, 0x00, 0x00, 0x94, 0x09, 0x00, 0x00, 0x58, 0x09, 0x00, 0x00, 0x14, 0x09, 0x00, 0x00, 0xd0, 0x08, 0x00, 0x00, 0x84, 0x08, 0x00, 0x00, 0x38, 0x08, 0x00, 0x00, 0xf8, 0x07, 0x00, 0x00, 0xb8, 0x07, 0x00, 0x00, 0x74, 0x07, 0x00, 0x00, 0x38, 0x07, 0x00, 0x00, 0xfc, 0x06, 0x00, 0x00, 0xb4, 0x06, 0x00, 0x00, 0x6c, 0x06, 0x00, 0x00, 0x2c, 0x06, 0x00, 0x00, 0xec, 0x05, 0x00, 0x00, 0xb0, 0x05, 0x00, 0x00, 0x74, 0x05, 0x00, 0x00, 0x04, 0x05, 0x00, 0x00, 0x00, 0x04, 0x00, 0x00, 0x98, 0x03, 0x00, 0x00, 0x94, 0x02, 0x00, 0x00, 0x2c, 0x02, 0x00, 0x00, 0xc0, 0x01, 0x00, 0x00, 0x58, 0x01, 0x00, 0x00, 0xbc, 0x00, 0x00, 0x00, 0x40, 0x00, 0x00, 0x00, 0x04, 0x00, 0x00, 0x00, 0x0a, 0xf6, 0xff, 0xff, 0x00, 0x00, 0x00, 0x01, 0x10, 0x00, 0x00, 0x00, 0x10, 0x00, 0x00, 0x00, 0x1e, 0x00, 0x00, 0x00, 0x18, 0x00, 0x00, 0x00, 0xf4, 0xf5, 0xff, 0xff, 0x08, 0x00, 0x00, 0x00, 0x49, 0x64, 0x65, 0x6e, 0x74, 0x69, 0x74, 0x79, 0x00, 0x00, 0x00, 0x00, 0x02, 0x00, 0x00, 0x00, 0x01, 0x00, 0x00, 0x00, 0x0b, 0x00, 0x00, 0x00, 0x42, 0xf6, 0xff, 0xff, 0x00, 0x00, 0x00, 0x01, 0x10, 0x00, 0x00, 0x00, 0x10, 0x00, 0x00, 0x00, 0x1d, 0x00, 0x00, 0x00, 0x58, 0x00, 0x00, 0x00, 0x2c, 0xf6, 0xff, 0xff, 0x48, 0x00, 0x00, 0x00, 0x73, 0x65, 0x71, 0x75, 0x65, 0x6e, 0x74, 0x69, 0x61, 0x6c, 0x5f, 0x32, 0x30, 0x30, 0x5f, 0x31, 0x2f, 0x64, 0x65, 0x6e, 0x73, 0x65, 0x5f, 0x34, 0x30, 0x31, 0x5f, 0x31, 0x2f, 0x4d, 0x61, 0x74, 0x4d, 0x75, 0x6c, 0x3b, 0x73, 0x65, 0x71, 0x75, 0x65, 0x6e, 0x74, 0x69, 0x61, 0x6c, 0x5f, 0x32, 0x30, 0x30, 0x5f, 0x31, 0x2f, 0x64, 0x65, 0x6e, 0x73, 0x65, 0x5f, 0x34, 0x30, 0x31, 0x5f, 0x31, 0x2f, 0x42, 0x69, 0x61, 0x73, 0x41, 0x64, 0x64, 0x00, 0x00, 0x00, 0x00, 0x02, 0x00, 0x00, 0x00, 0x01, 0x00, 0x00, 0x00, 0x0b, 0x00, 0x00, 0x00, 0xba, 0xf6, 0xff, 0xff, 0x00, 0x00, 0x00, 0x01, 0x10, 0x00, 0x00, 0x00, 0x10, 0x00, 0x00, 0x00, 0x1c, 0x00, 0x00, 0x00, 0x78, 0x00, 0x00, 0x00, 0xa4, 0xf6, 0xff, 0xff, 0x6a, 0x00, 0x00, 0x00, 0x73, 0x65, 0x71, 0x75, 0x65, 0x6e, 0x74, 0x69, 0x61, 0x6c, 0x5f, 0x32, 0x30, 0x30, 0x5f, 0x31, 0x2f, 0x64, 0x65, 0x6e, 0x73, 0x65, 0x5f, 0x34, 0x30, 0x30, 0x5f, 0x31, 0x2f, 0x4d, 0x61, 0x74, 0x4d, 0x75, 0x6c, 0x3b, 0x73, 0x65, 0x71, 0x75, 0x65, 0x6e, 0x74, 0x69, 0x61, 0x6c, 0x5f, 0x32, 0x30, 0x30, 0x5f, 0x31, 0x2f, 0x64, 0x65, 0x6e, 0x73, 0x65, 0x5f, 0x34, 0x30, 0x30, 0x5f, 0x31, 0x2f, 0x52, 0x65, 0x6c, 0x75, 0x3b, 0x73, 0x65, 0x71, 0x75, 0x65, 0x6e, 0x74, 0x69, 0x61, 0x6c, 0x5f, 0x32, 0x30, 0x30, 0x5f, 0x31, 0x2f, 0x64, 0x65, 0x6e, 0x73, 0x65, 0x5f, 0x34, 0x30, 0x30, 0x5f, 0x31, 0x2f, 0x42, 0x69, 0x61, 0x73, 0x41, 0x64, 0x64, 0x00, 0x00, 0x02, 0x00, 0x00, 0x00, 0x01, 0x00, 0x00, 0x00, 0x20, 0x00, 0x00, 0x00, 0x52, 0xf7, 0xff, 0xff, 0x00, 0x00, 0x00, 0x01, 0x10, 0x00, 0x00, 0x00, 0x10, 0x00, 0x00, 0x00, 0x1b, 0x00, 0x00, 0x00, 0x44, 0x00, 0x00, 0x00, 0x3c, 0xf7, 0xff, 0xff, 0x34, 0x00, 0x00, 0x00, 0x73, 0x65, 0x71, 0x75, 0x65, 0x6e, 0x74, 0x69, 0x61, 0x6c, 0x5f, 0x32, 0x30, 0x30, 0x5f, 0x31, 0x2f, 0x67, 0x6c, 0x6f, 0x62, 0x61, 0x6c, 0x5f, 0x61, 0x76, 0x65, 0x72, 0x61, 0x67, 0x65, 0x5f, 0x70, 0x6f, 0x6f, 0x6c, 0x69, 0x6e, 0x67, 0x31, 0x64, 0x5f, 0x32, 0x30, 0x30, 0x5f, 0x31, 0x2f, 0x4d, 0x65, 0x61, 0x6e, 0x00, 0x00, 0x00, 0x00, 0x02, 0x00, 0x00, 0x00, 0x01, 0x00, 0x00, 0x00, 0x20, 0x00, 0x00, 0x00, 0xb6, 0xf7, 0xff, 0xff, 0x00, 0x00, 0x00, 0x01, 0x10, 0x00, 0x00, 0x00, 0x10, 0x00, 0x00, 0x00, 0x1a, 0x00, 0x00, 0x00, 0x44, 0x00, 0x00, 0x00, 0xa0, 0xf7, 0xff, 0xff, 0x36, 0x00, 0x00, 0x00, 0x73, 0x65, 0x71, 0x75, 0x65, 0x6e, 0x74, 0x69, 0x61, 0x6c, 0x5f, 0x32, 0x30, 0x30, 0x5f, 0x31, 0x2f, 0x6d, 0x61, 0x78, 0x5f, 0x70, 0x6f, 0x6f, 0x6c, 0x69, 0x6e, 0x67, 0x31, 0x64, 0x5f, 0x34, 0x30, 0x31, 0x5f, 0x31, 0x2f, 0x4d, 0x61, 0x78, 0x50, 0x6f, 0x6f, 0x6c, 0x31, 0x64, 0x2f, 0x53, 0x71, 0x75, 0x65, 0x65, 0x7a, 0x65, 0x00, 0x00, 0x03, 0x00, 0x00, 0x00, 0x01, 0x00, 0x00, 0x00, 0x17, 0x00, 0x00, 0x00, 0x20, 0x00, 0x00, 0x00, 0x1e, 0xf8, 0xff, 0xff, 0x00, 0x00, 0x00, 0x01, 0x10, 0x00, 0x00, 0x00, 0x10, 0x00, 0x00, 0x00, 0x19, 0x00, 0x00, 0x00, 0x3c, 0x00, 0x00, 0x00, 0x08, 0xf8, 0xff, 0xff, 0x2e, 0x00, 0x00, 0x00, 0x73, 0x65, 0x71, 0x75, 0x65, 0x6e, 0x74, 0x69, 0x61, 0x6c, 0x5f, 0x32, 0x30, 0x30, 0x5f, 0x31, 0x2f, 0x6d, 0x61, 0x78, 0x5f, 0x70, 0x6f, 0x6f, 0x6c, 0x69, 0x6e, 0x67, 0x31, 0x64, 0x5f, 0x34, 0x30, 0x31, 0x5f, 0x31, 0x2f, 0x4d, 0x61, 0x78, 0x50, 0x6f, 0x6f, 0x6c, 0x31, 0x64, 0x00, 0x00, 0x04, 0x00, 0x00, 0x00, 0x01, 0x00, 0x00, 0x00, 0x01, 0x00, 0x00, 0x00, 0x17, 0x00, 0x00, 0x00, 0x20, 0x00, 0x00, 0x00, 0x82, 0xf8, 0xff, 0xff, 0x00, 0x00, 0x00, 0x01, 0x10, 0x00, 0x00, 0x00, 0x10, 0x00, 0x00, 0x00, 0x18, 0x00, 0x00, 0x00, 0xd8, 0x00, 0x00, 0x00, 0x6c, 0xf8, 0xff, 0xff, 0xca, 0x00, 0x00, 0x00, 0x73, 0x65, 0x71, 0x75, 0x65, 0x6e, 0x74, 0x69, 0x61, 0x6c, 0x5f, 0x32, 0x30, 0x30, 0x5f, 0x31, 0x2f, 0x63, 0x6f, 0x6e, 0x76, 0x31, 0x64, 0x5f, 0x34, 0x30, 0x31, 0x5f, 0x31, 0x2f, 0x52, 0x65, 0x6c, 0x75, 0x3b, 0x73, 0x65, 0x71, 0x75, 0x65, 0x6e, 0x74, 0x69, 0x61, 0x6c, 0x5f, 0x32, 0x30, 0x30, 0x5f, 0x31, 0x2f, 0x63, 0x6f, 0x6e, 0x76, 0x31, 0x64, 0x5f, 0x34, 0x30, 0x31, 0x5f, 0x31, 0x2f, 0x42, 0x69, 0x61, 0x73, 0x41, 0x64, 0x64, 0x3b, 0x73, 0x65, 0x71, 0x75, 0x65, 0x6e, 0x74, 0x69, 0x61, 0x6c, 0x5f, 0x32, 0x30, 0x30, 0x5f, 0x31, 0x2f, 0x63, 0x6f, 0x6e, 0x76, 0x31, 0x64, 0x5f, 0x34, 0x30, 0x31, 0x5f, 0x31, 0x2f, 0x63, 0x6f, 0x6e, 0x76, 0x6f, 0x6c, 0x75, 0x74, 0x69, 0x6f, 0x6e, 0x2f, 0x53, 0x71, 0x75, 0x65, 0x65, 0x7a, 0x65, 0x3b, 0x73, 0x65, 0x71, 0x75, 0x65, 0x6e, 0x74, 0x69, 0x61, 0x6c, 0x5f, 0x32, 0x30, 0x30, 0x5f, 0x31, 0x2f, 0x63, 0x6f, 0x6e, 0x76, 0x31, 0x64, 0x5f, 0x34, 0x30, 0x31, 0x5f, 0x31, 0x2f, 0x53, 0x71, 0x75, 0x65, 0x65, 0x7a, 0x65, 0x3b, 0x73, 0x65, 0x71, 0x75, 0x65, 0x6e, 0x74, 0x69, 0x61, 0x6c, 0x5f, 0x32, 0x30, 0x30, 0x5f, 0x31, 0x2f, 0x63, 0x6f, 0x6e, 0x76, 0x31, 0x64, 0x5f, 0x34, 0x30, 0x31, 0x5f, 0x31, 0x2f, 0x63, 0x6f, 0x6e, 0x76, 0x6f, 0x6c, 0x75, 0x74, 0x69, 0x6f, 0x6e, 0x00, 0x00, 0x04, 0x00, 0x00, 0x00, 0x01, 0x00, 0x00, 0x00, 0x01, 0x00, 0x00, 0x00, 0x2f, 0x00, 0x00, 0x00, 0x20, 0x00, 0x00, 0x00, 0x82, 0xf9, 0xff, 0xff, 0x00, 0x00, 0x00, 0x01, 0x10, 0x00, 0x00, 0x00, 0x10, 0x00, 0x00, 0x00, 0x17, 0x00, 0x00, 0x00, 0x3c, 0x00, 0x00, 0x00, 0x6c, 0xf9, 0xff, 0xff, 0x2e, 0x00, 0x00, 0x00, 0x73, 0x65, 0x71, 0x75, 0x65, 0x6e, 0x74, 0x69, 0x61, 0x6c, 0x5f, 0x32, 0x30, 0x30, 0x5f, 0x31, 0x2f, 0x6d, 0x61, 0x78, 0x5f, 0x70, 0x6f, 0x6f, 0x6c, 0x69, 0x6e, 0x67, 0x31, 0x64, 0x5f, 0x34, 0x30, 0x30, 0x5f, 0x31, 0x2f, 0x4d, 0x61, 0x78, 0x50, 0x6f, 0x6f, 0x6c, 0x31, 0x64, 0x00, 0x00, 0x04, 0x00, 0x00, 0x00, 0x01, 0x00, 0x00, 0x00, 0x01, 0x00, 0x00, 0x00, 0x31, 0x00, 0x00, 0x00, 0x10, 0x00, 0x00, 0x00, 0xe6, 0xf9, 0xff, 0xff, 0x00, 0x00, 0x00, 0x01, 0x10, 0x00, 0x00, 0x00, 0x10, 0x00, 0x00, 0x00, 0x16, 0x00, 0x00, 0x00, 0xd8, 0x00, 0x00, 0x00, 0xd0, 0xf9, 0xff, 0xff, 0xca, 0x00, 0x00, 0x00, 0x73, 0x65, 0x71, 0x75, 0x65, 0x6e, 0x74, 0x69, 0x61, 0x6c, 0x5f, 0x32, 0x30, 0x30, 0x5f, 0x31, 0x2f, 0x63, 0x6f, 0x6e, 0x76, 0x31, 0x64, 0x5f, 0x34, 0x30, 0x30, 0x5f, 0x31, 0x2f, 0x52, 0x65, 0x6c, 0x75, 0x3b, 0x73, 0x65, 0x71, 0x75, 0x65, 0x6e, 0x74, 0x69, 0x61, 0x6c, 0x5f, 0x32, 0x30, 0x30, 0x5f, 0x31, 0x2f, 0x63, 0x6f, 0x6e, 0x76, 0x31, 0x64, 0x5f, 0x34, 0x30, 0x30, 0x5f, 0x31, 0x2f, 0x42, 0x69, 0x61, 0x73, 0x41, 0x64, 0x64, 0x3b, 0x73, 0x65, 0x71, 0x75, 0x65, 0x6e, 0x74, 0x69, 0x61, 0x6c, 0x5f, 0x32, 0x30, 0x30, 0x5f, 0x31, 0x2f, 0x63, 0x6f, 0x6e, 0x76, 0x31, 0x64, 0x5f, 0x34, 0x30, 0x30, 0x5f, 0x31, 0x2f, 0x63, 0x6f, 0x6e, 0x76, 0x6f, 0x6c, 0x75, 0x74, 0x69, 0x6f, 0x6e, 0x2f, 0x53, 0x71, 0x75, 0x65, 0x65, 0x7a, 0x65, 0x3b, 0x73, 0x65, 0x71, 0x75, 0x65, 0x6e, 0x74, 0x69, 0x61, 0x6c, 0x5f, 0x32, 0x30, 0x30, 0x5f, 0x31, 0x2f, 0x63, 0x6f, 0x6e, 0x76, 0x31, 0x64, 0x5f, 0x34, 0x30, 0x30, 0x5f, 0x31, 0x2f, 0x53, 0x71, 0x75, 0x65, 0x65, 0x7a, 0x65, 0x3b, 0x73, 0x65, 0x71, 0x75, 0x65, 0x6e, 0x74, 0x69, 0x61, 0x6c, 0x5f, 0x32, 0x30, 0x30, 0x5f, 0x31, 0x2f, 0x63, 0x6f, 0x6e, 0x76, 0x31, 0x64, 0x5f, 0x34, 0x30, 0x30, 0x5f, 0x31, 0x2f, 0x63, 0x6f, 0x6e, 0x76, 0x6f, 0x6c, 0x75, 0x74, 0x69, 0x6f, 0x6e, 0x00, 0x00, 0x04, 0x00, 0x00, 0x00, 0x01, 0x00, 0x00, 0x00, 0x01, 0x00, 0x00, 0x00, 0x62, 0x00, 0x00, 0x00, 0x10, 0x00, 0x00, 0x00, 0xe6, 0xfa, 0xff, 0xff, 0x00, 0x00, 0x00, 0x01, 0x10, 0x00, 0x00, 0x00, 0x10, 0x00, 0x00, 0x00, 0x15, 0x00, 0x00, 0x00, 0x44, 0x00, 0x00, 0x00, 0xd0, 0xfa, 0xff, 0xff, 0x34, 0x00, 0x00, 0x00, 0x73, 0x65, 0x71, 0x75, 0x65, 0x6e, 0x74, 0x69, 0x61, 0x6c, 0x5f, 0x32, 0x30, 0x30, 0x5f, 0x31, 0x2f, 0x63, 0x6f, 0x6e, 0x76, 0x31, 0x64, 0x5f, 0x34, 0x30, 0x30, 0x5f, 0x31, 0x2f, 0x63, 0x6f, 0x6e, 0x76, 0x6f, 0x6c, 0x75, 0x74, 0x69, 0x6f, 0x6e, 0x2f, 0x45, 0x78, 0x70, 0x61, 0x6e, 0x64, 0x44, 0x69, 0x6d, 0x73, 0x00, 0x00, 0x00, 0x00, 0x04, 0x00, 0x00, 0x00, 0x01, 0x00, 0x00, 0x00, 0x01, 0x00, 0x00, 0x00, 0x64, 0x00, 0x00, 0x00, 0x05, 0x00, 0x00, 0x00, 0x52, 0xfb, 0xff, 0xff, 0x00, 0x00, 0x00, 0x01, 0x10, 0x00, 0x00, 0x00, 0x10, 0x00, 0x00, 0x00, 0x14, 0x00, 0x00, 0x00, 0x1c, 0x00, 0x00, 0x00, 0x3c, 0xfb, 0xff, 0xff, 0x0f, 0x00, 0x00, 0x00, 0x74, 0x66, 0x6c, 0x2e, 0x64, 0x65, 0x71, 0x75, 0x61, 0x6e, 0x74, 0x69, 0x7a, 0x65, 0x37, 0x00, 0x01, 0x00, 0x00, 0x00, 0x20, 0x00, 0x00, 0x00, 0x8a, 0xfb, 0xff, 0xff, 0x00, 0x00, 0x00, 0x01, 0x10, 0x00, 0x00, 0x00, 0x10, 0x00, 0x00, 0x00, 0x13, 0x00, 0x00, 0x00, 0x1c, 0x00, 0x00, 0x00, 0x74, 0xfb, 0xff, 0xff, 0x0f, 0x00, 0x00, 0x00, 0x74, 0x66, 0x6c, 0x2e, 0x64, 0x65, 0x71, 0x75, 0x61, 0x6e, 0x74, 0x69, 0x7a, 0x65, 0x36, 0x00, 0x01, 0x00, 0x00, 0x00, 0x0b, 0x00, 0x00, 0x00, 0xc2, 0xfb, 0xff, 0xff, 0x00, 0x00, 0x00, 0x01, 0x10, 0x00, 0x00, 0x00, 0x10, 0x00, 0x00, 0x00, 0x12, 0x00, 0x00, 0x00, 0x1c, 0x00, 0x00, 0x00, 0xac, 0xfb, 0xff, 0xff, 0x0f, 0x00, 0x00, 0x00, 0x74, 0x66, 0x6c, 0x2e, 0x64, 0x65, 0x71, 0x75, 0x61, 0x6e, 0x74, 0x69, 0x7a, 0x65, 0x35, 0x00, 0x02, 0x00, 0x00, 0x00, 0x20, 0x00, 0x00, 0x00, 0x20, 0x00, 0x00, 0x00, 0xfe, 0xfb, 0xff, 0xff, 0x00, 0x00, 0x00, 0x01, 0x10, 0x00, 0x00, 0x00, 0x10, 0x00, 0x00, 0x00, 0x11, 0x00, 0x00, 0x00, 0x1c, 0x00, 0x00, 0x00, 0xe8, 0xfb, 0xff, 0xff, 0x0f, 0x00, 0x00, 0x00, 0x74, 0x66, 0x6c, 0x2e, 0x64, 0x65, 0x71, 0x75, 0x61, 0x6e, 0x74, 0x69, 0x7a, 0x65, 0x34, 0x00, 0x02, 0x00, 0x00, 0x00, 0x0b, 0x00, 0x00, 0x00, 0x20, 0x00, 0x00, 0x00, 0x3a, 0xfc, 0xff, 0xff, 0x00, 0x00, 0x00, 0x01, 0x10, 0x00, 0x00, 0x00, 0x10, 0x00, 0x00, 0x00, 0x10, 0x00, 0x00, 0x00, 0x1c, 0x00, 0x00, 0x00, 0x24, 0xfc, 0xff, 0xff, 0x0f, 0x00, 0x00, 0x00, 0x74, 0x66, 0x6c, 0x2e, 0x64, 0x65, 0x71, 0x75, 0x61, 0x6e, 0x74, 0x69, 0x7a, 0x65, 0x33, 0x00, 0x04, 0x00, 0x00, 0x00, 0x10, 0x00, 0x00, 0x00, 0x01, 0x00, 0x00, 0x00, 0x03, 0x00, 0x00, 0x00, 0x05, 0x00, 0x00, 0x00, 0x7e, 0xfc, 0xff, 0xff, 0x00, 0x00, 0x00, 0x01, 0x10, 0x00, 0x00, 0x00, 0x10, 0x00, 0x00, 0x00, 0x0f, 0x00, 0x00, 0x00, 0x1c, 0x00, 0x00, 0x00, 0x68, 0xfc, 0xff, 0xff, 0x0f, 0x00, 0x00, 0x00, 0x74, 0x66, 0x6c, 0x2e, 0x64, 0x65, 0x71, 0x75, 0x61, 0x6e, 0x74, 0x69, 0x7a, 0x65, 0x32, 0x00, 0x04, 0x00, 0x00, 0x00, 0x20, 0x00, 0x00, 0x00, 0x01, 0x00, 0x00, 0x00, 0x03, 0x00, 0x00, 0x00, 0x10, 0x00, 0x00, 0x00, 0xc2, 0xfc, 0xff, 0xff, 0x00, 0x00, 0x00, 0x01, 0x10, 0x00, 0x00, 0x00, 0x10, 0x00, 0x00, 0x00, 0x0e, 0x00, 0x00, 0x00, 0x1c, 0x00, 0x00, 0x00, 0xac, 0xfc, 0xff, 0xff, 0x0f, 0x00, 0x00, 0x00, 0x74, 0x66, 0x6c, 0x2e, 0x64, 0x65, 0x71, 0x75, 0x61, 0x6e, 0x74, 0x69, 0x7a, 0x65, 0x31, 0x00, 0x01, 0x00, 0x00, 0x00, 0x10, 0x00, 0x00, 0x00, 0xfa, 0xfc, 0xff, 0xff, 0x00, 0x00, 0x00, 0x01, 0x10, 0x00, 0x00, 0x00, 0x10, 0x00, 0x00, 0x00, 0x0d, 0x00, 0x00, 0x00, 0x1c, 0x00, 0x00, 0x00, 0xe4, 0xfc, 0xff, 0xff, 0x0e, 0x00, 0x00, 0x00, 0x74, 0x66, 0x6c, 0x2e, 0x64, 0x65, 0x71, 0x75, 0x61, 0x6e, 0x74, 0x69, 0x7a, 0x65, 0x00, 0x00, 0x01, 0x00, 0x00, 0x00, 0x20, 0x00, 0x00, 0x00, 0x86, 0xfd, 0xff, 0xff, 0x00, 0x00, 0x00, 0x01, 0x14, 0x00, 0x00, 0x00, 0x14, 0x00, 0x00, 0x00, 0x0c, 0x00, 0x00, 0x00, 0x00, 0x00, 0x00, 0x01, 0x20, 0x00, 0x00, 0x00, 0x20, 0xfd, 0xff, 0xff, 0x10, 0x00, 0x00, 0x00, 0x61, 0x72, 0x69, 0x74, 0x68, 0x2e, 0x63, 0x6f, 0x6e, 0x73, 0x74, 0x61, 0x6e, 0x74, 0x31, 0x30, 0x00, 0x00, 0x00, 0x00, 0x01, 0x00, 0x00, 0x00, 0x20, 0x00, 0x00, 0x00, 0xc6, 0xfd, 0xff, 0xff, 0x00, 0x00, 0x00, 0x01, 0x14, 0x00, 0x00, 0x00, 0x14, 0x00, 0x00, 0x00, 0x0b, 0x00, 0x00, 0x00, 0x00, 0x00, 0x00, 0x01, 0x1c, 0x00, 0x00, 0x00, 0x60, 0xfd, 0xff, 0xff, 0x0f, 0x00, 0x00, 0x00, 0x61, 0x72, 0x69, 0x74, 0x68, 0x2e, 0x63, 0x6f, 0x6e, 0x73, 0x74, 0x61, 0x6e, 0x74, 0x39, 0x00, 0x01, 0x00, 0x00, 0x00, 0x10, 0x00, 0x00, 0x00, 0x02, 0xfe, 0xff, 0xff, 0x00, 0x00, 0x00, 0x01, 0x14, 0x00, 0x00, 0x00, 0x14, 0x00, 0x00, 0x00, 0x0a, 0x00, 0x00, 0x00, 0x00, 0x00, 0x00, 0x02, 0x1c, 0x00, 0x00, 0x00, 0x9c, 0xfd, 0xff, 0xff, 0x0f, 0x00, 0x00, 0x00, 0x61, 0x72, 0x69, 0x74, 0x68, 0x2e, 0x63, 0x6f, 0x6e, 0x73, 0x74, 0x61, 0x6e, 0x74, 0x38, 0x00, 0x01, 0x00, 0x00, 0x00, 0x03, 0x00, 0x00, 0x00, 0x3e, 0xfe, 0xff, 0xff, 0x00, 0x00, 0x00, 0x01, 0x14, 0x00, 0x00, 0x00, 0x14, 0x00, 0x00, 0x00, 0x09, 0x00, 0x00, 0x00, 0x00, 0x00, 0x00, 0x01, 0x1c, 0x00, 0x00, 0x00, 0xd8, 0xfd, 0xff, 0xff, 0x0f, 0x00, 0x00, 0x00, 0x61, 0x72, 0x69, 0x74, 0x68, 0x2e, 0x63, 0x6f, 0x6e, 0x73, 0x74, 0x61, 0x6e, 0x74, 0x37, 0x00, 0x04, 0x00, 0x00, 0x00, 0x20, 0x00, 0x00, 0x00, 0x01, 0x00, 0x00, 0x00, 0x03, 0x00, 0x00, 0x00, 0x10, 0x00, 0x00, 0x00, 0x86, 0xfe, 0xff, 0xff, 0x00, 0x00, 0x00, 0x01, 0x14, 0x00, 0x00, 0x00, 0x14, 0x00, 0x00, 0x00, 0x08, 0x00, 0x00, 0x00, 0x00, 0x00, 0x00, 0x01, 0x1c, 0x00, 0x00, 0x00, 0x20, 0xfe, 0xff, 0xff, 0x0f, 0x00, 0x00, 0x00, 0x61, 0x72, 0x69, 0x74, 0x68, 0x2e, 0x63, 0x6f, 0x6e, 0x73, 0x74, 0x61, 0x6e, 0x74, 0x36, 0x00, 0x04, 0x00, 0x00, 0x00, 0x10, 0x00, 0x00, 0x00, 0x01, 0x00, 0x00, 0x00, 0x03, 0x00, 0x00, 0x00, 0x05, 0x00, 0x00, 0x00, 0xce, 0xfe, 0xff, 0xff, 0x00, 0x00, 0x00, 0x01, 0x14, 0x00, 0x00, 0x00, 0x14, 0x00, 0x00, 0x00, 0x07, 0x00, 0x00, 0x00, 0x00, 0x00, 0x00, 0x01, 0x1c, 0x00, 0x00, 0x00, 0x68, 0xfe, 0xff, 0xff, 0x0f, 0x00, 0x00, 0x00, 0x61, 0x72, 0x69, 0x74, 0x68, 0x2e, 0x63, 0x6f, 0x6e, 0x73, 0x74, 0x61, 0x6e, 0x74, 0x35, 0x00, 0x02, 0x00, 0x00, 0x00, 0x0b, 0x00, 0x00, 0x00, 0x20, 0x00, 0x00, 0x00, 0x0e, 0xff, 0xff, 0xff, 0x00, 0x00, 0x00, 0x01, 0x14, 0x00, 0x00, 0x00, 0x14, 0x00, 0x00, 0x00, 0x06, 0x00, 0x00, 0x00, 0x00, 0x00, 0x00, 0x01, 0x1c, 0x00, 0x00, 0x00, 0xa8, 0xfe, 0xff, 0xff, 0x0f, 0x00, 0x00, 0x00, 0x61, 0x72, 0x69, 0x74, 0x68, 0x2e, 0x63, 0x6f, 0x6e, 0x73, 0x74, 0x61, 0x6e, 0x74, 0x34, 0x00, 0x02, 0x00, 0x00, 0x00, 0x20, 0x00, 0x00, 0x00, 0x20, 0x00, 0x00, 0x00, 0x4e, 0xff, 0xff, 0xff, 0x00, 0x00, 0x00, 0x01, 0x14, 0x00, 0x00, 0x00, 0x14, 0x00, 0x00, 0x00, 0x05, 0x00, 0x00, 0x00, 0x00, 0x00, 0x00, 0x02, 0x1c, 0x00, 0x00, 0x00, 0xe8, 0xfe, 0xff, 0xff, 0x0f, 0x00, 0x00, 0x00, 0x61, 0x72, 0x69, 0x74, 0x68, 0x2e, 0x63, 0x6f, 0x6e, 0x73, 0x74, 0x61, 0x6e, 0x74, 0x33, 0x00, 0x00, 0x00, 0x00, 0x00, 0x86, 0xff, 0xff, 0xff, 0x00, 0x00, 0x00, 0x01, 0x14, 0x00, 0x00, 0x00, 0x14, 0x00, 0x00, 0x00, 0x04, 0x00, 0x00, 0x00, 0x00, 0x00, 0x00, 0x01, 0x1c, 0x00, 0x00, 0x00, 0x20, 0xff, 0xff, 0xff, 0x0f, 0x00, 0x00, 0x00, 0x61, 0x72, 0x69, 0x74, 0x68, 0x2e, 0x63, 0x6f, 0x6e, 0x73, 0x74, 0x61, 0x6e, 0x74, 0x32, 0x00, 0x01, 0x00, 0x00, 0x00, 0x0b, 0x00, 0x00, 0x00, 0xc2, 0xff, 0xff, 0xff, 0x00, 0x00, 0x00, 0x01, 0x14, 0x00, 0x00, 0x00, 0x14, 0x00, 0x00, 0x00, 0x03, 0x00, 0x00, 0x00, 0x00, 0x00, 0x00, 0x01, 0x1c, 0x00, 0x00, 0x00, 0x5c, 0xff, 0xff, 0xff, 0x0f, 0x00, 0x00, 0x00, 0x61, 0x72, 0x69, 0x74, 0x68, 0x2e, 0x63, 0x6f, 0x6e, 0x73, 0x74, 0x61, 0x6e, 0x74, 0x31, 0x00, 0x01, 0x00, 0x00, 0x00, 0x20, 0x00, 0x00, 0x00, 0x00, 0x00, 0x16, 0x00, 0x1c, 0x00, 0x18, 0x00, 0x17, 0x00, 0x10, 0x00, 0x0c, 0x00, 0x08, 0x00, 0x00, 0x00, 0x00, 0x00, 0x00, 0x00, 0x07, 0x00, 0x16, 0x00, 0x00, 0x00, 0x00, 0x00, 0x00, 0x01, 0x14, 0x00, 0x00, 0x00, 0x14, 0x00, 0x00, 0x00, 0x02, 0x00, 0x00, 0x00, 0x00, 0x00, 0x00, 0x02, 0x1c, 0x00, 0x00, 0x00, 0xb0, 0xff, 0xff, 0xff, 0x0e, 0x00, 0x00, 0x00, 0x61, 0x72, 0x69, 0x74, 0x68, 0x2e, 0x63, 0x6f, 0x6e, 0x73, 0x74, 0x61, 0x6e, 0x74, 0x00, 0x00, 0x01, 0x00, 0x00, 0x00, 0x04, 0x00, 0x00, 0x00, 0x00, 0x00, 0x16, 0x00, 0x18, 0x00, 0x14, 0x00, 0x00, 0x00, 0x10, 0x00, 0x0c, 0x00, 0x08, 0x00, 0x00, 0x00, 0x00, 0x00, 0x00, 0x00, 0x07, 0x00, 0x16, 0x00, 0x00, 0x00, 0x00, 0x00, 0x00, 0x01, 0x14, 0x00, 0x00, 0x00, 0x14, 0x00, 0x00, 0x00, 0x01, 0x00, 0x00, 0x00, 0x14, 0x00, 0x00, 0x00, 0x04, 0x00, 0x04, 0x00, 0x04, 0x00, 0x00, 0x00, 0x01, 0x00, 0x00, 0x00, 0x78, 0x00, 0x00, 0x00, 0x03, 0x00, 0x00, 0x00, 0x01, 0x00, 0x00, 0x00, 0x64, 0x00, 0x00, 0x00, 0x05, 0x00, 0x00, 0x00, 0x07, 0x00, 0x00, 0x00, 0x7c, 0x00, 0x00, 0x00, 0x60, 0x00, 0x00, 0x00, 0x44, 0x00, 0x00, 0x00, 0x34, 0x00, 0x00, 0x00, 0x24, 0x00, 0x00, 0x00, 0x14, 0x00, 0x00, 0x00, 0x04, 0x00, 0x00, 0x00, 0xc4, 0xff, 0xff, 0xff, 0x19, 0x00, 0x00, 0x00, 0x00, 0x00, 0x00, 0x19, 0xd0, 0xff, 0xff, 0xff, 0x09, 0x00, 0x00, 0x00, 0x00, 0x00, 0x00, 0x09, 0xdc, 0xff, 0xff, 0xff, 0x28, 0x00, 0x00, 0x00, 0x00, 0x00, 0x00, 0x28, 0xe8, 0xff, 0xff, 0xff, 0x11, 0x00, 0x00, 0x00, 0x00, 0x00, 0x00, 0x11, 0xf4, 0xff, 0xff, 0xff, 0x03, 0x00, 0x00, 0x00, 0x00, 0x00, 0x00, 0x03, 0x0c, 0x00, 0x0c, 0x00, 0x0b, 0x00, 0x00, 0x00, 0x00, 0x00, 0x04, 0x00, 0x0c, 0x00, 0x00, 0x00, 0x16, 0x00, 0x00, 0x00, 0x00, 0x00, 0x00, 0x16, 0x0c, 0x00, 0x10, 0x00, 0x0f, 0x00, 0x00, 0x00, 0x08, 0x00, 0x04, 0x00, 0x0c, 0x00, 0x00, 0x00, 0x06, 0x00, 0x00, 0x00, 0x03, 0x00, 0x00, 0x00, 0x00, 0x00, 0x00, 0x06
};
const unsigned int model_data_len = 11144;

#endif // BSL_MODEL_H_20250718_151146
