/*
 * BSL Gesture Recognition Model
 *
 * Model Type: 1D_CNN_Arduino
 * Timestamp:  20250717_225642
 * Model Size: 9440 bytes
 * Status:     有效的TFLite模型
 * 
 * 归一化参数来自训练数据的StandardScaler
 */

#ifndef BSL_MODEL_H_20250717_225642
#define BSL_MODEL_H_20250717_225642

// 模型配置
const int BSL_MODEL_FEATURES = 5;
const int BSL_MODEL_CLASSES = 11;
const bool BSL_MODEL_VALID = true;

// 归一化参数 (StandardScaler)
const float scaler_mean[BSL_MODEL_FEATURES] = { 236.43887165f, 152.37936569f, 328.61752741f, 316.69635454f, 101.83935373f };
const float scaler_scale[BSL_MODEL_FEATURES] = { 177.03868095f, 153.40072310f, 204.37148658f, 203.09171501f, 121.78085463f };

// 归一化函数
inline void normalize_features(float* features, int length) {
    for (int i = 0; i < length && i < BSL_MODEL_FEATURES; i++) {
        features[i] = (features[i] - scaler_mean[i]) / scaler_scale[i];
    }
}

// TFLite模型数据
alignas(16) const unsigned char model_data[] = {
    0x1c, 0x00, 0x00, 0x00, 0x54, 0x46, 0x4c, 0x33, 0x14, 0x00, 0x20, 0x00, 0x1c, 0x00, 0x18, 0x00, 0x14, 0x00, 0x10, 0x00, 0x0c, 0x00, 0x00, 0x00, 0x08, 0x00, 0x04, 0x00, 0x14, 0x00, 0x00, 0x00, 0x1c, 0x00, 0x00, 0x00, 0x1c, 0x00, 0x00, 0x00, 0x74, 0x00, 0x00, 0x00, 0xd8, 0x16, 0x00, 0x00, 0xe8, 0x16, 0x00, 0x00, 0x28, 0x24, 0x00, 0x00, 0x03, 0x00, 0x00, 0x00, 0x00, 0x00, 0x00, 0x00, 0x02, 0x00, 0x00, 0x00, 0x34, 0x00, 0x00, 0x00, 0x04, 0x00, 0x00, 0x00, 0xdc, 0xff, 0xff, 0xff, 0x18, 0x00, 0x00, 0x00, 0x04, 0x00, 0x00, 0x00, 0x13, 0x00, 0x00, 0x00, 0x43, 0x4f, 0x4e, 0x56, 0x45, 0x52, 0x53, 0x49, 0x4f, 0x4e, 0x5f, 0x4d, 0x45, 0x54, 0x41, 0x44, 0x41, 0x54, 0x41, 0x00, 0x08, 0x00, 0x0c, 0x00, 0x08, 0x00, 0x04, 0x00, 0x08, 0x00, 0x00, 0x00, 0x17, 0x00, 0x00, 0x00, 0x04, 0x00, 0x00, 0x00, 0x13, 0x00, 0x00, 0x00, 0x6d, 0x69, 0x6e, 0x5f, 0x72, 0x75, 0x6e, 0x74, 0x69, 0x6d, 0x65, 0x5f, 0x76, 0x65, 0x72, 0x73, 0x69, 0x6f, 0x6e, 0x00, 0x19, 0x00, 0x00, 0x00, 0x60, 0x16, 0x00, 0x00, 0x58, 0x16, 0x00, 0x00, 0x38, 0x16, 0x00, 0x00, 0xa8, 0x15, 0x00, 0x00, 0x6c, 0x15, 0x00, 0x00, 0x58, 0x15, 0x00, 0x00, 0xc8, 0x0f, 0x00, 0x00, 0xf8, 0x0b, 0x00, 0x00, 0x68, 0x0b, 0x00, 0x00, 0x18, 0x0b, 0x00, 0x00, 0xfc, 0x0a, 0x00, 0x00, 0xec, 0x04, 0x00, 0x00, 0xdc, 0x00, 0x00, 0x00, 0xd4, 0x00, 0x00, 0x00, 0xcc, 0x00, 0x00, 0x00, 0xc4, 0x00, 0x00, 0x00, 0xbc, 0x00, 0x00, 0x00, 0xb4, 0x00, 0x00, 0x00, 0xac, 0x00, 0x00, 0x00, 0xa4, 0x00, 0x00, 0x00, 0x9c, 0x00, 0x00, 0x00, 0x94, 0x00, 0x00, 0x00, 0x8c, 0x00, 0x00, 0x00, 0x6c, 0x00, 0x00, 0x00, 0x04, 0x00, 0x00, 0x00, 0x6a, 0xe9, 0xff, 0xff, 0x04, 0x00, 0x00, 0x00, 0x58, 0x00, 0x00, 0x00, 0x0c, 0x00, 0x00, 0x00, 0x08, 0x00, 0x0e, 0x00, 0x08, 0x00, 0x04, 0x00, 0x08, 0x00, 0x00, 0x00, 0x10, 0x00, 0x00, 0x00, 0x28, 0x00, 0x00, 0x00, 0x00, 0x00, 0x06, 0x00, 0x08, 0x00, 0x04, 0x00, 0x06, 0x00, 0x00, 0x00, 0x04, 0x00, 0x00, 0x00, 0x01, 0x00, 0x00, 0x00, 0xea, 0x03, 0x00, 0x00, 0x00, 0x00, 0x0a, 0x00, 0x10, 0x00, 0x0c, 0x00, 0x08, 0x00, 0x04, 0x00, 0x0a, 0x00, 0x00, 0x00, 0x03, 0x00, 0x00, 0x00, 0x02, 0x00, 0x00, 0x00, 0x04, 0x00, 0x00, 0x00, 0x06, 0x00, 0x00, 0x00, 0x32, 0x2e, 0x31, 0x36, 0x2e, 0x32, 0x00, 0x00, 0xce, 0xe9, 0xff, 0xff, 0x04, 0x00, 0x00, 0x00, 0x10, 0x00, 0x00, 0x00, 0x32, 0x2e, 0x34, 0x2e, 0x30, 0x00, 0x00, 0x00, 0x00, 0x00, 0x00, 0x00, 0x00, 0x00, 0x00, 0x00, 0x48, 0xdd, 0xff, 0xff, 0x4c, 0xdd, 0xff, 0xff, 0x50, 0xdd, 0xff, 0xff, 0x54, 0xdd, 0xff, 0xff, 0x58, 0xdd, 0xff, 0xff, 0x5c, 0xdd, 0xff, 0xff, 0x60, 0xdd, 0xff, 0xff, 0x64, 0xdd, 0xff, 0xff, 0x68, 0xdd, 0xff, 0xff, 0x6c, 0xdd, 0xff, 0xff, 0x12, 0xea, 0xff, 0xff, 0x04, 0x00, 0x00, 0x00, 0x00, 0x04, 0x00, 0x00, 0x62, 0xf7, 0xdd, 0x17, 0x2d, 0x3b, 0x2f, 0xfe, 0x03, 0x39, 0xa3, 0x17, 0x1f, 0xd7, 0x48, 0x03, 0xc7, 0x0a, 0xdb, 0x20, 0xca, 0xd2, 0xd8, 0x12, 0x4c, 0xd5, 0xca, 0x3c, 0x48, 0xfb, 0x32, 0xff, 0x03, 0x66, 0xdd, 0x12, 0x5d, 0xb0, 0xb7, 0x3c, 0x59, 0xf5, 0xff, 0x41, 0xda, 0x43, 0x3e, 0xfd, 0xbb, 0xc6, 0x31, 0x23, 0x51, 0x3d, 0xd2, 0xd6, 0xf4, 0xe7, 0x1f, 0x16, 0x39, 0x48, 0xf4, 0x4f, 0x4f, 0x1c, 0x38, 0x62, 0x21, 0x70, 0x3e, 0x15, 0xf7, 0xb3, 0xe1, 0x0b, 0x43, 0x50, 0xdc, 0x26, 0xd8, 0xd4, 0xc7, 0x55, 0x3d, 0xb5, 0xdd, 0x23, 0xb3, 0x4d, 0xe0, 0x2e, 0x3a, 0x5d, 0xea, 0x19, 0x4a, 0xd6, 0x46, 0x19, 0x21, 0xe2, 0xb1, 0x21, 0xb6, 0xe7, 0xf8, 0xd6, 0x1f, 0x23, 0x3b, 0xf8, 0x07, 0xe9, 0x1e, 0x23, 0x10, 0xd4, 0xf2, 0xcf, 0x40, 0x0a, 0x20, 0xd9, 0x16, 0x4e, 0xcb, 0xfa, 0xbe, 0xfc, 0x1e, 0x1e, 0xd3, 0x45, 0x5f, 0xb6, 0x27, 0x34, 0x1c, 0xd5, 0xf1, 0x3e, 0xfb, 0x4f, 0xdf, 0x40, 0xcc, 0x37, 0x50, 0xc4, 0x69, 0x21, 0x5f, 0xec, 0xff, 0xcc, 0xb6, 0xd6, 0x32, 0x00, 0xc0, 0xe0, 0xa9, 0x38, 0x15, 0xe2, 0xbf, 0xb5, 0xc8, 0xf0, 0xff, 0xf0, 0x32, 0x33, 0x1b, 0x3c, 0x36, 0x43, 0xe4, 0x2a, 0xad, 0xe8, 0x55, 0xb7, 0xcf, 0xb2, 0xe8, 0x64, 0x08, 0xc9, 0x1e, 0xfa, 0x0e, 0xfc, 0x39, 0xde, 0xbd, 0xf5, 0xc0, 0xfc, 0x28, 0xff, 0xbd, 0x3f, 0x5b, 0x04, 0xdd, 0x2d, 0xe4, 0xd5, 0xc5, 0x4f, 0xd9, 0xff, 0xee, 0x3e, 0xf3, 0x15, 0x31, 0x21, 0xd6, 0x12, 0x35, 0x23, 0x20, 0x30, 0xd7, 0xb4, 0xfc, 0x09, 0x36, 0xf2, 0x1c, 0xb5, 0xed, 0x29, 0x1d, 0xde, 0xb8, 0xfa, 0xcd, 0x0d, 0x10, 0xbf, 0x38, 0x42, 0xce, 0xea, 0xfa, 0xc2, 0x39, 0x4e, 0x48, 0x27, 0x43, 0xe6, 0xce, 0x4d, 0x17, 0x02, 0xfc, 0x0a, 0x06, 0x9f, 0x11, 0xfd, 0xf2, 0x01, 0xfc, 0x5e, 0xf8, 0x57, 0x3b, 0x1b, 0x0b, 0xca, 0xf5, 0x4a, 0xdb, 0xd7, 0xbc, 0x04, 0xfa, 0x09, 0xc4, 0x5d, 0x3a, 0xef, 0x04, 0x2d, 0x27, 0x51, 0x00, 0x25, 0xcf, 0xcd, 0x2d, 0xc4, 0x0f, 0x9c, 0xf3, 0x42, 0x24, 0xe9, 0xda, 0xce, 0x23, 0xd5, 0x4c, 0xfe, 0x4e, 0x46, 0x2f, 0xc4, 0x92, 0x4f, 0x5e, 0x13, 0xdb, 0xa1, 0xaf, 0xab, 0x14, 0x4c, 0x29, 0x31, 0x69, 0xc1, 0xa9, 0x22, 0xcc, 0x40, 0x35, 0xee, 0x5e, 0xd1, 0xf7, 0xff, 0xc0, 0x12, 0x0f, 0x57, 0x4b, 0x37, 0xd5, 0xe9, 0xe2, 0x2d, 0xd0, 0x49, 0x14, 0xfa, 0xc3, 0x1b, 0x2d, 0xde, 0x03, 0x47, 0x00, 0x13, 0x37, 0xc2, 0x1e, 0xc5, 0xc6, 0xd1, 0x19, 0x04, 0xe0, 0x36, 0xfc, 0x25, 0xc1, 0xfe, 0xca, 0xd0, 0xbc, 0xbc, 0xf5, 0xec, 0x22, 0xf7, 0x48, 0x3e, 0xd0, 0xc5, 0xe7, 0xec, 0x08, 0xc0, 0xfa, 0xe7, 0xb7, 0xcd, 0xed, 0x2b, 0x5a, 0xdd, 0x12, 0x42, 0xde, 0x31, 0xc1, 0x41, 0xe1, 0x33, 0x57, 0xe6, 0xd9, 0xd1, 0x5d, 0x58, 0xc5, 0xc3, 0xfb, 0x03, 0xc9, 0x2f, 0x46, 0xed, 0x19, 0x34, 0x39, 0xec, 0x32, 0x1d, 0xed, 0x37, 0x2a, 0xed, 0xd8, 0xbe, 0xbf, 0x45, 0xa8, 0xf7, 0x60, 0xd7, 0x31, 0x4b, 0xd8, 0xdf, 0x17, 0xd8, 0xd0, 0x15, 0x41, 0xd6, 0xb7, 0x27, 0xf6, 0xc7, 0x31, 0xce, 0x1b, 0x27, 0xcc, 0x0f, 0xe6, 0xf3, 0xf5, 0x14, 0x30, 0xba, 0xcc, 0xc4, 0x30, 0xd9, 0x4b, 0xf7, 0x24, 0x3c, 0xd2, 0xbf, 0xd9, 0x0b, 0xe1, 0x05, 0xd9, 0x2d, 0xea, 0xf3, 0xc1, 0x86, 0xd2, 0x0d, 0xce, 0xdd, 0xef, 0x36, 0xfd, 0xea, 0x09, 0xfa, 0xa6, 0x55, 0x46, 0x11, 0xe8, 0xd2, 0x8c, 0x1f, 0x46, 0x0c, 0xf3, 0x06, 0xeb, 0x44, 0xd3, 0xf3, 0xf6, 0xe2, 0x6e, 0xc1, 0x99, 0x32, 0x62, 0xaf, 0xe9, 0xc2, 0x08, 0x3d, 0xe0, 0xcc, 0xe2, 0xae, 0x48, 0x19, 0xdf, 0x25, 0xff, 0x28, 0x31, 0xb5, 0x23, 0x2c, 0x43, 0xde, 0x1f, 0xf5, 0xef, 0x26, 0xcc, 0x67, 0x4f, 0x4f, 0x1d, 0x01, 0x42, 0x01, 0x01, 0xdc, 0x0b, 0xd0, 0x60, 0xd4, 0x08, 0xf8, 0xec, 0x46, 0x3d, 0xd1, 0x25, 0xa9, 0xff, 0xa2, 0xc6, 0x20, 0x6b, 0x49, 0xef, 0x4c, 0x0d, 0xcf, 0xd4, 0xa2, 0x2a, 0xeb, 0x8d, 0x8c, 0xdc, 0xbe, 0xfb, 0xc3, 0xc1, 0x1f, 0x30, 0xce, 0xd4, 0x2b, 0x22, 0x58, 0x42, 0x0b, 0xdb, 0xe9, 0x9d, 0x15, 0xba, 0xbd, 0x28, 0xa9, 0x44, 0xd2, 0xf9, 0x1f, 0x2c, 0x9f, 0x4d, 0xa1, 0xc0, 0x0a, 0x47, 0xf1, 0x48, 0x22, 0x2d, 0x14, 0x46, 0xe8, 0xee, 0xcc, 0x38, 0xf5, 0xac, 0xd6, 0x12, 0x3b, 0x62, 0x33, 0x64, 0x12, 0xf5, 0xa5, 0x1d, 0x5b, 0xc2, 0x36, 0xf1, 0x33, 0x03, 0xad, 0x32, 0x3f, 0xba, 0x51, 0x09, 0xd2, 0x45, 0x4e, 0x99, 0x21, 0x55, 0x14, 0x13, 0x10, 0xbc, 0xf9, 0x31, 0xce, 0x3c, 0xdc, 0xea, 0x07, 0xc4, 0xec, 0x03, 0xbd, 0x19, 0xc9, 0x4d, 0x16, 0xf6, 0x3c, 0xf4, 0xff, 0x2a, 0x22, 0x39, 0xe8, 0xeb, 0xe3, 0xa8, 0xb9, 0xf6, 0xf0, 0xc3, 0x0f, 0xfc, 0x16, 0xa9, 0xbf, 0xde, 0xcf, 0x19, 0x3d, 0xe0, 0x28, 0xe3, 0x1d, 0xc6, 0x03, 0xe8, 0x00, 0xdc, 0x77, 0xd8, 0xb4, 0xe3, 0xc8, 0xc9, 0xde, 0x16, 0x4f, 0xf8, 0xee, 0xea, 0x0b, 0x1e, 0x74, 0x6a, 0x01, 0x1a, 0x41, 0xf1, 0xe0, 0x37, 0xca, 0x48, 0xed, 0xf9, 0x21, 0x5a, 0x30, 0xf0, 0xd9, 0xea, 0x3e, 0xb1, 0xc2, 0x2e, 0xcd, 0xc6, 0x2b, 0xc7, 0x1c, 0xea, 0x17, 0xde, 0x11, 0x32, 0x04, 0x2f, 0x03, 0x21, 0x49, 0xf7, 0xb0, 0x12, 0x19, 0xbe, 0xe6, 0x55, 0x26, 0xff, 0xba, 0x1a, 0x1b, 0x0d, 0x31, 0x2f, 0xad, 0x22, 0x23, 0xcb, 0xce, 0xaf, 0x31, 0xbd, 0xb0, 0x3f, 0xf1, 0x20, 0xb2, 0xe8, 0x11, 0x12, 0x34, 0xc1, 0x2f, 0x0b, 0xe3, 0x3d, 0xab, 0xe3, 0xd5, 0xc6, 0x2e, 0x25, 0xcb, 0xec, 0x39, 0x4d, 0xfd, 0x90, 0xd3, 0x20, 0x33, 0xc5, 0xf5, 0x17, 0xd7, 0xca, 0xdc, 0xa7, 0x39, 0x16, 0x1b, 0xce, 0xf6, 0x97, 0xf0, 0x10, 0x48, 0x48, 0x51, 0xf9, 0x4e, 0x45, 0x3c, 0xfe, 0xbe, 0x2a, 0x7a, 0x98, 0xea, 0xdf, 0xb9, 0x74, 0x02, 0x53, 0xac, 0xe8, 0xe1, 0x2b, 0xb3, 0x48, 0xd4, 0x4a, 0x02, 0xfc, 0x5d, 0x4d, 0x31, 0x41, 0x19, 0x49, 0xb8, 0x35, 0xd1, 0x25, 0xd6, 0xae, 0x45, 0x54, 0xe1, 0x0e, 0xf5, 0xff, 0x3d, 0x0d, 0xe1, 0xfc, 0x39, 0xc6, 0x06, 0x40, 0x20, 0x10, 0xaf, 0xbf, 0xed, 0x40, 0xb7, 0xe9, 0x01, 0x2b, 0xc9, 0x2b, 0xee, 0x08, 0xbe, 0xff, 0xfa, 0xcc, 0xfb, 0x1a, 0x36, 0xd0, 0x1d, 0x05, 0xb6, 0x11, 0x42, 0xc6, 0x27, 0x5f, 0x1b, 0x21, 0x37, 0x0f, 0x7f, 0x5f, 0xef, 0xcb, 0xd5, 0xc7, 0xe1, 0xd4, 0xbf, 0xfb, 0x2f, 0x22, 0x01, 0x19, 0x3c, 0x19, 0xd6, 0xe3, 0xe7, 0xe3, 0x52, 0x14, 0x0d, 0xea, 0x12, 0x13, 0xbd, 0x20, 0x22, 0xf0, 0x38, 0x09, 0xf9, 0x1a, 0xbd, 0xe0, 0x1e, 0x3e, 0xfc, 0x03, 0xf8, 0xd2, 0xed, 0x42, 0x09, 0xca, 0x4e, 0x1d, 0xe7, 0x01, 0x06, 0x6a, 0x3f, 0xdf, 0xd4, 0xbd, 0x46, 0xf0, 0xdb, 0xab, 0x03, 0x65, 0x2c, 0xc2, 0xf7, 0xf7, 0x44, 0x47, 0x58, 0x1d, 0x4e, 0xd4, 0x15, 0xe9, 0x53, 0x5d, 0x26, 0x50, 0xc3, 0x2d, 0x2c, 0xc2, 0xf5, 0x13, 0x24, 0xb1, 0xa4, 0xff, 0xd9, 0x2f, 0xd7, 0x50, 0xf3, 0x3a, 0xe1, 0x0c, 0x73, 0x4a, 0x34, 0x4d, 0xde, 0x0e, 0xb4, 0xff, 0x24, 0x64, 0x06, 0xdc, 0xc6, 0x21, 0x1f, 0x10, 0xb8, 0x1e, 0xee, 0xff, 0xff, 0x04, 0x00, 0x00, 0x00, 0x00, 0x06, 0x00, 0x00, 0x67, 0xe4, 0xc7, 0x51, 0x0d, 0x5b, 0xee, 0x07, 0x6b, 0x05, 0x3d, 0xc6, 0x22, 0xd7, 0x32, 0xf6, 0x7f, 0xe1, 0x25, 0x38, 0x0a, 0xea, 0xf3, 0xbf, 0xf4, 0x2a, 0xaa, 0xa7, 0x58, 0xc0, 0xc6, 0xe8, 0x6d, 0xc6, 0xd2, 0x30, 0x24, 0x13, 0x7f, 0x87, 0x3c, 0x03, 0x11, 0xae, 0x3c, 0xea, 0x65, 0x37, 0x57, 0x16, 0x0a, 0xf7, 0xf8, 0x18, 0x3e, 0xee, 0x04, 0x30, 0xca, 0xd6, 0x14, 0x25, 0x10, 0xf3, 0x4d, 0x57, 0x81, 0xd8, 0x10, 0xdd, 0x28, 0xcf, 0x9e, 0xae, 0x0a, 0x64, 0x32, 0xa1, 0x92, 0xe1, 0x95, 0xf6, 0x92, 0x32, 0x0a, 0xb0, 0xc9, 0x58, 0x19, 0xc2, 0x8f, 0x57, 0x76, 0xb9, 0xf3, 0x15, 0xde, 0xe7, 0xa2, 0x68, 0x63, 0xf1, 0x15, 0xf4, 0x22, 0x32, 0xdd, 0x53, 0x36, 0xdd, 0x23, 0x6d, 0xa4, 0xfd, 0xd3, 0x09, 0x74, 0xe2, 0x69, 0xdf, 0x20, 0x9b, 0xcd, 0x38, 0x2c, 0x08, 0x29, 0x58, 0x84, 0x09, 0x2d, 0x77, 0xe2, 0x58, 0xf9, 0x59, 0x59, 0x98, 0x5e, 0x7d, 0xe9, 0x5c, 0x54, 0x7f, 0x2a, 0x04, 0xbf, 0x0a, 0x2d, 0x07, 0xf8, 0xc7, 0x5b, 0xf8, 0x4f, 0x55, 0x2d, 0x08, 0x7f, 0x5b, 0xd0, 0x0e, 0xd3, 0x01, 0x4b, 0x0f, 0x42, 0xd7, 0xe8, 0x40, 0x2a, 0xfc, 0x25, 0x11, 0x49, 0x17, 0x40, 0x37, 0xb6, 0x37, 0x45, 0xcd, 0xe8, 0xdf, 0x57, 0x21, 0x0f, 0x0b, 0x51, 0x3a, 0x60, 0x5a, 0x04, 0x9a, 0x3b, 0xe7, 0x3d, 0xc3, 0x63, 0xc4, 0x3d, 0xfc, 0x2a, 0x98, 0x54, 0x11, 0x58, 0xcc, 0x46, 0xfe, 0x05, 0x49, 0x1d, 0xca, 0x61, 0xda, 0xe1, 0x4e, 0x5c, 0xc6, 0x52, 0xcf, 0xf2, 0xc9, 0x7f, 0xe4, 0x26, 0x6f, 0x02, 0x3b, 0xf8, 0xad, 0x12, 0x46, 0x06, 0xa5, 0x2a, 0x17, 0x51, 0xe0, 0xc7, 0x0a, 0xca, 0x2d, 0x1e, 0xf4, 0xcd, 0xdb, 0xba, 0xeb, 0x09, 0x03, 0x3a, 0x02, 0x7f, 0x4c, 0xe6, 0x24, 0xe2, 0x49, 0xdf, 0x13, 0xe4, 0x2d, 0xfc, 0xe4, 0x58, 0x40, 0x4f, 0xd3, 0x1e, 0x4e, 0xef, 0xc7, 0xdb, 0x51, 0x08, 0x15, 0x0a, 0x07, 0x0f, 0x11, 0x6e, 0xc1, 0xdc, 0xf1, 0x66, 0x11, 0x36, 0x0d, 0xc9, 0x0d, 0x4b, 0x06, 0xd7, 0xe0, 0xcd, 0x66, 0xcb, 0xd2, 0x19, 0xa5, 0x3a, 0x13, 0xc6, 0x1e, 0xa6, 0x19, 0xfc, 0xcf, 0xed, 0xde, 0x02, 0x10, 0x0a, 0xc2, 0x77, 0x93, 0x4a, 0x35, 0xf8, 0xfc, 0xbe, 0x61, 0xdc, 0x0c, 0xe5, 0xda, 0xc4, 0x7f, 0xce, 0xab, 0x39, 0xd4, 0x33, 0xf5, 0xc9, 0x05, 0x43, 0x2d, 0x6f, 0xea, 0xc1, 0x02, 0x1a, 0x2d, 0xc5, 0xd7, 0x9b, 0xed, 0x10, 0x30, 0x37, 0xfb, 0x91, 0xee, 0xfe, 0xfe, 0x31, 0x8f, 0xfa, 0x0a, 0xab, 0x4e, 0x9e, 0xd8, 0xbc, 0x4c, 0x59, 0xbc, 0x3a, 0x7f, 0x05, 0xe7, 0xc1, 0xd1, 0x61, 0x7b, 0x17, 0x4b, 0x1e, 0xff, 0x46, 0x51, 0x69, 0xff, 0x49, 0xf1, 0xf9, 0x17, 0x31, 0x68, 0x2c, 0xf4, 0x3e, 0xfb, 0xf6, 0xd5, 0xd4, 0xb9, 0x37, 0xba, 0xe4, 0x5e, 0xd1, 0x00, 0x1f, 0xef, 0x13, 0x1f, 0x02, 0x1f, 0x7f, 0x2a, 0xf4, 0xb9, 0x39, 0xc4, 0xf8, 0x17, 0x31, 0xd5, 0xc4, 0x07, 0x13, 0x69, 0xd9, 0xec, 0x43, 0xc9, 0x56, 0xb4, 0x1c, 0xf9, 0x15, 0x0c, 0xc5, 0xe8, 0x2c, 0x52, 0xc2, 0xed, 0x47, 0xc2, 0xe9, 0x88, 0xcd, 0xd7, 0x5f, 0x4c, 0x29, 0x2a, 0x99, 0x33, 0xaf, 0x95, 0x4f, 0xfa, 0xc5, 0x99, 0x81, 0xf8, 0x00, 0x3d, 0x40, 0x2b, 0xe3, 0x14, 0x2a, 0x63, 0x27, 0xe9, 0x00, 0x97, 0x39, 0xfd, 0x99, 0x1f, 0xd7, 0xe1, 0xfa, 0x00, 0x17, 0xfd, 0x44, 0x40, 0xcf, 0x43, 0x06, 0x2a, 0x9a, 0xe2, 0xf4, 0xc8, 0xd4, 0xc9, 0x32, 0x0b, 0x00, 0xaf, 0xe2, 0x41, 0xf6, 0x3c, 0xb6, 0xd1, 0x92, 0x38, 0x15, 0x97, 0x9e, 0xdb, 0xf1, 0x38, 0x09, 0x1e, 0xf0, 0xfa, 0x0b, 0x1a, 0xba, 0xe5, 0x81, 0x54, 0x53, 0xfa, 0xc6, 0x9e, 0x13, 0xd0, 0x9a, 0xcd, 0xf1, 0x55, 0x1c, 0x15, 0xaa, 0x7c, 0xd4, 0x75, 0xa6, 0x35, 0xa1, 0xc0, 0x3b, 0x22, 0xb8, 0x74, 0x48, 0x70, 0x99, 0x18, 0xd7, 0x4d, 0x97, 0xd9, 0x81, 0x1b, 0x3a, 0x76, 0xa1, 0xe1, 0x44, 0x70, 0x04, 0x19, 0x37, 0xbe, 0x50, 0x68, 0x92, 0x7a, 0xdc, 0xa3, 0xb4, 0x69, 0x36, 0xf6, 0xfe, 0x14, 0x31, 0xdd, 0x0c, 0x23, 0x4c, 0x1c, 0xe4, 0x22, 0x06, 0xf3, 0xdf, 0x45, 0xcf, 0x09, 0x75, 0xda, 0x5a, 0x2b, 0x65, 0x50, 0x17, 0xcf, 0xd1, 0x0a, 0xa0, 0x70, 0x27, 0x08, 0xc1, 0x65, 0x67, 0x45, 0x39, 0xd2, 0x45, 0xd9, 0x7f, 0xa4, 0x48, 0x2a, 0xc4, 0xf1, 0xed, 0x61, 0x32, 0xd8, 0x29, 0xd1, 0xe4, 0x0b, 0x2e, 0xe9, 0xf1, 0x9f, 0x1c, 0x53, 0xca, 0xd3, 0x7f, 0x13, 0x0d, 0xbc, 0xd9, 0x49, 0xf0, 0x07, 0xf8, 0x09, 0x72, 0x34, 0x14, 0xeb, 0xeb, 0x17, 0x3e, 0x5e, 0xe4, 0xd3, 0x1c, 0x30, 0xce, 0xbe, 0x63, 0xab, 0x6a, 0x10, 0x6f, 0x39, 0xf3, 0xe8, 0x00, 0x48, 0x09, 0xce, 0xda, 0x4c, 0xda, 0x0a, 0x27, 0x37, 0xf7, 0x15, 0xf3, 0xfa, 0x39, 0x1f, 0x40, 0xcd, 0x4c, 0xda, 0x28, 0xfe, 0xf0, 0x9c, 0x4d, 0xea, 0x14, 0x3c, 0x10, 0x00, 0xf4, 0xd8, 0xef, 0x0e, 0x13, 0xf2, 0x1a, 0x17, 0xe9, 0x98, 0x2b, 0xcd, 0x2c, 0x0a, 0x43, 0x01, 0x7f, 0x3c, 0x1c, 0xbb, 0xef, 0x7a, 0xfe, 0x3d, 0xf5, 0x4e, 0x3f, 0x7f, 0x6d, 0xd1, 0xc2, 0x34, 0x1b, 0xd9, 0xd1, 0xe8, 0x45, 0x72, 0xf4, 0xb8, 0xcd, 0x4b, 0x5d, 0x08, 0x10, 0xd3, 0x2b, 0x13, 0x36, 0xf2, 0xa5, 0xd6, 0x36, 0x40, 0x45, 0xe9, 0x25, 0x33, 0xf6, 0x47, 0xf2, 0xc5, 0x10, 0x03, 0x15, 0x16, 0xa2, 0xca, 0x32, 0x3c, 0xb9, 0xe4, 0x25, 0xb2, 0x57, 0x7f, 0xd2, 0x1d, 0xb8, 0x42, 0xcd, 0x26, 0xa5, 0x38, 0xb2, 0x7b, 0xb7, 0x0b, 0x51, 0xff, 0xe6, 0x11, 0x5c, 0xbb, 0x26, 0xdf, 0x28, 0xb7, 0x25, 0xc7, 0xf8, 0x4b, 0x60, 0x13, 0xe9, 0xce, 0x14, 0x75, 0xd6, 0xae, 0xc4, 0xc2, 0x47, 0x41, 0xe9, 0x23, 0xcc, 0x03, 0x69, 0xbb, 0xf0, 0xed, 0x1b, 0xef, 0xf8, 0x2a, 0x15, 0xb8, 0x4d, 0x3c, 0xff, 0xfa, 0x0f, 0x7f, 0xdc, 0xe6, 0xc3, 0xfd, 0xc3, 0x56, 0x13, 0xbe, 0x08, 0x09, 0xf8, 0xe8, 0x05, 0xe7, 0x07, 0x6f, 0x50, 0x17, 0xb4, 0x22, 0x4b, 0x5a, 0x3d, 0x38, 0x32, 0x2c, 0xb3, 0xc8, 0xc9, 0xf6, 0x7c, 0xed, 0x28, 0xb5, 0xf8, 0x91, 0x7f, 0xef, 0x26, 0xeb, 0xfe, 0x37, 0x1a, 0x54, 0x68, 0xc1, 0x1b, 0xea, 0x27, 0x31, 0x4a, 0xb1, 0x4a, 0xb8, 0x74, 0xd5, 0x43, 0xb0, 0x15, 0x07, 0x52, 0xab, 0x47, 0x39, 0x28, 0xa0, 0x43, 0x1a, 0xd7, 0xe8, 0xf2, 0x1c, 0xe2, 0xe5, 0xae, 0x00, 0xef, 0xe7, 0xad, 0xdf, 0xf2, 0x76, 0x22, 0x37, 0x90, 0x20, 0x36, 0x56, 0x2b, 0xd9, 0x55, 0xd9, 0xe5, 0x44, 0xdd, 0x58, 0x68, 0x7f, 0xc1, 0x78, 0xae, 0x5f, 0xe9, 0x63, 0x14, 0x55, 0x3f, 0x0a, 0x61, 0x61, 0x8d, 0x21, 0x5a, 0x68, 0x10, 0x6c, 0xd3, 0xd2, 0xe6, 0x4e, 0xd2, 0xe4, 0xed, 0xdc, 0x19, 0x67, 0x18, 0xdf, 0xf7, 0x1f, 0xf1, 0xee, 0x33, 0xd0, 0xf5, 0x20, 0x15, 0x12, 0x7b, 0xe4, 0x1f, 0x0b, 0x15, 0x28, 0xf3, 0x0c, 0x34, 0x02, 0xe8, 0x2d, 0xf6, 0x11, 0x42, 0xdb, 0x1d, 0xdb, 0x60, 0xef, 0x08, 0x0c, 0xd8, 0xf7, 0x11, 0x2e, 0x43, 0xc3, 0xe1, 0x40, 0x03, 0xeb, 0x7f, 0xdd, 0x1d, 0xfc, 0xf1, 0xa5, 0x69, 0xac, 0xe1, 0xca, 0xfb, 0xfa, 0x32, 0x37, 0x46, 0xe9, 0x93, 0x79, 0x4b, 0x3c, 0x2a, 0x96, 0x2a, 0x9d, 0xd9, 0x22, 0xc4, 0x66, 0xea, 0x01, 0x51, 0xd0, 0xfa, 0x23, 0x63, 0x57, 0x22, 0x0d, 0x21, 0x31, 0xaf, 0xe7, 0x5d, 0x35, 0xb6, 0xd2, 0x7f, 0x30, 0x19, 0xe3, 0x0b, 0x74, 0xbb, 0x0f, 0x3f, 0x37, 0xac, 0x54, 0x0f, 0x33, 0xf2, 0x0e, 0x13, 0x39, 0x58, 0x39, 0x21, 0xff, 0xee, 0x2d, 0x07, 0xe2, 0x34, 0x0c, 0xf8, 0x64, 0xd2, 0x42, 0x7d, 0x12, 0x03, 0x42, 0x62, 0xfc, 0xf7, 0x54, 0xf0, 0xe3, 0xb6, 0x05, 0x50, 0x20, 0x12, 0x27, 0xf9, 0xd8, 0x4b, 0x34, 0x7f, 0x22, 0x81, 0xda, 0xed, 0x35, 0x99, 0x69, 0x2a, 0x8f, 0x8e, 0x16, 0x82, 0x08, 0x00, 0xca, 0xbf, 0x8c, 0xdb, 0xe8, 0xdc, 0x82, 0xf2, 0x22, 0xdb, 0x95, 0x53, 0xd0, 0xfd, 0xde, 0x21, 0x9a, 0xb0, 0x20, 0x32, 0x39, 0x90, 0xc4, 0xd0, 0xe6, 0x8b, 0xa3, 0xfb, 0x2a, 0xe8, 0x13, 0x98, 0x4a, 0xdb, 0xba, 0x6a, 0xfb, 0x64, 0xba, 0x0c, 0xde, 0x61, 0x33, 0x19, 0x6e, 0xee, 0xc5, 0x48, 0x12, 0x1d, 0x86, 0xf4, 0x7f, 0x01, 0x1e, 0x5c, 0x5a, 0x14, 0x42, 0xae, 0x48, 0xb2, 0x1d, 0x48, 0x32, 0x8b, 0x32, 0x79, 0x70, 0xba, 0xd7, 0x47, 0x60, 0xdd, 0x56, 0xa0, 0xf5, 0x4e, 0xad, 0x21, 0xef, 0xa6, 0xb1, 0xb0, 0x01, 0x9e, 0x60, 0x0f, 0x1c, 0x36, 0x34, 0x45, 0xcd, 0xbf, 0x4c, 0x90, 0x2e, 0x07, 0x7f, 0x8d, 0x99, 0xbb, 0x4c, 0x67, 0x1f, 0x58, 0xde, 0xd1, 0x25, 0xa4, 0xf5, 0xc7, 0xb8, 0xe4, 0x59, 0x2b, 0xf5, 0xc9, 0x20, 0xcc, 0xb2, 0x33, 0xd3, 0x19, 0x14, 0xf3, 0x7c, 0xca, 0x0a, 0x38, 0x0d, 0xf3, 0x08, 0x08, 0x18, 0x23, 0x14, 0xf1, 0xf7, 0x33, 0x08, 0x93, 0x37, 0xce, 0x43, 0xe7, 0x2b, 0xd1, 0x5d, 0x1f, 0x57, 0x27, 0x2b, 0xdc, 0x4c, 0xc9, 0x31, 0x81, 0xfe, 0x22, 0xf8, 0x03, 0x2e, 0x25, 0x3f, 0xc3, 0xdb, 0x42, 0x72, 0xd0, 0x16, 0x15, 0x46, 0xec, 0x01, 0xae, 0xc3, 0xd1, 0x31, 0x04, 0x30, 0x7f, 0xde, 0x1b, 0x13, 0x42, 0x29, 0x17, 0x48, 0x4d, 0xbe, 0xab, 0x5a, 0x3f, 0x0f, 0x00, 0x3b, 0x75, 0xd9, 0x43, 0xdf, 0xe6, 0x36, 0x1b, 0x4e, 0x3d, 0x05, 0xcf, 0x24, 0xf9, 0xda, 0x6a, 0x48, 0x68, 0x3d, 0x22, 0x20, 0x51, 0x55, 0xd1, 0xdf, 0x15, 0xef, 0x0d, 0x56, 0x29, 0x01, 0x7f, 0xea, 0x37, 0xd6, 0x6b, 0xd8, 0x02, 0xde, 0xd9, 0x17, 0xf8, 0x0b, 0xc5, 0x39, 0x01, 0x2a, 0x2d, 0xe4, 0xbf, 0x72, 0xef, 0xd0, 0x29, 0x10, 0x3c, 0x1c, 0x46, 0x23, 0xba, 0xe0, 0x1b, 0x32, 0x1a, 0x24, 0x46, 0x63, 0x75, 0x94, 0xf0, 0x56, 0xc2, 0xd2, 0x9d, 0x93, 0x27, 0x62, 0xd9, 0xee, 0x30, 0x7f, 0x18, 0xf9, 0x0d, 0x0c, 0x08, 0xe8, 0xe9, 0x56, 0x3b, 0x79, 0x3d, 0x07, 0xfb, 0xde, 0x25, 0x23, 0x4a, 0x2c, 0xea, 0x0c, 0x2f, 0xd2, 0x2f, 0x64, 0x00, 0x3d, 0x54, 0xfa, 0xf3, 0x1d, 0xea, 0xf2, 0x2a, 0x20, 0x51, 0xdd, 0x38, 0xfd, 0x54, 0x26, 0x0f, 0x14, 0x4d, 0x17, 0x02, 0x66, 0x69, 0xba, 0x6d, 0xc7, 0xfa, 0x57, 0x36, 0xad, 0x3d, 0xd0, 0x07, 0xc8, 0x34, 0x5c, 0x1e, 0xc4, 0xb6, 0xec, 0xcc, 0xb2, 0xa4, 0xb7, 0xca, 0x5b, 0x24, 0x46, 0xcd, 0x16, 0x81, 0xa6, 0x71, 0x14, 0x56, 0x02, 0x3f, 0x33, 0x8f, 0x4a, 0x4b, 0x8b, 0xa6, 0xdc, 0xc1, 0xf4, 0xd5, 0x66, 0x62, 0xa0, 0xe9, 0xe4, 0x81, 0x19, 0xd9, 0x0a, 0x07, 0xca, 0x03, 0xe8, 0x15, 0xd4, 0x78, 0x87, 0x86, 0xf7, 0xd2, 0xe5, 0xde, 0xe0, 0x6f, 0xcf, 0xd3, 0x07, 0xad, 0x6e, 0x9d, 0x51, 0x20, 0x17, 0x94, 0x08, 0x31, 0xb6, 0x98, 0xd0, 0x3f, 0x11, 0xf3, 0xdf, 0xf4, 0x7d, 0x1c, 0xa6, 0xe2, 0xe3, 0x0c, 0x61, 0x2a, 0xf4, 0xff, 0xff, 0x04, 0x00, 0x00, 0x00, 0x0c, 0x00, 0x00, 0x00, 0x01, 0x00, 0x00, 0x00, 0x17, 0x00, 0x00, 0x00, 0x20, 0x00, 0x00, 0x00, 0x42, 0xf4, 0xff, 0xff, 0x04, 0x00, 0x00, 0x00, 0x40, 0x00, 0x00, 0x00, 0xee, 0xc8, 0x22, 0x3d, 0xce, 0xa8, 0x16, 0x3e, 0x45, 0x4b, 0x17, 0x3e, 0x3e, 0x30, 0x43, 0x3e, 0xd2, 0xc8, 0x3d, 0x3d, 0x5f, 0x48, 0x65, 0x3d, 0x17, 0x93, 0xf5, 0x3d, 0xd9, 0x2a, 0x36, 0x3e, 0x2f, 0xdf, 0x8a, 0x3d, 0xb4, 0x1c, 0xc6, 0x3d, 0x79, 0xa8, 0x02, 0x3e, 0xbc, 0xe0, 0xdf, 0x3d, 0x02, 0x10, 0x85, 0x3e, 0x8b, 0x23, 0xe9, 0x3d, 0x09, 0xec, 0x22, 0x3e, 0x66, 0x4b, 0x55, 0x3e, 0x8e, 0xf4, 0xff, 0xff, 0x04, 0x00, 0x00, 0x00, 0x80, 0x00, 0x00, 0x00, 0x94, 0xd2, 0x0a, 0x3c, 0x07, 0x41, 0x80, 0x3d, 0xe8, 0x30, 0xca, 0x3d, 0x96, 0x7f, 0xf5, 0x3d, 0x87, 0xcf, 0x89, 0x3b, 0xe7, 0x6f, 0xfa, 0x3c, 0x1c, 0x18, 0x22, 0x3e, 0x1a, 0xc2, 0x3c, 0xbd, 0x99, 0x8c, 0xd3, 0x3d, 0xc2, 0xce, 0x09, 0xbd, 0x5b, 0x79, 0xa4, 0x3d, 0x30, 0x48, 0x1a, 0xbd, 0xee, 0x0f, 0x90, 0x3d, 0xff, 0xe7, 0x86, 0x3d, 0xc5, 0xb0, 0x94, 0x3d, 0x06, 0x0a, 0x3e, 0x3e, 0xc8, 0xb1, 0x84, 0x3d, 0xf2, 0x52, 0x9c, 0x3c, 0x43, 0x08, 0x7c, 0xbc, 0xa6, 0xc2, 0xce, 0x3d, 0x0c, 0x82, 0xed, 0x3d, 0x61, 0xf4, 0xf6, 0x3c, 0x8e, 0xf4, 0xd4, 0x3d, 0x1a, 0x81, 0x10, 0xbc, 0x3d, 0xf9, 0x8b, 0x3d, 0xab, 0x92, 0x2c, 0xbc, 0x71, 0x18, 0xfd, 0x3c, 0x83, 0x95, 0x25, 0x3c, 0x5c, 0x0b, 0x44, 0xbd, 0x67, 0xe2, 0x4a, 0x3e, 0xb5, 0x99, 0x03, 0xb9, 0x3b, 0x67, 0xa2, 0xbc, 0x1a, 0xf5, 0xff, 0xff, 0x04, 0x00, 0x00, 0x00, 0xc0, 0x03, 0x00, 0x00, 0x6f, 0x7d, 0xa3, 0x3d, 0x95, 0xbe, 0x7f, 0xbe, 0xb8, 0x97, 0xd3, 0x3e, 0xca, 0xbe, 0x9c, 0x3e, 0xd3, 0x23, 0x1b, 0x3d, 0x01, 0x03, 0x82, 0x3e, 0xfd, 0x4b, 0x28, 0xbe, 0xf4, 0x14, 0xc8, 0x3e, 0x9e, 0x4b, 0x40, 0xbe, 0x67, 0xe9, 0x8d, 0xbe, 0x56, 0x2d, 0x76, 0xbe, 0x7c, 0x15, 0xd3, 0xbe, 0x35, 0x35, 0x85, 0x3e, 0xbb, 0xdf, 0xd4, 0x3c, 0x75, 0xa2, 0x62, 0x3e, 0xb4, 0x93, 0x07, 0x3e, 0xbd, 0xe9, 0xf7, 0xbd, 0x92, 0x45, 0x12, 0xbe, 0xc2, 0x8b, 0x8b, 0xbd, 0x46, 0x95, 0xdf, 0xbe, 0x77, 0x30, 0xa9, 0xbe, 0x1b, 0x8c, 0x5d, 0xbe, 0x18, 0xda, 0xe4, 0xbc, 0xc6, 0xcb, 0x9c, 0xbe, 0x99, 0x94, 0xfd, 0xbd, 0xbf, 0xc9, 0xf5, 0xbd, 0x04, 0xb2, 0xdc, 0xbe, 0x52, 0xfe, 0x6f, 0xbe, 0xaa, 0xcd, 0x9b, 0xbe, 0x0d, 0x19, 0x86, 0xbe, 0x6e, 0x9c, 0xa3, 0x3e, 0xa5, 0xe5, 0x76, 0x3d, 0x88, 0x59, 0x73, 0x3e, 0xaf, 0xa2, 0x58, 0xbe, 0x25, 0xf1, 0x23, 0xbe, 0xbb, 0x8a, 0xc5, 0x3e, 0xe7, 0xb2, 0xd6, 0xbe, 0x57, 0x77, 0x5d, 0xbe, 0x65, 0x38, 0xbe, 0xbe, 0xca, 0x1c, 0xa0, 0xbe, 0xa8, 0x81, 0xc2, 0x3e, 0x9e, 0x39, 0x1e, 0xbe, 0xd4, 0x7b, 0xc0, 0x3e, 0x42, 0xfd, 0x12, 0x3e, 0xf0, 0xb8, 0xc3, 0xbe, 0x86, 0xb9, 0x2e, 0xbd, 0xb9, 0x7a, 0x89, 0x3e, 0x8b, 0x7e, 0x1b, 0x3e, 0xf6, 0x96, 0x2f, 0x3e, 0x6b, 0xac, 0x27, 0xbe, 0x7f, 0x8d, 0x87, 0x3e, 0xe3, 0xc7, 0x16, 0x3e, 0xba, 0x8b, 0xc8, 0x3c, 0x65, 0xca, 0xb2, 0x3e, 0xcb, 0xdd, 0xfc, 0xbd, 0x78, 0x64, 0x06, 0xbe, 0x48, 0x7e, 0xbb, 0xbd, 0xe3, 0xbb, 0xf7, 0xbb, 0xc1, 0xce, 0xcf, 0x3e, 0x55, 0x09, 0xcb, 0x3e, 0xd3, 0x45, 0x42, 0xbc, 0x12, 0x5a, 0x91, 0x3e, 0x30, 0x51, 0x94, 0x3e, 0x07, 0xb2, 0x8a, 0x3e, 0xec, 0xa6, 0xe6, 0x3d, 0x03, 0x39, 0xd0, 0xbd, 0xc8, 0xc3, 0x48, 0xbc, 0xe0, 0xdf, 0x8c, 0x3e, 0xc2, 0x4d, 0x8c, 0x3e, 0xce, 0xc4, 0x16, 0xbd, 0xef, 0xb0, 0x74, 0x3e, 0xd9, 0x3e, 0xa1, 0x3e, 0x14, 0x39, 0xbe, 0x3e, 0xf6, 0xe8, 0x47, 0x3e, 0x90, 0x12, 0xb3, 0x3e, 0x51, 0x97, 0xa9, 0xbe, 0xc5, 0xf7, 0x82, 0x3e, 0xde, 0xda, 0x83, 0x3e, 0xd7, 0x22, 0xd3, 0xbd, 0x28, 0x7d, 0x7a, 0xbe, 0x98, 0x02, 0x33, 0x3e, 0xc3, 0xa2, 0x43, 0x3d, 0xd4, 0x8e, 0x97, 0x3e, 0x13, 0xe6, 0xb1, 0xbe, 0x94, 0xed, 0xfe, 0xbd, 0x1b, 0xf7, 0x0c, 0xbe, 0x9d, 0xbc, 0x8f, 0xbb, 0xc3, 0x6d, 0x85, 0xbe, 0xd7, 0x9f, 0x15, 0x3e, 0x70, 0xcc, 0x72, 0x3c, 0x7d, 0xe4, 0x35, 0x3d, 0x93, 0x60, 0x0e, 0x3e, 0xd3, 0x40, 0x47, 0x3e, 0x67, 0xbd, 0x71, 0x3d, 0x19, 0xde, 0xce, 0x3e, 0xac, 0x8e, 0xd9, 0x3e, 0xae, 0x3e, 0x70, 0xbe, 0x42, 0x84, 0x98, 0x3e, 0xa2, 0x84, 0xea, 0xbd, 0x96, 0xd6, 0x83, 0x3e, 0x1d, 0x3d, 0x73, 0x3e, 0xca, 0x60, 0x01, 0xbe, 0x00, 0x95, 0x25, 0x3d, 0x5d, 0x81, 0x77, 0x3e, 0x5f, 0xe9, 0x99, 0xbd, 0x07, 0xda, 0x9d, 0x3d, 0x39, 0x41, 0x6b, 0xbe, 0xb6, 0x5f, 0xa8, 0xbe, 0xc6, 0xa6, 0xc3, 0xbe, 0x9f, 0xc8, 0x93, 0xbe, 0xa3, 0x0c, 0x26, 0x3e, 0xbe, 0xd1, 0x2f, 0x3e, 0x8a, 0xef, 0xc4, 0xbc, 0x29, 0x08, 0x9d, 0xbe, 0x1b, 0x97, 0x91, 0xbe, 0x0e, 0xe1, 0x84, 0x3e, 0x4d, 0xa8, 0xbe, 0x3c, 0xe1, 0x79, 0x87, 0xbd, 0x29, 0x6f, 0xca, 0xbe, 0x13, 0x7a, 0xee, 0xbc, 0xbe, 0x00, 0x38, 0x3e, 0xc3, 0x60, 0xbf, 0x3e, 0x97, 0x98, 0xe2, 0x3d, 0xd2, 0x62, 0x87, 0x3d, 0x28, 0xfe, 0x32, 0x3e, 0x27, 0x18, 0xc9, 0x3e, 0x9e, 0x4b, 0x96, 0x3e, 0xbe, 0x7a, 0x98, 0x3e, 0xed, 0x80, 0x9c, 0x3e, 0xc5, 0xe8, 0xa4, 0x3e, 0xb8, 0xfb, 0x5e, 0x3e, 0x2e, 0xbd, 0x66, 0xbe, 0x8c, 0x48, 0x10, 0xbd, 0x28, 0xb1, 0x90, 0x3e, 0x5a, 0x5b, 0x96, 0x3e, 0x46, 0x7c, 0xd2, 0xbe, 0x90, 0x5b, 0xbb, 0x3c, 0x87, 0xb4, 0xbe, 0x3d, 0xf6, 0x5d, 0x90, 0x3e, 0x04, 0x3a, 0x3e, 0xbe, 0x0e, 0x06, 0xc2, 0xbe, 0xf0, 0xbb, 0xe8, 0xbd, 0x7b, 0xc2, 0x68, 0x3e, 0x7e, 0xf9, 0xc5, 0x3e, 0x99, 0xec, 0xa9, 0xbd, 0x3a, 0xc3, 0x7e, 0x3d, 0x01, 0x1b, 0x3f, 0x3d, 0x6b, 0xd5, 0xb2, 0x3d, 0xb9, 0xc5, 0x9f, 0x3e, 0x04, 0xc5, 0xe8, 0xbb, 0xa4, 0x90, 0xd8, 0x3e, 0x88, 0xe5, 0xd4, 0xbe, 0x7d, 0x93, 0x48, 0xbd, 0xdc, 0x72, 0x8e, 0x3e, 0xfe, 0x09, 0x3f, 0xbc, 0xac, 0x15, 0xbf, 0x3e, 0xa0, 0xdc, 0x14, 0xbe, 0x49, 0xc4, 0xf5, 0xbd, 0xf2, 0xeb, 0x2f, 0xbe, 0x91, 0x90, 0x50, 0x3d, 0x63, 0xad, 0x1d, 0x3e, 0x50, 0x30, 0xb8, 0xbe, 0xda, 0xbb, 0x07, 0xbe, 0x47, 0x77, 0x80, 0x3e, 0xbc, 0xa4, 0xbe, 0x3d, 0xaf, 0xf3, 0xc2, 0xbd, 0xab, 0x96, 0xb1, 0x3e, 0x9c, 0xee, 0x6a, 0x3e, 0x2f, 0xe7, 0x83, 0xbd, 0x4e, 0xca, 0xa0, 0x3e, 0x37, 0x5f, 0x83, 0x3e, 0xa1, 0xb9, 0xd0, 0x3e, 0xfb, 0x14, 0x70, 0xbe, 0xd4, 0x78, 0x02, 0x3d, 0xe2, 0x17, 0x9c, 0x3e, 0x48, 0x85, 0x84, 0x3e, 0x2f, 0x81, 0xc5, 0x3d, 0xd3, 0x93, 0x01, 0xbe, 0x38, 0x2d, 0x73, 0x3e, 0x41, 0x95, 0xdd, 0x3d, 0x39, 0x97, 0x84, 0xbe, 0x3e, 0xef, 0xfd, 0xbe, 0x53, 0x93, 0xd6, 0x3c, 0xb3, 0x32, 0x7d, 0x3e, 0x24, 0x90, 0xf4, 0x3d, 0xb5, 0x3a, 0x2c, 0xbe, 0xfb, 0xde, 0xb1, 0xbe, 0x49, 0x1e, 0xc0, 0xbe, 0xd3, 0x01, 0x58, 0x3e, 0x0c, 0xe6, 0xe5, 0x3d, 0x8a, 0x7f, 0xa7, 0xbe, 0x26, 0xf9, 0x2f, 0xbd, 0xf7, 0xfa, 0x10, 0x3e, 0x06, 0x40, 0x46, 0x3e, 0x60, 0x42, 0x3d, 0x3e, 0x27, 0xc0, 0xf4, 0x3e, 0x9b, 0xe4, 0x85, 0xbd, 0xb2, 0xcb, 0x4e, 0x3e, 0xc6, 0x3e, 0x8e, 0xbe, 0x35, 0x82, 0x43, 0xbe, 0xbc, 0x93, 0xee, 0x3e, 0x2d, 0x1c, 0x44, 0x3e, 0xb6, 0x87, 0xeb, 0x3d, 0x5f, 0xb7, 0x1f, 0x3e, 0xff, 0x0c, 0x51, 0x3e, 0x26, 0x48, 0x93, 0x3e, 0x50, 0x66, 0x96, 0xbe, 0x43, 0x78, 0x3b, 0xbd, 0xfc, 0x3a, 0x85, 0x3c, 0xbd, 0xed, 0xb7, 0xbd, 0x3f, 0xb6, 0x40, 0x3e, 0x2c, 0x82, 0x06, 0xbe, 0x9c, 0x12, 0x9a, 0xbe, 0xa7, 0xf6, 0xb4, 0x3d, 0x7c, 0x88, 0x8c, 0x3e, 0xc4, 0xb3, 0x83, 0x3e, 0x8a, 0x4c, 0x1c, 0x3e, 0x76, 0x58, 0xbe, 0xbe, 0x30, 0x2e, 0xfb, 0x3e, 0x47, 0xf6, 0xec, 0xbd, 0x2e, 0x7f, 0xe9, 0x3c, 0x21, 0x0b, 0xc7, 0xbe, 0x06, 0xc1, 0x11, 0xbd, 0x5c, 0xfb, 0x8a, 0x3e, 0x85, 0x8f, 0x7a, 0xbe, 0x3e, 0xda, 0x8f, 0x3e, 0xc1, 0x06, 0xbc, 0x3e, 0xd8, 0xa6, 0x83, 0x3d, 0x14, 0x78, 0x6c, 0x3e, 0xe5, 0x4b, 0x18, 0xbe, 0xa9, 0x3f, 0x2e, 0x3e, 0xea, 0x05, 0x98, 0x3e, 0x07, 0xb3, 0x8a, 0xbe, 0xed, 0x37, 0xae, 0x3e, 0xbc, 0x8c, 0x17, 0xbd, 0xaf, 0x8c, 0x54, 0x3e, 0x1d, 0x42, 0xc1, 0x3e, 0x76, 0x62, 0x91, 0xbe, 0xf8, 0x40, 0x94, 0x3d, 0x91, 0x0c, 0x7a, 0x3e, 0xe6, 0xf8, 0xff, 0xff, 0x04, 0x00, 0x00, 0x00, 0x80, 0x05, 0x00, 0x00, 0xd5, 0xcf, 0x6a, 0x3e, 0x76, 0xbd, 0x8d, 0xbe, 0x4e, 0xba, 0x6d, 0x3d, 0x24, 0x54, 0x94, 0x3e, 0xed, 0xd7, 0x91, 0xbe, 0x57, 0xdd, 0x8a, 0x3e, 0x13, 0x86, 0xaa, 0x3e, 0xdf, 0x44, 0xb5, 0xbe, 0xce, 0x0a, 0x02, 0xbe, 0xa6, 0x5c, 0x06, 0xbe, 0x74, 0xe9, 0xea, 0x3d, 0x98, 0xba, 0x92, 0xbe, 0x0a, 0xa8, 0x1a, 0xbe, 0x5b, 0x3e, 0x37, 0xbe, 0x2b, 0x9c, 0x0b, 0xbe, 0x03, 0x86, 0xd5, 0xbd, 0xae, 0xb3, 0xa3, 0xbd, 0xb1, 0xb6, 0xd3, 0xbd, 0x5a, 0xd7, 0x92, 0x3d, 0x0b, 0xd4, 0x8f, 0x3c, 0xa5, 0xcb, 0x3d, 0x3e, 0x05, 0x5e, 0x85, 0x3e, 0x35, 0x69, 0x36, 0xbe, 0x34, 0x25, 0x71, 0x3e, 0x56, 0x15, 0xc6, 0xbe, 0xa2, 0x6b, 0x2f, 0x3d, 0x56, 0xd2, 0x04, 0xbf, 0x8b, 0xc2, 0x33, 0xbe, 0x7c, 0x22, 0x8c, 0x3e, 0x62, 0x76, 0x31, 0xbe, 0x93, 0x66, 0x4f, 0x3e, 0xe3, 0x94, 0xb8, 0x3c, 0xbc, 0x9f, 0xb2, 0x3d, 0xe3, 0xc1, 0x8e, 0x3d, 0x75, 0x01, 0x0e, 0x3d, 0xd7, 0xb8, 0x42, 0x3d, 0xe3, 0x40, 0x09, 0xbf, 0x14, 0x84, 0xda, 0xbe, 0xeb, 0x2d, 0xca, 0xbe, 0x78, 0xee, 0xbf, 0xbe, 0xf1, 0x31, 0xcf, 0xbe, 0x17, 0x87, 0xa6, 0x3e, 0x3b, 0xb6, 0xd3, 0xbe, 0xa8, 0x62, 0xa5, 0x3e, 0x81, 0xbb, 0x94, 0xbe, 0xbe, 0xff, 0x2c, 0xbf, 0x06, 0x14, 0xb7, 0xbe, 0xc7, 0xef, 0x78, 0x3c, 0x55, 0x4a, 0xac, 0xbb, 0x23, 0x20, 0x9e, 0x3e, 0x83, 0x74, 0x60, 0x3d, 0x5f, 0xc6, 0x59, 0x3e, 0x0f, 0x7a, 0x6d, 0xbe, 0xb8, 0x4a, 0x6a, 0x3e, 0x48, 0xf0, 0x40, 0x3d, 0xe2, 0xbb, 0xea, 0xbd, 0x94, 0x46, 0x24, 0xbd, 0x4a, 0xbf, 0x8a, 0xbe, 0xde, 0x10, 0xab, 0xbe, 0x10, 0xd5, 0x21, 0x3e, 0x5b, 0x14, 0x5e, 0x3e, 0x2a, 0xab, 0x22, 0xbb, 0xe5, 0x90, 0x19, 0xbd, 0x56, 0x2a, 0xdb, 0x3e, 0x90, 0xde, 0xaa, 0xbd, 0xb3, 0x59, 0xf5, 0x3b, 0xd2, 0xde, 0x69, 0x3e, 0x0b, 0xc0, 0x25, 0x3e, 0x18, 0xb7, 0x63, 0x3e, 0x1d, 0x98, 0x83, 0xbe, 0x50, 0x28, 0xd4, 0xbe, 0xd2, 0x5c, 0x23, 0xbe, 0xf6, 0x52, 0x43, 0xbe, 0x90, 0xac, 0xd8, 0x3e, 0xf7, 0x00, 0xf4, 0xbd, 0x60, 0x3f, 0x18, 0x3d, 0xba, 0xb0, 0x3e, 0xbe, 0x87, 0xe0, 0xa4, 0xbe, 0x10, 0x8d, 0x13, 0x3e, 0x61, 0xea, 0x33, 0x3e, 0xa3, 0x0d, 0xaf, 0xbe, 0xd0, 0x05, 0xd0, 0xbe, 0x75, 0xee, 0xfb, 0x3d, 0x95, 0x19, 0x2a, 0x3c, 0xd2, 0x83, 0xd0, 0x3e, 0x0c, 0x9d, 0x94, 0xbe, 0x33, 0xb3, 0x20, 0xbf, 0x41, 0x4c, 0xb0, 0xbd, 0x28, 0xbd, 0x11, 0x3e, 0x2b, 0x51, 0x29, 0xbe, 0x51, 0x5c, 0xa1, 0xbe, 0x78, 0xb6, 0x95, 0x3e, 0x10, 0x83, 0xbe, 0xbe, 0x53, 0xfc, 0x58, 0x3d, 0xba, 0x34, 0x84, 0x3e, 0x89, 0xbb, 0xeb, 0xbe, 0x43, 0xf9, 0x77, 0xbe, 0xf3, 0xcd, 0x9d, 0x3e, 0xa1, 0xef, 0xda, 0xbe, 0x46, 0x80, 0x54, 0xbe, 0x28, 0xe2, 0x4a, 0xbd, 0xec, 0xc7, 0x4b, 0x3d, 0x47, 0xdc, 0x06, 0x3b, 0x8b, 0x3d, 0x8a, 0xbe, 0x6f, 0xe7, 0xdf, 0x3e, 0xae, 0x39, 0x1a, 0xbd, 0x5a, 0x9c, 0xd8, 0x3e, 0xfe, 0xd3, 0xb8, 0x3e, 0xae, 0xf1, 0x6f, 0x3e, 0x75, 0x4d, 0xd5, 0xbe, 0x66, 0x51, 0x9e, 0x3e, 0x96, 0xff, 0xd4, 0xbc, 0xe6, 0x3c, 0xef, 0xbe, 0xb9, 0x9e, 0x72, 0xbe, 0x76, 0x2c, 0x7c, 0xbe, 0xcf, 0xc6, 0xa0, 0x3e, 0x09, 0xb7, 0x4a, 0xbd, 0x29, 0x0d, 0x03, 0xbd, 0x3c, 0xa8, 0x95, 0x3d, 0x62, 0xbc, 0xbd, 0xbd, 0x49, 0xa4, 0xee, 0xbd, 0x3d, 0xa4, 0x61, 0xbd, 0x01, 0xe3, 0x5f, 0xbe, 0x73, 0x0c, 0x48, 0xbe, 0x60, 0xfd, 0xcd, 0xbe, 0x46, 0xf8, 0x58, 0xbd, 0xc9, 0x5f, 0x05, 0x3d, 0x08, 0x4a, 0xfc, 0x3a, 0x30, 0x02, 0x93, 0x3d, 0x4d, 0x8c, 0x04, 0xbf, 0xd3, 0xc8, 0xae, 0xbe, 0x55, 0x62, 0xf1, 0xbe, 0x47, 0x43, 0xfc, 0xbd, 0x92, 0xcb, 0x89, 0xbc, 0x8b, 0xf0, 0xa1, 0xbc, 0xee, 0x44, 0x92, 0x3e, 0x07, 0x64, 0xb3, 0xbe, 0x3b, 0xbb, 0xb0, 0x3e, 0xf3, 0xe5, 0x63, 0xbe, 0x30, 0xb1, 0x2f, 0x3d, 0x50, 0x0f, 0x25, 0x3e, 0x81, 0x11, 0x6f, 0xbe, 0xf0, 0x17, 0x84, 0x3e, 0xbd, 0xf3, 0x85, 0x3e, 0x91, 0x6f, 0x06, 0xbd, 0x6b, 0x5c, 0xb5, 0xbe, 0xef, 0x65, 0xae, 0xbe, 0x51, 0x89, 0xe7, 0x3d, 0xa1, 0x85, 0x77, 0x3d, 0x46, 0x38, 0x86, 0xbe, 0x3d, 0xf0, 0xc9, 0x3e, 0xdd, 0xe5, 0xad, 0xbe, 0x03, 0x53, 0xf2, 0xbb, 0xd1, 0xf6, 0xba, 0x3e, 0x6d, 0xec, 0x82, 0x3e, 0x13, 0x95, 0x65, 0x3d, 0x96, 0xf6, 0xda, 0xbd, 0x8d, 0x9b, 0x11, 0xbf, 0xb4, 0x31, 0x4b, 0x3e, 0x97, 0xc3, 0x7a, 0x3e, 0x58, 0x00, 0x46, 0xbe, 0x4f, 0xc5, 0xc1, 0xbd, 0x62, 0x1c, 0xf3, 0x3d, 0xd5, 0x27, 0x8d, 0x3d, 0xe8, 0xe8, 0x80, 0x3e, 0xec, 0x1f, 0xa9, 0xbe, 0xcd, 0x0b, 0xff, 0xbd, 0x4f, 0xfb, 0x4d, 0xbd, 0x3b, 0x85, 0xe6, 0x3d, 0x9d, 0x14, 0x41, 0xbe, 0x6d, 0x84, 0x9d, 0xbe, 0x12, 0xef, 0x2b, 0xbe, 0x6a, 0x0b, 0x42, 0xbb, 0x07, 0xad, 0xa7, 0xbe, 0x5c, 0xb6, 0x8f, 0xbd, 0xb5, 0xde, 0xba, 0xbe, 0x7b, 0x8b, 0xf8, 0xbe, 0x9f, 0xcd, 0x87, 0x3e, 0xbf, 0xf5, 0x09, 0xbe, 0x52, 0x3e, 0xca, 0xbe, 0xe8, 0xd8, 0xca, 0xbe, 0x4f, 0xea, 0x33, 0x3d, 0x01, 0xab, 0x76, 0xbd, 0x97, 0x57, 0x91, 0x3e, 0xc5, 0x48, 0x8d, 0x3e, 0xbc, 0x2e, 0xd8, 0x3e, 0x58, 0x77, 0xb0, 0xbe, 0x76, 0x1e, 0x3c, 0x3e, 0xcf, 0x22, 0xa9, 0x3e, 0xcc, 0x60, 0x19, 0xbe, 0xdb, 0xca, 0x58, 0x3e, 0x3a, 0x7e, 0xd6, 0x3e, 0x7a, 0x2b, 0x70, 0xbe, 0x56, 0x02, 0x92, 0x3e, 0x85, 0x77, 0x03, 0xbc, 0xe8, 0xaa, 0x5e, 0xbd, 0xa0, 0x79, 0x2e, 0xbd, 0x5f, 0x65, 0x09, 0xbf, 0xcd, 0xe2, 0xc4, 0x3e, 0xbc, 0x65, 0xd6, 0x3c, 0x43, 0xdf, 0x0b, 0xbe, 0x61, 0x13, 0x4a, 0xbe, 0x3e, 0x3c, 0xe4, 0xbd, 0x7c, 0xb0, 0xb2, 0x3d, 0xec, 0xf1, 0x24, 0xbe, 0x40, 0xf5, 0xaf, 0x3e, 0xfd, 0x94, 0x69, 0xbe, 0x5d, 0x30, 0x5d, 0x3d, 0x3d, 0xd4, 0xd9, 0xbe, 0x91, 0x9a, 0xc3, 0xbe, 0x1d, 0x26, 0x33, 0xbe, 0xb5, 0xc8, 0x99, 0xbe, 0xe7, 0x2c, 0x05, 0xbc, 0x50, 0x34, 0x3f, 0xbe, 0xe7, 0xff, 0xf0, 0xbe, 0x3f, 0x5b, 0xcf, 0xbd, 0x00, 0x40, 0x8f, 0xbe, 0xa7, 0x91, 0x1c, 0x3e, 0xf1, 0x34, 0x13, 0xbf, 0x9e, 0x17, 0xbe, 0xbe, 0x7d, 0xcb, 0xe2, 0xbd, 0x74, 0xb5, 0xb0, 0x3e, 0x0f, 0x3a, 0xa5, 0x3e, 0xea, 0x51, 0x8f, 0xbe, 0xe7, 0x9d, 0xac, 0x3e, 0x0b, 0x3e, 0xa5, 0x3e, 0xff, 0x93, 0x8d, 0xbe, 0x5e, 0x14, 0x2a, 0xbe, 0xf9, 0xd1, 0x04, 0xbf, 0xf2, 0xfe, 0x91, 0xbe, 0x80, 0x94, 0x9b, 0xbe, 0x11, 0x27, 0xd5, 0x3e, 0x4f, 0x85, 0x21, 0xbf, 0x1a, 0x7e, 0x93, 0x3e, 0xeb, 0xf4, 0xed, 0xbe, 0x27, 0x74, 0x2b, 0xbe, 0xff, 0xb7, 0xcf, 0xbe, 0x3c, 0xfe, 0x18, 0xbd, 0x2b, 0xeb, 0x92, 0xbe, 0xa2, 0xe2, 0xcb, 0xbe, 0xf2, 0x97, 0xa7, 0x3e, 0x65, 0x12, 0x6a, 0x3e, 0xae, 0xce, 0x6e, 0x3e, 0x34, 0xfd, 0xcf, 0x3e, 0xa6, 0x82, 0xc4, 0xbd, 0x84, 0x02, 0xc3, 0xbd, 0x74, 0xed, 0x1e, 0xbd, 0x1e, 0x15, 0x05, 0x3c, 0x8b, 0x14, 0x6d, 0xbd, 0x42, 0xbf, 0xc9, 0xbd, 0x56, 0xe9, 0xa7, 0x3e, 0x68, 0x07, 0x52, 0x3d, 0x2b, 0x08, 0xee, 0xbd, 0x7d, 0x06, 0xa2, 0xbe, 0xaa, 0x34, 0xa4, 0x3d, 0x62, 0x87, 0xe5, 0xbe, 0xe5, 0x23, 0x0e, 0x3e, 0x66, 0x34, 0xa2, 0xbe, 0x04, 0x9b, 0x8f, 0x3d, 0x48, 0xc5, 0x46, 0xbe, 0xc0, 0xb0, 0xea, 0x3d, 0x56, 0x25, 0x02, 0xbe, 0x3d, 0x7a, 0x8e, 0xbe, 0x0a, 0xad, 0x08, 0xbf, 0xb8, 0x82, 0x13, 0xbf, 0xe9, 0x4c, 0x1b, 0xbc, 0x7a, 0xf3, 0x64, 0x3e, 0x38, 0xec, 0x2b, 0x3d, 0xdd, 0x1c, 0x2a, 0xbe, 0x69, 0x20, 0x95, 0x3e, 0xfe, 0x94, 0x9b, 0xbe, 0xb0, 0x83, 0x59, 0xbe, 0x23, 0x8a, 0x82, 0x3e, 0x1b, 0x87, 0xcc, 0xbe, 0x8d, 0x27, 0x87, 0xbe, 0x22, 0x70, 0xe8, 0x3e, 0x4e, 0x95, 0xa1, 0xbe, 0x81, 0xbe, 0x7b, 0xbe, 0xa7, 0xb7, 0x11, 0xbf, 0x6d, 0x72, 0x74, 0xbe, 0xc2, 0x16, 0xf8, 0x3d, 0x28, 0x38, 0x22, 0xbe, 0xfe, 0xf5, 0x81, 0x3e, 0x21, 0xb8, 0x34, 0xbe, 0x5d, 0xc1, 0xcf, 0xbe, 0x54, 0x86, 0xdf, 0xbb, 0x72, 0x70, 0xdd, 0xbd, 0x52, 0xba, 0xa1, 0xbe, 0x00, 0xc4, 0xd6, 0xbe, 0xc3, 0x3a, 0x70, 0x3e, 0x80, 0xbc, 0x50, 0xbe, 0x68, 0x15, 0xf9, 0x3d, 0x01, 0x35, 0xdb, 0x3e, 0x5c, 0x32, 0xc3, 0xbe, 0x8c, 0x0b, 0x40, 0x3d, 0xee, 0xbb, 0x0f, 0xbf, 0xfc, 0x19, 0x59, 0x3d, 0x9d, 0x67, 0x15, 0xbe, 0x6c, 0xa1, 0x62, 0xbe, 0xe8, 0xfd, 0x39, 0x3e, 0x40, 0x7e, 0xcd, 0xbe, 0x54, 0x14, 0x2b, 0x3e, 0x40, 0x0c, 0xac, 0xbd, 0x2e, 0xd8, 0x50, 0xbe, 0x0b, 0x0d, 0x5a, 0xbd, 0xab, 0x65, 0x57, 0x3e, 0x94, 0x60, 0xd2, 0xbe, 0xb9, 0xc1, 0x07, 0x3c, 0xce, 0xeb, 0x36, 0xbe, 0x10, 0xe6, 0x55, 0xbd, 0x09, 0x6c, 0xda, 0x3e, 0x2d, 0xd3, 0x02, 0xbf, 0xae, 0x3a, 0x29, 0xbe, 0xc9, 0xe4, 0x03, 0x3c, 0x41, 0x03, 0xe9, 0x3e, 0x87, 0xf3, 0xaf, 0x3c, 0x02, 0x06, 0x17, 0x3d, 0x34, 0xf1, 0x4f, 0xbd, 0xb9, 0x7c, 0x08, 0xbf, 0x02, 0xfd, 0xd8, 0x3e, 0x2f, 0xef, 0x70, 0xbe, 0x55, 0x2b, 0xe1, 0xbe, 0x0d, 0xa3, 0x0a, 0xbf, 0x50, 0x05, 0xb8, 0xbe, 0x22, 0x72, 0xbd, 0x3e, 0x0f, 0x63, 0x56, 0x3e, 0x4e, 0x63, 0x79, 0xbe, 0x33, 0x87, 0xfa, 0xbe, 0xab, 0xfb, 0xd9, 0xbe, 0x62, 0xd8, 0xf0, 0xbe, 0x6f, 0x40, 0x18, 0xbf, 0xfd, 0x2f, 0x8a, 0xbe, 0x91, 0x27, 0xb7, 0x3e, 0xce, 0x5c, 0x28, 0xbe, 0x0a, 0xe8, 0xbc, 0xbe, 0x47, 0x5d, 0xc0, 0x3d, 0x0e, 0x86, 0x80, 0x3e, 0x88, 0x99, 0xb4, 0x3d, 0x0a, 0xb7, 0xea, 0x3e, 0xbd, 0xe6, 0x69, 0x3e, 0x02, 0x29, 0x8e, 0xbe, 0xc4, 0xcf, 0x1f, 0xbd, 0xaa, 0x6a, 0x26, 0x3e, 0xb3, 0xb3, 0x95, 0x3e, 0xfd, 0x7b, 0xa1, 0xbd, 0xc5, 0xd5, 0xe1, 0xbb, 0xed, 0xbf, 0xbb, 0xbe, 0xd4, 0x27, 0x34, 0xbe, 0x10, 0xc0, 0x9c, 0x3e, 0x47, 0x95, 0xdc, 0xbe, 0x2f, 0x6d, 0x5d, 0xbe, 0x9e, 0xde, 0x9f, 0x3e, 0x72, 0xfe, 0xff, 0xff, 0x04, 0x00, 0x00, 0x00, 0x04, 0x00, 0x00, 0x00, 0x01, 0x00, 0x00, 0x00, 0x82, 0xfe, 0xff, 0xff, 0x04, 0x00, 0x00, 0x00, 0x2c, 0x00, 0x00, 0x00, 0x61, 0x6c, 0xb8, 0x3c, 0xe4, 0x85, 0x20, 0x3c, 0x22, 0x71, 0x3f, 0x3c, 0x2f, 0x0d, 0x3c, 0x3d, 0xad, 0x0a, 0x25, 0xbd, 0x9f, 0xb8, 0xfc, 0xbc, 0x88, 0x19, 0x46, 0xbd, 0x3c, 0x1a, 0x8c, 0xbd, 0xfa, 0xed, 0x78, 0x3c, 0x91, 0x7e, 0x8b, 0x3d, 0x8f, 0x59, 0xf7, 0xbb, 0xba, 0xfe, 0xff, 0xff, 0x04, 0x00, 0x00, 0x00, 0x80, 0x00, 0x00, 0x00, 0xc8, 0x3c, 0x39, 0xbd, 0xd2, 0x35, 0x0d, 0x3c, 0x83, 0x12, 0x58, 0x3d, 0x85, 0x8d, 0xb7, 0x3d, 0x3e, 0xe8, 0x06, 0x3e, 0x17, 0xeb, 0xb2, 0x3b, 0x26, 0xe2, 0x38, 0x3d, 0xae, 0x60, 0x5e, 0xbc, 0xbe, 0xd8, 0xe0, 0x3d, 0x6d, 0xf5, 0x22, 0xbc, 0xc2, 0x6b, 0xb2, 0x3d, 0x00, 0x00, 0x00, 0x00, 0x83, 0x7c, 0x29, 0x3b, 0xfb, 0x34, 0x36, 0x3d, 0x00, 0x00, 0x00, 0x00, 0xfa, 0x7a, 0x61, 0x3c, 0x77, 0x79, 0x52, 0x3c, 0x76, 0x94, 0x5a, 0x3d, 0x6e, 0xce, 0xb3, 0xbc, 0x46, 0xb9, 0x1f, 0x3d, 0x86, 0x68, 0x17, 0x3d, 0xa6, 0xb1, 0x79, 0xbd, 0x37, 0xb4, 0xfd, 0x3d, 0xd7, 0x57, 0xdb, 0xbb, 0xb6, 0xf0, 0x46, 0xbd, 0xbd, 0x95, 0xa5, 0xbc, 0x8c, 0x63, 0xb8, 0x3d, 0x9f, 0x53, 0xa7, 0xbb, 0x0c, 0xd7, 0x57, 0xbc, 0x7e, 0x66, 0x98, 0x3d, 0x3c, 0xb0, 0x3a, 0x3b, 0x2f, 0x3b, 0x82, 0x3d, 0x46, 0xff, 0xff, 0xff, 0x04, 0x00, 0x00, 0x00, 0x10, 0x00, 0x00, 0x00, 0x01, 0x00, 0x00, 0x00, 0x01, 0x00, 0x00, 0x00, 0x64, 0x00, 0x00, 0x00, 0x05, 0x00, 0x00, 0x00, 0xc0, 0xf2, 0xff, 0xff, 0xc4, 0xf2, 0xff, 0xff, 0x0f, 0x00, 0x00, 0x00, 0x4d, 0x4c, 0x49, 0x52, 0x20, 0x43, 0x6f, 0x6e, 0x76, 0x65, 0x72, 0x74, 0x65, 0x64, 0x2e, 0x00, 0x01, 0x00, 0x00, 0x00, 0x14, 0x00, 0x00, 0x00, 0x00, 0x00, 0x0e, 0x00, 0x18, 0x00, 0x14, 0x00, 0x10, 0x00, 0x0c, 0x00, 0x08, 0x00, 0x04, 0x00, 0x0e, 0x00, 0x00, 0x00, 0x14, 0x00, 0x00, 0x00, 0x1c, 0x00, 0x00, 0x00, 0xa4, 0x02, 0x00, 0x00, 0xa8, 0x02, 0x00, 0x00, 0xac, 0x02, 0x00, 0x00, 0x04, 0x00, 0x00, 0x00, 0x6d, 0x61, 0x69, 0x6e, 0x00, 0x00, 0x00, 0x00, 0x0a, 0x00, 0x00, 0x00, 0x68, 0x02, 0x00, 0x00, 0x08, 0x02, 0x00, 0x00, 0xa4, 0x01, 0x00, 0x00, 0x5c, 0x01, 0x00, 0x00, 0x18, 0x01, 0x00, 0x00, 0xf4, 0x00, 0x00, 0x00, 0xc0, 0x00, 0x00, 0x00, 0x78, 0x00, 0x00, 0x00, 0x40, 0x00, 0x00, 0x00, 0x04, 0x00, 0x00, 0x00, 0x2a, 0xfe, 0xff, 0xff, 0x1c, 0x00, 0x00, 0x00, 0x00, 0x00, 0x00, 0x09, 0x1c, 0x00, 0x00, 0x00, 0x20, 0x00, 0x00, 0x00, 0x05, 0x00, 0x00, 0x00, 0x00, 0x00, 0x06, 0x00, 0x08, 0x00, 0x04, 0x00, 0x06, 0x00, 0x00, 0x00, 0x00, 0x00, 0x80, 0x3f, 0x01, 0x00, 0x00, 0x00, 0x15, 0x00, 0x00, 0x00, 0x01, 0x00, 0x00, 0x00, 0x14, 0x00, 0x00, 0x00, 0x62, 0xfe, 0xff, 0xff, 0x14, 0x00, 0x00, 0x00, 0x00, 0x00, 0x00, 0x08, 0x10, 0x00, 0x00, 0x00, 0x14, 0x00, 0x00, 0x00, 0x04, 0x00, 0x00, 0x00, 0x94, 0xf3, 0xff, 0xff, 0x01, 0x00, 0x00, 0x00, 0x14, 0x00, 0x00, 0x00, 0x03, 0x00, 0x00, 0x00, 0x13, 0x00, 0x00, 0x00, 0x05, 0x00, 0x00, 0x00, 0x03, 0x00, 0x00, 0x00, 0x96, 0xfe, 0xff, 0xff, 0x20, 0x00, 0x00, 0x00, 0x00, 0x00, 0x00, 0x08, 0x20, 0x00, 0x00, 0x00, 0x24, 0x00, 0x00, 0x00, 0x04, 0x00, 0x00, 0x00, 0x0c, 0x00, 0x08, 0x00, 0x07, 0x00, 0x00, 0x00, 0x00, 0x00, 0x06, 0x00, 0x0c, 0x00, 0x00, 0x00, 0x00, 0x00, 0x01, 0x01, 0x01, 0x00, 0x00, 0x00, 0x13, 0x00, 0x00, 0x00, 0x03, 0x00, 0x00, 0x00, 0x12, 0x00, 0x00, 0x00, 0x0b, 0x00, 0x00, 0x00, 0x02, 0x00, 0x00, 0x00, 0xda, 0xfe, 0xff, 0xff, 0x14, 0x00, 0x00, 0x00, 0x00, 0x00, 0x00, 0x1b, 0x10, 0x00, 0x00, 0x00, 0x14, 0x00, 0x00, 0x00, 0x03, 0x00, 0x00, 0x00, 0x0c, 0xf4, 0xff, 0xff, 0x01, 0x00, 0x00, 0x00, 0x12, 0x00, 0x00, 0x00, 0x02, 0x00, 0x00, 0x00, 0x11, 0x00, 0x00, 0x00, 0x04, 0x00, 0x00, 0x00, 0xaa, 0xfe, 0xff, 0xff, 0x08, 0x00, 0x00, 0x00, 0x0c, 0x00, 0x00, 0x00, 0x01, 0x00, 0x00, 0x00, 0x11, 0x00, 0x00, 0x00, 0x02, 0x00, 0x00, 0x00, 0x10, 0x00, 0x00, 0x00, 0x09, 0x00, 0x00, 0x00, 0x2a, 0xff, 0xff, 0xff, 0x14, 0x00, 0x00, 0x00, 0x00, 0x00, 0x00, 0x05, 0x24, 0x00, 0x00, 0x00, 0x28, 0x00, 0x00, 0x00, 0x02, 0x00, 0x00, 0x00, 0x7a, 0xff, 0xff, 0xff, 0x01, 0x00, 0x00, 0x00, 0x02, 0x00, 0x00, 0x00, 0x01, 0x00, 0x00, 0x00, 0x02, 0x00, 0x00, 0x00, 0x00, 0x00, 0x00, 0x01, 0x01, 0x00, 0x00, 0x00, 0x10, 0x00, 0x00, 0x00, 0x01, 0x00, 0x00, 0x00, 0x0f, 0x00, 0x00, 0x00, 0x6a, 0xff, 0xff, 0xff, 0x14, 0x00, 0x00, 0x00, 0x00, 0x00, 0x00, 0x01, 0x20, 0x00, 0x00, 0x00, 0x24, 0x00, 0x00, 0x00, 0x01, 0x00, 0x00, 0x00, 0x5c, 0xff, 0xff, 0xff, 0x00, 0x00, 0x00, 0x01, 0x01, 0x00, 0x00, 0x00, 0x01, 0x00, 0x00, 0x00, 0x00, 0x00, 0x00, 0x01, 0x01, 0x00, 0x00, 0x00, 0x0f, 0x00, 0x00, 0x00, 0x03, 0x00, 0x00, 0x00, 0x0e, 0x00, 0x00, 0x00, 0x0a, 0x00, 0x00, 0x00, 0x07, 0x00, 0x00, 0x00, 0xae, 0xff, 0xff, 0xff, 0x24, 0x00, 0x00, 0x00, 0x00, 0x00, 0x00, 0x05, 0x34, 0x00, 0x00, 0x00, 0x38, 0x00, 0x00, 0x00, 0x02, 0x00, 0x00, 0x00, 0x00, 0x00, 0x0e, 0x00, 0x18, 0x00, 0x17, 0x00, 0x10, 0x00, 0x0c, 0x00, 0x08, 0x00, 0x04, 0x00, 0x0e, 0x00, 0x00, 0x00, 0x01, 0x00, 0x00, 0x00, 0x02, 0x00, 0x00, 0x00, 0x01, 0x00, 0x00, 0x00, 0x02, 0x00, 0x00, 0x00, 0x00, 0x00, 0x00, 0x01, 0x01, 0x00, 0x00, 0x00, 0x0e, 0x00, 0x00, 0x00, 0x01, 0x00, 0x00, 0x00, 0x0d, 0x00, 0x00, 0x00, 0x00, 0x00, 0x0e, 0x00, 0x18, 0x00, 0x14, 0x00, 0x10, 0x00, 0x0c, 0x00, 0x0b, 0x00, 0x04, 0x00, 0x0e, 0x00, 0x00, 0x00, 0x20, 0x00, 0x00, 0x00, 0x00, 0x00, 0x00, 0x01, 0x2c, 0x00, 0x00, 0x00, 0x30, 0x00, 0x00, 0x00, 0x01, 0x00, 0x00, 0x00, 0x0c, 0x00, 0x14, 0x00, 0x13, 0x00, 0x0c, 0x00, 0x08, 0x00, 0x07, 0x00, 0x0c, 0x00, 0x00, 0x00, 0x00, 0x00, 0x00, 0x01, 0x01, 0x00, 0x00, 0x00, 0x01, 0x00, 0x00, 0x00, 0x00, 0x00, 0x00, 0x01, 0x01, 0x00, 0x00, 0x00, 0x0d, 0x00, 0x00, 0x00, 0x03, 0x00, 0x00, 0x00, 0x0c, 0x00, 0x00, 0x00, 0x06, 0x00, 0x00, 0x00, 0x08, 0x00, 0x00, 0x00, 0x00, 0x00, 0x0a, 0x00, 0x0c, 0x00, 0x00, 0x00, 0x08, 0x00, 0x04, 0x00, 0x0a, 0x00, 0x00, 0x00, 0x08, 0x00, 0x00, 0x00, 0x0c, 0x00, 0x00, 0x00, 0x01, 0x00, 0x00, 0x00, 0x0c, 0x00, 0x00, 0x00, 0x02, 0x00, 0x00, 0x00, 0x00, 0x00, 0x00, 0x00, 0x01, 0x00, 0x00, 0x00, 0x01, 0x00, 0x00, 0x00, 0x15, 0x00, 0x00, 0x00, 0x01, 0x00, 0x00, 0x00, 0x00, 0x00, 0x00, 0x00, 0x16, 0x00, 0x00, 0x00, 0x30, 0x0a, 0x00, 0x00, 0xd8, 0x09, 0x00, 0x00, 0x84, 0x09, 0x00, 0x00, 0x48, 0x09, 0x00, 0x00, 0x0c, 0x09, 0x00, 0x00, 0xcc, 0x08, 0x00, 0x00, 0x84, 0x08, 0x00, 0x00, 0x48, 0x08, 0x00, 0x00, 0x0c, 0x08, 0x00, 0x00, 0xcc, 0x07, 0x00, 0x00, 0xdc, 0x05, 0x00, 0x00, 0x74, 0x05, 0x00, 0x00, 0x04, 0x05, 0x00, 0x00, 0x00, 0x04, 0x00, 0x00, 0x98, 0x03, 0x00, 0x00, 0x94, 0x02, 0x00, 0x00, 0x2c, 0x02, 0x00, 0x00, 0xc0, 0x01, 0x00, 0x00, 0x58, 0x01, 0x00, 0x00, 0xbc, 0x00, 0x00, 0x00, 0x40, 0x00, 0x00, 0x00, 0x04, 0x00, 0x00, 0x00, 0x3e, 0xf6, 0xff, 0xff, 0x00, 0x00, 0x00, 0x01, 0x10, 0x00, 0x00, 0x00, 0x10, 0x00, 0x00, 0x00, 0x16, 0x00, 0x00, 0x00, 0x18, 0x00, 0x00, 0x00, 0x28, 0xf6, 0xff, 0xff, 0x08, 0x00, 0x00, 0x00, 0x49, 0x64, 0x65, 0x6e, 0x74, 0x69, 0x74, 0x79, 0x00, 0x00, 0x00, 0x00, 0x02, 0x00, 0x00, 0x00, 0x01, 0x00, 0x00, 0x00, 0x0b, 0x00, 0x00, 0x00, 0x76, 0xf6, 0xff, 0xff, 0x00, 0x00, 0x00, 0x01, 0x10, 0x00, 0x00, 0x00, 0x10, 0x00, 0x00, 0x00, 0x15, 0x00, 0x00, 0x00, 0x58, 0x00, 0x00, 0x00, 0x60, 0xf6, 0xff, 0xff, 0x48, 0x00, 0x00, 0x00, 0x73, 0x65, 0x71, 0x75, 0x65, 0x6e, 0x74, 0x69, 0x61, 0x6c, 0x5f, 0x32, 0x30, 0x30, 0x5f, 0x31, 0x2f, 0x64, 0x65, 0x6e, 0x73, 0x65, 0x5f, 0x34, 0x30, 0x31, 0x5f, 0x31, 0x2f, 0x4d, 0x61, 0x74, 0x4d, 0x75, 0x6c, 0x3b, 0x73, 0x65, 0x71, 0x75, 0x65, 0x6e, 0x74, 0x69, 0x61, 0x6c, 0x5f, 0x32, 0x30, 0x30, 0x5f, 0x31, 0x2f, 0x64, 0x65, 0x6e, 0x73, 0x65, 0x5f, 0x34, 0x30, 0x31, 0x5f, 0x31, 0x2f, 0x42, 0x69, 0x61, 0x73, 0x41, 0x64, 0x64, 0x00, 0x00, 0x00, 0x00, 0x02, 0x00, 0x00, 0x00, 0x01, 0x00, 0x00, 0x00, 0x0b, 0x00, 0x00, 0x00, 0xee, 0xf6, 0xff, 0xff, 0x00, 0x00, 0x00, 0x01, 0x10, 0x00, 0x00, 0x00, 0x10, 0x00, 0x00, 0x00, 0x14, 0x00, 0x00, 0x00, 0x78, 0x00, 0x00, 0x00, 0xd8, 0xf6, 0xff, 0xff, 0x6a, 0x00, 0x00, 0x00, 0x73, 0x65, 0x71, 0x75, 0x65, 0x6e, 0x74, 0x69, 0x61, 0x6c, 0x5f, 0x32, 0x30, 0x30, 0x5f, 0x31, 0x2f, 0x64, 0x65, 0x6e, 0x73, 0x65, 0x5f, 0x34, 0x30, 0x30, 0x5f, 0x31, 0x2f, 0x4d, 0x61, 0x74, 0x4d, 0x75, 0x6c, 0x3b, 0x73, 0x65, 0x71, 0x75, 0x65, 0x6e, 0x74, 0x69, 0x61, 0x6c, 0x5f, 0x32, 0x30, 0x30, 0x5f, 0x31, 0x2f, 0x64, 0x65, 0x6e, 0x73, 0x65, 0x5f, 0x34, 0x30, 0x30, 0x5f, 0x31, 0x2f, 0x52, 0x65, 0x6c, 0x75, 0x3b, 0x73, 0x65, 0x71, 0x75, 0x65, 0x6e, 0x74, 0x69, 0x61, 0x6c, 0x5f, 0x32, 0x30, 0x30, 0x5f, 0x31, 0x2f, 0x64, 0x65, 0x6e, 0x73, 0x65, 0x5f, 0x34, 0x30, 0x30, 0x5f, 0x31, 0x2f, 0x42, 0x69, 0x61, 0x73, 0x41, 0x64, 0x64, 0x00, 0x00, 0x02, 0x00, 0x00, 0x00, 0x01, 0x00, 0x00, 0x00, 0x20, 0x00, 0x00, 0x00, 0x86, 0xf7, 0xff, 0xff, 0x00, 0x00, 0x00, 0x01, 0x10, 0x00, 0x00, 0x00, 0x10, 0x00, 0x00, 0x00, 0x13, 0x00, 0x00, 0x00, 0x44, 0x00, 0x00, 0x00, 0x70, 0xf7, 0xff, 0xff, 0x34, 0x00, 0x00, 0x00, 0x73, 0x65, 0x71, 0x75, 0x65, 0x6e, 0x74, 0x69, 0x61, 0x6c, 0x5f, 0x32, 0x30, 0x30, 0x5f, 0x31, 0x2f, 0x67, 0x6c, 0x6f, 0x62, 0x61, 0x6c, 0x5f, 0x61, 0x76, 0x65, 0x72, 0x61, 0x67, 0x65, 0x5f, 0x70, 0x6f, 0x6f, 0x6c, 0x69, 0x6e, 0x67, 0x31, 0x64, 0x5f, 0x32, 0x30, 0x30, 0x5f, 0x31, 0x2f, 0x4d, 0x65, 0x61, 0x6e, 0x00, 0x00, 0x00, 0x00, 0x02, 0x00, 0x00, 0x00, 0x01, 0x00, 0x00, 0x00, 0x20, 0x00, 0x00, 0x00, 0xea, 0xf7, 0xff, 0xff, 0x00, 0x00, 0x00, 0x01, 0x10, 0x00, 0x00, 0x00, 0x10, 0x00, 0x00, 0x00, 0x12, 0x00, 0x00, 0x00, 0x44, 0x00, 0x00, 0x00, 0xd4, 0xf7, 0xff, 0xff, 0x36, 0x00, 0x00, 0x00, 0x73, 0x65, 0x71, 0x75, 0x65, 0x6e, 0x74, 0x69, 0x61, 0x6c, 0x5f, 0x32, 0x30, 0x30, 0x5f, 0x31, 0x2f, 0x6d, 0x61, 0x78, 0x5f, 0x70, 0x6f, 0x6f, 0x6c, 0x69, 0x6e, 0x67, 0x31, 0x64, 0x5f, 0x34, 0x30, 0x31, 0x5f, 0x31, 0x2f, 0x4d, 0x61, 0x78, 0x50, 0x6f, 0x6f, 0x6c, 0x31, 0x64, 0x2f, 0x53, 0x71, 0x75, 0x65, 0x65, 0x7a, 0x65, 0x00, 0x00, 0x03, 0x00, 0x00, 0x00, 0x01, 0x00, 0x00, 0x00, 0x17, 0x00, 0x00, 0x00, 0x20, 0x00, 0x00, 0x00, 0x52, 0xf8, 0xff, 0xff, 0x00, 0x00, 0x00, 0x01, 0x10, 0x00, 0x00, 0x00, 0x10, 0x00, 0x00, 0x00, 0x11, 0x00, 0x00, 0x00, 0x3c, 0x00, 0x00, 0x00, 0x3c, 0xf8, 0xff, 0xff, 0x2e, 0x00, 0x00, 0x00, 0x73, 0x65, 0x71, 0x75, 0x65, 0x6e, 0x74, 0x69, 0x61, 0x6c, 0x5f, 0x32, 0x30, 0x30, 0x5f, 0x31, 0x2f, 0x6d, 0x61, 0x78, 0x5f, 0x70, 0x6f, 0x6f, 0x6c, 0x69, 0x6e, 0x67, 0x31, 0x64, 0x5f, 0x34, 0x30, 0x31, 0x5f, 0x31, 0x2f, 0x4d, 0x61, 0x78, 0x50, 0x6f, 0x6f, 0x6c, 0x31, 0x64, 0x00, 0x00, 0x04, 0x00, 0x00, 0x00, 0x01, 0x00, 0x00, 0x00, 0x01, 0x00, 0x00, 0x00, 0x17, 0x00, 0x00, 0x00, 0x20, 0x00, 0x00, 0x00, 0xb6, 0xf8, 0xff, 0xff, 0x00, 0x00, 0x00, 0x01, 0x10, 0x00, 0x00, 0x00, 0x10, 0x00, 0x00, 0x00, 0x10, 0x00, 0x00, 0x00, 0xd8, 0x00, 0x00, 0x00, 0xa0, 0xf8, 0xff, 0xff, 0xca, 0x00, 0x00, 0x00, 0x73, 0x65, 0x71, 0x75, 0x65, 0x6e, 0x74, 0x69, 0x61, 0x6c, 0x5f, 0x32, 0x30, 0x30, 0x5f, 0x31, 0x2f, 0x63, 0x6f, 0x6e, 0x76, 0x31, 0x64, 0x5f, 0x34, 0x30, 0x31, 0x5f, 0x31, 0x2f, 0x52, 0x65, 0x6c, 0x75, 0x3b, 0x73, 0x65, 0x71, 0x75, 0x65, 0x6e, 0x74, 0x69, 0x61, 0x6c, 0x5f, 0x32, 0x30, 0x30, 0x5f, 0x31, 0x2f, 0x63, 0x6f, 0x6e, 0x76, 0x31, 0x64, 0x5f, 0x34, 0x30, 0x31, 0x5f, 0x31, 0x2f, 0x42, 0x69, 0x61, 0x73, 0x41, 0x64, 0x64, 0x3b, 0x73, 0x65, 0x71, 0x75, 0x65, 0x6e, 0x74, 0x69, 0x61, 0x6c, 0x5f, 0x32, 0x30, 0x30, 0x5f, 0x31, 0x2f, 0x63, 0x6f, 0x6e, 0x76, 0x31, 0x64, 0x5f, 0x34, 0x30, 0x31, 0x5f, 0x31, 0x2f, 0x63, 0x6f, 0x6e, 0x76, 0x6f, 0x6c, 0x75, 0x74, 0x69, 0x6f, 0x6e, 0x2f, 0x53, 0x71, 0x75, 0x65, 0x65, 0x7a, 0x65, 0x3b, 0x73, 0x65, 0x71, 0x75, 0x65, 0x6e, 0x74, 0x69, 0x61, 0x6c, 0x5f, 0x32, 0x30, 0x30, 0x5f, 0x31, 0x2f, 0x63, 0x6f, 0x6e, 0x76, 0x31, 0x64, 0x5f, 0x34, 0x30, 0x31, 0x5f, 0x31, 0x2f, 0x53, 0x71, 0x75, 0x65, 0x65, 0x7a, 0x65, 0x3b, 0x73, 0x65, 0x71, 0x75, 0x65, 0x6e, 0x74, 0x69, 0x61, 0x6c, 0x5f, 0x32, 0x30, 0x30, 0x5f, 0x31, 0x2f, 0x63, 0x6f, 0x6e, 0x76, 0x31, 0x64, 0x5f, 0x34, 0x30, 0x31, 0x5f, 0x31, 0x2f, 0x63, 0x6f, 0x6e, 0x76, 0x6f, 0x6c, 0x75, 0x74, 0x69, 0x6f, 0x6e, 0x00, 0x00, 0x04, 0x00, 0x00, 0x00, 0x01, 0x00, 0x00, 0x00, 0x01, 0x00, 0x00, 0x00, 0x2f, 0x00, 0x00, 0x00, 0x20, 0x00, 0x00, 0x00, 0xb6, 0xf9, 0xff, 0xff, 0x00, 0x00, 0x00, 0x01, 0x10, 0x00, 0x00, 0x00, 0x10, 0x00, 0x00, 0x00, 0x0f, 0x00, 0x00, 0x00, 0x3c, 0x00, 0x00, 0x00, 0xa0, 0xf9, 0xff, 0xff, 0x2e, 0x00, 0x00, 0x00, 0x73, 0x65, 0x71, 0x75, 0x65, 0x6e, 0x74, 0x69, 0x61, 0x6c, 0x5f, 0x32, 0x30, 0x30, 0x5f, 0x31, 0x2f, 0x6d, 0x61, 0x78, 0x5f, 0x70, 0x6f, 0x6f, 0x6c, 0x69, 0x6e, 0x67, 0x31, 0x64, 0x5f, 0x34, 0x30, 0x30, 0x5f, 0x31, 0x2f, 0x4d, 0x61, 0x78, 0x50, 0x6f, 0x6f, 0x6c, 0x31, 0x64, 0x00, 0x00, 0x04, 0x00, 0x00, 0x00, 0x01, 0x00, 0x00, 0x00, 0x01, 0x00, 0x00, 0x00, 0x31, 0x00, 0x00, 0x00, 0x10, 0x00, 0x00, 0x00, 0x1a, 0xfa, 0xff, 0xff, 0x00, 0x00, 0x00, 0x01, 0x10, 0x00, 0x00, 0x00, 0x10, 0x00, 0x00, 0x00, 0x0e, 0x00, 0x00, 0x00, 0xd8, 0x00, 0x00, 0x00, 0x04, 0xfa, 0xff, 0xff, 0xca, 0x00, 0x00, 0x00, 0x73, 0x65, 0x71, 0x75, 0x65, 0x6e, 0x74, 0x69, 0x61, 0x6c, 0x5f, 0x32, 0x30, 0x30, 0x5f, 0x31, 0x2f, 0x63, 0x6f, 0x6e, 0x76, 0x31, 0x64, 0x5f, 0x34, 0x30, 0x30, 0x5f, 0x31, 0x2f, 0x52, 0x65, 0x6c, 0x75, 0x3b, 0x73, 0x65, 0x71, 0x75, 0x65, 0x6e, 0x74, 0x69, 0x61, 0x6c, 0x5f, 0x32, 0x30, 0x30, 0x5f, 0x31, 0x2f, 0x63, 0x6f, 0x6e, 0x76, 0x31, 0x64, 0x5f, 0x34, 0x30, 0x30, 0x5f, 0x31, 0x2f, 0x42, 0x69, 0x61, 0x73, 0x41, 0x64, 0x64, 0x3b, 0x73, 0x65, 0x71, 0x75, 0x65, 0x6e, 0x74, 0x69, 0x61, 0x6c, 0x5f, 0x32, 0x30, 0x30, 0x5f, 0x31, 0x2f, 0x63, 0x6f, 0x6e, 0x76, 0x31, 0x64, 0x5f, 0x34, 0x30, 0x30, 0x5f, 0x31, 0x2f, 0x63, 0x6f, 0x6e, 0x76, 0x6f, 0x6c, 0x75, 0x74, 0x69, 0x6f, 0x6e, 0x2f, 0x53, 0x71, 0x75, 0x65, 0x65, 0x7a, 0x65, 0x3b, 0x73, 0x65, 0x71, 0x75, 0x65, 0x6e, 0x74, 0x69, 0x61, 0x6c, 0x5f, 0x32, 0x30, 0x30, 0x5f, 0x31, 0x2f, 0x63, 0x6f, 0x6e, 0x76, 0x31, 0x64, 0x5f, 0x34, 0x30, 0x30, 0x5f, 0x31, 0x2f, 0x53, 0x71, 0x75, 0x65, 0x65, 0x7a, 0x65, 0x3b, 0x73, 0x65, 0x71, 0x75, 0x65, 0x6e, 0x74, 0x69, 0x61, 0x6c, 0x5f, 0x32, 0x30, 0x30, 0x5f, 0x31, 0x2f, 0x63, 0x6f, 0x6e, 0x76, 0x31, 0x64, 0x5f, 0x34, 0x30, 0x30, 0x5f, 0x31, 0x2f, 0x63, 0x6f, 0x6e, 0x76, 0x6f, 0x6c, 0x75, 0x74, 0x69, 0x6f, 0x6e, 0x00, 0x00, 0x04, 0x00, 0x00, 0x00, 0x01, 0x00, 0x00, 0x00, 0x01, 0x00, 0x00, 0x00, 0x62, 0x00, 0x00, 0x00, 0x10, 0x00, 0x00, 0x00, 0x1a, 0xfb, 0xff, 0xff, 0x00, 0x00, 0x00, 0x01, 0x10, 0x00, 0x00, 0x00, 0x10, 0x00, 0x00, 0x00, 0x0d, 0x00, 0x00, 0x00, 0x44, 0x00, 0x00, 0x00, 0x04, 0xfb, 0xff, 0xff, 0x34, 0x00, 0x00, 0x00, 0x73, 0x65, 0x71, 0x75, 0x65, 0x6e, 0x74, 0x69, 0x61, 0x6c, 0x5f, 0x32, 0x30, 0x30, 0x5f, 0x31, 0x2f, 0x63, 0x6f, 0x6e, 0x76, 0x31, 0x64, 0x5f, 0x34, 0x30, 0x30, 0x5f, 0x31, 0x2f, 0x63, 0x6f, 0x6e, 0x76, 0x6f, 0x6c, 0x75, 0x74, 0x69, 0x6f, 0x6e, 0x2f, 0x45, 0x78, 0x70, 0x61, 0x6e, 0x64, 0x44, 0x69, 0x6d, 0x73, 0x00, 0x00, 0x00, 0x00, 0x04, 0x00, 0x00, 0x00, 0x01, 0x00, 0x00, 0x00, 0x01, 0x00, 0x00, 0x00, 0x64, 0x00, 0x00, 0x00, 0x05, 0x00, 0x00, 0x00, 0xda, 0xfb, 0xff, 0xff, 0x00, 0x00, 0x00, 0x01, 0x14, 0x00, 0x00, 0x00, 0x34, 0x00, 0x00, 0x00, 0x0c, 0x00, 0x00, 0x00, 0x00, 0x00, 0x00, 0x09, 0x40, 0x00, 0x00, 0x00, 0x9c, 0xff, 0xff, 0xff, 0x08, 0x00, 0x00, 0x00, 0x14, 0x00, 0x00, 0x00, 0x01, 0x00, 0x00, 0x00, 0x00, 0x00, 0x00, 0x00, 0x00, 0x00, 0x00, 0x00, 0x00, 0x00, 0x00, 0x00, 0x01, 0x00, 0x00, 0x00, 0xaf, 0x92, 0x83, 0x3b, 0x12, 0x00, 0x00, 0x00, 0x74, 0x66, 0x6c, 0x2e, 0x70, 0x73, 0x65, 0x75, 0x64, 0x6f, 0x5f, 0x71, 0x63, 0x6f, 0x6e, 0x73, 0x74, 0x31, 0x00, 0x00, 0x02, 0x00, 0x00, 0x00, 0x20, 0x00, 0x00, 0x00, 0x20, 0x00, 0x00, 0x00, 0x3e, 0xfc, 0xff, 0xff, 0x00, 0x00, 0x00, 0x01, 0x20, 0x00, 0x00, 0x00, 0xb4, 0x01, 0x00, 0x00, 0x0b, 0x00, 0x00, 0x00, 0x00, 0x00, 0x00, 0x09, 0xc0, 0x01, 0x00, 0x00, 0x0c, 0x00, 0x0c, 0x00, 0x00, 0x00, 0x00, 0x00, 0x08, 0x00, 0x04, 0x00, 0x0c, 0x00, 0x00, 0x00, 0x08, 0x00, 0x00, 0x00, 0x0c, 0x01, 0x00, 0x00, 0x20, 0x00, 0x00, 0x00, 0x00, 0x00, 0x00, 0x00, 0x00, 0x00, 0x00, 0x00, 0x00, 0x00, 0x00, 0x00, 0x00, 0x00, 0x00, 0x00, 0x00, 0x00, 0x00, 0x00, 0x00, 0x00, 0x00, 0x00, 0x00, 0x00, 0x00, 0x00, 0x00, 0x00, 0x00, 0x00, 0x00, 0x00, 0x00, 0x00, 0x00, 0x00, 0x00, 0x00, 0x00, 0x00, 0x00, 0x00, 0x00, 0x00, 0x00, 0x00, 0x00, 0x00, 0x00, 0x00, 0x00, 0x00, 0x00, 0x00, 0x00, 0x00, 0x00, 0x00, 0x00, 0x00, 0x00, 0x00, 0x00, 0x00, 0x00, 0x00, 0x00, 0x00, 0x00, 0x00, 0x00, 0x00, 0x00, 0x00, 0x00, 0x00, 0x00, 0x00, 0x00, 0x00, 0x00, 0x00, 0x00, 0x00, 0x00, 0x00, 0x00, 0x00, 0x00, 0x00, 0x00, 0x00, 0x00, 0x00, 0x00, 0x00, 0x00, 0x00, 0x00, 0x00, 0x00, 0x00, 0x00, 0x00, 0x00, 0x00, 0x00, 0x00, 0x00, 0x00, 0x00, 0x00, 0x00, 0x00, 0x00, 0x00, 0x00, 0x00, 0x00, 0x00, 0x00, 0x00, 0x00, 0x00, 0x00, 0x00, 0x00, 0x00, 0x00, 0x00, 0x00, 0x00, 0x00, 0x00, 0x00, 0x00, 0x00, 0x00, 0x00, 0x00, 0x00, 0x00, 0x00, 0x00, 0x00, 0x00, 0x00, 0x00, 0x00, 0x00, 0x00, 0x00, 0x00, 0x00, 0x00, 0x00, 0x00, 0x00, 0x00, 0x00, 0x00, 0x00, 0x00, 0x00, 0x00, 0x00, 0x00, 0x00, 0x00, 0x00, 0x00, 0x00, 0x00, 0x00, 0x00, 0x00, 0x00, 0x00, 0x00, 0x00, 0x00, 0x00, 0x00, 0x00, 0x00, 0x00, 0x00, 0x00, 0x00, 0x00, 0x00, 0x00, 0x00, 0x00, 0x00, 0x00, 0x00, 0x00, 0x00, 0x00, 0x00, 0x00, 0x00, 0x00, 0x00, 0x00, 0x00, 0x00, 0x00, 0x00, 0x00, 0x00, 0x00, 0x00, 0x00, 0x00, 0x00, 0x00, 0x00, 0x00, 0x00, 0x00, 0x00, 0x00, 0x00, 0x00, 0x00, 0x00, 0x00, 0x00, 0x00, 0x00, 0x00, 0x00, 0x00, 0x00, 0x00, 0x00, 0x00, 0x00, 0x00, 0x00, 0x00, 0x00, 0x00, 0x00, 0x00, 0x00, 0x00, 0x00, 0x00, 0x00, 0x00, 0x00, 0x00, 0x00, 0x00, 0x00, 0x20, 0x00, 0x00, 0x00, 0x01, 0x82, 0x13, 0x3b, 0x50, 0x21, 0x0d, 0x3b, 0x9f, 0xa6, 0x13, 0x3b, 0x63, 0xb7, 0x54, 0x3b, 0x8d, 0xc7, 0x2a, 0x3b, 0xce, 0xf3, 0x36, 0x3b, 0xcd, 0xab, 0x4b, 0x3b, 0xdd, 0x76, 0x05, 0x3b, 0x99, 0x35, 0x25, 0x3b, 0x8e, 0x1c, 0xff, 0x3a, 0x25, 0x39, 0x46, 0x3b, 0xb4, 0x68, 0x01, 0x3b, 0x27, 0xdb, 0x14, 0x3b, 0x2b, 0x87, 0x1c, 0x3b, 0x6f, 0xd1, 0x36, 0x3b, 0x68, 0xa3, 0x43, 0x3b, 0x36, 0x08, 0x16, 0x3b, 0xf1, 0x67, 0x24, 0x3b, 0xbe, 0xe9, 0x0b, 0x3b, 0x33, 0xbc, 0x0d, 0x3b, 0x81, 0x9d, 0x69, 0x3b, 0xad, 0x77, 0x21, 0x3b, 0x85, 0x44, 0x41, 0x3b, 0x04, 0x2b, 0xd3, 0x3a, 0xc2, 0x37, 0x0b, 0x3b, 0x44, 0x7b, 0x10, 0x3b, 0x60, 0x15, 0x24, 0x3b, 0x46, 0xd1, 0x3c, 0x3b, 0x9f, 0x07, 0x03, 0x3b, 0x27, 0x19, 0x2b, 0x3b, 0xb7, 0x50, 0xe4, 0x3a, 0xf0, 0x3d, 0x0a, 0x3b, 0x11, 0x00, 0x00, 0x00, 0x74, 0x66, 0x6c, 0x2e, 0x70, 0x73, 0x65, 0x75, 0x64, 0x6f, 0x5f, 0x71, 0x63, 0x6f, 0x6e, 0x73, 0x74, 0x00, 0x00, 0x00, 0x04, 0x00, 0x00, 0x00, 0x20, 0x00, 0x00, 0x00, 0x01, 0x00, 0x00, 0x00, 0x03, 0x00, 0x00, 0x00, 0x10, 0x00, 0x00, 0x00, 0x2a, 0xfe, 0xff, 0xff, 0x00, 0x00, 0x00, 0x01, 0x14, 0x00, 0x00, 0x00, 0x14, 0x00, 0x00, 0x00, 0x0a, 0x00, 0x00, 0x00, 0x00, 0x00, 0x00, 0x02, 0x1c, 0x00, 0x00, 0x00, 0xc4, 0xfd, 0xff, 0xff, 0x0f, 0x00, 0x00, 0x00, 0x61, 0x72, 0x69, 0x74, 0x68, 0x2e, 0x63, 0x6f, 0x6e, 0x73, 0x74, 0x61, 0x6e, 0x74, 0x38, 0x00, 0x01, 0x00, 0x00, 0x00, 0x03, 0x00, 0x00, 0x00, 0x12, 0xfe, 0xff, 0xff, 0x00, 0x00, 0x00, 0x01, 0x10, 0x00, 0x00, 0x00, 0x10, 0x00, 0x00, 0x00, 0x09, 0x00, 0x00, 0x00, 0x1c, 0x00, 0x00, 0x00, 0xfc, 0xfd, 0xff, 0xff, 0x0f, 0x00, 0x00, 0x00, 0x61, 0x72, 0x69, 0x74, 0x68, 0x2e, 0x63, 0x6f, 0x6e, 0x73, 0x74, 0x61, 0x6e, 0x74, 0x37, 0x00, 0x01, 0x00, 0x00, 0x00, 0x10, 0x00, 0x00, 0x00, 0x4a, 0xfe, 0xff, 0xff, 0x00, 0x00, 0x00, 0x01, 0x10, 0x00, 0x00, 0x00, 0x10, 0x00, 0x00, 0x00, 0x08, 0x00, 0x00, 0x00, 0x1c, 0x00, 0x00, 0x00, 0x34, 0xfe, 0xff, 0xff, 0x0f, 0x00, 0x00, 0x00, 0x61, 0x72, 0x69, 0x74, 0x68, 0x2e, 0x63, 0x6f, 0x6e, 0x73, 0x74, 0x61, 0x6e, 0x74, 0x36, 0x00, 0x01, 0x00, 0x00, 0x00, 0x20, 0x00, 0x00, 0x00, 0x82, 0xfe, 0xff, 0xff, 0x00, 0x00, 0x00, 0x01, 0x10, 0x00, 0x00, 0x00, 0x10, 0x00, 0x00, 0x00, 0x07, 0x00, 0x00, 0x00, 0x1c, 0x00, 0x00, 0x00, 0x6c, 0xfe, 0xff, 0xff, 0x0f, 0x00, 0x00, 0x00, 0x61, 0x72, 0x69, 0x74, 0x68, 0x2e, 0x63, 0x6f, 0x6e, 0x73, 0x74, 0x61, 0x6e, 0x74, 0x35, 0x00, 0x04, 0x00, 0x00, 0x00, 0x10, 0x00, 0x00, 0x00, 0x01, 0x00, 0x00, 0x00, 0x03, 0x00, 0x00, 0x00, 0x05, 0x00, 0x00, 0x00, 0xc6, 0xfe, 0xff, 0xff, 0x00, 0x00, 0x00, 0x01, 0x10, 0x00, 0x00, 0x00, 0x10, 0x00, 0x00, 0x00, 0x06, 0x00, 0x00, 0x00, 0x1c, 0x00, 0x00, 0x00, 0xb0, 0xfe, 0xff, 0xff, 0x0f, 0x00, 0x00, 0x00, 0x61, 0x72, 0x69, 0x74, 0x68, 0x2e, 0x63, 0x6f, 0x6e, 0x73, 0x74, 0x61, 0x6e, 0x74, 0x34, 0x00, 0x02, 0x00, 0x00, 0x00, 0x0b, 0x00, 0x00, 0x00, 0x20, 0x00, 0x00, 0x00, 0x56, 0xff, 0xff, 0xff, 0x00, 0x00, 0x00, 0x01, 0x14, 0x00, 0x00, 0x00, 0x14, 0x00, 0x00, 0x00, 0x05, 0x00, 0x00, 0x00, 0x00, 0x00, 0x00, 0x02, 0x1c, 0x00, 0x00, 0x00, 0xf0, 0xfe, 0xff, 0xff, 0x0f, 0x00, 0x00, 0x00, 0x61, 0x72, 0x69, 0x74, 0x68, 0x2e, 0x63, 0x6f, 0x6e, 0x73, 0x74, 0x61, 0x6e, 0x74, 0x33, 0x00, 0x00, 0x00, 0x00, 0x00, 0x3a, 0xff, 0xff, 0xff, 0x00, 0x00, 0x00, 0x01, 0x10, 0x00, 0x00, 0x00, 0x10, 0x00, 0x00, 0x00, 0x04, 0x00, 0x00, 0x00, 0x1c, 0x00, 0x00, 0x00, 0x24, 0xff, 0xff, 0xff, 0x0f, 0x00, 0x00, 0x00, 0x61, 0x72, 0x69, 0x74, 0x68, 0x2e, 0x63, 0x6f, 0x6e, 0x73, 0x74, 0x61, 0x6e, 0x74, 0x32, 0x00, 0x01, 0x00, 0x00, 0x00, 0x0b, 0x00, 0x00, 0x00, 0x72, 0xff, 0xff, 0xff, 0x00, 0x00, 0x00, 0x01, 0x10, 0x00, 0x00, 0x00, 0x10, 0x00, 0x00, 0x00, 0x03, 0x00, 0x00, 0x00, 0x1c, 0x00, 0x00, 0x00, 0x5c, 0xff, 0xff, 0xff, 0x0f, 0x00, 0x00, 0x00, 0x61, 0x72, 0x69, 0x74, 0x68, 0x2e, 0x63, 0x6f, 0x6e, 0x73, 0x74, 0x61, 0x6e, 0x74, 0x31, 0x00, 0x01, 0x00, 0x00, 0x00, 0x20, 0x00, 0x00, 0x00, 0x00, 0x00, 0x16, 0x00, 0x1c, 0x00, 0x18, 0x00, 0x17, 0x00, 0x10, 0x00, 0x0c, 0x00, 0x08, 0x00, 0x00, 0x00, 0x00, 0x00, 0x00, 0x00, 0x07, 0x00, 0x16, 0x00, 0x00, 0x00, 0x00, 0x00, 0x00, 0x01, 0x14, 0x00, 0x00, 0x00, 0x14, 0x00, 0x00, 0x00, 0x02, 0x00, 0x00, 0x00, 0x00, 0x00, 0x00, 0x02, 0x1c, 0x00, 0x00, 0x00, 0xb0, 0xff, 0xff, 0xff, 0x0e, 0x00, 0x00, 0x00, 0x61, 0x72, 0x69, 0x74, 0x68, 0x2e, 0x63, 0x6f, 0x6e, 0x73, 0x74, 0x61, 0x6e, 0x74, 0x00, 0x00, 0x01, 0x00, 0x00, 0x00, 0x04, 0x00, 0x00, 0x00, 0x00, 0x00, 0x16, 0x00, 0x18, 0x00, 0x14, 0x00, 0x00, 0x00, 0x10, 0x00, 0x0c, 0x00, 0x08, 0x00, 0x00, 0x00, 0x00, 0x00, 0x00, 0x00, 0x07, 0x00, 0x16, 0x00, 0x00, 0x00, 0x00, 0x00, 0x00, 0x01, 0x14, 0x00, 0x00, 0x00, 0x14, 0x00, 0x00, 0x00, 0x01, 0x00, 0x00, 0x00, 0x14, 0x00, 0x00, 0x00, 0x04, 0x00, 0x04, 0x00, 0x04, 0x00, 0x00, 0x00, 0x01, 0x00, 0x00, 0x00, 0x78, 0x00, 0x00, 0x00, 0x03, 0x00, 0x00, 0x00, 0x01, 0x00, 0x00, 0x00, 0x64, 0x00, 0x00, 0x00, 0x05, 0x00, 0x00, 0x00, 0x06, 0x00, 0x00, 0x00, 0x74, 0x00, 0x00, 0x00, 0x54, 0x00, 0x00, 0x00, 0x38, 0x00, 0x00, 0x00, 0x28, 0x00, 0x00, 0x00, 0x14, 0x00, 0x00, 0x00, 0x04, 0x00, 0x00, 0x00, 0xb0, 0xff, 0xff, 0xff, 0x19, 0x00, 0x00, 0x00, 0x00, 0x00, 0x00, 0x19, 0xd8, 0xff, 0xff, 0xff, 0x09, 0x00, 0x00, 0x00, 0x09, 0x00, 0x00, 0x00, 0x00, 0x00, 0x00, 0x09, 0xcc, 0xff, 0xff, 0xff, 0x28, 0x00, 0x00, 0x00, 0x00, 0x00, 0x00, 0x28, 0xd8, 0xff, 0xff, 0xff, 0x11, 0x00, 0x00, 0x00, 0x00, 0x00, 0x00, 0x11, 0x0c, 0x00, 0x10, 0x00, 0x0f, 0x00, 0x00, 0x00, 0x08, 0x00, 0x04, 0x00, 0x0c, 0x00, 0x00, 0x00, 0x03, 0x00, 0x00, 0x00, 0x05, 0x00, 0x00, 0x00, 0x00, 0x00, 0x00, 0x03, 0x0c, 0x00, 0x0c, 0x00, 0x0b, 0x00, 0x00, 0x00, 0x00, 0x00, 0x04, 0x00, 0x0c, 0x00, 0x00, 0x00, 0x16, 0x00, 0x00, 0x00, 0x00, 0x00, 0x00, 0x16
};
const unsigned int model_data_len = 9440;

#endif // BSL_MODEL_H_20250717_225642
