/*
 * BSL Gesture Recognition Model
 *
 * Model Type: 1D_CNN_Arduino
 * Timestamp:  20250717_222437
 * Model Size: 9408 bytes
 * Status:     有效的TFLite模型
 * 
 * 归一化参数来自训练数据的StandardScaler
 */

#ifndef BSL_MODEL_H_20250717_222437
#define BSL_MODEL_H_20250717_222437

// 模型配置
const int BSL_MODEL_FEATURES = 5;
const int BSL_MODEL_CLASSES = 11;
const bool BSL_MODEL_VALID = true;

// 归一化参数 (StandardScaler)
const float scaler_mean[BSL_MODEL_FEATURES] = { 236.43887165f, 152.37936569f, 328.61752741f, 316.69635454f, 101.83935373f };
const float scaler_scale[BSL_MODEL_FEATURES] = { 177.03868095f, 153.40072310f, 204.37148658f, 203.09171501f, 121.78085463f };

// 归一化函数
inline void normalize_features(float* features, int length) {
    for (int i = 0; i < length && i < BSL_MODEL_FEATURES; i++) {
        features[i] = (features[i] - scaler_mean[i]) / scaler_scale[i];
    }
}

// TFLite模型数据
alignas(16) const unsigned char model_data[] = {
    0x1c, 0x00, 0x00, 0x00, 0x54, 0x46, 0x4c, 0x33, 0x14, 0x00, 0x20, 0x00, 0x1c, 0x00, 0x18, 0x00, 0x14, 0x00, 0x10, 0x00, 0x0c, 0x00, 0x00, 0x00, 0x08, 0x00, 0x04, 0x00, 0x14, 0x00, 0x00, 0x00, 0x1c, 0x00, 0x00, 0x00, 0x1c, 0x00, 0x00, 0x00, 0x74, 0x00, 0x00, 0x00, 0xd8, 0x16, 0x00, 0x00, 0xe8, 0x16, 0x00, 0x00, 0x08, 0x24, 0x00, 0x00, 0x03, 0x00, 0x00, 0x00, 0x00, 0x00, 0x00, 0x00, 0x02, 0x00, 0x00, 0x00, 0x34, 0x00, 0x00, 0x00, 0x04, 0x00, 0x00, 0x00, 0xdc, 0xff, 0xff, 0xff, 0x18, 0x00, 0x00, 0x00, 0x04, 0x00, 0x00, 0x00, 0x13, 0x00, 0x00, 0x00, 0x43, 0x4f, 0x4e, 0x56, 0x45, 0x52, 0x53, 0x49, 0x4f, 0x4e, 0x5f, 0x4d, 0x45, 0x54, 0x41, 0x44, 0x41, 0x54, 0x41, 0x00, 0x08, 0x00, 0x0c, 0x00, 0x08, 0x00, 0x04, 0x00, 0x08, 0x00, 0x00, 0x00, 0x17, 0x00, 0x00, 0x00, 0x04, 0x00, 0x00, 0x00, 0x13, 0x00, 0x00, 0x00, 0x6d, 0x69, 0x6e, 0x5f, 0x72, 0x75, 0x6e, 0x74, 0x69, 0x6d, 0x65, 0x5f, 0x76, 0x65, 0x72, 0x73, 0x69, 0x6f, 0x6e, 0x00, 0x19, 0x00, 0x00, 0x00, 0x60, 0x16, 0x00, 0x00, 0x58, 0x16, 0x00, 0x00, 0x38, 0x16, 0x00, 0x00, 0xa8, 0x15, 0x00, 0x00, 0x6c, 0x15, 0x00, 0x00, 0x58, 0x15, 0x00, 0x00, 0xc8, 0x0f, 0x00, 0x00, 0xf8, 0x0b, 0x00, 0x00, 0x68, 0x0b, 0x00, 0x00, 0x18, 0x0b, 0x00, 0x00, 0xfc, 0x0a, 0x00, 0x00, 0xec, 0x04, 0x00, 0x00, 0xdc, 0x00, 0x00, 0x00, 0xd4, 0x00, 0x00, 0x00, 0xcc, 0x00, 0x00, 0x00, 0xc4, 0x00, 0x00, 0x00, 0xbc, 0x00, 0x00, 0x00, 0xb4, 0x00, 0x00, 0x00, 0xac, 0x00, 0x00, 0x00, 0xa4, 0x00, 0x00, 0x00, 0x9c, 0x00, 0x00, 0x00, 0x94, 0x00, 0x00, 0x00, 0x8c, 0x00, 0x00, 0x00, 0x6c, 0x00, 0x00, 0x00, 0x04, 0x00, 0x00, 0x00, 0x6a, 0xe9, 0xff, 0xff, 0x04, 0x00, 0x00, 0x00, 0x58, 0x00, 0x00, 0x00, 0x0c, 0x00, 0x00, 0x00, 0x08, 0x00, 0x0e, 0x00, 0x08, 0x00, 0x04, 0x00, 0x08, 0x00, 0x00, 0x00, 0x10, 0x00, 0x00, 0x00, 0x28, 0x00, 0x00, 0x00, 0x00, 0x00, 0x06, 0x00, 0x08, 0x00, 0x04, 0x00, 0x06, 0x00, 0x00, 0x00, 0x04, 0x00, 0x00, 0x00, 0x01, 0x00, 0x00, 0x00, 0xea, 0x03, 0x00, 0x00, 0x00, 0x00, 0x0a, 0x00, 0x10, 0x00, 0x0c, 0x00, 0x08, 0x00, 0x04, 0x00, 0x0a, 0x00, 0x00, 0x00, 0x03, 0x00, 0x00, 0x00, 0x02, 0x00, 0x00, 0x00, 0x04, 0x00, 0x00, 0x00, 0x06, 0x00, 0x00, 0x00, 0x32, 0x2e, 0x31, 0x36, 0x2e, 0x32, 0x00, 0x00, 0xce, 0xe9, 0xff, 0xff, 0x04, 0x00, 0x00, 0x00, 0x10, 0x00, 0x00, 0x00, 0x32, 0x2e, 0x34, 0x2e, 0x30, 0x00, 0x00, 0x00, 0x00, 0x00, 0x00, 0x00, 0x00, 0x00, 0x00, 0x00, 0x68, 0xdd, 0xff, 0xff, 0x6c, 0xdd, 0xff, 0xff, 0x70, 0xdd, 0xff, 0xff, 0x74, 0xdd, 0xff, 0xff, 0x78, 0xdd, 0xff, 0xff, 0x7c, 0xdd, 0xff, 0xff, 0x80, 0xdd, 0xff, 0xff, 0x84, 0xdd, 0xff, 0xff, 0x88, 0xdd, 0xff, 0xff, 0x8c, 0xdd, 0xff, 0xff, 0x12, 0xea, 0xff, 0xff, 0x04, 0x00, 0x00, 0x00, 0x00, 0x04, 0x00, 0x00, 0x44, 0xf7, 0xb2, 0x0f, 0x38, 0xd8, 0x60, 0x09, 0xb3, 0xcc, 0x1f, 0xc2, 0xe0, 0xe5, 0x15, 0x3d, 0xfa, 0x2f, 0xc6, 0xe9, 0x36, 0xf1, 0xc9, 0x24, 0xcc, 0xfb, 0x37, 0x28, 0x43, 0x30, 0xc3, 0x30, 0xdb, 0x4f, 0xed, 0x5b, 0x51, 0x42, 0xd8, 0xc3, 0x18, 0x10, 0xcc, 0x12, 0xad, 0x36, 0x91, 0x41, 0xdc, 0xbd, 0xf1, 0x4d, 0x2a, 0x85, 0x10, 0xd2, 0xe1, 0x33, 0x33, 0x07, 0x4b, 0xe8, 0x55, 0x68, 0x58, 0x2b, 0x3e, 0xaa, 0xe9, 0xb2, 0x00, 0x7e, 0xcf, 0x30, 0x3c, 0x14, 0x9f, 0x61, 0x03, 0x0b, 0xc8, 0x43, 0x93, 0x30, 0xb7, 0x00, 0xd4, 0xd8, 0xc3, 0xdb, 0xe3, 0xff, 0xf7, 0x01, 0x38, 0x5d, 0xf2, 0xd3, 0xe6, 0xd1, 0x3a, 0x40, 0x72, 0x7f, 0xe7, 0x29, 0xf3, 0xbf, 0xc9, 0x6e, 0x1d, 0xec, 0x46, 0x08, 0xf3, 0xb4, 0xde, 0x3f, 0xff, 0xdb, 0x41, 0xf3, 0x05, 0xbf, 0x2a, 0x29, 0xe9, 0xf6, 0xfe, 0xf7, 0x29, 0x1a, 0x03, 0xf3, 0x08, 0x37, 0x51, 0x1f, 0xfe, 0x0a, 0x86, 0x7b, 0x6c, 0x18, 0x58, 0xfc, 0x27, 0x3e, 0xd7, 0xa0, 0x1b, 0x2c, 0x31, 0xc4, 0xa9, 0xf1, 0x12, 0xda, 0x01, 0x4f, 0xf5, 0xfb, 0xf9, 0xd1, 0xe9, 0x29, 0xc6, 0x1f, 0xf0, 0xea, 0xd3, 0x4a, 0xff, 0x06, 0xe4, 0x2b, 0x0d, 0x0a, 0x1c, 0xcf, 0x12, 0x0e, 0xce, 0x23, 0xe3, 0xf2, 0x09, 0x32, 0x16, 0xca, 0xea, 0x12, 0xd3, 0xea, 0xe0, 0xee, 0xd3, 0x07, 0xf5, 0x32, 0xb8, 0xd5, 0x42, 0xc1, 0xf1, 0xef, 0x06, 0x19, 0xff, 0xd3, 0xed, 0x02, 0xe1, 0x48, 0x21, 0xff, 0x4a, 0xfe, 0x11, 0x1c, 0xf5, 0xdf, 0xe2, 0xf6, 0xd7, 0xd6, 0xfd, 0x4f, 0x0c, 0xa2, 0x54, 0x1a, 0x00, 0xf3, 0xec, 0xf0, 0x19, 0x58, 0x24, 0x9a, 0x06, 0xfc, 0xb1, 0xf6, 0x3d, 0xea, 0x13, 0x3c, 0x14, 0x27, 0x22, 0x53, 0xad, 0xdb, 0xf8, 0xfc, 0x2d, 0xc7, 0xe8, 0x2b, 0xda, 0x3c, 0xdf, 0x43, 0x16, 0xc4, 0x25, 0x0e, 0xcf, 0xba, 0xdb, 0xe9, 0xd9, 0x14, 0xf8, 0x27, 0xf4, 0x34, 0x14, 0xb7, 0x0b, 0x36, 0xc2, 0xd6, 0xcd, 0x05, 0x05, 0xcf, 0xc2, 0x1a, 0x38, 0xce, 0x18, 0x95, 0x04, 0xdf, 0x1b, 0xe9, 0x4c, 0x1e, 0x3a, 0xe3, 0x0f, 0xd1, 0xcc, 0x1b, 0xd2, 0x03, 0x5a, 0x41, 0xd8, 0x1d, 0x1f, 0x51, 0xe8, 0xce, 0xf4, 0x4b, 0x00, 0x39, 0xb8, 0x28, 0x66, 0xdd, 0xd6, 0xb4, 0x01, 0x13, 0xdb, 0x36, 0x31, 0x47, 0xf9, 0xee, 0x2d, 0xf5, 0xf6, 0x3e, 0xde, 0x22, 0x47, 0xaa, 0x2e, 0xf4, 0x32, 0x2e, 0xcf, 0x13, 0xd9, 0x6a, 0x49, 0xdb, 0xf7, 0x42, 0x03, 0x23, 0x15, 0xc6, 0xf1, 0x57, 0xfb, 0x4e, 0x51, 0xbc, 0x5f, 0xd6, 0x50, 0xb3, 0x08, 0x2c, 0x4d, 0x11, 0x45, 0x2c, 0x14, 0xc9, 0xff, 0x46, 0x03, 0x09, 0x40, 0x17, 0x3c, 0x14, 0xe0, 0xbb, 0xff, 0x3e, 0x12, 0xe0, 0x2b, 0xe9, 0x3c, 0xfb, 0xf3, 0xb9, 0x1d, 0xb2, 0x12, 0x19, 0x1f, 0x05, 0xdd, 0xd6, 0xb7, 0xfc, 0x3f, 0xad, 0xc3, 0xfe, 0x07, 0xb9, 0xfa, 0x43, 0x39, 0x25, 0x43, 0xaf, 0xb0, 0x0a, 0x0b, 0x41, 0x27, 0x0f, 0xf4, 0x31, 0x25, 0xd3, 0xa8, 0xcc, 0xc4, 0x0a, 0xc5, 0x06, 0xf6, 0xc1, 0x17, 0x18, 0x3a, 0x03, 0xad, 0xbe, 0x1e, 0x1a, 0x07, 0xd0, 0x3d, 0x1d, 0xca, 0x3d, 0x5c, 0xe8, 0x08, 0xde, 0x44, 0xea, 0xaa, 0xd8, 0x0f, 0x1b, 0x46, 0xac, 0xe0, 0x14, 0x38, 0xd3, 0x0d, 0xd7, 0x2a, 0x72, 0xff, 0x3d, 0x16, 0x39, 0x11, 0x2e, 0x4b, 0x28, 0x3b, 0xc7, 0xc2, 0xcb, 0xfa, 0xf1, 0x36, 0x31, 0xec, 0x27, 0xbf, 0xe0, 0xe3, 0x35, 0xc0, 0xf2, 0xbd, 0x18, 0xd0, 0xcb, 0xe7, 0xcc, 0x44, 0x07, 0xdf, 0x29, 0xe8, 0xb7, 0x38, 0x08, 0x19, 0xe3, 0xeb, 0x16, 0xd4, 0xf3, 0x06, 0xdb, 0x01, 0x16, 0xdb, 0xb9, 0xcd, 0x37, 0x21, 0x3e, 0xf3, 0xb6, 0x8f, 0x56, 0x33, 0x5f, 0xbe, 0xf4, 0xbe, 0xc7, 0xc6, 0x59, 0xef, 0x0b, 0x3d, 0x54, 0xd1, 0x5a, 0x37, 0x0c, 0x4e, 0x0e, 0x25, 0xb2, 0x6a, 0xfe, 0x50, 0xc5, 0xef, 0x34, 0x4a, 0xdf, 0x07, 0x43, 0x18, 0xeb, 0x42, 0xb7, 0x14, 0x2d, 0x10, 0xaa, 0xc3, 0xce, 0x3a, 0x01, 0x24, 0xeb, 0x4b, 0xfa, 0xcf, 0x38, 0x07, 0xda, 0x0c, 0x4f, 0x5c, 0x26, 0xbf, 0x99, 0xec, 0xb4, 0xe8, 0x0b, 0x15, 0xf1, 0xad, 0x4a, 0xdc, 0x01, 0xd2, 0x27, 0xd9, 0xb8, 0xdb, 0xf7, 0x53, 0x66, 0x5b, 0x64, 0xf4, 0x55, 0x15, 0x4e, 0x19, 0x3b, 0x17, 0x4d, 0x1b, 0x47, 0x50, 0xe7, 0xf7, 0x2f, 0x20, 0x11, 0xd0, 0x63, 0xc6, 0x2b, 0x17, 0x32, 0x40, 0xd7, 0xf4, 0xfc, 0x2e, 0xc7, 0x0b, 0xf6, 0xec, 0x5b, 0xa8, 0x04, 0x10, 0xff, 0x4e, 0x3b, 0xe1, 0xdd, 0xf3, 0xb6, 0x11, 0x70, 0xef, 0x43, 0x07, 0x11, 0xf5, 0x72, 0xd7, 0x34, 0xec, 0x2c, 0xc4, 0xc4, 0x1c, 0x3c, 0xf5, 0xe1, 0xed, 0xdf, 0xcc, 0x32, 0x05, 0xd3, 0x42, 0xcd, 0x58, 0x2f, 0xeb, 0xed, 0xd2, 0x22, 0xd8, 0x42, 0x97, 0x62, 0xf5, 0xd0, 0x4f, 0xfc, 0xd4, 0xcf, 0x52, 0xe7, 0x19, 0x05, 0x1b, 0xed, 0x05, 0xe6, 0x1d, 0xc1, 0x2f, 0xcb, 0xc1, 0x12, 0x32, 0x54, 0x1f, 0x41, 0x31, 0x04, 0xd7, 0x17, 0xe2, 0xb5, 0x2b, 0xdd, 0x52, 0x67, 0x10, 0xc1, 0x0b, 0xdd, 0xbb, 0x47, 0xe8, 0x06, 0x12, 0xc7, 0xa7, 0x54, 0x31, 0xf4, 0x29, 0x17, 0xfc, 0x51, 0x38, 0xef, 0x12, 0x39, 0xcc, 0xf6, 0x13, 0xd7, 0xe9, 0x37, 0x32, 0xe6, 0xdc, 0xe8, 0x16, 0xff, 0x33, 0x3f, 0xdc, 0xc5, 0xdc, 0xd7, 0x26, 0x3a, 0xef, 0xe6, 0xb5, 0xd9, 0xbc, 0xb8, 0xb2, 0x09, 0xb6, 0xae, 0x18, 0x22, 0xfd, 0x24, 0x05, 0xd9, 0xe8, 0xd7, 0x52, 0x5a, 0x08, 0x15, 0x26, 0x3e, 0x17, 0x61, 0x16, 0xf1, 0x1a, 0xe3, 0x3c, 0x72, 0x6f, 0xe4, 0xee, 0xe5, 0xb2, 0xfc, 0x0a, 0xf1, 0xdd, 0x40, 0xdc, 0xfc, 0xf9, 0x3e, 0xd9, 0xdf, 0xf9, 0x2c, 0xe5, 0x14, 0x16, 0xd3, 0x36, 0xf8, 0xc2, 0xe1, 0xca, 0xd9, 0xdc, 0x1d, 0xd3, 0x14, 0xee, 0xc9, 0xfa, 0xf6, 0x03, 0x0d, 0x22, 0xbe, 0xc2, 0xfa, 0xd8, 0x0c, 0x58, 0x1e, 0xcb, 0x29, 0xd3, 0xd4, 0xde, 0xf9, 0xba, 0xe2, 0x1e, 0x2c, 0xa5, 0xd0, 0x48, 0x0e, 0xea, 0x02, 0xdb, 0xe7, 0x1f, 0xcd, 0x28, 0x35, 0x3d, 0xd0, 0x06, 0x65, 0x3b, 0xfe, 0x2e, 0x43, 0x5e, 0x09, 0x09, 0x2e, 0xe6, 0x9d, 0xf1, 0x28, 0xb3, 0x4c, 0x44, 0x2e, 0x4b, 0xfa, 0x3d, 0x1e, 0xda, 0xb7, 0xfd, 0xdc, 0x52, 0xc9, 0xc3, 0xb1, 0x07, 0x02, 0xe1, 0xd0, 0x1f, 0xdc, 0x53, 0xca, 0xac, 0xf8, 0xf3, 0x46, 0x2d, 0x29, 0x41, 0x4a, 0xc4, 0xbf, 0x3d, 0x46, 0x1f, 0x1d, 0x1b, 0x30, 0xfb, 0x10, 0x20, 0x53, 0xac, 0xe9, 0xf7, 0xd4, 0x0f, 0x1b, 0xee, 0x09, 0x01, 0xfa, 0xe4, 0xdb, 0x0e, 0xf2, 0x19, 0x41, 0xb9, 0x07, 0x06, 0xd3, 0x10, 0xdf, 0x34, 0xc2, 0x45, 0x54, 0xed, 0x1e, 0x0d, 0x58, 0x49, 0xed, 0x1e, 0x33, 0x14, 0x27, 0x23, 0xf4, 0x28, 0xc1, 0x34, 0x39, 0x00, 0xee, 0x27, 0xc6, 0xde, 0xcd, 0x28, 0xf1, 0x3e, 0xfb, 0x07, 0x08, 0x35, 0xff, 0xe4, 0xe7, 0xf2, 0x23, 0xac, 0x02, 0xb0, 0x9b, 0x0a, 0x41, 0x07, 0x1c, 0xc1, 0xfa, 0x39, 0x5b, 0x55, 0xb1, 0xc8, 0xb6, 0x0c, 0xc7, 0x01, 0xc0, 0xc0, 0xf0, 0xf8, 0x30, 0xf4, 0x3f, 0x18, 0xe1, 0xca, 0xda, 0xd8, 0x02, 0x39, 0x2b, 0x48, 0x3a, 0x08, 0xed, 0xba, 0xcd, 0x27, 0xe6, 0xbc, 0x30, 0xcd, 0x2b, 0x1e, 0xee, 0xff, 0xff, 0x04, 0x00, 0x00, 0x00, 0x00, 0x06, 0x00, 0x00, 0xff, 0xe0, 0x08, 0xfe, 0xa3, 0x4c, 0xe1, 0x27, 0x2e, 0x8c, 0x17, 0xd1, 0x1d, 0xe4, 0xfd, 0x58, 0x34, 0xaf, 0x5e, 0x7e, 0x10, 0xc5, 0x05, 0xe8, 0x47, 0xc1, 0xf9, 0x4a, 0x16, 0xff, 0x52, 0xf5, 0x1b, 0x8d, 0xf8, 0x51, 0xf1, 0xbe, 0xf3, 0x59, 0x5f, 0xcf, 0x5f, 0xd3, 0x2f, 0x81, 0x1c, 0x4b, 0x74, 0x32, 0x0c, 0x7f, 0x71, 0x2d, 0x69, 0xf8, 0x67, 0xf3, 0xe6, 0x40, 0x23, 0x23, 0x5b, 0x4a, 0x77, 0x3c, 0x02, 0x7a, 0x20, 0x29, 0xfd, 0x1c, 0xd7, 0xc5, 0xb1, 0x42, 0x15, 0x23, 0x7f, 0xc4, 0x52, 0x1f, 0xdc, 0xd4, 0xcb, 0xeb, 0x38, 0x3e, 0x66, 0x43, 0x30, 0x31, 0x9d, 0x26, 0x6f, 0xed, 0x22, 0x02, 0xce, 0x2c, 0xf2, 0x07, 0x3d, 0xd5, 0x28, 0xeb, 0xf4, 0x57, 0x53, 0x69, 0xdd, 0x16, 0x5e, 0x25, 0x17, 0xee, 0x73, 0x6d, 0x11, 0xc4, 0xd8, 0xf9, 0xc1, 0x4e, 0x56, 0x32, 0x24, 0x30, 0xee, 0x37, 0x41, 0x0d, 0x11, 0xeb, 0xe4, 0x53, 0xb1, 0xd1, 0x47, 0x2e, 0x18, 0x7f, 0x1b, 0xe3, 0xe9, 0xba, 0xcc, 0x8b, 0xdc, 0x04, 0x5b, 0xda, 0xe9, 0x36, 0xd8, 0x13, 0x5f, 0x54, 0x01, 0xfb, 0xfa, 0x33, 0xea, 0xe8, 0xcc, 0xf8, 0xcb, 0xd5, 0xff, 0x6f, 0x11, 0x76, 0x26, 0xea, 0x0c, 0x17, 0x36, 0xbe, 0x13, 0xca, 0xf7, 0x21, 0x56, 0x13, 0x56, 0x7f, 0x33, 0x77, 0x69, 0x40, 0x54, 0x36, 0xda, 0x25, 0x0d, 0x4c, 0x4c, 0x3d, 0x3a, 0xd7, 0x3e, 0xfa, 0xe8, 0xd9, 0xff, 0xa5, 0x2b, 0xec, 0xe1, 0x51, 0x0d, 0x30, 0x2d, 0xde, 0x4c, 0x1d, 0x69, 0xf1, 0x42, 0xbe, 0xd3, 0x19, 0x3d, 0x7f, 0xf6, 0x3c, 0x46, 0xf3, 0x37, 0x2c, 0x72, 0x21, 0x62, 0x1f, 0x41, 0x46, 0xfc, 0xd0, 0xe1, 0x3c, 0x1e, 0x97, 0xc1, 0x27, 0x9f, 0x00, 0xd0, 0xd8, 0x68, 0x4e, 0x1e, 0xbb, 0xbf, 0x47, 0x28, 0xea, 0x63, 0xac, 0x4f, 0x9a, 0xbb, 0xd4, 0x6d, 0xec, 0x4d, 0x06, 0xf2, 0x1e, 0xef, 0x27, 0xfe, 0x7f, 0x2a, 0x10, 0x02, 0xaf, 0xa1, 0x92, 0x6a, 0xe9, 0x5c, 0x4f, 0xdc, 0xd3, 0x14, 0xc4, 0x67, 0x5b, 0xe5, 0xc4, 0xb1, 0x30, 0x3f, 0xff, 0x16, 0x43, 0x3c, 0xde, 0x46, 0x3e, 0xc1, 0x43, 0x00, 0xb4, 0xab, 0xac, 0x06, 0x4a, 0x55, 0xcc, 0x84, 0xcc, 0x49, 0x8d, 0x74, 0x7e, 0xcb, 0xbb, 0x7f, 0x27, 0xb8, 0x05, 0xd1, 0x31, 0x4c, 0x37, 0xcf, 0x47, 0x24, 0x8b, 0x50, 0x09, 0xc2, 0xfe, 0xef, 0x0b, 0xb5, 0xf7, 0x22, 0x2d, 0x13, 0xa4, 0x15, 0x30, 0xbd, 0xfc, 0xe7, 0x50, 0xfb, 0xd7, 0xd0, 0xf0, 0xee, 0x00, 0xf3, 0x64, 0xbc, 0xc8, 0x0c, 0x7f, 0xaf, 0x1f, 0x11, 0xf8, 0x2c, 0x28, 0xd1, 0x45, 0xbe, 0xcd, 0xd1, 0x2b, 0xdc, 0xbd, 0x27, 0x4d, 0x1c, 0x25, 0x0c, 0x17, 0xe6, 0x11, 0x2b, 0x1a, 0xbb, 0x1f, 0xfb, 0x3c, 0x24, 0x30, 0x5e, 0x0d, 0xff, 0x29, 0xfb, 0x5b, 0x6b, 0x04, 0x81, 0x2b, 0x2d, 0x01, 0x3a, 0xcb, 0xf6, 0xe4, 0x67, 0xdf, 0xf0, 0x5c, 0x3b, 0xe7, 0x2f, 0x32, 0x93, 0x04, 0xbc, 0xb6, 0xe8, 0x1c, 0x03, 0xff, 0x0a, 0x37, 0x02, 0x54, 0xfd, 0x2a, 0x57, 0xad, 0x12, 0xe5, 0xf8, 0xf5, 0xe7, 0x30, 0xb1, 0x09, 0x54, 0x58, 0xcb, 0x18, 0x2c, 0x2a, 0xee, 0xf2, 0x50, 0x60, 0x35, 0xba, 0xcb, 0xf5, 0x1f, 0xb5, 0xeb, 0xe4, 0xfe, 0xad, 0x76, 0x13, 0xa5, 0x05, 0x0d, 0x3e, 0xc7, 0xda, 0x41, 0x7f, 0xef, 0xdf, 0x43, 0x59, 0xef, 0x9f, 0x1d, 0x15, 0x1c, 0xed, 0x63, 0x37, 0x54, 0x6d, 0x68, 0xe1, 0xdc, 0xe4, 0x20, 0x01, 0xbe, 0xd7, 0xf7, 0x15, 0x48, 0x30, 0xeb, 0x28, 0x7f, 0x01, 0x39, 0x2f, 0x57, 0x4e, 0x74, 0x72, 0xa7, 0x32, 0xb5, 0xda, 0x1e, 0xe9, 0x34, 0x51, 0x23, 0x11, 0x16, 0x5e, 0x42, 0x53, 0x36, 0xfc, 0x94, 0xf3, 0xdc, 0xeb, 0x1a, 0xdf, 0xfe, 0x64, 0x34, 0x3d, 0xcc, 0xed, 0x47, 0xee, 0xfe, 0xd6, 0x42, 0xe9, 0xe3, 0xe9, 0x47, 0x51, 0x2e, 0xd5, 0x09, 0x41, 0x0d, 0x06, 0x1c, 0x19, 0x81, 0x0d, 0xe6, 0xfb, 0x0a, 0xb3, 0x21, 0xf5, 0xa4, 0xb5, 0xf5, 0x0d, 0xd8, 0x09, 0x57, 0x50, 0x86, 0xa8, 0xb3, 0xdc, 0xe4, 0xd0, 0x13, 0x15, 0xf1, 0xd9, 0x32, 0x3d, 0x6d, 0x47, 0x16, 0x11, 0x1d, 0xd5, 0x07, 0xa0, 0xf3, 0x46, 0x85, 0x9a, 0xff, 0xd2, 0x54, 0x3e, 0x1f, 0x22, 0xf2, 0x5e, 0xf5, 0xe7, 0xe5, 0x00, 0xb7, 0x0a, 0xe1, 0xfe, 0x37, 0x48, 0xe6, 0x5c, 0x43, 0xd9, 0xd3, 0x73, 0xfd, 0xdc, 0x16, 0xa9, 0xf3, 0x7f, 0x84, 0xd1, 0x3d, 0x30, 0x0e, 0xe4, 0x3b, 0x56, 0xe0, 0xf7, 0xe1, 0x42, 0xee, 0xed, 0x25, 0x31, 0x46, 0xf2, 0xf1, 0x49, 0xc2, 0xe1, 0xd9, 0x61, 0x00, 0xb2, 0x29, 0x66, 0x38, 0x19, 0x6f, 0xf8, 0x41, 0x12, 0x32, 0xe7, 0xea, 0xc1, 0xd9, 0x04, 0x31, 0x19, 0x05, 0x4c, 0xea, 0xee, 0x7f, 0x72, 0x19, 0xec, 0x13, 0x5f, 0xcd, 0xd7, 0x50, 0xf9, 0x1a, 0xe2, 0xe7, 0x1c, 0x9e, 0x38, 0xf1, 0x7f, 0x3c, 0xb8, 0x3a, 0xb8, 0xd8, 0xca, 0xfd, 0x4e, 0x55, 0x65, 0xf8, 0xf4, 0xc7, 0x32, 0x65, 0x5e, 0x37, 0xc5, 0x2f, 0xd0, 0x3b, 0x08, 0x46, 0x50, 0xd7, 0x67, 0x40, 0x50, 0xbc, 0x3a, 0x2c, 0x09, 0x2d, 0xc6, 0xec, 0x0b, 0xf2, 0xcf, 0x28, 0xf1, 0xff, 0x05, 0x3b, 0x26, 0x3f, 0x46, 0x2a, 0xc3, 0x29, 0xde, 0xef, 0x29, 0x39, 0x0b, 0xf9, 0x24, 0x13, 0xe2, 0x10, 0x0f, 0x58, 0xf5, 0x25, 0x81, 0xf7, 0xcd, 0x37, 0x55, 0x02, 0x1d, 0xec, 0xd2, 0x07, 0x1b, 0x16, 0xd8, 0x37, 0x5f, 0xe8, 0x9b, 0x45, 0x0b, 0xfc, 0xed, 0x2a, 0x09, 0xd2, 0x53, 0x2d, 0x18, 0xae, 0x35, 0x30, 0xdd, 0xe9, 0x0f, 0x26, 0x3a, 0x6b, 0x07, 0xad, 0xb0, 0x33, 0x2f, 0x34, 0xf4, 0x2a, 0xd0, 0x58, 0x9e, 0xf6, 0x4d, 0xe3, 0xed, 0x7f, 0x45, 0xe7, 0xd5, 0xe1, 0x02, 0xe9, 0x26, 0xd0, 0xce, 0x33, 0x9f, 0x31, 0x57, 0x2e, 0x22, 0x6c, 0xe8, 0x6c, 0xfa, 0x3c, 0x5a, 0x68, 0x22, 0x3c, 0x25, 0xf9, 0xc3, 0x5b, 0x2b, 0x1f, 0x4b, 0x95, 0x49, 0x6e, 0x5c, 0xfb, 0xf5, 0x38, 0x32, 0xd0, 0xd3, 0x81, 0x9c, 0x78, 0xb1, 0x6c, 0x0f, 0xc8, 0xf8, 0x28, 0x32, 0xc3, 0xd4, 0x5a, 0x1e, 0xc3, 0x3a, 0x8d, 0x21, 0x37, 0xf9, 0x35, 0x43, 0xce, 0xd6, 0xc1, 0xbc, 0x05, 0xb3, 0x0d, 0xf6, 0x0a, 0xe8, 0x43, 0x26, 0x5d, 0x2e, 0x8d, 0xad, 0x56, 0x49, 0x44, 0xc2, 0x47, 0xbe, 0x88, 0x42, 0x36, 0x4a, 0xdc, 0xb1, 0xdc, 0x7f, 0xf5, 0x21, 0xcc, 0x45, 0x50, 0x62, 0x40, 0xe0, 0xb4, 0x33, 0x2f, 0xcc, 0xe1, 0x02, 0xb5, 0x09, 0x9a, 0xde, 0x7c, 0x35, 0xf3, 0x6a, 0x6b, 0xe0, 0x5f, 0x76, 0x61, 0x7f, 0xec, 0x40, 0x40, 0xb6, 0x46, 0xc5, 0xb6, 0xdc, 0xb9, 0x2c, 0x07, 0x2b, 0x2b, 0x48, 0x2c, 0xef, 0x67, 0xe1, 0x21, 0xe9, 0x1e, 0x9f, 0x2c, 0x60, 0xdc, 0xd1, 0x79, 0xde, 0x0a, 0x76, 0x3b, 0x38, 0x31, 0x34, 0x13, 0x0d, 0x77, 0xf6, 0xb0, 0x03, 0x1e, 0x07, 0xea, 0xbf, 0xe8, 0x61, 0x46, 0x3b, 0xb2, 0xd2, 0xef, 0xf2, 0x84, 0x9d, 0x1f, 0x07, 0xbb, 0x2e, 0x51, 0x2f, 0x1e, 0x4e, 0xe4, 0xf1, 0x03, 0xcf, 0x22, 0xf5, 0x81, 0xce, 0x4a, 0xdd, 0x3f, 0x3c, 0x45, 0xbf, 0x4c, 0x35, 0x42, 0x22, 0xa7, 0xed, 0x3d, 0x57, 0xcb, 0xc0, 0x62, 0x08, 0x0b, 0x24, 0xdf, 0x0e, 0xde, 0x1e, 0xe0, 0x00, 0x3d, 0xc8, 0xd0, 0xf1, 0xd3, 0xf1, 0x0f, 0x3b, 0x1c, 0xde, 0xe6, 0x3c, 0xc9, 0x60, 0x54, 0xf1, 0xcb, 0xa2, 0xd2, 0x14, 0xb0, 0xc3, 0xf4, 0x1a, 0xe8, 0xb8, 0xf8, 0x4e, 0x05, 0x1c, 0xf6, 0xf5, 0xf5, 0xaa, 0xec, 0x7f, 0xca, 0xc5, 0x50, 0xef, 0xb8, 0xab, 0x1e, 0x37, 0x67, 0xdb, 0xab, 0xd5, 0x32, 0x32, 0xd5, 0x7e, 0x31, 0x03, 0xd4, 0xee, 0xb4, 0x04, 0x32, 0x32, 0xef, 0xed, 0xa8, 0xda, 0xfc, 0x07, 0x47, 0x13, 0x1b, 0x6e, 0x03, 0xa9, 0xb1, 0xbc, 0x3e, 0xa3, 0x53, 0xfb, 0xaa, 0xbf, 0x21, 0xaf, 0x03, 0x7f, 0x68, 0xfa, 0xd1, 0x2f, 0x38, 0x20, 0x43, 0xbe, 0x51, 0x69, 0x36, 0xee, 0x65, 0x33, 0x2d, 0x29, 0xee, 0x4e, 0xb0, 0xcc, 0x4b, 0x68, 0xe6, 0x81, 0x27, 0x5a, 0xd0, 0x42, 0x01, 0x38, 0x21, 0x1b, 0x45, 0xd6, 0xe9, 0xba, 0x7d, 0x06, 0x3d, 0xb8, 0x48, 0x2c, 0xc8, 0x34, 0x55, 0x17, 0xb6, 0x23, 0x16, 0x13, 0xb3, 0xb1, 0x4f, 0x58, 0x0c, 0xa5, 0xb8, 0x7f, 0x3b, 0xbc, 0xee, 0x42, 0x1c, 0x13, 0x43, 0xe3, 0x3c, 0x67, 0xb9, 0x02, 0x0e, 0xf1, 0x42, 0x72, 0x3f, 0x49, 0x0d, 0x72, 0xd0, 0x3d, 0x48, 0x69, 0xf4, 0x42, 0xf4, 0xfb, 0xfc, 0x01, 0x51, 0xea, 0x5c, 0x55, 0x0a, 0x17, 0xeb, 0x6b, 0x6c, 0x74, 0x4b, 0xf0, 0x18, 0x2d, 0x0e, 0x30, 0x42, 0x54, 0xd8, 0x29, 0x2a, 0x53, 0xe9, 0xca, 0xa3, 0xbb, 0x26, 0x45, 0x2c, 0x7a, 0x0c, 0xe6, 0x3c, 0x57, 0xf7, 0xbb, 0xfc, 0x64, 0xde, 0x3f, 0x0c, 0x08, 0x47, 0xeb, 0x27, 0x7a, 0xca, 0xa4, 0x3b, 0x7f, 0x4b, 0x2e, 0xdb, 0x31, 0x28, 0xd5, 0xa9, 0xe1, 0xd1, 0xd6, 0x2b, 0x6d, 0xd7, 0xe1, 0x60, 0x33, 0xdc, 0x28, 0x16, 0xcf, 0x21, 0xcf, 0x16, 0xf7, 0x23, 0x63, 0xf2, 0x61, 0x1d, 0xc3, 0x2c, 0x7f, 0x0a, 0xba, 0x4a, 0x0d, 0xfc, 0x46, 0xe6, 0x40, 0x36, 0x2a, 0x24, 0x02, 0xc3, 0xf2, 0xc3, 0x73, 0x23, 0x13, 0x26, 0x06, 0xb0, 0xc5, 0x16, 0x14, 0x7e, 0xc9, 0xef, 0x1f, 0x16, 0xc5, 0x00, 0x0e, 0x06, 0xd1, 0x43, 0x44, 0xd3, 0x56, 0x11, 0x0d, 0x4f, 0x06, 0x47, 0x42, 0xd8, 0x22, 0xd9, 0x42, 0xc1, 0xb0, 0x40, 0x1a, 0x0b, 0x1a, 0x29, 0xe7, 0x57, 0xed, 0x27, 0x20, 0x0d, 0xa8, 0x24, 0xe9, 0xc9, 0x13, 0x16, 0x7f, 0xf4, 0x54, 0x60, 0x7a, 0x42, 0x56, 0x1b, 0x07, 0x30, 0x0b, 0x52, 0x34, 0x3c, 0x12, 0x05, 0x94, 0x2f, 0xdb, 0xf1, 0x24, 0xb5, 0x05, 0x32, 0x67, 0x7f, 0xce, 0x09, 0x6a, 0x6d, 0xed, 0xb1, 0xcd, 0xf0, 0xf4, 0x29, 0x10, 0xd9, 0x63, 0x0f, 0xdb, 0x2d, 0x5c, 0x34, 0xed, 0x05, 0x5e, 0x04, 0xf0, 0xd2, 0xaa, 0xf7, 0x2e, 0xfe, 0x53, 0x7b, 0x60, 0x44, 0xe6, 0x4d, 0xf9, 0x30, 0x28, 0x1e, 0xdd, 0x16, 0xbc, 0x2d, 0x6c, 0xd4, 0xef, 0x24, 0x0e, 0x05, 0xbf, 0x08, 0x0d, 0xcd, 0xf2, 0xe0, 0xf5, 0x2e, 0x45, 0xe6, 0x3a, 0x81, 0x28, 0x0b, 0x0f, 0x62, 0x0e, 0x4b, 0x1b, 0x13, 0x05, 0x07, 0xc1, 0x0b, 0xd5, 0x43, 0x2f, 0x82, 0xce, 0x73, 0x57, 0x34, 0x4a, 0x27, 0xcf, 0xb7, 0x78, 0xea, 0x48, 0xd8, 0x56, 0xe8, 0x67, 0x43, 0x31, 0x37, 0x0d, 0xa6, 0xd0, 0x68, 0x38, 0xa6, 0x14, 0x19, 0xc9, 0x16, 0xd6, 0xf4, 0xfb, 0xf8, 0x53, 0xc7, 0x68, 0x2c, 0xb3, 0x0e, 0x3f, 0x34, 0x29, 0xf9, 0xe0, 0x69, 0x3b, 0x34, 0x7f, 0xc0, 0x56, 0xc5, 0xea, 0x7a, 0xcc, 0x3d, 0x08, 0xf9, 0x7f, 0xe5, 0x3c, 0xb3, 0x55, 0xcd, 0xf9, 0xbb, 0x24, 0xd1, 0x3b, 0x5c, 0x45, 0x43, 0xee, 0x36, 0x47, 0x29, 0x0c, 0xb5, 0xdc, 0x01, 0xf5, 0x12, 0x38, 0x4a, 0xea, 0x14, 0xd2, 0xcf, 0xdb, 0x3d, 0x3e, 0x3e, 0xe2, 0x12, 0xf4, 0xff, 0x17, 0xcc, 0x30, 0x2a, 0xf4, 0xff, 0xff, 0x04, 0x00, 0x00, 0x00, 0x0c, 0x00, 0x00, 0x00, 0x01, 0x00, 0x00, 0x00, 0x17, 0x00, 0x00, 0x00, 0x20, 0x00, 0x00, 0x00, 0x42, 0xf4, 0xff, 0xff, 0x04, 0x00, 0x00, 0x00, 0x40, 0x00, 0x00, 0x00, 0x96, 0x11, 0x8d, 0x3d, 0x6b, 0x7a, 0xa3, 0x3d, 0xeb, 0x58, 0x8b, 0x3d, 0x4b, 0xb3, 0xf3, 0x3d, 0xb7, 0x0f, 0x04, 0x3e, 0xc8, 0x78, 0xd2, 0x3d, 0x0d, 0x02, 0xa0, 0x3d, 0x1f, 0xca, 0xe0, 0x3d, 0x5f, 0x83, 0xd4, 0x3d, 0x23, 0x8c, 0x88, 0x3d, 0x73, 0x90, 0x2c, 0x3e, 0x42, 0x83, 0x63, 0x3e, 0xfb, 0x03, 0x3b, 0x3e, 0x39, 0x9c, 0x1a, 0x3e, 0x40, 0xf1, 0xf8, 0x3d, 0x88, 0xcc, 0x49, 0x3e, 0x8e, 0xf4, 0xff, 0xff, 0x04, 0x00, 0x00, 0x00, 0x80, 0x00, 0x00, 0x00, 0x19, 0xef, 0x66, 0x3d, 0x79, 0x24, 0xce, 0x3c, 0xad, 0x80, 0xab, 0x3d, 0xb0, 0x7d, 0xcf, 0x3c, 0xfa, 0xd0, 0x41, 0x3d, 0x5a, 0x4e, 0x48, 0x3d, 0x1a, 0x2d, 0x69, 0x3d, 0x3b, 0x30, 0x95, 0x3d, 0x5a, 0x83, 0x10, 0x3d, 0x51, 0x9e, 0xaf, 0x3d, 0x10, 0x17, 0xc2, 0x3d, 0x4a, 0xd2, 0x7e, 0x3d, 0xea, 0x87, 0x9c, 0x3d, 0x90, 0xbc, 0x07, 0x3e, 0x3b, 0x8e, 0x06, 0x3e, 0xe6, 0x61, 0x53, 0x3d, 0x80, 0x7a, 0x94, 0x3c, 0xa5, 0x72, 0x71, 0x3d, 0x89, 0x79, 0x2e, 0x3d, 0x25, 0xe7, 0x64, 0x3d, 0x83, 0xdd, 0x84, 0x3c, 0x35, 0x56, 0x5a, 0x3d, 0x11, 0xc3, 0x22, 0x3c, 0x9f, 0x39, 0xde, 0x3c, 0x20, 0xca, 0x74, 0x3d, 0x5c, 0xd4, 0x9a, 0x3c, 0x8e, 0x8e, 0x93, 0x3c, 0x89, 0x30, 0x6d, 0x3d, 0xb1, 0x9a, 0x92, 0xbc, 0x84, 0x31, 0xf7, 0x3d, 0x27, 0xde, 0x5b, 0x3d, 0x47, 0x2a, 0x50, 0x3d, 0x1a, 0xf5, 0xff, 0xff, 0x04, 0x00, 0x00, 0x00, 0xc0, 0x03, 0x00, 0x00, 0xdb, 0x8b, 0xb6, 0x3d, 0x26, 0x9a, 0xf5, 0x3d, 0x0a, 0x04, 0x56, 0x3c, 0xd2, 0x00, 0x93, 0xbe, 0x37, 0x4c, 0x3d, 0xbe, 0xc8, 0xb1, 0x68, 0xbd, 0x2e, 0xa7, 0x66, 0x3d, 0x05, 0x3d, 0x11, 0xbe, 0xc2, 0x2e, 0xa7, 0xbe, 0xa3, 0x1a, 0xc9, 0xbe, 0x0e, 0x3c, 0x14, 0x3e, 0x9e, 0xd9, 0xbe, 0xbd, 0x8f, 0x78, 0x53, 0x3e, 0x9e, 0x92, 0x2d, 0xbe, 0x50, 0xed, 0xc2, 0xbe, 0xe0, 0xb6, 0x86, 0x3e, 0x87, 0x95, 0xb6, 0xbe, 0xf4, 0x69, 0x0f, 0xbd, 0xa8, 0xa5, 0x97, 0xbe, 0x15, 0x60, 0x9b, 0xbe, 0x0c, 0xcb, 0x46, 0x3e, 0x60, 0x80, 0x13, 0xbb, 0xac, 0x28, 0x98, 0x3e, 0x38, 0xc9, 0x8b, 0xbe, 0x87, 0xf1, 0xec, 0xbc, 0xb2, 0x31, 0xaa, 0x3c, 0xf0, 0x85, 0xb3, 0xbe, 0xe9, 0x6b, 0xf4, 0xbd, 0xb4, 0x3d, 0x59, 0xbe, 0xdd, 0x55, 0x9f, 0x3b, 0x23, 0xde, 0xbc, 0x3e, 0x52, 0x68, 0xb9, 0xbc, 0x2f, 0x5c, 0x4a, 0xbe, 0x91, 0xec, 0x02, 0x3e, 0x6d, 0x27, 0xea, 0xbd, 0xc3, 0xa1, 0xe3, 0x3e, 0xdd, 0x60, 0x94, 0xbd, 0x26, 0xc8, 0x2a, 0x3e, 0x8d, 0x6c, 0x35, 0xbe, 0xb4, 0x1b, 0xff, 0x3c, 0x65, 0xfe, 0xde, 0x3b, 0xb5, 0x6a, 0x10, 0x3e, 0xa6, 0x7c, 0xbc, 0x3d, 0xbe, 0xf6, 0xac, 0xbd, 0x6e, 0xba, 0xc9, 0xbe, 0x6e, 0x6f, 0x91, 0x3e, 0x0f, 0xbf, 0xf2, 0xbe, 0xed, 0xa2, 0x72, 0x3e, 0x17, 0xd4, 0x97, 0x3e, 0x40, 0x19, 0x66, 0xbe, 0xa6, 0xf3, 0x23, 0xbe, 0x72, 0x71, 0x0e, 0x3b, 0x6d, 0x8e, 0x0e, 0xbe, 0xa2, 0x85, 0x94, 0x3e, 0xe3, 0xa8, 0x95, 0x3e, 0x6e, 0x1d, 0x3c, 0xbd, 0xab, 0xb2, 0xd2, 0xbe, 0x64, 0xea, 0x2d, 0x3e, 0xe6, 0x46, 0x46, 0x3e, 0xab, 0xc1, 0xfd, 0xbb, 0xf2, 0x77, 0xb9, 0x3e, 0x4c, 0xdb, 0x1e, 0x3e, 0xf7, 0x41, 0x8a, 0xbe, 0xf2, 0x9e, 0xa2, 0xbe, 0xbe, 0xa4, 0x5d, 0xbe, 0x3a, 0xce, 0x40, 0xbe, 0xa6, 0x38, 0xc8, 0x3c, 0x38, 0x16, 0xd7, 0xbd, 0x8b, 0x55, 0x80, 0xbe, 0x9f, 0xb9, 0xaa, 0x3d, 0x4c, 0x98, 0xf8, 0x3d, 0xa7, 0x86, 0x8e, 0xbe, 0xe6, 0x23, 0x3d, 0x3e, 0xa5, 0x33, 0x99, 0xbe, 0x9f, 0x9a, 0x28, 0x3e, 0xbe, 0x3b, 0xa2, 0x3e, 0x07, 0xce, 0x88, 0xbd, 0x84, 0xf4, 0x92, 0x3e, 0x5e, 0xe7, 0x2d, 0xbe, 0xa4, 0xbf, 0x39, 0x3a, 0x0d, 0x6c, 0x74, 0x3e, 0x64, 0xc4, 0x8e, 0xbe, 0x1b, 0x69, 0xfd, 0xbd, 0x1e, 0xcf, 0x92, 0xbe, 0x6a, 0x9f, 0x77, 0xbe, 0x4e, 0x8e, 0x90, 0x3c, 0xb3, 0xec, 0x8f, 0x3d, 0x09, 0xba, 0x04, 0xbe, 0x4d, 0xf3, 0x22, 0x3d, 0x5e, 0x00, 0x70, 0x3e, 0x70, 0xfa, 0x2f, 0x3d, 0x50, 0x0e, 0x12, 0x3e, 0x64, 0xf2, 0x2f, 0xbe, 0x27, 0x49, 0x00, 0xbe, 0x3a, 0x36, 0x98, 0xbe, 0x28, 0xbe, 0x5f, 0x3e, 0xa7, 0xd7, 0xc4, 0x3e, 0x7d, 0x70, 0x73, 0x3e, 0x53, 0xff, 0x61, 0x3e, 0x82, 0x71, 0x3f, 0xbe, 0xb0, 0x86, 0xbb, 0x3e, 0x2e, 0x69, 0xa2, 0xbc, 0x3c, 0x44, 0x2d, 0xbd, 0x75, 0x96, 0x1e, 0x3e, 0x02, 0x0f, 0xdb, 0xbd, 0x19, 0x9c, 0xc8, 0x3d, 0xc8, 0xe1, 0x31, 0xbe, 0x78, 0xe9, 0x08, 0xbe, 0xc5, 0xe4, 0x29, 0xbd, 0xbc, 0xa8, 0xda, 0xbe, 0x4c, 0x03, 0x05, 0x3e, 0x3f, 0x07, 0x6d, 0xbb, 0x55, 0xae, 0x77, 0x3e, 0x82, 0x4d, 0xd8, 0x3e, 0xab, 0xb5, 0x6a, 0xbe, 0x74, 0xc2, 0xef, 0xbd, 0xf9, 0x42, 0x4b, 0xbe, 0xc5, 0x2c, 0x8f, 0xbd, 0xea, 0x14, 0xd9, 0x3e, 0x6c, 0xf9, 0xd1, 0xbe, 0x70, 0x3f, 0xb0, 0x3e, 0x42, 0x67, 0x99, 0x3c, 0xb2, 0x1a, 0x9b, 0x3c, 0xbb, 0xe1, 0x75, 0x3e, 0xc3, 0xd6, 0x1d, 0xbe, 0xc0, 0x64, 0x5c, 0x3e, 0x9d, 0x07, 0xc3, 0x3e, 0x2f, 0x31, 0xe7, 0x3e, 0x4a, 0xff, 0xa0, 0x3e, 0x6d, 0xbf, 0x0f, 0x3e, 0x06, 0xec, 0xa2, 0x3d, 0xbc, 0x20, 0x87, 0x3e, 0x26, 0x96, 0xe3, 0x3e, 0x4f, 0x85, 0xcc, 0x3e, 0xe7, 0x9a, 0x42, 0x3d, 0x31, 0xa1, 0x00, 0xbe, 0xc1, 0x1a, 0xf6, 0x3e, 0x1a, 0x82, 0x91, 0x3e, 0x7c, 0x05, 0x2d, 0x3e, 0x2f, 0x8a, 0x4b, 0x3e, 0xf0, 0x76, 0x06, 0xbe, 0x8a, 0xdb, 0x55, 0x3e, 0x01, 0x6a, 0xd7, 0xbc, 0x6e, 0xd0, 0x42, 0xbe, 0xe3, 0x79, 0x8d, 0x3e, 0x48, 0x5b, 0x83, 0x3e, 0xd6, 0xe3, 0x7d, 0x3e, 0x86, 0x91, 0xd7, 0x3d, 0x09, 0xb6, 0x23, 0xbd, 0x49, 0x82, 0x5d, 0xbe, 0x0e, 0x2d, 0xbe, 0xbe, 0x4d, 0x89, 0x7a, 0xbe, 0xc6, 0x23, 0x9f, 0x3e, 0x40, 0xad, 0xe1, 0x3e, 0xb7, 0x8f, 0x3b, 0x3e, 0x4b, 0x8c, 0x98, 0xbe, 0x6f, 0x37, 0x2d, 0xbe, 0xe7, 0xae, 0x83, 0x3a, 0x22, 0x9d, 0x46, 0x3e, 0x8a, 0x2c, 0x91, 0x3e, 0xcf, 0x13, 0xdb, 0x3c, 0x1d, 0x89, 0x04, 0x3d, 0x60, 0x03, 0x3f, 0xbe, 0xed, 0x3a, 0x83, 0xbd, 0x0f, 0xae, 0xb9, 0x3d, 0x65, 0xb4, 0x4a, 0x3d, 0x42, 0x60, 0xc3, 0xbe, 0x40, 0x30, 0xf0, 0xbe, 0xe6, 0x0f, 0x61, 0xbe, 0xfb, 0x3d, 0x9c, 0x3e, 0xb3, 0x57, 0x8a, 0xbe, 0xd3, 0xb7, 0xff, 0xbe, 0xf5, 0x29, 0x46, 0xbe, 0xd6, 0xa4, 0x35, 0xbe, 0x82, 0xd7, 0xea, 0x3e, 0xa2, 0x4d, 0x68, 0x3e, 0x35, 0x91, 0x40, 0x3d, 0x15, 0x60, 0xda, 0xbe, 0xf6, 0xc5, 0xd3, 0x3d, 0x76, 0x27, 0xaf, 0x3e, 0x5f, 0x3c, 0x3c, 0xbe, 0xf2, 0x7b, 0x64, 0x3e, 0xaa, 0xcf, 0x6e, 0x3e, 0x4a, 0x62, 0x62, 0xbe, 0x15, 0x9f, 0x94, 0x3e, 0x61, 0x90, 0xa1, 0xbe, 0xb7, 0xaa, 0x16, 0x3d, 0x70, 0x25, 0x0b, 0xbe, 0x86, 0x62, 0x92, 0xbe, 0x65, 0xa8, 0xa4, 0xbd, 0xc1, 0x5f, 0xb2, 0xbe, 0x65, 0x67, 0x29, 0x3e, 0x29, 0x1b, 0x4b, 0xbe, 0x7a, 0xcb, 0x6d, 0x3e, 0xa1, 0xe3, 0x4e, 0x3d, 0xc8, 0xa7, 0xf3, 0xbe, 0x63, 0x60, 0xee, 0xbe, 0xfc, 0xa6, 0x4b, 0xbe, 0x7a, 0x37, 0xa0, 0xbe, 0x4a, 0x1a, 0x2b, 0xbe, 0xf2, 0x3c, 0xe1, 0xbe, 0x33, 0x5d, 0xf2, 0xbd, 0x36, 0xcb, 0x50, 0x3e, 0x16, 0x5d, 0xd3, 0xbe, 0x66, 0xaa, 0xe1, 0x3c, 0xcd, 0x14, 0x99, 0xbe, 0x7c, 0xea, 0x40, 0x3c, 0xf5, 0xbf, 0x90, 0xbe, 0x26, 0x21, 0xc3, 0xbe, 0xf2, 0x1d, 0xa8, 0xbe, 0xca, 0xeb, 0xde, 0x3e, 0xd5, 0xfb, 0x3e, 0xbe, 0x76, 0xe5, 0x77, 0xbe, 0xa3, 0x54, 0x70, 0xbd, 0x40, 0xf3, 0x22, 0x3e, 0x12, 0xda, 0x6a, 0x3e, 0xf0, 0xb7, 0x04, 0xbd, 0x65, 0xaa, 0x1e, 0x3e, 0x65, 0x18, 0xb7, 0x3e, 0x8e, 0x00, 0x7a, 0x3e, 0xce, 0xc1, 0xa6, 0x3c, 0xa8, 0x95, 0x99, 0xbe, 0xb1, 0x39, 0xa9, 0x3d, 0x6b, 0x31, 0xa3, 0x3d, 0x01, 0xf5, 0xe4, 0x3e, 0x88, 0x25, 0x90, 0x3e, 0x15, 0xfd, 0x32, 0x3e, 0xfc, 0xa1, 0x1b, 0x3d, 0xcc, 0x9b, 0xbf, 0x3e, 0x7f, 0x42, 0x16, 0xbe, 0x2f, 0x67, 0xbe, 0x3e, 0xcd, 0xb2, 0x83, 0x3c, 0xb0, 0xa7, 0x3b, 0x3d, 0xa1, 0xa9, 0x53, 0x3e, 0xae, 0x07, 0x5a, 0xbe, 0x02, 0x1c, 0x12, 0x3e, 0xe4, 0x57, 0xa3, 0xbd, 0xa9, 0x24, 0xc0, 0x3e, 0x69, 0x16, 0xfb, 0x3e, 0x3a, 0x2f, 0xa7, 0xbe, 0xe6, 0xf8, 0xff, 0xff, 0x04, 0x00, 0x00, 0x00, 0x80, 0x05, 0x00, 0x00, 0x0c, 0xb6, 0x05, 0x3e, 0xe9, 0x29, 0x97, 0x3e, 0xf0, 0xa3, 0xe0, 0xbd, 0x68, 0x3f, 0x5e, 0x3d, 0x45, 0x49, 0x05, 0xbe, 0x0f, 0x5e, 0x65, 0x3e, 0x20, 0x06, 0xb6, 0xbe, 0x88, 0x1f, 0x51, 0xbe, 0x62, 0x02, 0x7d, 0xbe, 0xf0, 0x1d, 0x00, 0xbe, 0x34, 0x7f, 0x94, 0xbe, 0xd8, 0xef, 0x91, 0xbe, 0xf2, 0xbc, 0xa5, 0x3e, 0x6e, 0x6c, 0x5d, 0xbc, 0x28, 0x7c, 0x07, 0xbe, 0xd5, 0x01, 0x2a, 0xbe, 0x22, 0x8c, 0xd5, 0x3e, 0x4c, 0xd1, 0x7f, 0x3e, 0x58, 0x95, 0xe0, 0x3e, 0x6d, 0x90, 0xca, 0x3c, 0xec, 0xf5, 0xe3, 0x3c, 0x18, 0x61, 0x6c, 0x3e, 0x9b, 0x52, 0xbf, 0x3d, 0xcd, 0xc8, 0x42, 0x3e, 0x68, 0x22, 0xd0, 0x3c, 0xf2, 0xfe, 0x5d, 0x3e, 0xbb, 0x36, 0x97, 0xbe, 0x51, 0x89, 0xd7, 0xbe, 0x29, 0xd0, 0xc0, 0x3d, 0x7f, 0x22, 0x83, 0xbe, 0x28, 0xb9, 0xc0, 0xbd, 0xfc, 0xe3, 0x81, 0xbe, 0x5c, 0x33, 0xec, 0x3d, 0x2d, 0x45, 0xe3, 0x3d, 0x1b, 0x62, 0x90, 0xbd, 0x94, 0xf6, 0x9a, 0x3e, 0xd3, 0x06, 0x40, 0x3d, 0xac, 0xf6, 0xae, 0x3d, 0x0c, 0x3c, 0xd8, 0xbd, 0x93, 0x1e, 0xf3, 0xbe, 0xc3, 0xd6, 0x6c, 0x3e, 0x8b, 0x44, 0xa5, 0xbe, 0x98, 0x43, 0x5c, 0xbe, 0xd5, 0xb1, 0x61, 0xbe, 0x37, 0x43, 0x69, 0xbd, 0xde, 0xcd, 0x74, 0xbe, 0xd2, 0xe0, 0x30, 0x3e, 0xfc, 0x34, 0xf5, 0x3d, 0xdb, 0x48, 0x61, 0x3e, 0xf9, 0xc7, 0x2f, 0x3e, 0x44, 0x5e, 0xf8, 0xbd, 0xf4, 0xb5, 0x89, 0x3e, 0xa9, 0x48, 0xcd, 0x3e, 0x4e, 0xf9, 0xe3, 0xbc, 0x62, 0x24, 0xe4, 0xbe, 0x41, 0x6c, 0x42, 0xbd, 0xd1, 0xe1, 0x52, 0x3e, 0xbd, 0x90, 0xb0, 0x3e, 0x4c, 0x82, 0xf3, 0x3c, 0x90, 0x85, 0x7f, 0xbd, 0x0e, 0x43, 0xde, 0x3d, 0x1e, 0x78, 0x8f, 0xbe, 0x1f, 0xcb, 0xfe, 0xbe, 0x80, 0xe2, 0xb7, 0xbe, 0x6b, 0xdb, 0x7d, 0x3c, 0x89, 0xf4, 0xba, 0xbd, 0x1f, 0xd9, 0x8f, 0xbe, 0xea, 0x34, 0x59, 0x3e, 0x67, 0xdb, 0xaf, 0x3b, 0x96, 0xe7, 0x68, 0xbe, 0x88, 0x27, 0x5b, 0x3e, 0x43, 0x9b, 0x1b, 0xbe, 0x46, 0xa9, 0x8f, 0xbd, 0xbe, 0xa1, 0x00, 0xbe, 0x4f, 0x91, 0xb4, 0xbe, 0x58, 0x3e, 0xc6, 0x3e, 0x55, 0x7c, 0x9a, 0x3e, 0xce, 0xc2, 0xbe, 0xbd, 0x93, 0x6d, 0x77, 0x3e, 0x7a, 0x14, 0x80, 0x3e, 0x29, 0xd0, 0xa1, 0xbe, 0x78, 0x97, 0x2d, 0xbd, 0x97, 0xd8, 0xbe, 0xbe, 0xad, 0xb4, 0x35, 0x3e, 0xca, 0x54, 0x92, 0x3e, 0xc6, 0x4a, 0xcc, 0x3e, 0x10, 0x7c, 0xbb, 0xbe, 0xac, 0x67, 0x22, 0x3e, 0x30, 0x7b, 0x88, 0x3e, 0x8f, 0xb5, 0x91, 0x3c, 0x86, 0xed, 0x36, 0xbe, 0xae, 0xe7, 0xbb, 0x3e, 0x70, 0xbb, 0xa3, 0x3c, 0x7c, 0x1a, 0xc1, 0xbe, 0x72, 0x4d, 0xa5, 0xbe, 0xd4, 0xf6, 0x80, 0xbe, 0x48, 0xf3, 0xde, 0xbe, 0xd4, 0x27, 0x0a, 0xbd, 0x33, 0x4a, 0x50, 0x3d, 0xd8, 0x9d, 0x96, 0xbe, 0xfb, 0x4c, 0x73, 0xbd, 0x17, 0xaa, 0x76, 0x3e, 0x80, 0x66, 0x8e, 0x3d, 0xd0, 0x9c, 0xdd, 0x3e, 0xd3, 0x73, 0x1a, 0x3e, 0x94, 0xb8, 0x14, 0x3e, 0x21, 0x06, 0x0d, 0x3e, 0x08, 0x08, 0xc5, 0x3e, 0xe0, 0x88, 0x81, 0x3e, 0x48, 0xb6, 0xa7, 0xbe, 0x5b, 0x48, 0x87, 0x3e, 0x90, 0x67, 0x04, 0xbe, 0x67, 0xd9, 0x9e, 0xbe, 0x3b, 0xef, 0xd6, 0x3e, 0x48, 0xab, 0x94, 0x3d, 0x21, 0x7f, 0x9e, 0xbe, 0x91, 0xee, 0x51, 0xbe, 0x91, 0x0f, 0x9f, 0xbe, 0x75, 0x5a, 0x92, 0xbe, 0xb1, 0xfa, 0x8d, 0xbe, 0x95, 0x99, 0x86, 0xbd, 0x6e, 0xff, 0x87, 0xbd, 0xf6, 0x42, 0xc0, 0xbd, 0xac, 0x36, 0x11, 0xbe, 0xb7, 0x4d, 0x6c, 0xbd, 0xe4, 0x90, 0xce, 0x3e, 0x3c, 0x1d, 0x9a, 0xbe, 0xa0, 0xa6, 0x65, 0x3d, 0x0c, 0x3f, 0x9e, 0x3e, 0xb0, 0x2d, 0x29, 0x3d, 0x7e, 0x17, 0x95, 0xbe, 0x7b, 0x55, 0x7e, 0xbc, 0x7b, 0x8c, 0x49, 0xbe, 0xbb, 0x8b, 0x0b, 0x3e, 0xc4, 0x5e, 0x23, 0x3e, 0xfc, 0x76, 0x3c, 0xbe, 0x1a, 0xc9, 0x33, 0xbe, 0xad, 0xe3, 0x6b, 0x3e, 0x01, 0x6c, 0xb3, 0x3e, 0xdc, 0xa5, 0xce, 0x3e, 0xd2, 0x96, 0x94, 0xbe, 0xed, 0x9a, 0x80, 0x3d, 0x4d, 0x1d, 0xd1, 0x3d, 0x47, 0x03, 0x86, 0xbe, 0x4b, 0xc7, 0xec, 0xbc, 0x30, 0x27, 0xb4, 0xbd, 0xe5, 0x90, 0xd6, 0xbd, 0x94, 0x50, 0xf4, 0xbe, 0x62, 0x6e, 0x95, 0xbd, 0x0c, 0x98, 0xfe, 0xbe, 0xa9, 0xc9, 0xdd, 0x3d, 0x3a, 0x74, 0x4a, 0xbd, 0xa8, 0x86, 0xd0, 0xbe, 0x16, 0x6c, 0x0b, 0x3e, 0xa1, 0xdb, 0xff, 0xbd, 0x60, 0x91, 0x9f, 0xbe, 0xba, 0x8e, 0x17, 0xbe, 0x98, 0xd9, 0x86, 0x3e, 0xbd, 0x66, 0x89, 0x3d, 0x70, 0xfa, 0xe8, 0xbc, 0x59, 0x11, 0xc7, 0xbe, 0x07, 0xe5, 0x6f, 0x3e, 0x8a, 0x16, 0x90, 0xbe, 0xe8, 0xf4, 0x1a, 0xbe, 0x5e, 0x44, 0xc3, 0x3d, 0xed, 0xd1, 0xf6, 0x3d, 0x78, 0x50, 0x9c, 0xbd, 0x0e, 0xc9, 0x1b, 0xbf, 0xd3, 0x72, 0xae, 0xbd, 0x4a, 0xdc, 0x1e, 0xbf, 0xc9, 0x59, 0x31, 0x3e, 0x59, 0x66, 0x9d, 0x3d, 0xd1, 0x3e, 0xfe, 0xbc, 0x25, 0x74, 0x0e, 0x3d, 0x1b, 0x52, 0xdb, 0x3d, 0xd8, 0xcf, 0x45, 0x3e, 0xb3, 0xda, 0x0a, 0x3e, 0x69, 0x71, 0x60, 0xbe, 0xbd, 0x1e, 0xad, 0x3e, 0xe7, 0x61, 0x1b, 0x3e, 0x0b, 0xbe, 0x4d, 0xbe, 0x9b, 0xd6, 0xe6, 0xbe, 0x0b, 0x36, 0xea, 0xbd, 0xe2, 0x16, 0x8c, 0xbe, 0x13, 0xa9, 0xaf, 0xbe, 0x60, 0x1f, 0xcd, 0x3d, 0xcb, 0xe9, 0xa8, 0x3e, 0x10, 0x1d, 0x82, 0xbe, 0xd1, 0x09, 0x14, 0xbf, 0xb8, 0x70, 0xad, 0x3e, 0x2a, 0x9e, 0x22, 0xbe, 0x84, 0xf8, 0xbc, 0xbd, 0x2a, 0x33, 0x0a, 0xbe, 0x98, 0xe9, 0xc8, 0x3e, 0x64, 0x43, 0x05, 0xbf, 0xe4, 0xe2, 0x11, 0x3d, 0x59, 0x42, 0x72, 0x3e, 0x4e, 0x3d, 0x63, 0x3d, 0xe0, 0x4c, 0x3e, 0xbc, 0x44, 0x8d, 0xea, 0x3d, 0xe2, 0x98, 0xa5, 0xbe, 0xeb, 0xde, 0xce, 0xbd, 0xec, 0x94, 0x98, 0xbe, 0x41, 0x01, 0x5a, 0xbe, 0x41, 0x5d, 0x8c, 0xbd, 0x96, 0xdc, 0xb1, 0xbe, 0xb1, 0x49, 0xd8, 0xbe, 0x5c, 0x0f, 0x3d, 0x3e, 0x64, 0x1c, 0xea, 0x3d, 0xdd, 0xf1, 0x59, 0xbe, 0x3d, 0x2c, 0xea, 0x3c, 0xfc, 0x03, 0xa5, 0x3e, 0xf2, 0x40, 0x12, 0xbe, 0x8a, 0xce, 0x8d, 0xbe, 0xf7, 0xb8, 0x09, 0xbe, 0x4a, 0x4f, 0x3e, 0xbe, 0x8d, 0x17, 0xcd, 0x3e, 0x01, 0xfb, 0xc0, 0xbe, 0xfe, 0x9c, 0x16, 0xbf, 0x41, 0xd9, 0x00, 0xbf, 0xf4, 0x93, 0x28, 0xbe, 0xf9, 0x8c, 0xb0, 0x3e, 0xf3, 0x68, 0x8a, 0xbe, 0x3c, 0x49, 0xa4, 0xbe, 0x99, 0x17, 0x6a, 0x3e, 0x48, 0x48, 0x8c, 0x3e, 0x9f, 0x44, 0xf2, 0x3e, 0x45, 0xb6, 0x4e, 0x3e, 0xbe, 0x7e, 0x6e, 0x3e, 0x55, 0x0c, 0xb8, 0xbd, 0x30, 0xab, 0x3e, 0x3e, 0x49, 0xe9, 0x2b, 0xbe, 0x22, 0x9f, 0x6b, 0x3e, 0x78, 0x70, 0xe4, 0x3c, 0xdd, 0xb0, 0xd2, 0xbe, 0x94, 0x8b, 0x49, 0xbe, 0x50, 0x90, 0x1c, 0xbd, 0x6b, 0xcd, 0x86, 0xbe, 0x87, 0xfc, 0x7e, 0xbd, 0x8c, 0x1d, 0xf8, 0x3d, 0x26, 0xf5, 0xf4, 0xbe, 0x16, 0xff, 0xbf, 0x3e, 0x78, 0xaa, 0x74, 0xbe, 0x25, 0xb4, 0x65, 0xbe, 0x94, 0x77, 0xab, 0x3e, 0x5f, 0xf1, 0x92, 0x3e, 0x12, 0xb0, 0xe7, 0xbe, 0x69, 0x7c, 0xa4, 0xbe, 0x8e, 0x7f, 0xfe, 0x3d, 0x4c, 0x65, 0xe7, 0x3d, 0xf7, 0x2f, 0xe5, 0xbe, 0xa1, 0x00, 0x49, 0x3e, 0xba, 0x8a, 0x25, 0xbd, 0x35, 0xa6, 0x1b, 0x3e, 0x9d, 0xe9, 0xef, 0xbe, 0xe0, 0x77, 0x0f, 0x3c, 0x33, 0x21, 0xd8, 0xbe, 0xb1, 0x68, 0x8f, 0xbd, 0x7f, 0x23, 0xd9, 0x3e, 0x0f, 0xa8, 0xc0, 0x3e, 0x87, 0xd2, 0x80, 0x3e, 0x4f, 0x65, 0x2a, 0x3e, 0x60, 0xce, 0x3d, 0x3e, 0x87, 0xa9, 0xd8, 0x3d, 0xc9, 0xe8, 0x86, 0xbe, 0xd0, 0xf9, 0xdb, 0xbc, 0xd0, 0x93, 0x8e, 0x3e, 0xe0, 0x80, 0x93, 0x3e, 0xc8, 0x86, 0x8f, 0xbe, 0xd1, 0x99, 0x63, 0x3e, 0xa7, 0x11, 0xe1, 0xbe, 0x00, 0xf4, 0x0f, 0x3e, 0x87, 0x53, 0xd6, 0xbd, 0x17, 0xf0, 0x73, 0xbd, 0x0d, 0x0e, 0xc6, 0xbe, 0x9b, 0xcf, 0x67, 0x3d, 0xd6, 0x9e, 0x96, 0x3e, 0xd0, 0x07, 0x14, 0xbe, 0x2d, 0xe0, 0x88, 0xbe, 0xb1, 0x29, 0xf5, 0xbd, 0x75, 0xc1, 0xda, 0xbc, 0xf7, 0x6b, 0x58, 0x3e, 0xa8, 0x7b, 0x40, 0xbe, 0x4c, 0xc1, 0xad, 0xbe, 0x17, 0xd8, 0x73, 0x3e, 0xb1, 0xbe, 0x8e, 0xbc, 0x5f, 0x49, 0x1c, 0x3e, 0xd8, 0xdd, 0x4b, 0xbe, 0xec, 0x1e, 0x76, 0xbd, 0x7d, 0x4e, 0x4d, 0xbe, 0x72, 0x35, 0xa1, 0xbd, 0x96, 0x56, 0xfd, 0x3d, 0x5d, 0xcd, 0xbf, 0x3e, 0x6a, 0x6b, 0x70, 0x3e, 0x58, 0x04, 0xb8, 0x3d, 0x3f, 0x83, 0xb1, 0x3e, 0x83, 0x59, 0x81, 0x3e, 0x95, 0x22, 0x1b, 0x3e, 0xb0, 0x3a, 0x75, 0x3e, 0x84, 0x0f, 0x97, 0xbe, 0x09, 0x28, 0x86, 0xbe, 0x5b, 0x44, 0x90, 0x3e, 0x87, 0xf0, 0x16, 0x3e, 0x74, 0xe1, 0x51, 0x3e, 0x11, 0x11, 0x17, 0xbd, 0xaf, 0x85, 0x6b, 0xbe, 0x94, 0x6f, 0xf1, 0xbd, 0xb3, 0x11, 0x90, 0x3e, 0xd6, 0x93, 0x07, 0x3d, 0xac, 0x77, 0xf5, 0xbe, 0x22, 0x52, 0x92, 0xbe, 0x4e, 0x46, 0x96, 0x3e, 0x20, 0x76, 0xda, 0x3d, 0xb7, 0xf6, 0x67, 0x3d, 0x93, 0xda, 0x3b, 0xbc, 0xda, 0x70, 0xe1, 0x3e, 0xf7, 0x0f, 0x0e, 0xbf, 0x69, 0x08, 0xe2, 0xbe, 0x46, 0xdf, 0x45, 0x3e, 0x66, 0xd9, 0x50, 0xbe, 0xb2, 0x06, 0xcf, 0xbd, 0x85, 0xa1, 0xa7, 0xbe, 0x00, 0xfd, 0xae, 0x3d, 0x06, 0x8b, 0x04, 0xbf, 0xbf, 0xf2, 0x10, 0xbf, 0x0a, 0x82, 0xc1, 0xbb, 0x84, 0xd5, 0x82, 0x3d, 0x41, 0x74, 0x66, 0xbe, 0x67, 0x20, 0x85, 0x3c, 0x2b, 0x66, 0xeb, 0x3c, 0xef, 0x4a, 0x7a, 0x3d, 0xdf, 0x59, 0x0c, 0xbe, 0xc8, 0x47, 0xb8, 0x3e, 0xad, 0x3b, 0xb8, 0x3e, 0x8f, 0xb8, 0x9f, 0x3e, 0xb6, 0xa0, 0x93, 0xbe, 0x53, 0x6c, 0xcb, 0x3e, 0x0e, 0xdc, 0x06, 0xbf, 0x16, 0x58, 0x58, 0xbe, 0xa1, 0x16, 0xd8, 0x3d, 0x0c, 0x0d, 0x55, 0xbe, 0xc3, 0x1f, 0x0a, 0xbe, 0x6e, 0xc4, 0x9b, 0x3e, 0x22, 0x11, 0x9a, 0xbe, 0x3d, 0x69, 0x90, 0xbe, 0x7f, 0x6f, 0x30, 0xbc, 0x7e, 0x08, 0xfc, 0x3c, 0xfe, 0x2d, 0x8a, 0x3d, 0x2f, 0x16, 0x43, 0x3e, 0xb0, 0x2e, 0x93, 0xbe, 0xa7, 0xb0, 0xab, 0x3e, 0xf4, 0x99, 0x82, 0x3e, 0x72, 0xfe, 0xff, 0xff, 0x04, 0x00, 0x00, 0x00, 0x04, 0x00, 0x00, 0x00, 0x01, 0x00, 0x00, 0x00, 0x82, 0xfe, 0xff, 0xff, 0x04, 0x00, 0x00, 0x00, 0x2c, 0x00, 0x00, 0x00, 0x38, 0xd7, 0x63, 0x3d, 0x98, 0x4d, 0xf0, 0xbc, 0x7e, 0x61, 0x20, 0x3c, 0x20, 0x59, 0xd7, 0x3c, 0x5b, 0x54, 0x13, 0xbd, 0x52, 0xad, 0x76, 0x3a, 0x56, 0x77, 0x83, 0xbb, 0x25, 0xc2, 0x9f, 0xbd, 0x63, 0x21, 0x6a, 0x3d, 0xbc, 0xe8, 0xeb, 0x3b, 0x49, 0x9a, 0xc3, 0xbc, 0xba, 0xfe, 0xff, 0xff, 0x04, 0x00, 0x00, 0x00, 0x80, 0x00, 0x00, 0x00, 0xa4, 0xe8, 0x9d, 0xbc, 0xfb, 0xd4, 0x96, 0x3c, 0xeb, 0xb3, 0xbd, 0x3d, 0xb8, 0x2c, 0xba, 0x3d, 0x07, 0x93, 0x3e, 0x3d, 0x55, 0xff, 0x61, 0x3c, 0x00, 0x00, 0x00, 0x00, 0x2a, 0xa4, 0xaf, 0x3d, 0x80, 0x04, 0xf4, 0xbc, 0xff, 0xff, 0x0e, 0x3d, 0xea, 0xca, 0x3a, 0x3d, 0xe1, 0x8e, 0x18, 0x3d, 0x9a, 0xa6, 0xa0, 0xbc, 0xba, 0x26, 0x96, 0xbc, 0x97, 0xa9, 0xed, 0xbb, 0x00, 0x00, 0x00, 0x00, 0x89, 0xe6, 0x7d, 0x3c, 0xa6, 0xf0, 0xc8, 0x3c, 0xbd, 0x12, 0x83, 0x3d, 0x90, 0x08, 0x2b, 0x3d, 0x4f, 0x67, 0xec, 0xba, 0x7c, 0x37, 0xd4, 0x39, 0x28, 0x0d, 0xa1, 0x3d, 0x12, 0xf4, 0xe6, 0xbc, 0xc6, 0x02, 0x4d, 0x3d, 0xa9, 0xd6, 0x7f, 0x39, 0xc5, 0x38, 0x0d, 0x3d, 0xbf, 0xa6, 0x12, 0x3b, 0x0d, 0xb7, 0xb7, 0x3c, 0x9e, 0x00, 0xe5, 0xbb, 0x0e, 0xa5, 0x28, 0x3d, 0x00, 0x00, 0x00, 0x00, 0x46, 0xff, 0xff, 0xff, 0x04, 0x00, 0x00, 0x00, 0x10, 0x00, 0x00, 0x00, 0x01, 0x00, 0x00, 0x00, 0x01, 0x00, 0x00, 0x00, 0x64, 0x00, 0x00, 0x00, 0x05, 0x00, 0x00, 0x00, 0xe0, 0xf2, 0xff, 0xff, 0xe4, 0xf2, 0xff, 0xff, 0x0f, 0x00, 0x00, 0x00, 0x4d, 0x4c, 0x49, 0x52, 0x20, 0x43, 0x6f, 0x6e, 0x76, 0x65, 0x72, 0x74, 0x65, 0x64, 0x2e, 0x00, 0x01, 0x00, 0x00, 0x00, 0x14, 0x00, 0x00, 0x00, 0x00, 0x00, 0x0e, 0x00, 0x18, 0x00, 0x14, 0x00, 0x10, 0x00, 0x0c, 0x00, 0x08, 0x00, 0x04, 0x00, 0x0e, 0x00, 0x00, 0x00, 0x14, 0x00, 0x00, 0x00, 0x1c, 0x00, 0x00, 0x00, 0xa4, 0x02, 0x00, 0x00, 0xa8, 0x02, 0x00, 0x00, 0xac, 0x02, 0x00, 0x00, 0x04, 0x00, 0x00, 0x00, 0x6d, 0x61, 0x69, 0x6e, 0x00, 0x00, 0x00, 0x00, 0x0a, 0x00, 0x00, 0x00, 0x68, 0x02, 0x00, 0x00, 0x08, 0x02, 0x00, 0x00, 0xa4, 0x01, 0x00, 0x00, 0x5c, 0x01, 0x00, 0x00, 0x18, 0x01, 0x00, 0x00, 0xf4, 0x00, 0x00, 0x00, 0xc0, 0x00, 0x00, 0x00, 0x78, 0x00, 0x00, 0x00, 0x40, 0x00, 0x00, 0x00, 0x04, 0x00, 0x00, 0x00, 0x2a, 0xfe, 0xff, 0xff, 0x1c, 0x00, 0x00, 0x00, 0x00, 0x00, 0x00, 0x09, 0x1c, 0x00, 0x00, 0x00, 0x20, 0x00, 0x00, 0x00, 0x05, 0x00, 0x00, 0x00, 0x00, 0x00, 0x06, 0x00, 0x08, 0x00, 0x04, 0x00, 0x06, 0x00, 0x00, 0x00, 0x00, 0x00, 0x80, 0x3f, 0x01, 0x00, 0x00, 0x00, 0x15, 0x00, 0x00, 0x00, 0x01, 0x00, 0x00, 0x00, 0x14, 0x00, 0x00, 0x00, 0x62, 0xfe, 0xff, 0xff, 0x14, 0x00, 0x00, 0x00, 0x00, 0x00, 0x00, 0x08, 0x10, 0x00, 0x00, 0x00, 0x14, 0x00, 0x00, 0x00, 0x04, 0x00, 0x00, 0x00, 0xb4, 0xf3, 0xff, 0xff, 0x01, 0x00, 0x00, 0x00, 0x14, 0x00, 0x00, 0x00, 0x03, 0x00, 0x00, 0x00, 0x13, 0x00, 0x00, 0x00, 0x05, 0x00, 0x00, 0x00, 0x03, 0x00, 0x00, 0x00, 0x96, 0xfe, 0xff, 0xff, 0x20, 0x00, 0x00, 0x00, 0x00, 0x00, 0x00, 0x08, 0x20, 0x00, 0x00, 0x00, 0x24, 0x00, 0x00, 0x00, 0x04, 0x00, 0x00, 0x00, 0x0c, 0x00, 0x08, 0x00, 0x07, 0x00, 0x00, 0x00, 0x00, 0x00, 0x06, 0x00, 0x0c, 0x00, 0x00, 0x00, 0x00, 0x00, 0x01, 0x01, 0x01, 0x00, 0x00, 0x00, 0x13, 0x00, 0x00, 0x00, 0x03, 0x00, 0x00, 0x00, 0x12, 0x00, 0x00, 0x00, 0x0b, 0x00, 0x00, 0x00, 0x02, 0x00, 0x00, 0x00, 0xda, 0xfe, 0xff, 0xff, 0x14, 0x00, 0x00, 0x00, 0x00, 0x00, 0x00, 0x1b, 0x10, 0x00, 0x00, 0x00, 0x14, 0x00, 0x00, 0x00, 0x03, 0x00, 0x00, 0x00, 0x2c, 0xf4, 0xff, 0xff, 0x01, 0x00, 0x00, 0x00, 0x12, 0x00, 0x00, 0x00, 0x02, 0x00, 0x00, 0x00, 0x11, 0x00, 0x00, 0x00, 0x04, 0x00, 0x00, 0x00, 0xaa, 0xfe, 0xff, 0xff, 0x08, 0x00, 0x00, 0x00, 0x0c, 0x00, 0x00, 0x00, 0x01, 0x00, 0x00, 0x00, 0x11, 0x00, 0x00, 0x00, 0x02, 0x00, 0x00, 0x00, 0x10, 0x00, 0x00, 0x00, 0x09, 0x00, 0x00, 0x00, 0x2a, 0xff, 0xff, 0xff, 0x14, 0x00, 0x00, 0x00, 0x00, 0x00, 0x00, 0x05, 0x24, 0x00, 0x00, 0x00, 0x28, 0x00, 0x00, 0x00, 0x02, 0x00, 0x00, 0x00, 0x7a, 0xff, 0xff, 0xff, 0x01, 0x00, 0x00, 0x00, 0x02, 0x00, 0x00, 0x00, 0x01, 0x00, 0x00, 0x00, 0x02, 0x00, 0x00, 0x00, 0x00, 0x00, 0x00, 0x01, 0x01, 0x00, 0x00, 0x00, 0x10, 0x00, 0x00, 0x00, 0x01, 0x00, 0x00, 0x00, 0x0f, 0x00, 0x00, 0x00, 0x6a, 0xff, 0xff, 0xff, 0x14, 0x00, 0x00, 0x00, 0x00, 0x00, 0x00, 0x01, 0x20, 0x00, 0x00, 0x00, 0x24, 0x00, 0x00, 0x00, 0x01, 0x00, 0x00, 0x00, 0x5c, 0xff, 0xff, 0xff, 0x00, 0x00, 0x00, 0x01, 0x01, 0x00, 0x00, 0x00, 0x01, 0x00, 0x00, 0x00, 0x00, 0x00, 0x00, 0x01, 0x01, 0x00, 0x00, 0x00, 0x0f, 0x00, 0x00, 0x00, 0x03, 0x00, 0x00, 0x00, 0x0e, 0x00, 0x00, 0x00, 0x0a, 0x00, 0x00, 0x00, 0x07, 0x00, 0x00, 0x00, 0xae, 0xff, 0xff, 0xff, 0x24, 0x00, 0x00, 0x00, 0x00, 0x00, 0x00, 0x05, 0x34, 0x00, 0x00, 0x00, 0x38, 0x00, 0x00, 0x00, 0x02, 0x00, 0x00, 0x00, 0x00, 0x00, 0x0e, 0x00, 0x18, 0x00, 0x17, 0x00, 0x10, 0x00, 0x0c, 0x00, 0x08, 0x00, 0x04, 0x00, 0x0e, 0x00, 0x00, 0x00, 0x01, 0x00, 0x00, 0x00, 0x02, 0x00, 0x00, 0x00, 0x01, 0x00, 0x00, 0x00, 0x02, 0x00, 0x00, 0x00, 0x00, 0x00, 0x00, 0x01, 0x01, 0x00, 0x00, 0x00, 0x0e, 0x00, 0x00, 0x00, 0x01, 0x00, 0x00, 0x00, 0x0d, 0x00, 0x00, 0x00, 0x00, 0x00, 0x0e, 0x00, 0x18, 0x00, 0x14, 0x00, 0x10, 0x00, 0x0c, 0x00, 0x0b, 0x00, 0x04, 0x00, 0x0e, 0x00, 0x00, 0x00, 0x20, 0x00, 0x00, 0x00, 0x00, 0x00, 0x00, 0x01, 0x2c, 0x00, 0x00, 0x00, 0x30, 0x00, 0x00, 0x00, 0x01, 0x00, 0x00, 0x00, 0x0c, 0x00, 0x14, 0x00, 0x13, 0x00, 0x0c, 0x00, 0x08, 0x00, 0x07, 0x00, 0x0c, 0x00, 0x00, 0x00, 0x00, 0x00, 0x00, 0x01, 0x01, 0x00, 0x00, 0x00, 0x01, 0x00, 0x00, 0x00, 0x00, 0x00, 0x00, 0x01, 0x01, 0x00, 0x00, 0x00, 0x0d, 0x00, 0x00, 0x00, 0x03, 0x00, 0x00, 0x00, 0x0c, 0x00, 0x00, 0x00, 0x06, 0x00, 0x00, 0x00, 0x08, 0x00, 0x00, 0x00, 0x00, 0x00, 0x0a, 0x00, 0x0c, 0x00, 0x00, 0x00, 0x08, 0x00, 0x04, 0x00, 0x0a, 0x00, 0x00, 0x00, 0x08, 0x00, 0x00, 0x00, 0x0c, 0x00, 0x00, 0x00, 0x01, 0x00, 0x00, 0x00, 0x0c, 0x00, 0x00, 0x00, 0x02, 0x00, 0x00, 0x00, 0x00, 0x00, 0x00, 0x00, 0x01, 0x00, 0x00, 0x00, 0x01, 0x00, 0x00, 0x00, 0x15, 0x00, 0x00, 0x00, 0x01, 0x00, 0x00, 0x00, 0x00, 0x00, 0x00, 0x00, 0x16, 0x00, 0x00, 0x00, 0x10, 0x0a, 0x00, 0x00, 0xb8, 0x09, 0x00, 0x00, 0x64, 0x09, 0x00, 0x00, 0x28, 0x09, 0x00, 0x00, 0xec, 0x08, 0x00, 0x00, 0xac, 0x08, 0x00, 0x00, 0x64, 0x08, 0x00, 0x00, 0x28, 0x08, 0x00, 0x00, 0xec, 0x07, 0x00, 0x00, 0xac, 0x07, 0x00, 0x00, 0xbc, 0x05, 0x00, 0x00, 0x54, 0x05, 0x00, 0x00, 0xe8, 0x04, 0x00, 0x00, 0xec, 0x03, 0x00, 0x00, 0x84, 0x03, 0x00, 0x00, 0x88, 0x02, 0x00, 0x00, 0x20, 0x02, 0x00, 0x00, 0xb4, 0x01, 0x00, 0x00, 0x50, 0x01, 0x00, 0x00, 0xb8, 0x00, 0x00, 0x00, 0x40, 0x00, 0x00, 0x00, 0x04, 0x00, 0x00, 0x00, 0x5e, 0xf6, 0xff, 0xff, 0x00, 0x00, 0x00, 0x01, 0x10, 0x00, 0x00, 0x00, 0x10, 0x00, 0x00, 0x00, 0x16, 0x00, 0x00, 0x00, 0x18, 0x00, 0x00, 0x00, 0x48, 0xf6, 0xff, 0xff, 0x08, 0x00, 0x00, 0x00, 0x49, 0x64, 0x65, 0x6e, 0x74, 0x69, 0x74, 0x79, 0x00, 0x00, 0x00, 0x00, 0x02, 0x00, 0x00, 0x00, 0x01, 0x00, 0x00, 0x00, 0x0b, 0x00, 0x00, 0x00, 0x96, 0xf6, 0xff, 0xff, 0x00, 0x00, 0x00, 0x01, 0x10, 0x00, 0x00, 0x00, 0x10, 0x00, 0x00, 0x00, 0x15, 0x00, 0x00, 0x00, 0x54, 0x00, 0x00, 0x00, 0x80, 0xf6, 0xff, 0xff, 0x44, 0x00, 0x00, 0x00, 0x73, 0x65, 0x71, 0x75, 0x65, 0x6e, 0x74, 0x69, 0x61, 0x6c, 0x5f, 0x32, 0x30, 0x5f, 0x31, 0x2f, 0x64, 0x65, 0x6e, 0x73, 0x65, 0x5f, 0x34, 0x31, 0x5f, 0x31, 0x2f, 0x4d, 0x61, 0x74, 0x4d, 0x75, 0x6c, 0x3b, 0x73, 0x65, 0x71, 0x75, 0x65, 0x6e, 0x74, 0x69, 0x61, 0x6c, 0x5f, 0x32, 0x30, 0x5f, 0x31, 0x2f, 0x64, 0x65, 0x6e, 0x73, 0x65, 0x5f, 0x34, 0x31, 0x5f, 0x31, 0x2f, 0x42, 0x69, 0x61, 0x73, 0x41, 0x64, 0x64, 0x00, 0x00, 0x00, 0x00, 0x02, 0x00, 0x00, 0x00, 0x01, 0x00, 0x00, 0x00, 0x0b, 0x00, 0x00, 0x00, 0x0a, 0xf7, 0xff, 0xff, 0x00, 0x00, 0x00, 0x01, 0x10, 0x00, 0x00, 0x00, 0x10, 0x00, 0x00, 0x00, 0x14, 0x00, 0x00, 0x00, 0x74, 0x00, 0x00, 0x00, 0xf4, 0xf6, 0xff, 0xff, 0x64, 0x00, 0x00, 0x00, 0x73, 0x65, 0x71, 0x75, 0x65, 0x6e, 0x74, 0x69, 0x61, 0x6c, 0x5f, 0x32, 0x30, 0x5f, 0x31, 0x2f, 0x64, 0x65, 0x6e, 0x73, 0x65, 0x5f, 0x34, 0x30, 0x5f, 0x31, 0x2f, 0x4d, 0x61, 0x74, 0x4d, 0x75, 0x6c, 0x3b, 0x73, 0x65, 0x71, 0x75, 0x65, 0x6e, 0x74, 0x69, 0x61, 0x6c, 0x5f, 0x32, 0x30, 0x5f, 0x31, 0x2f, 0x64, 0x65, 0x6e, 0x73, 0x65, 0x5f, 0x34, 0x30, 0x5f, 0x31, 0x2f, 0x52, 0x65, 0x6c, 0x75, 0x3b, 0x73, 0x65, 0x71, 0x75, 0x65, 0x6e, 0x74, 0x69, 0x61, 0x6c, 0x5f, 0x32, 0x30, 0x5f, 0x31, 0x2f, 0x64, 0x65, 0x6e, 0x73, 0x65, 0x5f, 0x34, 0x30, 0x5f, 0x31, 0x2f, 0x42, 0x69, 0x61, 0x73, 0x41, 0x64, 0x64, 0x00, 0x00, 0x00, 0x00, 0x02, 0x00, 0x00, 0x00, 0x01, 0x00, 0x00, 0x00, 0x20, 0x00, 0x00, 0x00, 0x9e, 0xf7, 0xff, 0xff, 0x00, 0x00, 0x00, 0x01, 0x10, 0x00, 0x00, 0x00, 0x10, 0x00, 0x00, 0x00, 0x13, 0x00, 0x00, 0x00, 0x40, 0x00, 0x00, 0x00, 0x88, 0xf7, 0xff, 0xff, 0x32, 0x00, 0x00, 0x00, 0x73, 0x65, 0x71, 0x75, 0x65, 0x6e, 0x74, 0x69, 0x61, 0x6c, 0x5f, 0x32, 0x30, 0x5f, 0x31, 0x2f, 0x67, 0x6c, 0x6f, 0x62, 0x61, 0x6c, 0x5f, 0x61, 0x76, 0x65, 0x72, 0x61, 0x67, 0x65, 0x5f, 0x70, 0x6f, 0x6f, 0x6c, 0x69, 0x6e, 0x67, 0x31, 0x64, 0x5f, 0x32, 0x30, 0x5f, 0x31, 0x2f, 0x4d, 0x65, 0x61, 0x6e, 0x00, 0x00, 0x02, 0x00, 0x00, 0x00, 0x01, 0x00, 0x00, 0x00, 0x20, 0x00, 0x00, 0x00, 0xfe, 0xf7, 0xff, 0xff, 0x00, 0x00, 0x00, 0x01, 0x10, 0x00, 0x00, 0x00, 0x10, 0x00, 0x00, 0x00, 0x12, 0x00, 0x00, 0x00, 0x44, 0x00, 0x00, 0x00, 0xe8, 0xf7, 0xff, 0xff, 0x34, 0x00, 0x00, 0x00, 0x73, 0x65, 0x71, 0x75, 0x65, 0x6e, 0x74, 0x69, 0x61, 0x6c, 0x5f, 0x32, 0x30, 0x5f, 0x31, 0x2f, 0x6d, 0x61, 0x78, 0x5f, 0x70, 0x6f, 0x6f, 0x6c, 0x69, 0x6e, 0x67, 0x31, 0x64, 0x5f, 0x34, 0x31, 0x5f, 0x31, 0x2f, 0x4d, 0x61, 0x78, 0x50, 0x6f, 0x6f, 0x6c, 0x31, 0x64, 0x2f, 0x53, 0x71, 0x75, 0x65, 0x65, 0x7a, 0x65, 0x00, 0x00, 0x00, 0x00, 0x03, 0x00, 0x00, 0x00, 0x01, 0x00, 0x00, 0x00, 0x17, 0x00, 0x00, 0x00, 0x20, 0x00, 0x00, 0x00, 0x66, 0xf8, 0xff, 0xff, 0x00, 0x00, 0x00, 0x01, 0x10, 0x00, 0x00, 0x00, 0x10, 0x00, 0x00, 0x00, 0x11, 0x00, 0x00, 0x00, 0x3c, 0x00, 0x00, 0x00, 0x50, 0xf8, 0xff, 0xff, 0x2c, 0x00, 0x00, 0x00, 0x73, 0x65, 0x71, 0x75, 0x65, 0x6e, 0x74, 0x69, 0x61, 0x6c, 0x5f, 0x32, 0x30, 0x5f, 0x31, 0x2f, 0x6d, 0x61, 0x78, 0x5f, 0x70, 0x6f, 0x6f, 0x6c, 0x69, 0x6e, 0x67, 0x31, 0x64, 0x5f, 0x34, 0x31, 0x5f, 0x31, 0x2f, 0x4d, 0x61, 0x78, 0x50, 0x6f, 0x6f, 0x6c, 0x31, 0x64, 0x00, 0x00, 0x00, 0x00, 0x04, 0x00, 0x00, 0x00, 0x01, 0x00, 0x00, 0x00, 0x01, 0x00, 0x00, 0x00, 0x17, 0x00, 0x00, 0x00, 0x20, 0x00, 0x00, 0x00, 0xca, 0xf8, 0xff, 0xff, 0x00, 0x00, 0x00, 0x01, 0x10, 0x00, 0x00, 0x00, 0x10, 0x00, 0x00, 0x00, 0x10, 0x00, 0x00, 0x00, 0xd0, 0x00, 0x00, 0x00, 0xb4, 0xf8, 0xff, 0xff, 0xc0, 0x00, 0x00, 0x00, 0x73, 0x65, 0x71, 0x75, 0x65, 0x6e, 0x74, 0x69, 0x61, 0x6c, 0x5f, 0x32, 0x30, 0x5f, 0x31, 0x2f, 0x63, 0x6f, 0x6e, 0x76, 0x31, 0x64, 0x5f, 0x34, 0x31, 0x5f, 0x31, 0x2f, 0x52, 0x65, 0x6c, 0x75, 0x3b, 0x73, 0x65, 0x71, 0x75, 0x65, 0x6e, 0x74, 0x69, 0x61, 0x6c, 0x5f, 0x32, 0x30, 0x5f, 0x31, 0x2f, 0x63, 0x6f, 0x6e, 0x76, 0x31, 0x64, 0x5f, 0x34, 0x31, 0x5f, 0x31, 0x2f, 0x42, 0x69, 0x61, 0x73, 0x41, 0x64, 0x64, 0x3b, 0x73, 0x65, 0x71, 0x75, 0x65, 0x6e, 0x74, 0x69, 0x61, 0x6c, 0x5f, 0x32, 0x30, 0x5f, 0x31, 0x2f, 0x63, 0x6f, 0x6e, 0x76, 0x31, 0x64, 0x5f, 0x34, 0x31, 0x5f, 0x31, 0x2f, 0x63, 0x6f, 0x6e, 0x76, 0x6f, 0x6c, 0x75, 0x74, 0x69, 0x6f, 0x6e, 0x2f, 0x53, 0x71, 0x75, 0x65, 0x65, 0x7a, 0x65, 0x3b, 0x73, 0x65, 0x71, 0x75, 0x65, 0x6e, 0x74, 0x69, 0x61, 0x6c, 0x5f, 0x32, 0x30, 0x5f, 0x31, 0x2f, 0x63, 0x6f, 0x6e, 0x76, 0x31, 0x64, 0x5f, 0x34, 0x31, 0x5f, 0x31, 0x2f, 0x53, 0x71, 0x75, 0x65, 0x65, 0x7a, 0x65, 0x3b, 0x73, 0x65, 0x71, 0x75, 0x65, 0x6e, 0x74, 0x69, 0x61, 0x6c, 0x5f, 0x32, 0x30, 0x5f, 0x31, 0x2f, 0x63, 0x6f, 0x6e, 0x76, 0x31, 0x64, 0x5f, 0x34, 0x31, 0x5f, 0x31, 0x2f, 0x63, 0x6f, 0x6e, 0x76, 0x6f, 0x6c, 0x75, 0x74, 0x69, 0x6f, 0x6e, 0x00, 0x00, 0x00, 0x00, 0x04, 0x00, 0x00, 0x00, 0x01, 0x00, 0x00, 0x00, 0x01, 0x00, 0x00, 0x00, 0x2f, 0x00, 0x00, 0x00, 0x20, 0x00, 0x00, 0x00, 0xc2, 0xf9, 0xff, 0xff, 0x00, 0x00, 0x00, 0x01, 0x10, 0x00, 0x00, 0x00, 0x10, 0x00, 0x00, 0x00, 0x0f, 0x00, 0x00, 0x00, 0x3c, 0x00, 0x00, 0x00, 0xac, 0xf9, 0xff, 0xff, 0x2c, 0x00, 0x00, 0x00, 0x73, 0x65, 0x71, 0x75, 0x65, 0x6e, 0x74, 0x69, 0x61, 0x6c, 0x5f, 0x32, 0x30, 0x5f, 0x31, 0x2f, 0x6d, 0x61, 0x78, 0x5f, 0x70, 0x6f, 0x6f, 0x6c, 0x69, 0x6e, 0x67, 0x31, 0x64, 0x5f, 0x34, 0x30, 0x5f, 0x31, 0x2f, 0x4d, 0x61, 0x78, 0x50, 0x6f, 0x6f, 0x6c, 0x31, 0x64, 0x00, 0x00, 0x00, 0x00, 0x04, 0x00, 0x00, 0x00, 0x01, 0x00, 0x00, 0x00, 0x01, 0x00, 0x00, 0x00, 0x31, 0x00, 0x00, 0x00, 0x10, 0x00, 0x00, 0x00, 0x26, 0xfa, 0xff, 0xff, 0x00, 0x00, 0x00, 0x01, 0x10, 0x00, 0x00, 0x00, 0x10, 0x00, 0x00, 0x00, 0x0e, 0x00, 0x00, 0x00, 0xd0, 0x00, 0x00, 0x00, 0x10, 0xfa, 0xff, 0xff, 0xc0, 0x00, 0x00, 0x00, 0x73, 0x65, 0x71, 0x75, 0x65, 0x6e, 0x74, 0x69, 0x61, 0x6c, 0x5f, 0x32, 0x30, 0x5f, 0x31, 0x2f, 0x63, 0x6f, 0x6e, 0x76, 0x31, 0x64, 0x5f, 0x34, 0x30, 0x5f, 0x31, 0x2f, 0x52, 0x65, 0x6c, 0x75, 0x3b, 0x73, 0x65, 0x71, 0x75, 0x65, 0x6e, 0x74, 0x69, 0x61, 0x6c, 0x5f, 0x32, 0x30, 0x5f, 0x31, 0x2f, 0x63, 0x6f, 0x6e, 0x76, 0x31, 0x64, 0x5f, 0x34, 0x30, 0x5f, 0x31, 0x2f, 0x42, 0x69, 0x61, 0x73, 0x41, 0x64, 0x64, 0x3b, 0x73, 0x65, 0x71, 0x75, 0x65, 0x6e, 0x74, 0x69, 0x61, 0x6c, 0x5f, 0x32, 0x30, 0x5f, 0x31, 0x2f, 0x63, 0x6f, 0x6e, 0x76, 0x31, 0x64, 0x5f, 0x34, 0x30, 0x5f, 0x31, 0x2f, 0x63, 0x6f, 0x6e, 0x76, 0x6f, 0x6c, 0x75, 0x74, 0x69, 0x6f, 0x6e, 0x2f, 0x53, 0x71, 0x75, 0x65, 0x65, 0x7a, 0x65, 0x3b, 0x73, 0x65, 0x71, 0x75, 0x65, 0x6e, 0x74, 0x69, 0x61, 0x6c, 0x5f, 0x32, 0x30, 0x5f, 0x31, 0x2f, 0x63, 0x6f, 0x6e, 0x76, 0x31, 0x64, 0x5f, 0x34, 0x30, 0x5f, 0x31, 0x2f, 0x53, 0x71, 0x75, 0x65, 0x65, 0x7a, 0x65, 0x3b, 0x73, 0x65, 0x71, 0x75, 0x65, 0x6e, 0x74, 0x69, 0x61, 0x6c, 0x5f, 0x32, 0x30, 0x5f, 0x31, 0x2f, 0x63, 0x6f, 0x6e, 0x76, 0x31, 0x64, 0x5f, 0x34, 0x30, 0x5f, 0x31, 0x2f, 0x63, 0x6f, 0x6e, 0x76, 0x6f, 0x6c, 0x75, 0x74, 0x69, 0x6f, 0x6e, 0x00, 0x00, 0x00, 0x00, 0x04, 0x00, 0x00, 0x00, 0x01, 0x00, 0x00, 0x00, 0x01, 0x00, 0x00, 0x00, 0x62, 0x00, 0x00, 0x00, 0x10, 0x00, 0x00, 0x00, 0x1e, 0xfb, 0xff, 0xff, 0x00, 0x00, 0x00, 0x01, 0x10, 0x00, 0x00, 0x00, 0x10, 0x00, 0x00, 0x00, 0x0d, 0x00, 0x00, 0x00, 0x40, 0x00, 0x00, 0x00, 0x08, 0xfb, 0xff, 0xff, 0x32, 0x00, 0x00, 0x00, 0x73, 0x65, 0x71, 0x75, 0x65, 0x6e, 0x74, 0x69, 0x61, 0x6c, 0x5f, 0x32, 0x30, 0x5f, 0x31, 0x2f, 0x63, 0x6f, 0x6e, 0x76, 0x31, 0x64, 0x5f, 0x34, 0x30, 0x5f, 0x31, 0x2f, 0x63, 0x6f, 0x6e, 0x76, 0x6f, 0x6c, 0x75, 0x74, 0x69, 0x6f, 0x6e, 0x2f, 0x45, 0x78, 0x70, 0x61, 0x6e, 0x64, 0x44, 0x69, 0x6d, 0x73, 0x00, 0x00, 0x04, 0x00, 0x00, 0x00, 0x01, 0x00, 0x00, 0x00, 0x01, 0x00, 0x00, 0x00, 0x64, 0x00, 0x00, 0x00, 0x05, 0x00, 0x00, 0x00, 0xda, 0xfb, 0xff, 0xff, 0x00, 0x00, 0x00, 0x01, 0x14, 0x00, 0x00, 0x00, 0x34, 0x00, 0x00, 0x00, 0x0c, 0x00, 0x00, 0x00, 0x00, 0x00, 0x00, 0x09, 0x40, 0x00, 0x00, 0x00, 0x9c, 0xff, 0xff, 0xff, 0x08, 0x00, 0x00, 0x00, 0x14, 0x00, 0x00, 0x00, 0x01, 0x00, 0x00, 0x00, 0x00, 0x00, 0x00, 0x00, 0x00, 0x00, 0x00, 0x00, 0x00, 0x00, 0x00, 0x00, 0x01, 0x00, 0x00, 0x00, 0x70, 0x8d, 0x86, 0x3b, 0x12, 0x00, 0x00, 0x00, 0x74, 0x66, 0x6c, 0x2e, 0x70, 0x73, 0x65, 0x75, 0x64, 0x6f, 0x5f, 0x71, 0x63, 0x6f, 0x6e, 0x73, 0x74, 0x31, 0x00, 0x00, 0x02, 0x00, 0x00, 0x00, 0x20, 0x00, 0x00, 0x00, 0x20, 0x00, 0x00, 0x00, 0x3e, 0xfc, 0xff, 0xff, 0x00, 0x00, 0x00, 0x01, 0x20, 0x00, 0x00, 0x00, 0xb4, 0x01, 0x00, 0x00, 0x0b, 0x00, 0x00, 0x00, 0x00, 0x00, 0x00, 0x09, 0xc0, 0x01, 0x00, 0x00, 0x0c, 0x00, 0x0c, 0x00, 0x00, 0x00, 0x00, 0x00, 0x08, 0x00, 0x04, 0x00, 0x0c, 0x00, 0x00, 0x00, 0x08, 0x00, 0x00, 0x00, 0x0c, 0x01, 0x00, 0x00, 0x20, 0x00, 0x00, 0x00, 0x00, 0x00, 0x00, 0x00, 0x00, 0x00, 0x00, 0x00, 0x00, 0x00, 0x00, 0x00, 0x00, 0x00, 0x00, 0x00, 0x00, 0x00, 0x00, 0x00, 0x00, 0x00, 0x00, 0x00, 0x00, 0x00, 0x00, 0x00, 0x00, 0x00, 0x00, 0x00, 0x00, 0x00, 0x00, 0x00, 0x00, 0x00, 0x00, 0x00, 0x00, 0x00, 0x00, 0x00, 0x00, 0x00, 0x00, 0x00, 0x00, 0x00, 0x00, 0x00, 0x00, 0x00, 0x00, 0x00, 0x00, 0x00, 0x00, 0x00, 0x00, 0x00, 0x00, 0x00, 0x00, 0x00, 0x00, 0x00, 0x00, 0x00, 0x00, 0x00, 0x00, 0x00, 0x00, 0x00, 0x00, 0x00, 0x00, 0x00, 0x00, 0x00, 0x00, 0x00, 0x00, 0x00, 0x00, 0x00, 0x00, 0x00, 0x00, 0x00, 0x00, 0x00, 0x00, 0x00, 0x00, 0x00, 0x00, 0x00, 0x00, 0x00, 0x00, 0x00, 0x00, 0x00, 0x00, 0x00, 0x00, 0x00, 0x00, 0x00, 0x00, 0x00, 0x00, 0x00, 0x00, 0x00, 0x00, 0x00, 0x00, 0x00, 0x00, 0x00, 0x00, 0x00, 0x00, 0x00, 0x00, 0x00, 0x00, 0x00, 0x00, 0x00, 0x00, 0x00, 0x00, 0x00, 0x00, 0x00, 0x00, 0x00, 0x00, 0x00, 0x00, 0x00, 0x00, 0x00, 0x00, 0x00, 0x00, 0x00, 0x00, 0x00, 0x00, 0x00, 0x00, 0x00, 0x00, 0x00, 0x00, 0x00, 0x00, 0x00, 0x00, 0x00, 0x00, 0x00, 0x00, 0x00, 0x00, 0x00, 0x00, 0x00, 0x00, 0x00, 0x00, 0x00, 0x00, 0x00, 0x00, 0x00, 0x00, 0x00, 0x00, 0x00, 0x00, 0x00, 0x00, 0x00, 0x00, 0x00, 0x00, 0x00, 0x00, 0x00, 0x00, 0x00, 0x00, 0x00, 0x00, 0x00, 0x00, 0x00, 0x00, 0x00, 0x00, 0x00, 0x00, 0x00, 0x00, 0x00, 0x00, 0x00, 0x00, 0x00, 0x00, 0x00, 0x00, 0x00, 0x00, 0x00, 0x00, 0x00, 0x00, 0x00, 0x00, 0x00, 0x00, 0x00, 0x00, 0x00, 0x00, 0x00, 0x00, 0x00, 0x00, 0x00, 0x00, 0x00, 0x00, 0x00, 0x00, 0x00, 0x00, 0x00, 0x00, 0x00, 0x00, 0x00, 0x00, 0x00, 0x00, 0x00, 0x00, 0x00, 0x00, 0x00, 0x00, 0x00, 0x20, 0x00, 0x00, 0x00, 0x87, 0xbf, 0x1e, 0x3b, 0xa9, 0xe0, 0x09, 0x3b, 0xfc, 0x61, 0x32, 0x3b, 0x0e, 0xe4, 0x23, 0x3b, 0x57, 0x43, 0x2e, 0x3b, 0x76, 0x38, 0x11, 0x3b, 0x21, 0x08, 0x16, 0x3b, 0xb6, 0xa8, 0x39, 0x3b, 0x8b, 0x7d, 0x1b, 0x3b, 0x9b, 0x69, 0x21, 0x3b, 0x76, 0x35, 0x17, 0x3b, 0x5e, 0xcd, 0x2c, 0x3b, 0xc4, 0xe0, 0x27, 0x3b, 0x38, 0xf6, 0x44, 0x3b, 0x95, 0xa6, 0x37, 0x3b, 0x4d, 0xc1, 0x71, 0x3b, 0x96, 0x95, 0x39, 0x3b, 0xaf, 0x21, 0x1c, 0x3b, 0x15, 0xd0, 0x02, 0x3b, 0x6d, 0xef, 0x1e, 0x3b, 0x88, 0x7c, 0x3b, 0x3b, 0x37, 0x07, 0x37, 0x3b, 0xba, 0xfb, 0x22, 0x3b, 0xbe, 0xb5, 0x1d, 0x3b, 0x09, 0xb1, 0x06, 0x3b, 0x29, 0xee, 0x14, 0x3b, 0x66, 0x1d, 0x20, 0x3b, 0xbd, 0xfa, 0x1f, 0x3b, 0x18, 0x78, 0x1c, 0x3b, 0x24, 0xb9, 0x42, 0x3b, 0x31, 0xc1, 0x03, 0x3b, 0x32, 0x9e, 0x39, 0x3b, 0x11, 0x00, 0x00, 0x00, 0x74, 0x66, 0x6c, 0x2e, 0x70, 0x73, 0x65, 0x75, 0x64, 0x6f, 0x5f, 0x71, 0x63, 0x6f, 0x6e, 0x73, 0x74, 0x00, 0x00, 0x00, 0x04, 0x00, 0x00, 0x00, 0x20, 0x00, 0x00, 0x00, 0x01, 0x00, 0x00, 0x00, 0x03, 0x00, 0x00, 0x00, 0x10, 0x00, 0x00, 0x00, 0x2a, 0xfe, 0xff, 0xff, 0x00, 0x00, 0x00, 0x01, 0x14, 0x00, 0x00, 0x00, 0x14, 0x00, 0x00, 0x00, 0x0a, 0x00, 0x00, 0x00, 0x00, 0x00, 0x00, 0x02, 0x1c, 0x00, 0x00, 0x00, 0xc4, 0xfd, 0xff, 0xff, 0x0f, 0x00, 0x00, 0x00, 0x61, 0x72, 0x69, 0x74, 0x68, 0x2e, 0x63, 0x6f, 0x6e, 0x73, 0x74, 0x61, 0x6e, 0x74, 0x38, 0x00, 0x01, 0x00, 0x00, 0x00, 0x03, 0x00, 0x00, 0x00, 0x12, 0xfe, 0xff, 0xff, 0x00, 0x00, 0x00, 0x01, 0x10, 0x00, 0x00, 0x00, 0x10, 0x00, 0x00, 0x00, 0x09, 0x00, 0x00, 0x00, 0x1c, 0x00, 0x00, 0x00, 0xfc, 0xfd, 0xff, 0xff, 0x0f, 0x00, 0x00, 0x00, 0x61, 0x72, 0x69, 0x74, 0x68, 0x2e, 0x63, 0x6f, 0x6e, 0x73, 0x74, 0x61, 0x6e, 0x74, 0x37, 0x00, 0x01, 0x00, 0x00, 0x00, 0x10, 0x00, 0x00, 0x00, 0x4a, 0xfe, 0xff, 0xff, 0x00, 0x00, 0x00, 0x01, 0x10, 0x00, 0x00, 0x00, 0x10, 0x00, 0x00, 0x00, 0x08, 0x00, 0x00, 0x00, 0x1c, 0x00, 0x00, 0x00, 0x34, 0xfe, 0xff, 0xff, 0x0f, 0x00, 0x00, 0x00, 0x61, 0x72, 0x69, 0x74, 0x68, 0x2e, 0x63, 0x6f, 0x6e, 0x73, 0x74, 0x61, 0x6e, 0x74, 0x36, 0x00, 0x01, 0x00, 0x00, 0x00, 0x20, 0x00, 0x00, 0x00, 0x82, 0xfe, 0xff, 0xff, 0x00, 0x00, 0x00, 0x01, 0x10, 0x00, 0x00, 0x00, 0x10, 0x00, 0x00, 0x00, 0x07, 0x00, 0x00, 0x00, 0x1c, 0x00, 0x00, 0x00, 0x6c, 0xfe, 0xff, 0xff, 0x0f, 0x00, 0x00, 0x00, 0x61, 0x72, 0x69, 0x74, 0x68, 0x2e, 0x63, 0x6f, 0x6e, 0x73, 0x74, 0x61, 0x6e, 0x74, 0x35, 0x00, 0x04, 0x00, 0x00, 0x00, 0x10, 0x00, 0x00, 0x00, 0x01, 0x00, 0x00, 0x00, 0x03, 0x00, 0x00, 0x00, 0x05, 0x00, 0x00, 0x00, 0xc6, 0xfe, 0xff, 0xff, 0x00, 0x00, 0x00, 0x01, 0x10, 0x00, 0x00, 0x00, 0x10, 0x00, 0x00, 0x00, 0x06, 0x00, 0x00, 0x00, 0x1c, 0x00, 0x00, 0x00, 0xb0, 0xfe, 0xff, 0xff, 0x0f, 0x00, 0x00, 0x00, 0x61, 0x72, 0x69, 0x74, 0x68, 0x2e, 0x63, 0x6f, 0x6e, 0x73, 0x74, 0x61, 0x6e, 0x74, 0x34, 0x00, 0x02, 0x00, 0x00, 0x00, 0x0b, 0x00, 0x00, 0x00, 0x20, 0x00, 0x00, 0x00, 0x56, 0xff, 0xff, 0xff, 0x00, 0x00, 0x00, 0x01, 0x14, 0x00, 0x00, 0x00, 0x14, 0x00, 0x00, 0x00, 0x05, 0x00, 0x00, 0x00, 0x00, 0x00, 0x00, 0x02, 0x1c, 0x00, 0x00, 0x00, 0xf0, 0xfe, 0xff, 0xff, 0x0f, 0x00, 0x00, 0x00, 0x61, 0x72, 0x69, 0x74, 0x68, 0x2e, 0x63, 0x6f, 0x6e, 0x73, 0x74, 0x61, 0x6e, 0x74, 0x33, 0x00, 0x00, 0x00, 0x00, 0x00, 0x3a, 0xff, 0xff, 0xff, 0x00, 0x00, 0x00, 0x01, 0x10, 0x00, 0x00, 0x00, 0x10, 0x00, 0x00, 0x00, 0x04, 0x00, 0x00, 0x00, 0x1c, 0x00, 0x00, 0x00, 0x24, 0xff, 0xff, 0xff, 0x0f, 0x00, 0x00, 0x00, 0x61, 0x72, 0x69, 0x74, 0x68, 0x2e, 0x63, 0x6f, 0x6e, 0x73, 0x74, 0x61, 0x6e, 0x74, 0x32, 0x00, 0x01, 0x00, 0x00, 0x00, 0x0b, 0x00, 0x00, 0x00, 0x72, 0xff, 0xff, 0xff, 0x00, 0x00, 0x00, 0x01, 0x10, 0x00, 0x00, 0x00, 0x10, 0x00, 0x00, 0x00, 0x03, 0x00, 0x00, 0x00, 0x1c, 0x00, 0x00, 0x00, 0x5c, 0xff, 0xff, 0xff, 0x0f, 0x00, 0x00, 0x00, 0x61, 0x72, 0x69, 0x74, 0x68, 0x2e, 0x63, 0x6f, 0x6e, 0x73, 0x74, 0x61, 0x6e, 0x74, 0x31, 0x00, 0x01, 0x00, 0x00, 0x00, 0x20, 0x00, 0x00, 0x00, 0x00, 0x00, 0x16, 0x00, 0x1c, 0x00, 0x18, 0x00, 0x17, 0x00, 0x10, 0x00, 0x0c, 0x00, 0x08, 0x00, 0x00, 0x00, 0x00, 0x00, 0x00, 0x00, 0x07, 0x00, 0x16, 0x00, 0x00, 0x00, 0x00, 0x00, 0x00, 0x01, 0x14, 0x00, 0x00, 0x00, 0x14, 0x00, 0x00, 0x00, 0x02, 0x00, 0x00, 0x00, 0x00, 0x00, 0x00, 0x02, 0x1c, 0x00, 0x00, 0x00, 0xb0, 0xff, 0xff, 0xff, 0x0e, 0x00, 0x00, 0x00, 0x61, 0x72, 0x69, 0x74, 0x68, 0x2e, 0x63, 0x6f, 0x6e, 0x73, 0x74, 0x61, 0x6e, 0x74, 0x00, 0x00, 0x01, 0x00, 0x00, 0x00, 0x04, 0x00, 0x00, 0x00, 0x00, 0x00, 0x16, 0x00, 0x18, 0x00, 0x14, 0x00, 0x00, 0x00, 0x10, 0x00, 0x0c, 0x00, 0x08, 0x00, 0x00, 0x00, 0x00, 0x00, 0x00, 0x00, 0x07, 0x00, 0x16, 0x00, 0x00, 0x00, 0x00, 0x00, 0x00, 0x01, 0x14, 0x00, 0x00, 0x00, 0x14, 0x00, 0x00, 0x00, 0x01, 0x00, 0x00, 0x00, 0x14, 0x00, 0x00, 0x00, 0x04, 0x00, 0x04, 0x00, 0x04, 0x00, 0x00, 0x00, 0x01, 0x00, 0x00, 0x00, 0x78, 0x00, 0x00, 0x00, 0x03, 0x00, 0x00, 0x00, 0x01, 0x00, 0x00, 0x00, 0x64, 0x00, 0x00, 0x00, 0x05, 0x00, 0x00, 0x00, 0x06, 0x00, 0x00, 0x00, 0x74, 0x00, 0x00, 0x00, 0x54, 0x00, 0x00, 0x00, 0x38, 0x00, 0x00, 0x00, 0x28, 0x00, 0x00, 0x00, 0x14, 0x00, 0x00, 0x00, 0x04, 0x00, 0x00, 0x00, 0xb0, 0xff, 0xff, 0xff, 0x19, 0x00, 0x00, 0x00, 0x00, 0x00, 0x00, 0x19, 0xd8, 0xff, 0xff, 0xff, 0x09, 0x00, 0x00, 0x00, 0x09, 0x00, 0x00, 0x00, 0x00, 0x00, 0x00, 0x09, 0xcc, 0xff, 0xff, 0xff, 0x28, 0x00, 0x00, 0x00, 0x00, 0x00, 0x00, 0x28, 0xd8, 0xff, 0xff, 0xff, 0x11, 0x00, 0x00, 0x00, 0x00, 0x00, 0x00, 0x11, 0x0c, 0x00, 0x10, 0x00, 0x0f, 0x00, 0x00, 0x00, 0x08, 0x00, 0x04, 0x00, 0x0c, 0x00, 0x00, 0x00, 0x03, 0x00, 0x00, 0x00, 0x05, 0x00, 0x00, 0x00, 0x00, 0x00, 0x00, 0x03, 0x0c, 0x00, 0x0c, 0x00, 0x0b, 0x00, 0x00, 0x00, 0x00, 0x00, 0x04, 0x00, 0x0c, 0x00, 0x00, 0x00, 0x16, 0x00, 0x00, 0x00, 0x00, 0x00, 0x00, 0x16
};
const unsigned int model_data_len = 9408;

#endif // BSL_MODEL_H_20250717_222437
