/*
 * BSL Gesture Recognition Model
 *
 * Model Type: 1D_CNN_Arduino
 * Timestamp:  20250717_221930
 * Model Size: 9408 bytes
 * Status:     有效的TFLite模型
 * 
 * 归一化参数来自训练数据的StandardScaler
 */

#ifndef BSL_MODEL_H_20250717_221930
#define BSL_MODEL_H_20250717_221930

// 模型配置
const int BSL_MODEL_FEATURES = 5;
const int BSL_MODEL_CLASSES = 11;
const bool BSL_MODEL_VALID = true;

// 归一化参数 (StandardScaler)
const float scaler_mean[BSL_MODEL_FEATURES] = { 236.43887165f, 152.37936569f, 328.61752741f, 316.69635454f, 101.83935373f };
const float scaler_scale[BSL_MODEL_FEATURES] = { 177.03868095f, 153.40072310f, 204.37148658f, 203.09171501f, 121.78085463f };

// 归一化函数
inline void normalize_features(float* features, int length) {
    for (int i = 0; i < length && i < BSL_MODEL_FEATURES; i++) {
        features[i] = (features[i] - scaler_mean[i]) / scaler_scale[i];
    }
}

// TFLite模型数据
alignas(16) const unsigned char model_data[] = {
    0x1c, 0x00, 0x00, 0x00, 0x54, 0x46, 0x4c, 0x33, 0x14, 0x00, 0x20, 0x00, 0x1c, 0x00, 0x18, 0x00, 0x14, 0x00, 0x10, 0x00, 0x0c, 0x00, 0x00, 0x00, 0x08, 0x00, 0x04, 0x00, 0x14, 0x00, 0x00, 0x00, 0x1c, 0x00, 0x00, 0x00, 0x1c, 0x00, 0x00, 0x00, 0x74, 0x00, 0x00, 0x00, 0xd8, 0x16, 0x00, 0x00, 0xe8, 0x16, 0x00, 0x00, 0x08, 0x24, 0x00, 0x00, 0x03, 0x00, 0x00, 0x00, 0x00, 0x00, 0x00, 0x00, 0x02, 0x00, 0x00, 0x00, 0x34, 0x00, 0x00, 0x00, 0x04, 0x00, 0x00, 0x00, 0xdc, 0xff, 0xff, 0xff, 0x18, 0x00, 0x00, 0x00, 0x04, 0x00, 0x00, 0x00, 0x13, 0x00, 0x00, 0x00, 0x43, 0x4f, 0x4e, 0x56, 0x45, 0x52, 0x53, 0x49, 0x4f, 0x4e, 0x5f, 0x4d, 0x45, 0x54, 0x41, 0x44, 0x41, 0x54, 0x41, 0x00, 0x08, 0x00, 0x0c, 0x00, 0x08, 0x00, 0x04, 0x00, 0x08, 0x00, 0x00, 0x00, 0x17, 0x00, 0x00, 0x00, 0x04, 0x00, 0x00, 0x00, 0x13, 0x00, 0x00, 0x00, 0x6d, 0x69, 0x6e, 0x5f, 0x72, 0x75, 0x6e, 0x74, 0x69, 0x6d, 0x65, 0x5f, 0x76, 0x65, 0x72, 0x73, 0x69, 0x6f, 0x6e, 0x00, 0x19, 0x00, 0x00, 0x00, 0x60, 0x16, 0x00, 0x00, 0x58, 0x16, 0x00, 0x00, 0x38, 0x16, 0x00, 0x00, 0xa8, 0x15, 0x00, 0x00, 0x6c, 0x15, 0x00, 0x00, 0x58, 0x15, 0x00, 0x00, 0xc8, 0x0f, 0x00, 0x00, 0xf8, 0x0b, 0x00, 0x00, 0x68, 0x0b, 0x00, 0x00, 0x18, 0x0b, 0x00, 0x00, 0xfc, 0x0a, 0x00, 0x00, 0xec, 0x04, 0x00, 0x00, 0xdc, 0x00, 0x00, 0x00, 0xd4, 0x00, 0x00, 0x00, 0xcc, 0x00, 0x00, 0x00, 0xc4, 0x00, 0x00, 0x00, 0xbc, 0x00, 0x00, 0x00, 0xb4, 0x00, 0x00, 0x00, 0xac, 0x00, 0x00, 0x00, 0xa4, 0x00, 0x00, 0x00, 0x9c, 0x00, 0x00, 0x00, 0x94, 0x00, 0x00, 0x00, 0x8c, 0x00, 0x00, 0x00, 0x6c, 0x00, 0x00, 0x00, 0x04, 0x00, 0x00, 0x00, 0x6a, 0xe9, 0xff, 0xff, 0x04, 0x00, 0x00, 0x00, 0x58, 0x00, 0x00, 0x00, 0x0c, 0x00, 0x00, 0x00, 0x08, 0x00, 0x0e, 0x00, 0x08, 0x00, 0x04, 0x00, 0x08, 0x00, 0x00, 0x00, 0x10, 0x00, 0x00, 0x00, 0x28, 0x00, 0x00, 0x00, 0x00, 0x00, 0x06, 0x00, 0x08, 0x00, 0x04, 0x00, 0x06, 0x00, 0x00, 0x00, 0x04, 0x00, 0x00, 0x00, 0x01, 0x00, 0x00, 0x00, 0xea, 0x03, 0x00, 0x00, 0x00, 0x00, 0x0a, 0x00, 0x10, 0x00, 0x0c, 0x00, 0x08, 0x00, 0x04, 0x00, 0x0a, 0x00, 0x00, 0x00, 0x03, 0x00, 0x00, 0x00, 0x02, 0x00, 0x00, 0x00, 0x04, 0x00, 0x00, 0x00, 0x06, 0x00, 0x00, 0x00, 0x32, 0x2e, 0x31, 0x36, 0x2e, 0x32, 0x00, 0x00, 0xce, 0xe9, 0xff, 0xff, 0x04, 0x00, 0x00, 0x00, 0x10, 0x00, 0x00, 0x00, 0x32, 0x2e, 0x34, 0x2e, 0x30, 0x00, 0x00, 0x00, 0x00, 0x00, 0x00, 0x00, 0x00, 0x00, 0x00, 0x00, 0x68, 0xdd, 0xff, 0xff, 0x6c, 0xdd, 0xff, 0xff, 0x70, 0xdd, 0xff, 0xff, 0x74, 0xdd, 0xff, 0xff, 0x78, 0xdd, 0xff, 0xff, 0x7c, 0xdd, 0xff, 0xff, 0x80, 0xdd, 0xff, 0xff, 0x84, 0xdd, 0xff, 0xff, 0x88, 0xdd, 0xff, 0xff, 0x8c, 0xdd, 0xff, 0xff, 0x12, 0xea, 0xff, 0xff, 0x04, 0x00, 0x00, 0x00, 0x00, 0x04, 0x00, 0x00, 0xf0, 0x5f, 0xd3, 0xce, 0xaf, 0xc8, 0x10, 0x32, 0x24, 0x98, 0xf4, 0x15, 0xdb, 0xc7, 0xfb, 0xde, 0x48, 0xe4, 0x1a, 0x25, 0xd4, 0xb8, 0xe4, 0xca, 0xc3, 0x3e, 0xb8, 0x53, 0x68, 0xaa, 0xd7, 0x26, 0x15, 0x2e, 0x50, 0xae, 0xa7, 0xb0, 0xe7, 0xeb, 0xc0, 0xfe, 0x28, 0x2c, 0x0c, 0x0c, 0x3c, 0xc9, 0x06, 0xf6, 0xfc, 0xc8, 0x0a, 0xc0, 0xf7, 0x0c, 0xd5, 0xe2, 0x3e, 0x50, 0x20, 0xac, 0x1c, 0x50, 0xe5, 0xeb, 0xbc, 0x26, 0xd9, 0x1c, 0x23, 0x27, 0x15, 0xce, 0x21, 0x05, 0xee, 0x11, 0xc9, 0x40, 0xd7, 0x1d, 0xf7, 0x2b, 0xbb, 0xbd, 0xe3, 0x09, 0xda, 0xb5, 0xea, 0xc2, 0x2c, 0xc6, 0xcf, 0xf6, 0x05, 0xd7, 0x49, 0x57, 0xab, 0x55, 0xfe, 0x29, 0xe5, 0xee, 0xb0, 0xec, 0x64, 0x2f, 0x44, 0xcb, 0x1d, 0x17, 0x60, 0xc7, 0x39, 0x4c, 0xff, 0x40, 0x2b, 0xe7, 0x04, 0xba, 0x18, 0xe0, 0x3c, 0x16, 0x3e, 0x09, 0xe7, 0x02, 0xf9, 0x1d, 0x01, 0xe6, 0xf6, 0x55, 0xdf, 0x2e, 0xdd, 0x3e, 0x05, 0x54, 0x05, 0x36, 0x4f, 0xeb, 0xd1, 0x15, 0xfa, 0x21, 0x15, 0x43, 0x2a, 0xfd, 0xce, 0xe9, 0xfb, 0x16, 0x0a, 0x20, 0x1a, 0xfc, 0xcf, 0x05, 0x2d, 0xa5, 0xfb, 0x96, 0xff, 0xf9, 0x9d, 0x99, 0x2d, 0x58, 0x04, 0xf8, 0x1a, 0xc7, 0x06, 0xf2, 0xa6, 0xb4, 0xe9, 0xf0, 0x02, 0xe2, 0x61, 0xe4, 0xd3, 0x28, 0x1f, 0x39, 0xfb, 0xc6, 0x00, 0x98, 0xd0, 0x3e, 0xd1, 0x58, 0xee, 0x3a, 0x16, 0x30, 0x2e, 0xfa, 0x32, 0x1e, 0x35, 0x2b, 0x17, 0xd5, 0xd2, 0x3d, 0xf8, 0x3e, 0xf1, 0x20, 0x0b, 0xef, 0x3a, 0xd5, 0x1d, 0xbd, 0x37, 0xc3, 0xe6, 0xee, 0xb7, 0xb6, 0xc1, 0xf1, 0x21, 0xeb, 0xbc, 0xd5, 0xd8, 0xc4, 0x43, 0x3a, 0xe5, 0xeb, 0x24, 0x1c, 0xb8, 0xba, 0xbc, 0x3d, 0xd9, 0xf0, 0xda, 0xf5, 0x29, 0x2f, 0xea, 0x09, 0x44, 0x05, 0x2e, 0x1b, 0xd7, 0x18, 0xc7, 0x10, 0x17, 0xf1, 0xd0, 0x3a, 0xdd, 0x13, 0xd8, 0xd1, 0x14, 0x12, 0xbf, 0x37, 0xd4, 0x48, 0x01, 0xaf, 0xec, 0xe9, 0xd3, 0x2f, 0xd0, 0x1d, 0x0f, 0x0c, 0xa3, 0xe0, 0xe3, 0xe7, 0x26, 0x4f, 0x13, 0xe2, 0x66, 0xd9, 0xc4, 0xd0, 0x1c, 0x1e, 0xd1, 0xe6, 0x01, 0x43, 0xe9, 0x0d, 0xea, 0x05, 0x36, 0x54, 0x16, 0x32, 0x2b, 0x03, 0x43, 0xe0, 0xfd, 0x26, 0xfd, 0xf7, 0x31, 0x1f, 0x1c, 0xfb, 0x4e, 0x24, 0x96, 0x3c, 0xfe, 0x13, 0x3e, 0x9c, 0xd3, 0x3a, 0x4d, 0x1e, 0x65, 0xf0, 0xce, 0x27, 0xed, 0xe2, 0x45, 0x10, 0xf8, 0xd5, 0xfc, 0xb0, 0x3d, 0x02, 0xf0, 0x00, 0xe2, 0x2c, 0x23, 0x29, 0x42, 0x35, 0x97, 0xda, 0x12, 0x41, 0xe3, 0x31, 0xe4, 0x11, 0x1c, 0x34, 0x40, 0xf1, 0xe0, 0xcb, 0x2a, 0xff, 0xc5, 0x2e, 0x07, 0x32, 0x38, 0xef, 0x35, 0x30, 0x0c, 0x0d, 0x3e, 0x1b, 0x08, 0x35, 0x12, 0xd5, 0xcb, 0x0b, 0xcb, 0xd2, 0xaf, 0xfc, 0xc3, 0xa1, 0xff, 0xe2, 0xf8, 0x28, 0xb7, 0x34, 0x36, 0x35, 0xfe, 0x1a, 0x39, 0x3b, 0x1c, 0xfd, 0xf6, 0xfe, 0xae, 0x42, 0x11, 0x25, 0xc9, 0x41, 0x47, 0xd0, 0xb4, 0x24, 0x19, 0xe2, 0xc0, 0x0c, 0x31, 0x3e, 0xd3, 0xcf, 0x13, 0x47, 0xdb, 0xe8, 0xf0, 0x46, 0xcc, 0x2d, 0x39, 0xfc, 0x4b, 0xd6, 0xc6, 0x02, 0xe8, 0xe8, 0x34, 0x0e, 0x11, 0x27, 0x17, 0x4b, 0x6c, 0xae, 0x09, 0x54, 0xbc, 0x1c, 0xe6, 0x40, 0x1d, 0x09, 0xd6, 0x3c, 0x11, 0x2e, 0xc7, 0xd3, 0x14, 0x49, 0x36, 0x5c, 0x24, 0x42, 0xee, 0x42, 0xd6, 0xb1, 0x5f, 0x3f, 0x3a, 0xdb, 0xc9, 0xf0, 0x26, 0x1f, 0xf7, 0x28, 0x34, 0x25, 0x2c, 0xa4, 0xca, 0x5b, 0xca, 0x20, 0xfb, 0x64, 0xd3, 0xd0, 0x41, 0xe0, 0xc9, 0xf8, 0x05, 0xff, 0xf5, 0xf3, 0xfc, 0x25, 0x34, 0x08, 0xe5, 0xdd, 0xfb, 0x41, 0xac, 0x1f, 0x2c, 0xbb, 0x1c, 0x56, 0x03, 0x3f, 0x03, 0xe0, 0xde, 0x03, 0xfa, 0xf9, 0xe2, 0xbd, 0x0e, 0x2f, 0x3e, 0xc1, 0x32, 0x4a, 0x07, 0xd3, 0x5d, 0xb4, 0x34, 0x29, 0x19, 0x49, 0xd1, 0x58, 0x54, 0x2d, 0xe3, 0x45, 0xaf, 0xfc, 0x5b, 0x06, 0xe8, 0x5e, 0xc1, 0xdd, 0xec, 0x28, 0x27, 0x03, 0x42, 0xfb, 0xfd, 0x2c, 0xb3, 0x05, 0xe8, 0xbc, 0xdc, 0xca, 0x30, 0xc8, 0xb8, 0xef, 0x1a, 0x3c, 0x04, 0xbb, 0x0e, 0x06, 0x04, 0xda, 0xb4, 0xd5, 0x0e, 0xbc, 0x21, 0xf5, 0x0d, 0x0b, 0x3d, 0x23, 0x34, 0xd6, 0xd8, 0x10, 0xee, 0x29, 0x44, 0xe3, 0x51, 0xd8, 0x06, 0xf3, 0x4f, 0xe2, 0xce, 0x12, 0xdb, 0x04, 0xf8, 0xba, 0x34, 0xf3, 0xf9, 0xf5, 0x28, 0x39, 0xe6, 0xfa, 0x7f, 0x08, 0xec, 0x24, 0xdc, 0x07, 0x59, 0xb1, 0xf6, 0x5e, 0xaf, 0xd5, 0xec, 0xf2, 0xc4, 0xf5, 0x06, 0x0d, 0x20, 0xc2, 0xc1, 0x5a, 0x1a, 0xf6, 0xf4, 0xc5, 0x05, 0x28, 0xbd, 0xe4, 0x60, 0x52, 0x11, 0xaa, 0x0f, 0x12, 0xbd, 0xf5, 0x5a, 0x19, 0x61, 0xe4, 0x35, 0xf1, 0xc6, 0x0b, 0x34, 0x9c, 0xba, 0x33, 0x44, 0xd4, 0x1c, 0xb9, 0xdf, 0x30, 0x17, 0xc5, 0xb6, 0x31, 0x5e, 0x2f, 0x9e, 0x3e, 0xcb, 0x39, 0x43, 0x08, 0x2a, 0xfa, 0x04, 0x00, 0x24, 0xc6, 0xad, 0xc5, 0xd6, 0x26, 0x06, 0x26, 0x65, 0x54, 0x1f, 0xd2, 0x43, 0x40, 0x3d, 0xb8, 0xef, 0x1f, 0x47, 0xcb, 0xaa, 0x47, 0x04, 0xe8, 0xdd, 0xd5, 0xfe, 0xc6, 0x14, 0x0b, 0x4f, 0x18, 0x26, 0x36, 0xf9, 0x14, 0x16, 0x30, 0xc5, 0x3e, 0xf5, 0xb5, 0x21, 0x3d, 0xf2, 0x0c, 0x63, 0x72, 0xfe, 0xed, 0x3b, 0x1e, 0x42, 0xbd, 0x6a, 0xe8, 0x4b, 0xf0, 0xee, 0xdb, 0x65, 0x22, 0xa8, 0x69, 0xed, 0x24, 0x3e, 0x2b, 0xf8, 0x08, 0x4d, 0x46, 0x07, 0x2c, 0xeb, 0x43, 0x13, 0x0d, 0xfb, 0x4f, 0xcc, 0xae, 0x4b, 0xe1, 0x16, 0x1f, 0x32, 0x48, 0x2c, 0xe3, 0x47, 0xd0, 0xe3, 0xe2, 0xe7, 0x50, 0x07, 0x13, 0xbf, 0xba, 0x26, 0x0d, 0xf8, 0x30, 0x4d, 0xb3, 0xc5, 0x30, 0x1c, 0x0e, 0x3a, 0xf5, 0xea, 0x16, 0x55, 0x11, 0x01, 0x05, 0xec, 0x37, 0xb0, 0x51, 0xf3, 0x3b, 0x0d, 0x61, 0xe1, 0x16, 0xfa, 0x58, 0x25, 0xe4, 0xd1, 0xf5, 0x14, 0xc3, 0x2b, 0x0e, 0x32, 0x13, 0x0a, 0xe9, 0xe9, 0xf7, 0xd2, 0xec, 0xfc, 0xd2, 0xe7, 0xe7, 0xe8, 0x2d, 0xc7, 0x30, 0x19, 0xc4, 0xd8, 0xd0, 0x01, 0x53, 0x4e, 0x24, 0xf2, 0xef, 0xbd, 0xf2, 0x0b, 0x1c, 0x0f, 0xd2, 0xfd, 0x0d, 0x1a, 0x39, 0xd9, 0xd8, 0x36, 0x32, 0x40, 0x1c, 0xfb, 0xf1, 0x47, 0x35, 0x19, 0x2f, 0xc3, 0xbe, 0x06, 0xe0, 0xd5, 0xe1, 0xd1, 0xdd, 0x4e, 0xc7, 0x38, 0xfc, 0x4f, 0x40, 0xbf, 0x1a, 0xf8, 0xec, 0x1b, 0x1d, 0x0e, 0x31, 0x54, 0xf6, 0x43, 0x2f, 0x28, 0xfd, 0xf7, 0xef, 0xeb, 0x2b, 0x17, 0xd3, 0x70, 0x0f, 0xf1, 0x2b, 0xed, 0x41, 0xe4, 0x0c, 0xd3, 0xe9, 0x09, 0xad, 0xe7, 0x46, 0x08, 0x25, 0x46, 0x33, 0xdf, 0xac, 0x02, 0xe6, 0xf9, 0xec, 0x2c, 0xe7, 0x12, 0xe9, 0xe9, 0xed, 0x0f, 0x3c, 0xba, 0xe9, 0xc8, 0xd5, 0xf3, 0xd8, 0x98, 0xf0, 0xcc, 0xc0, 0xb7, 0xe0, 0x44, 0xf0, 0xed, 0x1e, 0xf4, 0xde, 0xea, 0x07, 0x1e, 0x11, 0xfd, 0x1b, 0x9a, 0xfd, 0x47, 0xed, 0x07, 0xe1, 0xf4, 0xd2, 0xb6, 0x53, 0x3c, 0x02, 0xf0, 0x15, 0x23, 0x1c, 0xf8, 0xe1, 0xf3, 0xea, 0xb6, 0xf8, 0xf5, 0x67, 0x3a, 0x30, 0x06, 0x1b, 0x45, 0xea, 0xe7, 0xb5, 0x52, 0xe3, 0xad, 0x28, 0xfe, 0x5a, 0x3c, 0xbc, 0x05, 0xe1, 0x41, 0xec, 0x2a, 0x47, 0x1e, 0xee, 0xff, 0xff, 0x04, 0x00, 0x00, 0x00, 0x00, 0x06, 0x00, 0x00, 0xf8, 0x2f, 0xf7, 0x4e, 0xb0, 0x54, 0x5e, 0xed, 0xff, 0xb1, 0x36, 0x0b, 0x00, 0xb8, 0x7f, 0xad, 0x31, 0xdd, 0xbe, 0xa8, 0xd3, 0xaf, 0x6d, 0xc1, 0x35, 0xd6, 0x79, 0x06, 0x2d, 0x06, 0x48, 0x89, 0xc2, 0x69, 0x35, 0xc2, 0x96, 0xe4, 0x41, 0x32, 0x66, 0xa1, 0x3d, 0x39, 0x5e, 0xb5, 0xdf, 0x0c, 0x7c, 0x5d, 0xa7, 0xde, 0x83, 0xdb, 0xf3, 0x3a, 0x5b, 0x39, 0x44, 0xc7, 0x35, 0x7c, 0x6c, 0x81, 0x59, 0x1d, 0xd4, 0x6d, 0xc2, 0xdf, 0x72, 0x14, 0x26, 0x49, 0xe2, 0x3f, 0x2f, 0xf7, 0x5e, 0xb4, 0x28, 0x1f, 0x54, 0x59, 0xe4, 0xcd, 0x6c, 0xeb, 0x2a, 0x43, 0x4b, 0x26, 0x2b, 0x6c, 0x44, 0xa8, 0x21, 0xfb, 0x31, 0xc2, 0xf1, 0x96, 0xcb, 0x26, 0xbb, 0x35, 0x7c, 0x34, 0x0e, 0x16, 0xca, 0xd4, 0xe2, 0xe8, 0xb0, 0x3f, 0x4b, 0x2c, 0x50, 0x04, 0x00, 0x19, 0x50, 0x22, 0x5d, 0x16, 0xd7, 0x81, 0x53, 0x00, 0xb5, 0xb7, 0x74, 0xc7, 0x2c, 0xbd, 0x0d, 0xbe, 0x4b, 0x4c, 0x4a, 0x25, 0xb8, 0xd4, 0x66, 0xd1, 0x18, 0xea, 0x19, 0x09, 0xee, 0x38, 0x4f, 0xdd, 0xf8, 0xf4, 0xfd, 0xda, 0x65, 0xf5, 0x05, 0x38, 0x4b, 0xb8, 0x7f, 0x13, 0xc3, 0x2b, 0x17, 0xa0, 0x55, 0xc9, 0xf4, 0xbf, 0x4f, 0x1a, 0x48, 0x09, 0x0c, 0xe5, 0xd5, 0xf2, 0xbe, 0xc8, 0xd5, 0x31, 0xa8, 0x23, 0xe2, 0xe1, 0x42, 0xe2, 0x29, 0xd5, 0x71, 0x29, 0xc0, 0xfd, 0x23, 0xa7, 0xbe, 0x3c, 0x4b, 0x10, 0xdc, 0x88, 0xd4, 0x19, 0x0d, 0x5f, 0x35, 0xcb, 0xc6, 0xd3, 0x2e, 0x36, 0x34, 0x7f, 0x4b, 0x60, 0xb1, 0xa7, 0x0d, 0x44, 0x44, 0x1b, 0x02, 0xec, 0x91, 0x61, 0xaf, 0x96, 0xe3, 0x1a, 0x07, 0xea, 0xb0, 0xa9, 0x32, 0x31, 0x2f, 0x21, 0x12, 0x9a, 0x6b, 0xb7, 0xd0, 0xb6, 0x57, 0x31, 0x7f, 0xc2, 0xf9, 0x9a, 0xfd, 0x46, 0x0e, 0xae, 0x44, 0x9e, 0x0a, 0x87, 0x2f, 0xe0, 0x48, 0x01, 0x07, 0x08, 0x19, 0xc2, 0x0b, 0x2d, 0x59, 0x18, 0x18, 0xb5, 0x06, 0xc7, 0x25, 0x17, 0x2c, 0xd2, 0xe4, 0xb3, 0xd0, 0xfb, 0xf8, 0xf9, 0xef, 0x43, 0x74, 0x7b, 0x75, 0x66, 0x5c, 0x6f, 0x19, 0xf2, 0x1f, 0x4d, 0xf9, 0x18, 0xc5, 0x61, 0xe5, 0xdc, 0x3f, 0xe1, 0xe5, 0x02, 0xd7, 0x22, 0x56, 0x62, 0xed, 0xfa, 0x47, 0xfc, 0xe9, 0x7f, 0x44, 0x43, 0xfb, 0x37, 0x01, 0x40, 0xd5, 0x0a, 0x02, 0x4f, 0x2d, 0xbd, 0xdb, 0x07, 0xa0, 0x70, 0xcc, 0x08, 0xde, 0x20, 0xfe, 0x42, 0xc4, 0x07, 0x1d, 0x7b, 0x33, 0x5d, 0x4d, 0x21, 0x33, 0xcf, 0x13, 0x6d, 0xbe, 0xbd, 0xd3, 0x51, 0xce, 0xdb, 0x2d, 0x74, 0x05, 0x1d, 0xff, 0xd8, 0x6d, 0xf6, 0xe9, 0x7f, 0xe2, 0xe9, 0xd0, 0x45, 0x21, 0xf7, 0x20, 0x48, 0xb8, 0xf5, 0x0f, 0x24, 0x0f, 0xd6, 0x16, 0x1b, 0x45, 0x1d, 0x4d, 0x29, 0xd1, 0xdb, 0x2c, 0x08, 0x03, 0x5b, 0xcc, 0xcc, 0x7f, 0xf9, 0xe9, 0x6c, 0xbc, 0x06, 0x66, 0x58, 0x14, 0x18, 0xfb, 0xdf, 0xa5, 0x5e, 0xeb, 0xc4, 0x51, 0xfb, 0x5d, 0x5d, 0xe4, 0xa7, 0x7f, 0x6b, 0xc3, 0xe2, 0xf9, 0xfd, 0x07, 0xed, 0xb8, 0x11, 0x5b, 0x15, 0xac, 0x35, 0x22, 0x0e, 0xea, 0xba, 0x20, 0xf6, 0x47, 0x78, 0x7f, 0x67, 0x1e, 0x0b, 0x58, 0xe1, 0xb8, 0x97, 0xc1, 0xfd, 0x23, 0xb2, 0xe9, 0xb3, 0x0f, 0xe4, 0x3b, 0xdf, 0x55, 0x20, 0x1d, 0xce, 0x99, 0xfe, 0xf0, 0x2b, 0xd5, 0xe9, 0x20, 0x1d, 0xe9, 0x27, 0x4a, 0x66, 0x1e, 0xdd, 0xc8, 0x38, 0xcf, 0x21, 0x56, 0x59, 0xbc, 0x8e, 0x01, 0x07, 0x34, 0xf3, 0x61, 0xfb, 0xe0, 0x3d, 0xed, 0x63, 0x1e, 0x14, 0x33, 0xe2, 0xcb, 0xf6, 0xb5, 0x33, 0xcb, 0x52, 0xfe, 0xc0, 0x81, 0xe4, 0xd4, 0x3d, 0xc6, 0xc9, 0x4c, 0xbd, 0xd0, 0xa1, 0xd2, 0x67, 0xcb, 0x7a, 0xdb, 0x28, 0x0b, 0xde, 0x27, 0x58, 0x30, 0xe8, 0xe1, 0x42, 0xbe, 0x37, 0x46, 0x23, 0xf1, 0x41, 0x4c, 0x26, 0x5a, 0x62, 0xe9, 0x13, 0x02, 0xdd, 0xde, 0x11, 0xa3, 0x48, 0x52, 0x3e, 0x07, 0x1e, 0xef, 0x5b, 0x7f, 0x32, 0xfa, 0x9e, 0x1f, 0x1f, 0xe9, 0x2e, 0xc0, 0x5d, 0xe9, 0x38, 0x12, 0x63, 0x58, 0xf6, 0x5d, 0x24, 0xc8, 0xdd, 0x1e, 0xfc, 0xd4, 0xac, 0x7f, 0xbc, 0xf0, 0xe8, 0xee, 0x4e, 0x48, 0x0f, 0x09, 0xca, 0xcc, 0x12, 0x53, 0x10, 0x22, 0xa0, 0x3d, 0x9b, 0x3a, 0xa6, 0x51, 0xc0, 0x6a, 0xd1, 0x66, 0xe0, 0xf7, 0x46, 0x26, 0xf4, 0x5d, 0xf5, 0xfa, 0x14, 0x4c, 0xf7, 0x58, 0xbd, 0x35, 0xff, 0xdb, 0xd8, 0xec, 0xf1, 0xdd, 0xcd, 0x24, 0x8e, 0x2b, 0xa4, 0x27, 0xcb, 0x1f, 0x63, 0x73, 0x37, 0xa9, 0xe7, 0xf7, 0xbf, 0x4e, 0xa7, 0x11, 0x89, 0x7f, 0xaa, 0x49, 0x01, 0xf0, 0x44, 0xea, 0x42, 0x35, 0x14, 0x6e, 0x1f, 0x3d, 0x1e, 0x0b, 0xc6, 0x78, 0xf7, 0x64, 0xf7, 0xcb, 0xdb, 0x3e, 0xe7, 0x27, 0x09, 0x5a, 0x0e, 0xc3, 0x10, 0xca, 0x3c, 0xd1, 0xc0, 0xb3, 0x5f, 0xfc, 0xc2, 0x53, 0xca, 0x5f, 0x65, 0x36, 0xa2, 0x25, 0xda, 0xd8, 0xf8, 0x25, 0x00, 0x46, 0x57, 0x74, 0xc8, 0xde, 0x18, 0xee, 0xe3, 0x57, 0x2c, 0xf1, 0xe7, 0x90, 0x36, 0x47, 0x23, 0x06, 0xbc, 0x3c, 0x87, 0x5c, 0xfb, 0x7f, 0xc8, 0x4c, 0xee, 0xbb, 0xaa, 0xdf, 0x4c, 0x81, 0xc8, 0xcb, 0x08, 0xae, 0xd7, 0x5d, 0x6b, 0x15, 0x4b, 0xbd, 0x17, 0x1d, 0x47, 0x5a, 0x24, 0x27, 0x55, 0x2c, 0x29, 0xa8, 0xf3, 0x6b, 0x0b, 0x22, 0x58, 0x01, 0xcf, 0x55, 0xe0, 0xd3, 0xac, 0xc1, 0x15, 0xc0, 0xc8, 0xfa, 0x58, 0xe5, 0xfe, 0xe7, 0x75, 0xd9, 0x4e, 0x1f, 0xee, 0x36, 0x53, 0xb3, 0x47, 0xfb, 0x4a, 0x20, 0x26, 0x59, 0x2d, 0x33, 0xe9, 0x81, 0x01, 0x20, 0xe3, 0x28, 0xbe, 0x5a, 0xc2, 0x25, 0xd3, 0xdd, 0x41, 0x4f, 0x18, 0x7e, 0xe1, 0x07, 0x02, 0x53, 0xe1, 0x67, 0x2c, 0xc1, 0x03, 0x6d, 0x20, 0xf2, 0x51, 0x64, 0x3c, 0xf1, 0xec, 0x0d, 0x3e, 0x23, 0xd2, 0xcc, 0xe5, 0x0c, 0x1f, 0x22, 0x35, 0xc2, 0x04, 0xfb, 0x6d, 0xc2, 0xac, 0x7f, 0x0a, 0x23, 0xf2, 0xc3, 0x1c, 0x2a, 0x2b, 0xdd, 0x33, 0x02, 0xc3, 0x0a, 0xf1, 0x26, 0x1a, 0xed, 0x1c, 0xbb, 0xc7, 0xc9, 0xf7, 0x1d, 0xed, 0x13, 0xe7, 0xf1, 0xc4, 0x22, 0xff, 0x13, 0x1e, 0xd6, 0xd7, 0xfc, 0x5b, 0xab, 0xe4, 0xce, 0xa5, 0x54, 0xe8, 0x60, 0x91, 0x4e, 0xe6, 0x12, 0xca, 0x5b, 0xe3, 0x21, 0x40, 0x3a, 0xa0, 0x49, 0xb0, 0x06, 0xb4, 0xed, 0x26, 0x49, 0x62, 0xeb, 0x15, 0x27, 0x24, 0x68, 0xda, 0xf4, 0x81, 0xd9, 0xb0, 0x42, 0x90, 0x3c, 0x15, 0x2a, 0xff, 0x54, 0x2e, 0x1d, 0xf6, 0x97, 0x14, 0x17, 0xd0, 0xbd, 0x78, 0x3d, 0xca, 0xfa, 0x53, 0xd4, 0x07, 0x42, 0xa8, 0x38, 0x52, 0xfe, 0x59, 0x1e, 0x44, 0x0c, 0x45, 0xba, 0x59, 0xc6, 0x00, 0x39, 0xd5, 0x57, 0xdc, 0xeb, 0x1c, 0xb3, 0x10, 0x1f, 0xec, 0x81, 0x72, 0xde, 0x1d, 0x2b, 0xfd, 0x65, 0x46, 0xda, 0xc2, 0xcb, 0x48, 0x39, 0xc5, 0xed, 0x33, 0x7f, 0xb6, 0xd0, 0xe7, 0x05, 0x26, 0x49, 0xe7, 0xf7, 0xbf, 0x42, 0xc4, 0x21, 0xc3, 0x41, 0xe5, 0x60, 0x0f, 0xe0, 0x2f, 0x4a, 0xba, 0x2a, 0xee, 0xd1, 0xd7, 0xe0, 0x17, 0x3b, 0xc0, 0x05, 0x36, 0x60, 0xeb, 0x46, 0xfa, 0x5c, 0xc9, 0x25, 0xd2, 0x42, 0x1f, 0xfb, 0xad, 0x3a, 0xd1, 0x14, 0xad, 0x42, 0x40, 0x26, 0x37, 0xf5, 0xaa, 0x0c, 0x3b, 0xaa, 0x0e, 0x77, 0x59, 0x58, 0x1c, 0xfc, 0x0b, 0x76, 0x39, 0x4b, 0xa1, 0xbe, 0xb1, 0x69, 0x4f, 0xc9, 0x10, 0x5d, 0x07, 0xca, 0x55, 0x3f, 0xbe, 0x3f, 0x16, 0xd2, 0x8e, 0xee, 0x25, 0x55, 0x49, 0x02, 0x81, 0x59, 0x26, 0xa3, 0xa0, 0x00, 0xe2, 0x79, 0x2b, 0x3b, 0x2c, 0xdd, 0xae, 0x7f, 0xa6, 0x1d, 0x95, 0x10, 0x26, 0x4b, 0xbc, 0x3f, 0xda, 0x2c, 0xa4, 0xef, 0xe7, 0x7d, 0xee, 0xc2, 0x9f, 0x72, 0xa1, 0x43, 0xe8, 0x89, 0x59, 0xa4, 0x3b, 0x74, 0x13, 0x51, 0xe5, 0xfe, 0x03, 0xf8, 0xf3, 0x77, 0xa1, 0x6e, 0xe2, 0xda, 0xf0, 0x72, 0xfa, 0xf2, 0xa2, 0xd3, 0xd8, 0x91, 0x0f, 0x58, 0xf7, 0x92, 0xd1, 0x67, 0x05, 0xa8, 0xe0, 0xf0, 0x38, 0xf1, 0xdb, 0xb6, 0xd6, 0x10, 0x1c, 0x32, 0x67, 0xe5, 0xe9, 0xef, 0xea, 0x15, 0x01, 0x55, 0xc3, 0x13, 0xc4, 0xc8, 0x98, 0xd7, 0x5e, 0x26, 0x0b, 0x81, 0xc2, 0x03, 0xe2, 0x8b, 0xdf, 0x8d, 0xdc, 0x5d, 0x07, 0xbb, 0x3a, 0xe6, 0x2a, 0x2a, 0x66, 0x49, 0xd0, 0x4f, 0xd6, 0xd0, 0x5f, 0xab, 0x09, 0xd9, 0x1b, 0x45, 0x21, 0xf4, 0xe7, 0xf2, 0x46, 0x2e, 0x11, 0x56, 0x13, 0xc3, 0x0f, 0x11, 0xac, 0x33, 0x18, 0x22, 0x07, 0xfd, 0xca, 0x03, 0x64, 0x40, 0x8d, 0x7f, 0x03, 0x4e, 0x14, 0xc2, 0x68, 0xcb, 0x07, 0xfe, 0x40, 0xf5, 0xd2, 0xa5, 0x0e, 0xdf, 0xdf, 0xdb, 0x16, 0xdc, 0xef, 0xfe, 0x43, 0xc4, 0xed, 0x59, 0x1e, 0x23, 0xc7, 0x81, 0x0a, 0xea, 0xe3, 0xac, 0xc8, 0x61, 0x1b, 0x43, 0x49, 0x9d, 0x11, 0xed, 0x70, 0x0a, 0x46, 0xfb, 0xf2, 0x01, 0x24, 0x09, 0x2d, 0xaa, 0xd1, 0x25, 0xc0, 0x2a, 0x25, 0x49, 0xf6, 0x24, 0xff, 0x7a, 0x3d, 0xed, 0xff, 0x1e, 0x59, 0xe5, 0xd2, 0x18, 0xbf, 0x1d, 0x9c, 0x45, 0xe1, 0x30, 0x3d, 0x0f, 0x07, 0xef, 0xb6, 0x11, 0x4a, 0xbf, 0xe9, 0xfd, 0xf6, 0xf7, 0x28, 0xec, 0x33, 0x12, 0xe1, 0x7f, 0xde, 0x48, 0xbe, 0x25, 0xd3, 0x7e, 0xb5, 0x08, 0x0f, 0xfb, 0x24, 0x0e, 0xe8, 0x4f, 0xbb, 0x81, 0xc6, 0x4f, 0x78, 0xad, 0x62, 0x02, 0xd2, 0x1e, 0x2c, 0x47, 0xca, 0x64, 0x44, 0x64, 0x41, 0xfc, 0x11, 0xe5, 0x3b, 0xc7, 0x72, 0x3d, 0xa3, 0xcb, 0xf3, 0x33, 0x15, 0x2b, 0x18, 0x69, 0xf2, 0xb5, 0x07, 0xe5, 0x00, 0xfb, 0x55, 0x5f, 0x09, 0xe9, 0x67, 0xb4, 0x3a, 0x57, 0x29, 0x4f, 0xeb, 0x1c, 0xce, 0x14, 0x46, 0xeb, 0x24, 0x41, 0x03, 0x27, 0x11, 0xc1, 0xcc, 0x77, 0x44, 0x53, 0xfd, 0xaa, 0x35, 0x29, 0x68, 0x5d, 0x4a, 0x06, 0xe7, 0x25, 0x59, 0x3a, 0x27, 0x25, 0x71, 0x25, 0x29, 0xf6, 0xd9, 0x79, 0x7f, 0xcd, 0xe8, 0x0a, 0x2d, 0x54, 0xb2, 0x6c, 0xc5, 0xfc, 0x35, 0x40, 0x4c, 0x4c, 0x6b, 0xfa, 0x1c, 0xc6, 0xea, 0x54, 0x35, 0x5a, 0xcc, 0x37, 0xf7, 0x0d, 0xc0, 0x5a, 0x51, 0xf1, 0x2d, 0xc2, 0x9a, 0xda, 0x18, 0x1a, 0x47, 0x7f, 0xd6, 0x6b, 0xd4, 0xde, 0x10, 0x34, 0x58, 0xf8, 0x1e, 0xc0, 0x88, 0x4d, 0xfb, 0xef, 0x7f, 0x0d, 0x9c, 0x7b, 0x35, 0xe7, 0x94, 0xe1, 0xfa, 0x1f, 0x3e, 0xeb, 0x33, 0x6e, 0xf5, 0xf1, 0x3a, 0x32, 0xc1, 0x00, 0x62, 0xe8, 0xf1, 0x67, 0x5b, 0x2c, 0x17, 0xfe, 0xd3, 0x36, 0x14, 0x1c, 0x22, 0xf0, 0x22, 0x76, 0x4d, 0xff, 0x12, 0x14, 0x0b, 0xf6, 0x11, 0xc8, 0xce, 0x0e, 0x01, 0xc8, 0xb7, 0x39, 0xe6, 0x45, 0x52, 0x1f, 0xfe, 0xf7, 0x37, 0x56, 0x14, 0x6e, 0x49, 0xb2, 0x0f, 0xd8, 0xdf, 0x27, 0xda, 0x48, 0xbe, 0x3b, 0x02, 0x47, 0x17, 0x20, 0xeb, 0xdf, 0xf3, 0xe9, 0x7f, 0x2a, 0xae, 0x3f, 0xd2, 0xf2, 0x4d, 0xf0, 0x65, 0xf4, 0xff, 0x34, 0x24, 0x75, 0x21, 0x10, 0x3d, 0x2a, 0xf4, 0xff, 0xff, 0x04, 0x00, 0x00, 0x00, 0x0c, 0x00, 0x00, 0x00, 0x01, 0x00, 0x00, 0x00, 0x17, 0x00, 0x00, 0x00, 0x20, 0x00, 0x00, 0x00, 0x42, 0xf4, 0xff, 0xff, 0x04, 0x00, 0x00, 0x00, 0x40, 0x00, 0x00, 0x00, 0x2f, 0xf2, 0x93, 0x3d, 0x09, 0x4e, 0xa6, 0x3d, 0x87, 0x6e, 0x33, 0x3e, 0xc3, 0x13, 0x08, 0x3d, 0xbc, 0xe6, 0xd4, 0x3d, 0x6f, 0x19, 0x3e, 0x3d, 0x9b, 0x0b, 0x42, 0x3e, 0x44, 0x3d, 0x1c, 0x3e, 0x75, 0x89, 0x28, 0x3e, 0x9d, 0x71, 0xfe, 0x3d, 0x9a, 0x58, 0x35, 0x3e, 0xb8, 0x70, 0xe7, 0x3d, 0x90, 0xa4, 0x08, 0x3e, 0x6a, 0x34, 0xa5, 0x3d, 0x7e, 0xe1, 0x94, 0x3d, 0x5b, 0xb0, 0xc1, 0x3d, 0x8e, 0xf4, 0xff, 0xff, 0x04, 0x00, 0x00, 0x00, 0x80, 0x00, 0x00, 0x00, 0x24, 0x46, 0x2f, 0x3d, 0xdc, 0x77, 0xac, 0xbc, 0x34, 0xb2, 0x6d, 0x3d, 0xab, 0xe3, 0x63, 0xbc, 0x59, 0x59, 0x5b, 0x3d, 0x22, 0x24, 0xc4, 0x3d, 0xb0, 0x0a, 0xbf, 0x3d, 0xcb, 0x39, 0x92, 0x3d, 0xd0, 0x26, 0x20, 0x3d, 0x30, 0x71, 0xa3, 0x3d, 0x70, 0x51, 0xd0, 0x3d, 0x2d, 0x27, 0xa7, 0x3d, 0x01, 0x87, 0xf3, 0x3d, 0x09, 0x77, 0xca, 0x3d, 0x7f, 0x86, 0x42, 0x3d, 0x86, 0xbd, 0xbe, 0x3c, 0x57, 0x5e, 0x69, 0x3d, 0x1e, 0x3f, 0x0d, 0xbd, 0xb7, 0x7b, 0x0c, 0x3c, 0x73, 0x56, 0x68, 0x3d, 0x1d, 0xe2, 0x5d, 0x3d, 0xa4, 0x9b, 0x17, 0x3d, 0x44, 0x69, 0x4d, 0x3d, 0xa4, 0x71, 0xea, 0x3c, 0xb2, 0xbf, 0x70, 0x3d, 0x6c, 0x5f, 0xed, 0x3b, 0x08, 0xb9, 0xd1, 0x3d, 0xe1, 0x8d, 0x11, 0x3d, 0xe4, 0x79, 0x92, 0x3d, 0x81, 0x19, 0x01, 0x3e, 0xe7, 0x13, 0x0c, 0x3e, 0x69, 0x63, 0x12, 0x3e, 0x1a, 0xf5, 0xff, 0xff, 0x04, 0x00, 0x00, 0x00, 0xc0, 0x03, 0x00, 0x00, 0xa3, 0x19, 0xe4, 0xbe, 0x6f, 0x5c, 0x18, 0xbe, 0xc9, 0x2f, 0x52, 0xbe, 0x35, 0x9a, 0x47, 0x3d, 0xf2, 0x55, 0x90, 0xbe, 0x96, 0x2a, 0x97, 0x3d, 0x7f, 0x9f, 0x6c, 0xbe, 0xac, 0x9d, 0x06, 0xbe, 0xcc, 0xaf, 0xcf, 0x3d, 0x71, 0x9c, 0x8c, 0x3b, 0x03, 0xcb, 0x9c, 0xbe, 0x21, 0x26, 0xfa, 0xbd, 0x21, 0xc1, 0xae, 0x3d, 0x9e, 0x40, 0x19, 0xbe, 0xf8, 0x5b, 0x83, 0xbe, 0x66, 0x89, 0x85, 0xbd, 0xb2, 0x20, 0x34, 0xbd, 0x93, 0x5b, 0xc9, 0x3e, 0x7d, 0x4a, 0x13, 0x3e, 0xb2, 0x2a, 0x66, 0x3e, 0x54, 0x4c, 0xbc, 0xbc, 0x99, 0x00, 0x92, 0x3e, 0x59, 0xd9, 0xae, 0x3e, 0x95, 0xda, 0x9b, 0x3c, 0xa2, 0x52, 0x24, 0xbe, 0xc7, 0x30, 0x2a, 0x3e, 0x2a, 0xe8, 0xf8, 0x3e, 0x2d, 0xef, 0x9d, 0x3e, 0x70, 0x46, 0x77, 0xbc, 0x8d, 0xd0, 0x8e, 0x3d, 0xdf, 0xad, 0xa4, 0x3e, 0xb2, 0xd1, 0xbf, 0xbe, 0x40, 0x56, 0xc9, 0xbd, 0xc2, 0x98, 0x94, 0xbe, 0xc4, 0x11, 0x0e, 0xbe, 0x64, 0xe9, 0x10, 0x3d, 0xb3, 0x80, 0xb5, 0xbe, 0x4b, 0x67, 0x93, 0xbe, 0xd3, 0x0d, 0x27, 0x3e, 0x2c, 0x94, 0x06, 0xbe, 0x0a, 0xc9, 0xc5, 0x3e, 0xc7, 0x24, 0x9e, 0xbe, 0xdb, 0xda, 0x24, 0xbe, 0x68, 0xae, 0x73, 0x3e, 0xb1, 0xd0, 0x59, 0x3d, 0x2b, 0x81, 0xa9, 0x3e, 0x77, 0x52, 0x3c, 0xbe, 0x15, 0x46, 0x8d, 0x3d, 0xd0, 0xd5, 0xa3, 0xbe, 0x9a, 0x92, 0x14, 0xbe, 0x3c, 0x9b, 0xb4, 0xbd, 0x76, 0xbd, 0x8e, 0xbe, 0x1c, 0xc2, 0xb3, 0xbd, 0x63, 0xc5, 0x1f, 0xbe, 0x6a, 0xc5, 0x8d, 0xbe, 0x2d, 0x6d, 0x58, 0xbe, 0x53, 0xd4, 0x8e, 0xbe, 0xec, 0x18, 0x67, 0x3e, 0xfe, 0x2a, 0x9d, 0xbe, 0xbb, 0x11, 0x38, 0xbc, 0x8f, 0x8a, 0xa4, 0xbc, 0x4c, 0xb9, 0x52, 0x3b, 0xbf, 0x77, 0xbd, 0xbe, 0x73, 0xe7, 0xd9, 0x3e, 0xf0, 0xc3, 0xac, 0xbb, 0x05, 0xab, 0xb3, 0xbe, 0x18, 0xb8, 0x78, 0x3e, 0x3c, 0x28, 0x31, 0x3e, 0x00, 0x7c, 0x63, 0x3e, 0x6a, 0xa4, 0x2a, 0x3d, 0x8c, 0xb3, 0x95, 0xbe, 0xc4, 0x5a, 0xf3, 0xbc, 0x42, 0x3b, 0x6c, 0x3d, 0xcb, 0xf8, 0x19, 0x3e, 0x05, 0xd8, 0x49, 0xbe, 0x96, 0xcb, 0x0a, 0xbe, 0xd0, 0xd3, 0xd3, 0x3e, 0x19, 0x36, 0x10, 0x3e, 0xa1, 0xac, 0xd4, 0x3b, 0x3e, 0x9b, 0x0b, 0x3e, 0x88, 0x6d, 0x4d, 0x3d, 0x9a, 0xec, 0x40, 0x3b, 0xee, 0x8a, 0x90, 0x3e, 0xb7, 0x8d, 0x8d, 0xbe, 0x3c, 0xa8, 0x71, 0x3e, 0x1c, 0xbd, 0xa5, 0x3e, 0x2e, 0x58, 0x71, 0x3e, 0x58, 0xb9, 0xa5, 0x3e, 0xc4, 0x23, 0x3d, 0xbe, 0x8f, 0x3e, 0x5f, 0x3e, 0x49, 0x4e, 0x8c, 0xbe, 0x68, 0x73, 0x91, 0xbe, 0xef, 0xae, 0x0c, 0xbd, 0x1f, 0x73, 0xb0, 0xbe, 0x34, 0x9e, 0x37, 0xbc, 0xc6, 0x12, 0xce, 0xbe, 0xd2, 0x8e, 0xd9, 0xbd, 0x97, 0x0f, 0xcd, 0xbe, 0x21, 0x83, 0x34, 0xbe, 0x53, 0x3f, 0xf2, 0xbd, 0xab, 0x30, 0x0c, 0x3e, 0x48, 0x75, 0xa9, 0x3d, 0xf3, 0xe8, 0x45, 0xbd, 0xcf, 0x38, 0x48, 0x3d, 0x31, 0x83, 0x37, 0xbe, 0x76, 0x76, 0x8f, 0xbd, 0x4b, 0xe8, 0x2c, 0x3e, 0x4a, 0x5a, 0x95, 0xbd, 0xdf, 0xd9, 0xe9, 0xbe, 0xe0, 0x58, 0xfc, 0xbd, 0x07, 0xc0, 0x2b, 0x3e, 0xc3, 0x11, 0x8b, 0xbe, 0x9c, 0x02, 0xc5, 0x3c, 0xc8, 0x4f, 0xc7, 0xbd, 0x66, 0xb0, 0x3f, 0xbd, 0x5d, 0x77, 0xcb, 0x3d, 0x9b, 0xdc, 0x24, 0xbe, 0x64, 0xcc, 0x10, 0xbe, 0xd2, 0x4c, 0xe6, 0xbe, 0xb0, 0xbb, 0x82, 0xbe, 0x48, 0x52, 0x56, 0x3e, 0xde, 0xf9, 0xd8, 0xbe, 0xd3, 0x5c, 0x7a, 0xbd, 0x09, 0x54, 0x88, 0x3c, 0x5c, 0x8a, 0x3d, 0xbe, 0x12, 0x3c, 0x3a, 0xbe, 0x3c, 0x18, 0xc7, 0xbc, 0x17, 0xa9, 0x25, 0xbe, 0xb5, 0xe5, 0x90, 0xbe, 0xa1, 0xf4, 0x80, 0xbe, 0xaf, 0xc2, 0x90, 0xbe, 0x24, 0x52, 0x50, 0xbe, 0xfa, 0xab, 0x84, 0xbe, 0x0d, 0x1b, 0x9c, 0xbc, 0x87, 0x52, 0xa2, 0x3d, 0x65, 0x40, 0x92, 0x3e, 0x88, 0xdd, 0xc8, 0x3d, 0xf2, 0x0c, 0x39, 0x3d, 0xfd, 0x19, 0x26, 0x3e, 0x7a, 0x1d, 0xca, 0x3e, 0xf5, 0x81, 0x7b, 0x3e, 0x74, 0x77, 0x3a, 0x3d, 0xf8, 0xac, 0xba, 0xbe, 0xf7, 0xe1, 0xf9, 0xbd, 0xdf, 0x0b, 0xb2, 0xbd, 0x99, 0xa7, 0x7a, 0x3e, 0xfb, 0xdb, 0x4b, 0x3d, 0xba, 0x99, 0x58, 0x3e, 0x19, 0x3c, 0x15, 0x3e, 0x17, 0x4f, 0x88, 0x3e, 0x76, 0x8b, 0x5e, 0x3e, 0xc7, 0xb7, 0xab, 0xbe, 0xa0, 0x3d, 0xa7, 0x3d, 0x5b, 0xfc, 0x74, 0x3e, 0x54, 0x66, 0xc8, 0x3e, 0x33, 0x46, 0x93, 0xbd, 0xa7, 0x7d, 0xfa, 0xbe, 0x4c, 0xd3, 0xda, 0x3b, 0x57, 0xa5, 0xdb, 0xbd, 0xe9, 0x6b, 0xb7, 0x3e, 0xcf, 0x21, 0x42, 0x3e, 0x17, 0x9c, 0xc5, 0xbe, 0x4d, 0x92, 0xf7, 0x3d, 0x94, 0x97, 0xb3, 0x3e, 0xdd, 0x35, 0xb3, 0x3d, 0x6a, 0x24, 0x90, 0x3e, 0xc2, 0xc2, 0x98, 0x3d, 0x5e, 0x75, 0x31, 0x3d, 0x2d, 0x8b, 0x9b, 0x3e, 0xd8, 0xc7, 0x9d, 0x3e, 0xdd, 0xda, 0x8c, 0x3e, 0x2f, 0x74, 0xb8, 0x3d, 0x7f, 0x1f, 0x9e, 0x3e, 0x8a, 0x5d, 0xd2, 0x3e, 0xc1, 0x13, 0xb1, 0x3e, 0x83, 0xb9, 0xdb, 0xbd, 0x0b, 0x4a, 0xda, 0xbd, 0xb0, 0x3d, 0x30, 0x3e, 0x67, 0x3c, 0xac, 0xbd, 0xe9, 0xf8, 0x79, 0xbe, 0x07, 0x66, 0x08, 0xbe, 0xe9, 0x8d, 0x3a, 0xbc, 0x46, 0xc6, 0x34, 0xbc, 0xa4, 0x16, 0x9c, 0xbe, 0x9f, 0x38, 0x63, 0x3e, 0xe2, 0xe8, 0x86, 0xbe, 0x36, 0xc7, 0x1d, 0xbe, 0xbd, 0xd0, 0x42, 0xbe, 0xcf, 0x45, 0xa4, 0xbe, 0x7d, 0x3d, 0xa8, 0x3e, 0xae, 0xcb, 0xb0, 0xbe, 0x4a, 0x97, 0xb3, 0xbd, 0xe6, 0x4d, 0x21, 0xbe, 0x0b, 0x8d, 0xa5, 0xbe, 0x2a, 0x85, 0x36, 0x3e, 0x10, 0x5c, 0x59, 0x3e, 0xae, 0x6f, 0x1e, 0xbe, 0x98, 0x9b, 0xf9, 0x3c, 0x03, 0x78, 0x38, 0xbe, 0x94, 0xf1, 0x6f, 0xbe, 0xc0, 0x8d, 0x75, 0xbe, 0x5c, 0x90, 0xfb, 0x3d, 0xe5, 0x0e, 0xd0, 0xbd, 0x24, 0xcb, 0xb1, 0xbe, 0x4e, 0x88, 0x75, 0x3d, 0x1f, 0x88, 0x9f, 0xbe, 0x60, 0x10, 0x75, 0xbe, 0x8f, 0xa7, 0x8c, 0x3e, 0xc1, 0x55, 0xa1, 0xbe, 0x33, 0xf0, 0xa2, 0xbe, 0xc5, 0x34, 0x16, 0xbe, 0x20, 0x71, 0x92, 0x3c, 0x5b, 0xf1, 0xdd, 0x3e, 0x99, 0x3a, 0xc8, 0x3e, 0xea, 0xca, 0xad, 0xbc, 0xb0, 0x81, 0x47, 0x3e, 0x20, 0xce, 0x55, 0xbd, 0xfe, 0x29, 0xa6, 0x3e, 0xf5, 0x2b, 0x96, 0x3e, 0x6a, 0xac, 0x5f, 0x3e, 0x0f, 0xac, 0x4b, 0xbe, 0x85, 0x5d, 0xdd, 0xbd, 0xe3, 0x58, 0xd8, 0x3e, 0xb0, 0xad, 0xa1, 0x3e, 0x5a, 0x00, 0xb7, 0xbe, 0xdd, 0x28, 0xd6, 0x3e, 0x44, 0xa7, 0x2d, 0xbe, 0x06, 0x0f, 0x60, 0xbe, 0x4f, 0x8e, 0x4f, 0xbe, 0x57, 0x63, 0x3a, 0xbe, 0x21, 0x5e, 0xd0, 0x3e, 0xe8, 0xac, 0x07, 0x3e, 0x32, 0xc2, 0x83, 0x3e, 0xc7, 0x38, 0xca, 0x3d, 0xf0, 0x1b, 0x75, 0xbe, 0xd1, 0x82, 0xa8, 0x3e, 0x1f, 0x27, 0x41, 0xbd, 0xbf, 0x59, 0x96, 0xbe, 0xa0, 0x89, 0xe2, 0xbc, 0xc8, 0xe8, 0x00, 0xbd, 0xe6, 0xf8, 0xff, 0xff, 0x04, 0x00, 0x00, 0x00, 0x80, 0x05, 0x00, 0x00, 0x3d, 0xc4, 0x4f, 0xbe, 0xdd, 0x2a, 0x19, 0xbd, 0x55, 0x8f, 0xf1, 0xbd, 0x4f, 0x56, 0x9e, 0xbe, 0x1e, 0x23, 0x87, 0xbe, 0x63, 0x9a, 0x90, 0xbe, 0xf4, 0xff, 0x1a, 0xbe, 0x56, 0x39, 0x96, 0x3e, 0xc5, 0xab, 0x61, 0x3b, 0xbd, 0x01, 0xb3, 0x3e, 0xc3, 0xa6, 0x3c, 0xbe, 0x9e, 0x8b, 0x4e, 0x3d, 0x84, 0xac, 0xc0, 0x3e, 0xd2, 0x52, 0x9d, 0xbd, 0x44, 0x8d, 0xb2, 0x3d, 0xf9, 0xe0, 0x6f, 0xbe, 0xc4, 0x95, 0x8a, 0xbd, 0xfc, 0x67, 0xf5, 0x3d, 0xe1, 0x93, 0x5a, 0xbe, 0x5e, 0x5d, 0x60, 0xbe, 0x10, 0x9a, 0x7b, 0x3e, 0xb5, 0x05, 0x76, 0xbe, 0x3c, 0x84, 0xe0, 0x3e, 0x58, 0x39, 0x40, 0xbe, 0x66, 0x1d, 0x7f, 0xbd, 0xcd, 0xb0, 0x12, 0xbe, 0x45, 0x8a, 0x9b, 0x3e, 0x34, 0xdc, 0x17, 0x3e, 0xb9, 0x6f, 0x4a, 0xbc, 0xb3, 0x5b, 0xda, 0x3e, 0x66, 0x16, 0x4e, 0xbe, 0x1a, 0xac, 0x3f, 0x3e, 0xad, 0x65, 0x86, 0xbe, 0x26, 0x7b, 0x07, 0xbf, 0x09, 0xba, 0x59, 0x3e, 0x6c, 0x9f, 0x77, 0x3d, 0x5a, 0x30, 0x4b, 0x3e, 0xc8, 0x5c, 0x56, 0xbd, 0xac, 0x17, 0x95, 0x3d, 0x19, 0x1d, 0xf1, 0xbd, 0x54, 0x80, 0x2c, 0x3e, 0xce, 0x5c, 0xb2, 0xbe, 0x6c, 0x26, 0xab, 0x3e, 0x0d, 0x08, 0xaf, 0x3e, 0x88, 0xd1, 0x60, 0x3e, 0x14, 0xca, 0xc1, 0x3e, 0xd0, 0x7c, 0xd0, 0xbe, 0x04, 0x3a, 0x31, 0xbe, 0x52, 0x07, 0x7d, 0x3e, 0xd7, 0x90, 0xab, 0x3e, 0xd1, 0xb1, 0x40, 0xbe, 0x76, 0xde, 0x52, 0xbe, 0x2a, 0x57, 0xf4, 0xbe, 0xfc, 0x7d, 0x8c, 0x3e, 0x3d, 0x8c, 0x55, 0xbe, 0xae, 0x51, 0x0a, 0xbe, 0x43, 0xa8, 0x7f, 0x3d, 0x05, 0x6c, 0x4c, 0x3e, 0x89, 0x36, 0x05, 0xbe, 0xc5, 0x51, 0x14, 0x3c, 0xf3, 0x5e, 0x8f, 0x3e, 0x85, 0x06, 0xae, 0xbe, 0xbb, 0xba, 0xd3, 0x3c, 0x11, 0xc6, 0x85, 0xbd, 0xff, 0x9a, 0x5d, 0xbe, 0x2b, 0xb7, 0x82, 0x3e, 0xa3, 0xd2, 0xc6, 0x3d, 0x57, 0x75, 0x70, 0x3e, 0xea, 0xd6, 0xb4, 0x3e, 0xa9, 0x5b, 0x18, 0xbe, 0x3e, 0x47, 0x90, 0x3d, 0x08, 0x2f, 0xa8, 0x3e, 0xae, 0x78, 0x7c, 0x3e, 0x93, 0xd5, 0x11, 0xbf, 0x5d, 0x3e, 0x4c, 0xbe, 0x81, 0xf7, 0x0b, 0xbe, 0x0d, 0xac, 0x03, 0xbc, 0xbe, 0xca, 0x84, 0xbe, 0x75, 0x25, 0x64, 0x3e, 0x41, 0xd3, 0x14, 0x3e, 0xdf, 0x9c, 0x3b, 0xbd, 0x97, 0xcc, 0xd9, 0x3e, 0x2b, 0xb7, 0x31, 0xbc, 0x58, 0x5f, 0x02, 0xbf, 0x00, 0xc8, 0x1a, 0xbf, 0x4e, 0x0b, 0x81, 0xbe, 0x9a, 0x07, 0xf4, 0xbd, 0x82, 0x85, 0x84, 0x3e, 0x29, 0x18, 0xa2, 0x3d, 0x84, 0x12, 0xaf, 0x3e, 0x5e, 0x41, 0xa4, 0xbd, 0xaa, 0xd8, 0x27, 0xbe, 0xf4, 0x7a, 0x10, 0x3e, 0xe8, 0x30, 0x7b, 0xbe, 0x3a, 0xe1, 0x20, 0xbb, 0x5c, 0xbc, 0x23, 0x3d, 0x20, 0x68, 0xf3, 0xbd, 0x21, 0x8d, 0x1d, 0xbe, 0x16, 0x3e, 0x70, 0xbe, 0xba, 0xe4, 0xfc, 0xbe, 0x5e, 0xd9, 0xb7, 0xbc, 0x82, 0x56, 0x36, 0xbc, 0xf9, 0x36, 0x0c, 0xbe, 0x3c, 0xe1, 0xbe, 0xbd, 0xc3, 0xcc, 0x96, 0xbe, 0x56, 0xdc, 0x17, 0x3d, 0xf4, 0x32, 0x95, 0xbe, 0x91, 0x8d, 0xba, 0xbe, 0x40, 0xf9, 0xe9, 0xbe, 0x3c, 0xab, 0xc4, 0xbd, 0x7a, 0x18, 0xd6, 0xbd, 0x31, 0xa1, 0xd0, 0x3e, 0xe5, 0x9f, 0xc5, 0x3e, 0xee, 0x94, 0x8d, 0x3e, 0x8e, 0x7c, 0x40, 0x3e, 0xd1, 0xc2, 0xbe, 0x3e, 0xc5, 0xf7, 0xbe, 0xbe, 0x1c, 0xc7, 0x12, 0xbe, 0x19, 0xc7, 0xda, 0x3e, 0x9d, 0x7b, 0x7e, 0x3d, 0x63, 0xfc, 0xb5, 0x3d, 0xec, 0xec, 0x78, 0x3e, 0xcd, 0x19, 0x1d, 0x3e, 0x90, 0x6d, 0xa8, 0x3d, 0x56, 0x1e, 0x80, 0x3e, 0xc1, 0x02, 0xb0, 0x3d, 0x2c, 0x28, 0x7d, 0xbe, 0x1c, 0xb7, 0xa8, 0xbe, 0x35, 0x55, 0xd1, 0x3e, 0x1a, 0x3c, 0x05, 0x3e, 0xf6, 0x8d, 0xa7, 0xbe, 0xf0, 0xaa, 0x0b, 0xbe, 0x93, 0xc7, 0x48, 0xbe, 0x56, 0xd6, 0x9d, 0x3e, 0xd9, 0x48, 0x8f, 0xbe, 0x84, 0xde, 0xd7, 0xbd, 0x7a, 0x2c, 0xa0, 0x3d, 0xd9, 0x0e, 0x7a, 0x3e, 0x22, 0xdd, 0x4b, 0xbe, 0xce, 0x19, 0xfe, 0xbe, 0x48, 0xaa, 0x08, 0xbe, 0x32, 0x69, 0x2f, 0xbd, 0xd6, 0x8a, 0x1d, 0x3d, 0x68, 0x33, 0x87, 0xbd, 0xb6, 0x9b, 0x21, 0xbe, 0xfd, 0xe1, 0xc9, 0x3e, 0x93, 0xb2, 0x65, 0xbe, 0x5d, 0x77, 0x22, 0x3e, 0x2f, 0x84, 0x5b, 0xbe, 0xd9, 0x56, 0x0b, 0xbe, 0xd5, 0xc9, 0x05, 0x3e, 0x77, 0xd3, 0xb6, 0xbe, 0x14, 0x03, 0x7c, 0xbe, 0x40, 0x58, 0xe3, 0x3e, 0x9b, 0xdb, 0xc1, 0xbe, 0xf3, 0xd8, 0x91, 0x3e, 0x43, 0x9d, 0xae, 0x3d, 0x30, 0x3e, 0x83, 0x3e, 0xe4, 0x1b, 0xd6, 0x3c, 0x16, 0x78, 0x80, 0xbe, 0xd0, 0x5a, 0xa5, 0x3e, 0x83, 0xe1, 0x03, 0xbf, 0xf2, 0x38, 0x31, 0xbe, 0xc3, 0xc0, 0x58, 0xbe, 0x65, 0x30, 0xd2, 0xbe, 0x19, 0x5d, 0xfe, 0xbc, 0x73, 0x6a, 0xbe, 0x3e, 0x45, 0xe2, 0x88, 0xbe, 0xd7, 0x0a, 0x03, 0xbd, 0x3f, 0xd2, 0x35, 0x3d, 0x45, 0x09, 0x61, 0x3e, 0x19, 0xd2, 0x8a, 0x3d, 0x02, 0xb3, 0xe7, 0xbd, 0x5f, 0x43, 0xcf, 0x3e, 0x86, 0x8f, 0x9d, 0x3d, 0xc8, 0x4c, 0x04, 0xbf, 0x36, 0xa2, 0x46, 0x3e, 0xf5, 0xe9, 0x19, 0x3e, 0x87, 0xc2, 0x69, 0xbd, 0x55, 0x4b, 0x82, 0xbd, 0x04, 0x62, 0xd9, 0x3e, 0xdb, 0x77, 0x17, 0xbf, 0xfe, 0x1a, 0x51, 0x3e, 0x56, 0x0f, 0xc2, 0xbe, 0x49, 0x34, 0xdc, 0x3d, 0x39, 0xae, 0x9b, 0xbe, 0x95, 0x41, 0xb7, 0xbd, 0xf5, 0x64, 0x87, 0xbe, 0xd0, 0xe3, 0x3c, 0xbe, 0x12, 0x60, 0xe1, 0xbe, 0x1c, 0x16, 0xc7, 0xbe, 0xf6, 0x73, 0xac, 0xbe, 0x67, 0xd1, 0x86, 0xbe, 0x3a, 0x9d, 0x3e, 0x3e, 0x45, 0x69, 0x2c, 0xbe, 0xd2, 0xab, 0x0f, 0x3e, 0x51, 0x19, 0xdf, 0xbe, 0x07, 0xd0, 0x82, 0xbd, 0x91, 0x69, 0xf3, 0xbe, 0xab, 0x49, 0xb5, 0xbe, 0xeb, 0xd1, 0x1a, 0x3e, 0xec, 0x10, 0xbb, 0x3d, 0xca, 0xf2, 0x8c, 0xbd, 0x9e, 0x83, 0x81, 0x3e, 0xa6, 0x05, 0x9c, 0x3e, 0x0a, 0x62, 0x43, 0xbd, 0xde, 0x92, 0x9a, 0xbe, 0xaf, 0x4c, 0xfd, 0xbe, 0xed, 0xd8, 0x92, 0xbb, 0xb6, 0xd6, 0xe5, 0xbc, 0xc9, 0x0e, 0x31, 0x3e, 0xbf, 0x8d, 0x93, 0xbd, 0x3f, 0xca, 0xbe, 0x3e, 0x87, 0x24, 0xcb, 0x3e, 0x3f, 0xc5, 0x95, 0x3e, 0x0a, 0xd0, 0xaa, 0xbe, 0xf2, 0x6c, 0xa6, 0x3e, 0x2f, 0x89, 0xb1, 0xbe, 0xbd, 0x70, 0x27, 0x3e, 0xdb, 0x87, 0x57, 0x3e, 0x0c, 0xfa, 0xfb, 0xbe, 0x9b, 0xae, 0x04, 0xbf, 0x2f, 0x78, 0xf7, 0xbe, 0x03, 0x8a, 0xdf, 0xbe, 0xd7, 0xdf, 0x8e, 0x3d, 0x95, 0xde, 0xcd, 0xbe, 0x00, 0x19, 0x89, 0x3e, 0x2a, 0x33, 0xe0, 0x3e, 0x8c, 0xc0, 0x74, 0x3e, 0xa2, 0xba, 0xaa, 0xbe, 0x82, 0xcb, 0x11, 0xbd, 0x30, 0x61, 0xab, 0xbe, 0x12, 0x9e, 0xfc, 0xbe, 0xf1, 0xda, 0xcc, 0x3c, 0x6f, 0x48, 0x4a, 0x3b, 0x67, 0x5a, 0x7f, 0xbe, 0x72, 0x59, 0x40, 0xbe, 0xfb, 0x92, 0xc9, 0x3d, 0x51, 0x01, 0x9c, 0x3e, 0x52, 0x91, 0xab, 0xbe, 0x0e, 0xc2, 0x97, 0xbe, 0xd2, 0xf7, 0xc9, 0xbe, 0xa3, 0x4c, 0xc0, 0x3d, 0x74, 0x11, 0xa1, 0xbe, 0x63, 0x1c, 0xf0, 0xbe, 0x7c, 0x21, 0xf8, 0x3e, 0x16, 0x5f, 0x89, 0xbe, 0x5a, 0x86, 0x9d, 0x3e, 0x99, 0xd2, 0xee, 0x3d, 0x9e, 0x64, 0xed, 0xbe, 0x8d, 0x5c, 0x92, 0x3e, 0x8d, 0x42, 0xbb, 0xbd, 0x1d, 0xc9, 0x2c, 0xbd, 0x0a, 0x52, 0x77, 0x3e, 0xf9, 0x0f, 0xa1, 0xbd, 0x0f, 0x07, 0x00, 0x3c, 0x03, 0x75, 0xcf, 0xbe, 0x65, 0x78, 0xe4, 0xbe, 0x37, 0x3a, 0xba, 0x3e, 0x38, 0x87, 0xa5, 0x3e, 0xee, 0xbf, 0x27, 0xbe, 0x70, 0x4e, 0xb8, 0xbe, 0xae, 0x71, 0xd6, 0xbe, 0x6a, 0x20, 0x97, 0x3e, 0x4b, 0xd0, 0x02, 0xbf, 0xc9, 0x64, 0xe5, 0xbe, 0x7e, 0x94, 0x6f, 0x3e, 0x77, 0xef, 0x99, 0x3e, 0x55, 0x45, 0x20, 0xbe, 0x19, 0x7c, 0x23, 0x3e, 0xb1, 0xcc, 0xab, 0x3e, 0xcc, 0x18, 0x0c, 0xbf, 0x7a, 0x15, 0x61, 0x3e, 0x76, 0x53, 0x07, 0xbb, 0x1f, 0x4a, 0x9f, 0xbe, 0x73, 0x0a, 0x3b, 0xbe, 0xfd, 0xf0, 0xa6, 0x3e, 0xe0, 0x9f, 0x9d, 0xbe, 0x11, 0xd9, 0x90, 0xbe, 0x25, 0x2f, 0xee, 0x3e, 0xfc, 0x30, 0xbb, 0xbc, 0x8f, 0x0e, 0x9d, 0x3e, 0xee, 0x32, 0x88, 0xbe, 0x6b, 0x35, 0x9d, 0xbd, 0x22, 0x3b, 0xa8, 0x3d, 0x6a, 0xda, 0x66, 0x3e, 0x17, 0x73, 0x9e, 0x3d, 0x89, 0x1b, 0x87, 0xbe, 0x1e, 0xeb, 0xc2, 0x3d, 0xb3, 0xbd, 0xc2, 0x3e, 0x99, 0x1a, 0x8e, 0x3e, 0xb6, 0x4d, 0xa1, 0x3e, 0x3b, 0x4d, 0x3a, 0x3e, 0xbd, 0x64, 0x9f, 0xbd, 0x6f, 0x07, 0x47, 0x3e, 0xe9, 0x25, 0xf1, 0x3d, 0x33, 0x90, 0xcc, 0x3d, 0x41, 0xa7, 0x08, 0xbf, 0x76, 0x61, 0xab, 0xbd, 0x81, 0x8a, 0x8e, 0x3e, 0x61, 0xc8, 0xa0, 0xbe, 0x88, 0x72, 0xf3, 0xbe, 0xd9, 0x9c, 0xf9, 0xbe, 0xea, 0xa5, 0x8c, 0xbe, 0xd9, 0xb8, 0x63, 0x3e, 0xd0, 0xe8, 0x98, 0x3e, 0x8f, 0xf4, 0x9e, 0xbe, 0xaf, 0x53, 0x9f, 0x3e, 0xec, 0x5a, 0x9d, 0xbe, 0x90, 0x0f, 0xc7, 0xbe, 0x7c, 0xee, 0x6d, 0x3e, 0x23, 0x0e, 0xa4, 0x3d, 0xc4, 0xa3, 0x83, 0x3d, 0xf7, 0x47, 0x6b, 0xbe, 0x05, 0x01, 0xc1, 0xbe, 0xce, 0xa3, 0x96, 0xbe, 0x97, 0x31, 0xa3, 0x3e, 0x9d, 0xd7, 0x09, 0x3e, 0xa5, 0xe0, 0xab, 0xbe, 0x70, 0x4f, 0x75, 0x3e, 0x10, 0xc1, 0xdb, 0x3e, 0x93, 0x7d, 0xce, 0x3c, 0xe0, 0x7b, 0x19, 0x3e, 0xfc, 0x1b, 0xcd, 0xbe, 0xa2, 0xf4, 0x6c, 0x3e, 0x3e, 0x3a, 0xfd, 0x3e, 0x8d, 0x4f, 0x18, 0xbd, 0x33, 0xc6, 0x0c, 0xbc, 0xa8, 0x69, 0x91, 0x3d, 0x3d, 0x06, 0xce, 0xbd, 0x4f, 0x78, 0x22, 0xbe, 0xdd, 0x6e, 0x0f, 0xbe, 0xef, 0x0d, 0x87, 0x3e, 0x15, 0x0d, 0x63, 0x3e, 0xf4, 0xb7, 0xcb, 0xbe, 0xd8, 0xb8, 0x16, 0x3d, 0xd9, 0x32, 0xab, 0x3e, 0xd8, 0x4e, 0xcd, 0xbe, 0xbd, 0x39, 0x89, 0x3d, 0x4e, 0x74, 0x21, 0x3e, 0x0a, 0xb9, 0x9b, 0x3e, 0xfa, 0xa5, 0xd2, 0xbe, 0xd8, 0xf6, 0x0e, 0xbe, 0x4f, 0x60, 0x47, 0xbe, 0x8a, 0xfe, 0x09, 0xbf, 0xc7, 0x59, 0x0d, 0x3e, 0x24, 0xd9, 0xb3, 0xbd, 0x77, 0xb4, 0xa3, 0xbe, 0xc4, 0x6b, 0x02, 0xbf, 0xcd, 0xfa, 0xee, 0xbd, 0x43, 0xef, 0x81, 0x3e, 0x38, 0xeb, 0x3f, 0xbe, 0x72, 0xfe, 0xff, 0xff, 0x04, 0x00, 0x00, 0x00, 0x04, 0x00, 0x00, 0x00, 0x01, 0x00, 0x00, 0x00, 0x82, 0xfe, 0xff, 0xff, 0x04, 0x00, 0x00, 0x00, 0x2c, 0x00, 0x00, 0x00, 0x91, 0xb1, 0xa5, 0x3d, 0xbb, 0x11, 0x7a, 0xbd, 0x85, 0x5a, 0xf0, 0xbc, 0x7d, 0xf0, 0x37, 0x3d, 0x29, 0xf2, 0x10, 0x3a, 0x70, 0x00, 0x66, 0xbc, 0xbd, 0xd8, 0xff, 0xbc, 0x9d, 0x79, 0xee, 0xba, 0xf6, 0xaf, 0xf1, 0x3c, 0x0c, 0xa5, 0x00, 0xbc, 0xf4, 0x5b, 0xa3, 0xbc, 0xba, 0xfe, 0xff, 0xff, 0x04, 0x00, 0x00, 0x00, 0x80, 0x00, 0x00, 0x00, 0xf0, 0x08, 0xd7, 0x3c, 0xc8, 0xa4, 0x53, 0x3d, 0xde, 0xa6, 0x6c, 0xbc, 0xa6, 0xeb, 0x87, 0xbc, 0x00, 0xae, 0xf4, 0xbc, 0x50, 0xb4, 0x4f, 0x3d, 0xce, 0xf3, 0x20, 0xbd, 0x44, 0x4f, 0x0d, 0xbc, 0x47, 0x2e, 0x7a, 0xbc, 0x26, 0x46, 0xd9, 0x3d, 0xf0, 0x89, 0x9a, 0xbc, 0x7f, 0x33, 0xa3, 0x39, 0x61, 0x3b, 0xc8, 0xbc, 0x87, 0x6f, 0xd1, 0xbc, 0x47, 0xd2, 0x63, 0x3d, 0xbf, 0xa8, 0x94, 0x3d, 0x0f, 0xf9, 0x08, 0xbc, 0xb3, 0x99, 0x5e, 0x3c, 0xa3, 0xd5, 0xfb, 0xbc, 0x82, 0xb6, 0xa9, 0x3d, 0xd5, 0xca, 0x84, 0x3d, 0xd0, 0x87, 0xfc, 0x3b, 0x08, 0x58, 0xa5, 0x3d, 0x92, 0x86, 0x72, 0x3d, 0xe4, 0xfb, 0x80, 0x3d, 0x48, 0x7c, 0xd7, 0x3b, 0x0b, 0xe9, 0x77, 0x3d, 0x87, 0xcc, 0xa1, 0xbb, 0x27, 0xfd, 0x20, 0x3d, 0xf3, 0xa2, 0x40, 0xba, 0x29, 0x23, 0x23, 0xbd, 0x65, 0xc0, 0x0f, 0x3d, 0x46, 0xff, 0xff, 0xff, 0x04, 0x00, 0x00, 0x00, 0x10, 0x00, 0x00, 0x00, 0x01, 0x00, 0x00, 0x00, 0x01, 0x00, 0x00, 0x00, 0x64, 0x00, 0x00, 0x00, 0x05, 0x00, 0x00, 0x00, 0xe0, 0xf2, 0xff, 0xff, 0xe4, 0xf2, 0xff, 0xff, 0x0f, 0x00, 0x00, 0x00, 0x4d, 0x4c, 0x49, 0x52, 0x20, 0x43, 0x6f, 0x6e, 0x76, 0x65, 0x72, 0x74, 0x65, 0x64, 0x2e, 0x00, 0x01, 0x00, 0x00, 0x00, 0x14, 0x00, 0x00, 0x00, 0x00, 0x00, 0x0e, 0x00, 0x18, 0x00, 0x14, 0x00, 0x10, 0x00, 0x0c, 0x00, 0x08, 0x00, 0x04, 0x00, 0x0e, 0x00, 0x00, 0x00, 0x14, 0x00, 0x00, 0x00, 0x1c, 0x00, 0x00, 0x00, 0xa4, 0x02, 0x00, 0x00, 0xa8, 0x02, 0x00, 0x00, 0xac, 0x02, 0x00, 0x00, 0x04, 0x00, 0x00, 0x00, 0x6d, 0x61, 0x69, 0x6e, 0x00, 0x00, 0x00, 0x00, 0x0a, 0x00, 0x00, 0x00, 0x68, 0x02, 0x00, 0x00, 0x08, 0x02, 0x00, 0x00, 0xa4, 0x01, 0x00, 0x00, 0x5c, 0x01, 0x00, 0x00, 0x18, 0x01, 0x00, 0x00, 0xf4, 0x00, 0x00, 0x00, 0xc0, 0x00, 0x00, 0x00, 0x78, 0x00, 0x00, 0x00, 0x40, 0x00, 0x00, 0x00, 0x04, 0x00, 0x00, 0x00, 0x2a, 0xfe, 0xff, 0xff, 0x1c, 0x00, 0x00, 0x00, 0x00, 0x00, 0x00, 0x09, 0x1c, 0x00, 0x00, 0x00, 0x20, 0x00, 0x00, 0x00, 0x05, 0x00, 0x00, 0x00, 0x00, 0x00, 0x06, 0x00, 0x08, 0x00, 0x04, 0x00, 0x06, 0x00, 0x00, 0x00, 0x00, 0x00, 0x80, 0x3f, 0x01, 0x00, 0x00, 0x00, 0x15, 0x00, 0x00, 0x00, 0x01, 0x00, 0x00, 0x00, 0x14, 0x00, 0x00, 0x00, 0x62, 0xfe, 0xff, 0xff, 0x14, 0x00, 0x00, 0x00, 0x00, 0x00, 0x00, 0x08, 0x10, 0x00, 0x00, 0x00, 0x14, 0x00, 0x00, 0x00, 0x04, 0x00, 0x00, 0x00, 0xb4, 0xf3, 0xff, 0xff, 0x01, 0x00, 0x00, 0x00, 0x14, 0x00, 0x00, 0x00, 0x03, 0x00, 0x00, 0x00, 0x13, 0x00, 0x00, 0x00, 0x05, 0x00, 0x00, 0x00, 0x03, 0x00, 0x00, 0x00, 0x96, 0xfe, 0xff, 0xff, 0x20, 0x00, 0x00, 0x00, 0x00, 0x00, 0x00, 0x08, 0x20, 0x00, 0x00, 0x00, 0x24, 0x00, 0x00, 0x00, 0x04, 0x00, 0x00, 0x00, 0x0c, 0x00, 0x08, 0x00, 0x07, 0x00, 0x00, 0x00, 0x00, 0x00, 0x06, 0x00, 0x0c, 0x00, 0x00, 0x00, 0x00, 0x00, 0x01, 0x01, 0x01, 0x00, 0x00, 0x00, 0x13, 0x00, 0x00, 0x00, 0x03, 0x00, 0x00, 0x00, 0x12, 0x00, 0x00, 0x00, 0x0b, 0x00, 0x00, 0x00, 0x02, 0x00, 0x00, 0x00, 0xda, 0xfe, 0xff, 0xff, 0x14, 0x00, 0x00, 0x00, 0x00, 0x00, 0x00, 0x1b, 0x10, 0x00, 0x00, 0x00, 0x14, 0x00, 0x00, 0x00, 0x03, 0x00, 0x00, 0x00, 0x2c, 0xf4, 0xff, 0xff, 0x01, 0x00, 0x00, 0x00, 0x12, 0x00, 0x00, 0x00, 0x02, 0x00, 0x00, 0x00, 0x11, 0x00, 0x00, 0x00, 0x04, 0x00, 0x00, 0x00, 0xaa, 0xfe, 0xff, 0xff, 0x08, 0x00, 0x00, 0x00, 0x0c, 0x00, 0x00, 0x00, 0x01, 0x00, 0x00, 0x00, 0x11, 0x00, 0x00, 0x00, 0x02, 0x00, 0x00, 0x00, 0x10, 0x00, 0x00, 0x00, 0x09, 0x00, 0x00, 0x00, 0x2a, 0xff, 0xff, 0xff, 0x14, 0x00, 0x00, 0x00, 0x00, 0x00, 0x00, 0x05, 0x24, 0x00, 0x00, 0x00, 0x28, 0x00, 0x00, 0x00, 0x02, 0x00, 0x00, 0x00, 0x7a, 0xff, 0xff, 0xff, 0x01, 0x00, 0x00, 0x00, 0x02, 0x00, 0x00, 0x00, 0x01, 0x00, 0x00, 0x00, 0x02, 0x00, 0x00, 0x00, 0x00, 0x00, 0x00, 0x01, 0x01, 0x00, 0x00, 0x00, 0x10, 0x00, 0x00, 0x00, 0x01, 0x00, 0x00, 0x00, 0x0f, 0x00, 0x00, 0x00, 0x6a, 0xff, 0xff, 0xff, 0x14, 0x00, 0x00, 0x00, 0x00, 0x00, 0x00, 0x01, 0x20, 0x00, 0x00, 0x00, 0x24, 0x00, 0x00, 0x00, 0x01, 0x00, 0x00, 0x00, 0x5c, 0xff, 0xff, 0xff, 0x00, 0x00, 0x00, 0x01, 0x01, 0x00, 0x00, 0x00, 0x01, 0x00, 0x00, 0x00, 0x00, 0x00, 0x00, 0x01, 0x01, 0x00, 0x00, 0x00, 0x0f, 0x00, 0x00, 0x00, 0x03, 0x00, 0x00, 0x00, 0x0e, 0x00, 0x00, 0x00, 0x0a, 0x00, 0x00, 0x00, 0x07, 0x00, 0x00, 0x00, 0xae, 0xff, 0xff, 0xff, 0x24, 0x00, 0x00, 0x00, 0x00, 0x00, 0x00, 0x05, 0x34, 0x00, 0x00, 0x00, 0x38, 0x00, 0x00, 0x00, 0x02, 0x00, 0x00, 0x00, 0x00, 0x00, 0x0e, 0x00, 0x18, 0x00, 0x17, 0x00, 0x10, 0x00, 0x0c, 0x00, 0x08, 0x00, 0x04, 0x00, 0x0e, 0x00, 0x00, 0x00, 0x01, 0x00, 0x00, 0x00, 0x02, 0x00, 0x00, 0x00, 0x01, 0x00, 0x00, 0x00, 0x02, 0x00, 0x00, 0x00, 0x00, 0x00, 0x00, 0x01, 0x01, 0x00, 0x00, 0x00, 0x0e, 0x00, 0x00, 0x00, 0x01, 0x00, 0x00, 0x00, 0x0d, 0x00, 0x00, 0x00, 0x00, 0x00, 0x0e, 0x00, 0x18, 0x00, 0x14, 0x00, 0x10, 0x00, 0x0c, 0x00, 0x0b, 0x00, 0x04, 0x00, 0x0e, 0x00, 0x00, 0x00, 0x20, 0x00, 0x00, 0x00, 0x00, 0x00, 0x00, 0x01, 0x2c, 0x00, 0x00, 0x00, 0x30, 0x00, 0x00, 0x00, 0x01, 0x00, 0x00, 0x00, 0x0c, 0x00, 0x14, 0x00, 0x13, 0x00, 0x0c, 0x00, 0x08, 0x00, 0x07, 0x00, 0x0c, 0x00, 0x00, 0x00, 0x00, 0x00, 0x00, 0x01, 0x01, 0x00, 0x00, 0x00, 0x01, 0x00, 0x00, 0x00, 0x00, 0x00, 0x00, 0x01, 0x01, 0x00, 0x00, 0x00, 0x0d, 0x00, 0x00, 0x00, 0x03, 0x00, 0x00, 0x00, 0x0c, 0x00, 0x00, 0x00, 0x06, 0x00, 0x00, 0x00, 0x08, 0x00, 0x00, 0x00, 0x00, 0x00, 0x0a, 0x00, 0x0c, 0x00, 0x00, 0x00, 0x08, 0x00, 0x04, 0x00, 0x0a, 0x00, 0x00, 0x00, 0x08, 0x00, 0x00, 0x00, 0x0c, 0x00, 0x00, 0x00, 0x01, 0x00, 0x00, 0x00, 0x0c, 0x00, 0x00, 0x00, 0x02, 0x00, 0x00, 0x00, 0x00, 0x00, 0x00, 0x00, 0x01, 0x00, 0x00, 0x00, 0x01, 0x00, 0x00, 0x00, 0x15, 0x00, 0x00, 0x00, 0x01, 0x00, 0x00, 0x00, 0x00, 0x00, 0x00, 0x00, 0x16, 0x00, 0x00, 0x00, 0x10, 0x0a, 0x00, 0x00, 0xb8, 0x09, 0x00, 0x00, 0x64, 0x09, 0x00, 0x00, 0x28, 0x09, 0x00, 0x00, 0xec, 0x08, 0x00, 0x00, 0xac, 0x08, 0x00, 0x00, 0x64, 0x08, 0x00, 0x00, 0x28, 0x08, 0x00, 0x00, 0xec, 0x07, 0x00, 0x00, 0xac, 0x07, 0x00, 0x00, 0xbc, 0x05, 0x00, 0x00, 0x54, 0x05, 0x00, 0x00, 0xe8, 0x04, 0x00, 0x00, 0xec, 0x03, 0x00, 0x00, 0x84, 0x03, 0x00, 0x00, 0x88, 0x02, 0x00, 0x00, 0x20, 0x02, 0x00, 0x00, 0xb4, 0x01, 0x00, 0x00, 0x50, 0x01, 0x00, 0x00, 0xb8, 0x00, 0x00, 0x00, 0x40, 0x00, 0x00, 0x00, 0x04, 0x00, 0x00, 0x00, 0x5e, 0xf6, 0xff, 0xff, 0x00, 0x00, 0x00, 0x01, 0x10, 0x00, 0x00, 0x00, 0x10, 0x00, 0x00, 0x00, 0x16, 0x00, 0x00, 0x00, 0x18, 0x00, 0x00, 0x00, 0x48, 0xf6, 0xff, 0xff, 0x08, 0x00, 0x00, 0x00, 0x49, 0x64, 0x65, 0x6e, 0x74, 0x69, 0x74, 0x79, 0x00, 0x00, 0x00, 0x00, 0x02, 0x00, 0x00, 0x00, 0x01, 0x00, 0x00, 0x00, 0x0b, 0x00, 0x00, 0x00, 0x96, 0xf6, 0xff, 0xff, 0x00, 0x00, 0x00, 0x01, 0x10, 0x00, 0x00, 0x00, 0x10, 0x00, 0x00, 0x00, 0x15, 0x00, 0x00, 0x00, 0x54, 0x00, 0x00, 0x00, 0x80, 0xf6, 0xff, 0xff, 0x44, 0x00, 0x00, 0x00, 0x73, 0x65, 0x71, 0x75, 0x65, 0x6e, 0x74, 0x69, 0x61, 0x6c, 0x5f, 0x32, 0x30, 0x5f, 0x31, 0x2f, 0x64, 0x65, 0x6e, 0x73, 0x65, 0x5f, 0x34, 0x31, 0x5f, 0x31, 0x2f, 0x4d, 0x61, 0x74, 0x4d, 0x75, 0x6c, 0x3b, 0x73, 0x65, 0x71, 0x75, 0x65, 0x6e, 0x74, 0x69, 0x61, 0x6c, 0x5f, 0x32, 0x30, 0x5f, 0x31, 0x2f, 0x64, 0x65, 0x6e, 0x73, 0x65, 0x5f, 0x34, 0x31, 0x5f, 0x31, 0x2f, 0x42, 0x69, 0x61, 0x73, 0x41, 0x64, 0x64, 0x00, 0x00, 0x00, 0x00, 0x02, 0x00, 0x00, 0x00, 0x01, 0x00, 0x00, 0x00, 0x0b, 0x00, 0x00, 0x00, 0x0a, 0xf7, 0xff, 0xff, 0x00, 0x00, 0x00, 0x01, 0x10, 0x00, 0x00, 0x00, 0x10, 0x00, 0x00, 0x00, 0x14, 0x00, 0x00, 0x00, 0x74, 0x00, 0x00, 0x00, 0xf4, 0xf6, 0xff, 0xff, 0x64, 0x00, 0x00, 0x00, 0x73, 0x65, 0x71, 0x75, 0x65, 0x6e, 0x74, 0x69, 0x61, 0x6c, 0x5f, 0x32, 0x30, 0x5f, 0x31, 0x2f, 0x64, 0x65, 0x6e, 0x73, 0x65, 0x5f, 0x34, 0x30, 0x5f, 0x31, 0x2f, 0x4d, 0x61, 0x74, 0x4d, 0x75, 0x6c, 0x3b, 0x73, 0x65, 0x71, 0x75, 0x65, 0x6e, 0x74, 0x69, 0x61, 0x6c, 0x5f, 0x32, 0x30, 0x5f, 0x31, 0x2f, 0x64, 0x65, 0x6e, 0x73, 0x65, 0x5f, 0x34, 0x30, 0x5f, 0x31, 0x2f, 0x52, 0x65, 0x6c, 0x75, 0x3b, 0x73, 0x65, 0x71, 0x75, 0x65, 0x6e, 0x74, 0x69, 0x61, 0x6c, 0x5f, 0x32, 0x30, 0x5f, 0x31, 0x2f, 0x64, 0x65, 0x6e, 0x73, 0x65, 0x5f, 0x34, 0x30, 0x5f, 0x31, 0x2f, 0x42, 0x69, 0x61, 0x73, 0x41, 0x64, 0x64, 0x00, 0x00, 0x00, 0x00, 0x02, 0x00, 0x00, 0x00, 0x01, 0x00, 0x00, 0x00, 0x20, 0x00, 0x00, 0x00, 0x9e, 0xf7, 0xff, 0xff, 0x00, 0x00, 0x00, 0x01, 0x10, 0x00, 0x00, 0x00, 0x10, 0x00, 0x00, 0x00, 0x13, 0x00, 0x00, 0x00, 0x40, 0x00, 0x00, 0x00, 0x88, 0xf7, 0xff, 0xff, 0x32, 0x00, 0x00, 0x00, 0x73, 0x65, 0x71, 0x75, 0x65, 0x6e, 0x74, 0x69, 0x61, 0x6c, 0x5f, 0x32, 0x30, 0x5f, 0x31, 0x2f, 0x67, 0x6c, 0x6f, 0x62, 0x61, 0x6c, 0x5f, 0x61, 0x76, 0x65, 0x72, 0x61, 0x67, 0x65, 0x5f, 0x70, 0x6f, 0x6f, 0x6c, 0x69, 0x6e, 0x67, 0x31, 0x64, 0x5f, 0x32, 0x30, 0x5f, 0x31, 0x2f, 0x4d, 0x65, 0x61, 0x6e, 0x00, 0x00, 0x02, 0x00, 0x00, 0x00, 0x01, 0x00, 0x00, 0x00, 0x20, 0x00, 0x00, 0x00, 0xfe, 0xf7, 0xff, 0xff, 0x00, 0x00, 0x00, 0x01, 0x10, 0x00, 0x00, 0x00, 0x10, 0x00, 0x00, 0x00, 0x12, 0x00, 0x00, 0x00, 0x44, 0x00, 0x00, 0x00, 0xe8, 0xf7, 0xff, 0xff, 0x34, 0x00, 0x00, 0x00, 0x73, 0x65, 0x71, 0x75, 0x65, 0x6e, 0x74, 0x69, 0x61, 0x6c, 0x5f, 0x32, 0x30, 0x5f, 0x31, 0x2f, 0x6d, 0x61, 0x78, 0x5f, 0x70, 0x6f, 0x6f, 0x6c, 0x69, 0x6e, 0x67, 0x31, 0x64, 0x5f, 0x34, 0x31, 0x5f, 0x31, 0x2f, 0x4d, 0x61, 0x78, 0x50, 0x6f, 0x6f, 0x6c, 0x31, 0x64, 0x2f, 0x53, 0x71, 0x75, 0x65, 0x65, 0x7a, 0x65, 0x00, 0x00, 0x00, 0x00, 0x03, 0x00, 0x00, 0x00, 0x01, 0x00, 0x00, 0x00, 0x17, 0x00, 0x00, 0x00, 0x20, 0x00, 0x00, 0x00, 0x66, 0xf8, 0xff, 0xff, 0x00, 0x00, 0x00, 0x01, 0x10, 0x00, 0x00, 0x00, 0x10, 0x00, 0x00, 0x00, 0x11, 0x00, 0x00, 0x00, 0x3c, 0x00, 0x00, 0x00, 0x50, 0xf8, 0xff, 0xff, 0x2c, 0x00, 0x00, 0x00, 0x73, 0x65, 0x71, 0x75, 0x65, 0x6e, 0x74, 0x69, 0x61, 0x6c, 0x5f, 0x32, 0x30, 0x5f, 0x31, 0x2f, 0x6d, 0x61, 0x78, 0x5f, 0x70, 0x6f, 0x6f, 0x6c, 0x69, 0x6e, 0x67, 0x31, 0x64, 0x5f, 0x34, 0x31, 0x5f, 0x31, 0x2f, 0x4d, 0x61, 0x78, 0x50, 0x6f, 0x6f, 0x6c, 0x31, 0x64, 0x00, 0x00, 0x00, 0x00, 0x04, 0x00, 0x00, 0x00, 0x01, 0x00, 0x00, 0x00, 0x01, 0x00, 0x00, 0x00, 0x17, 0x00, 0x00, 0x00, 0x20, 0x00, 0x00, 0x00, 0xca, 0xf8, 0xff, 0xff, 0x00, 0x00, 0x00, 0x01, 0x10, 0x00, 0x00, 0x00, 0x10, 0x00, 0x00, 0x00, 0x10, 0x00, 0x00, 0x00, 0xd0, 0x00, 0x00, 0x00, 0xb4, 0xf8, 0xff, 0xff, 0xc0, 0x00, 0x00, 0x00, 0x73, 0x65, 0x71, 0x75, 0x65, 0x6e, 0x74, 0x69, 0x61, 0x6c, 0x5f, 0x32, 0x30, 0x5f, 0x31, 0x2f, 0x63, 0x6f, 0x6e, 0x76, 0x31, 0x64, 0x5f, 0x34, 0x31, 0x5f, 0x31, 0x2f, 0x52, 0x65, 0x6c, 0x75, 0x3b, 0x73, 0x65, 0x71, 0x75, 0x65, 0x6e, 0x74, 0x69, 0x61, 0x6c, 0x5f, 0x32, 0x30, 0x5f, 0x31, 0x2f, 0x63, 0x6f, 0x6e, 0x76, 0x31, 0x64, 0x5f, 0x34, 0x31, 0x5f, 0x31, 0x2f, 0x42, 0x69, 0x61, 0x73, 0x41, 0x64, 0x64, 0x3b, 0x73, 0x65, 0x71, 0x75, 0x65, 0x6e, 0x74, 0x69, 0x61, 0x6c, 0x5f, 0x32, 0x30, 0x5f, 0x31, 0x2f, 0x63, 0x6f, 0x6e, 0x76, 0x31, 0x64, 0x5f, 0x34, 0x31, 0x5f, 0x31, 0x2f, 0x63, 0x6f, 0x6e, 0x76, 0x6f, 0x6c, 0x75, 0x74, 0x69, 0x6f, 0x6e, 0x2f, 0x53, 0x71, 0x75, 0x65, 0x65, 0x7a, 0x65, 0x3b, 0x73, 0x65, 0x71, 0x75, 0x65, 0x6e, 0x74, 0x69, 0x61, 0x6c, 0x5f, 0x32, 0x30, 0x5f, 0x31, 0x2f, 0x63, 0x6f, 0x6e, 0x76, 0x31, 0x64, 0x5f, 0x34, 0x31, 0x5f, 0x31, 0x2f, 0x53, 0x71, 0x75, 0x65, 0x65, 0x7a, 0x65, 0x3b, 0x73, 0x65, 0x71, 0x75, 0x65, 0x6e, 0x74, 0x69, 0x61, 0x6c, 0x5f, 0x32, 0x30, 0x5f, 0x31, 0x2f, 0x63, 0x6f, 0x6e, 0x76, 0x31, 0x64, 0x5f, 0x34, 0x31, 0x5f, 0x31, 0x2f, 0x63, 0x6f, 0x6e, 0x76, 0x6f, 0x6c, 0x75, 0x74, 0x69, 0x6f, 0x6e, 0x00, 0x00, 0x00, 0x00, 0x04, 0x00, 0x00, 0x00, 0x01, 0x00, 0x00, 0x00, 0x01, 0x00, 0x00, 0x00, 0x2f, 0x00, 0x00, 0x00, 0x20, 0x00, 0x00, 0x00, 0xc2, 0xf9, 0xff, 0xff, 0x00, 0x00, 0x00, 0x01, 0x10, 0x00, 0x00, 0x00, 0x10, 0x00, 0x00, 0x00, 0x0f, 0x00, 0x00, 0x00, 0x3c, 0x00, 0x00, 0x00, 0xac, 0xf9, 0xff, 0xff, 0x2c, 0x00, 0x00, 0x00, 0x73, 0x65, 0x71, 0x75, 0x65, 0x6e, 0x74, 0x69, 0x61, 0x6c, 0x5f, 0x32, 0x30, 0x5f, 0x31, 0x2f, 0x6d, 0x61, 0x78, 0x5f, 0x70, 0x6f, 0x6f, 0x6c, 0x69, 0x6e, 0x67, 0x31, 0x64, 0x5f, 0x34, 0x30, 0x5f, 0x31, 0x2f, 0x4d, 0x61, 0x78, 0x50, 0x6f, 0x6f, 0x6c, 0x31, 0x64, 0x00, 0x00, 0x00, 0x00, 0x04, 0x00, 0x00, 0x00, 0x01, 0x00, 0x00, 0x00, 0x01, 0x00, 0x00, 0x00, 0x31, 0x00, 0x00, 0x00, 0x10, 0x00, 0x00, 0x00, 0x26, 0xfa, 0xff, 0xff, 0x00, 0x00, 0x00, 0x01, 0x10, 0x00, 0x00, 0x00, 0x10, 0x00, 0x00, 0x00, 0x0e, 0x00, 0x00, 0x00, 0xd0, 0x00, 0x00, 0x00, 0x10, 0xfa, 0xff, 0xff, 0xc0, 0x00, 0x00, 0x00, 0x73, 0x65, 0x71, 0x75, 0x65, 0x6e, 0x74, 0x69, 0x61, 0x6c, 0x5f, 0x32, 0x30, 0x5f, 0x31, 0x2f, 0x63, 0x6f, 0x6e, 0x76, 0x31, 0x64, 0x5f, 0x34, 0x30, 0x5f, 0x31, 0x2f, 0x52, 0x65, 0x6c, 0x75, 0x3b, 0x73, 0x65, 0x71, 0x75, 0x65, 0x6e, 0x74, 0x69, 0x61, 0x6c, 0x5f, 0x32, 0x30, 0x5f, 0x31, 0x2f, 0x63, 0x6f, 0x6e, 0x76, 0x31, 0x64, 0x5f, 0x34, 0x30, 0x5f, 0x31, 0x2f, 0x42, 0x69, 0x61, 0x73, 0x41, 0x64, 0x64, 0x3b, 0x73, 0x65, 0x71, 0x75, 0x65, 0x6e, 0x74, 0x69, 0x61, 0x6c, 0x5f, 0x32, 0x30, 0x5f, 0x31, 0x2f, 0x63, 0x6f, 0x6e, 0x76, 0x31, 0x64, 0x5f, 0x34, 0x30, 0x5f, 0x31, 0x2f, 0x63, 0x6f, 0x6e, 0x76, 0x6f, 0x6c, 0x75, 0x74, 0x69, 0x6f, 0x6e, 0x2f, 0x53, 0x71, 0x75, 0x65, 0x65, 0x7a, 0x65, 0x3b, 0x73, 0x65, 0x71, 0x75, 0x65, 0x6e, 0x74, 0x69, 0x61, 0x6c, 0x5f, 0x32, 0x30, 0x5f, 0x31, 0x2f, 0x63, 0x6f, 0x6e, 0x76, 0x31, 0x64, 0x5f, 0x34, 0x30, 0x5f, 0x31, 0x2f, 0x53, 0x71, 0x75, 0x65, 0x65, 0x7a, 0x65, 0x3b, 0x73, 0x65, 0x71, 0x75, 0x65, 0x6e, 0x74, 0x69, 0x61, 0x6c, 0x5f, 0x32, 0x30, 0x5f, 0x31, 0x2f, 0x63, 0x6f, 0x6e, 0x76, 0x31, 0x64, 0x5f, 0x34, 0x30, 0x5f, 0x31, 0x2f, 0x63, 0x6f, 0x6e, 0x76, 0x6f, 0x6c, 0x75, 0x74, 0x69, 0x6f, 0x6e, 0x00, 0x00, 0x00, 0x00, 0x04, 0x00, 0x00, 0x00, 0x01, 0x00, 0x00, 0x00, 0x01, 0x00, 0x00, 0x00, 0x62, 0x00, 0x00, 0x00, 0x10, 0x00, 0x00, 0x00, 0x1e, 0xfb, 0xff, 0xff, 0x00, 0x00, 0x00, 0x01, 0x10, 0x00, 0x00, 0x00, 0x10, 0x00, 0x00, 0x00, 0x0d, 0x00, 0x00, 0x00, 0x40, 0x00, 0x00, 0x00, 0x08, 0xfb, 0xff, 0xff, 0x32, 0x00, 0x00, 0x00, 0x73, 0x65, 0x71, 0x75, 0x65, 0x6e, 0x74, 0x69, 0x61, 0x6c, 0x5f, 0x32, 0x30, 0x5f, 0x31, 0x2f, 0x63, 0x6f, 0x6e, 0x76, 0x31, 0x64, 0x5f, 0x34, 0x30, 0x5f, 0x31, 0x2f, 0x63, 0x6f, 0x6e, 0x76, 0x6f, 0x6c, 0x75, 0x74, 0x69, 0x6f, 0x6e, 0x2f, 0x45, 0x78, 0x70, 0x61, 0x6e, 0x64, 0x44, 0x69, 0x6d, 0x73, 0x00, 0x00, 0x04, 0x00, 0x00, 0x00, 0x01, 0x00, 0x00, 0x00, 0x01, 0x00, 0x00, 0x00, 0x64, 0x00, 0x00, 0x00, 0x05, 0x00, 0x00, 0x00, 0xda, 0xfb, 0xff, 0xff, 0x00, 0x00, 0x00, 0x01, 0x14, 0x00, 0x00, 0x00, 0x34, 0x00, 0x00, 0x00, 0x0c, 0x00, 0x00, 0x00, 0x00, 0x00, 0x00, 0x09, 0x40, 0x00, 0x00, 0x00, 0x9c, 0xff, 0xff, 0xff, 0x08, 0x00, 0x00, 0x00, 0x14, 0x00, 0x00, 0x00, 0x01, 0x00, 0x00, 0x00, 0x00, 0x00, 0x00, 0x00, 0x00, 0x00, 0x00, 0x00, 0x00, 0x00, 0x00, 0x00, 0x01, 0x00, 0x00, 0x00, 0xcf, 0xf6, 0x8a, 0x3b, 0x12, 0x00, 0x00, 0x00, 0x74, 0x66, 0x6c, 0x2e, 0x70, 0x73, 0x65, 0x75, 0x64, 0x6f, 0x5f, 0x71, 0x63, 0x6f, 0x6e, 0x73, 0x74, 0x31, 0x00, 0x00, 0x02, 0x00, 0x00, 0x00, 0x20, 0x00, 0x00, 0x00, 0x20, 0x00, 0x00, 0x00, 0x3e, 0xfc, 0xff, 0xff, 0x00, 0x00, 0x00, 0x01, 0x20, 0x00, 0x00, 0x00, 0xb4, 0x01, 0x00, 0x00, 0x0b, 0x00, 0x00, 0x00, 0x00, 0x00, 0x00, 0x09, 0xc0, 0x01, 0x00, 0x00, 0x0c, 0x00, 0x0c, 0x00, 0x00, 0x00, 0x00, 0x00, 0x08, 0x00, 0x04, 0x00, 0x0c, 0x00, 0x00, 0x00, 0x08, 0x00, 0x00, 0x00, 0x0c, 0x01, 0x00, 0x00, 0x20, 0x00, 0x00, 0x00, 0x00, 0x00, 0x00, 0x00, 0x00, 0x00, 0x00, 0x00, 0x00, 0x00, 0x00, 0x00, 0x00, 0x00, 0x00, 0x00, 0x00, 0x00, 0x00, 0x00, 0x00, 0x00, 0x00, 0x00, 0x00, 0x00, 0x00, 0x00, 0x00, 0x00, 0x00, 0x00, 0x00, 0x00, 0x00, 0x00, 0x00, 0x00, 0x00, 0x00, 0x00, 0x00, 0x00, 0x00, 0x00, 0x00, 0x00, 0x00, 0x00, 0x00, 0x00, 0x00, 0x00, 0x00, 0x00, 0x00, 0x00, 0x00, 0x00, 0x00, 0x00, 0x00, 0x00, 0x00, 0x00, 0x00, 0x00, 0x00, 0x00, 0x00, 0x00, 0x00, 0x00, 0x00, 0x00, 0x00, 0x00, 0x00, 0x00, 0x00, 0x00, 0x00, 0x00, 0x00, 0x00, 0x00, 0x00, 0x00, 0x00, 0x00, 0x00, 0x00, 0x00, 0x00, 0x00, 0x00, 0x00, 0x00, 0x00, 0x00, 0x00, 0x00, 0x00, 0x00, 0x00, 0x00, 0x00, 0x00, 0x00, 0x00, 0x00, 0x00, 0x00, 0x00, 0x00, 0x00, 0x00, 0x00, 0x00, 0x00, 0x00, 0x00, 0x00, 0x00, 0x00, 0x00, 0x00, 0x00, 0x00, 0x00, 0x00, 0x00, 0x00, 0x00, 0x00, 0x00, 0x00, 0x00, 0x00, 0x00, 0x00, 0x00, 0x00, 0x00, 0x00, 0x00, 0x00, 0x00, 0x00, 0x00, 0x00, 0x00, 0x00, 0x00, 0x00, 0x00, 0x00, 0x00, 0x00, 0x00, 0x00, 0x00, 0x00, 0x00, 0x00, 0x00, 0x00, 0x00, 0x00, 0x00, 0x00, 0x00, 0x00, 0x00, 0x00, 0x00, 0x00, 0x00, 0x00, 0x00, 0x00, 0x00, 0x00, 0x00, 0x00, 0x00, 0x00, 0x00, 0x00, 0x00, 0x00, 0x00, 0x00, 0x00, 0x00, 0x00, 0x00, 0x00, 0x00, 0x00, 0x00, 0x00, 0x00, 0x00, 0x00, 0x00, 0x00, 0x00, 0x00, 0x00, 0x00, 0x00, 0x00, 0x00, 0x00, 0x00, 0x00, 0x00, 0x00, 0x00, 0x00, 0x00, 0x00, 0x00, 0x00, 0x00, 0x00, 0x00, 0x00, 0x00, 0x00, 0x00, 0x00, 0x00, 0x00, 0x00, 0x00, 0x00, 0x00, 0x00, 0x00, 0x00, 0x00, 0x00, 0x00, 0x00, 0x00, 0x00, 0x00, 0x00, 0x00, 0x00, 0x00, 0x00, 0x00, 0x00, 0x00, 0x00, 0x00, 0x00, 0x20, 0x00, 0x00, 0x00, 0x80, 0x1e, 0x0a, 0x3b, 0x17, 0x1c, 0xfa, 0x3a, 0xc6, 0x61, 0x14, 0x3b, 0x2b, 0xc3, 0x13, 0x3b, 0x3e, 0x9d, 0x13, 0x3b, 0x19, 0xa7, 0x22, 0x3b, 0x16, 0x03, 0x17, 0x3b, 0xc6, 0x50, 0x3e, 0x3b, 0xcf, 0x6c, 0x25, 0x3b, 0xf3, 0x69, 0x1f, 0x3b, 0xa2, 0xeb, 0x02, 0x3b, 0x88, 0x97, 0x39, 0x3b, 0x14, 0xf3, 0x37, 0x3b, 0x1e, 0x06, 0x13, 0x3b, 0x35, 0xfa, 0x0f, 0x3b, 0x33, 0x04, 0x02, 0x3b, 0xb5, 0x02, 0x1a, 0x3b, 0xb4, 0x3b, 0x42, 0x3b, 0x17, 0x0c, 0x12, 0x3b, 0x39, 0x81, 0x18, 0x3b, 0x50, 0x7f, 0x35, 0x3b, 0x71, 0xeb, 0x19, 0x3b, 0x58, 0xbe, 0xfb, 0x3a, 0x7d, 0xd1, 0x2b, 0x3b, 0xfe, 0x9c, 0x05, 0x3b, 0x3f, 0xbc, 0x28, 0x3b, 0x39, 0x60, 0x28, 0x3b, 0x69, 0x94, 0x13, 0x3b, 0xcd, 0x78, 0x1e, 0x3b, 0x2b, 0x88, 0x1f, 0x3b, 0x5c, 0x2a, 0x35, 0x3b, 0xe6, 0x84, 0x29, 0x3b, 0x11, 0x00, 0x00, 0x00, 0x74, 0x66, 0x6c, 0x2e, 0x70, 0x73, 0x65, 0x75, 0x64, 0x6f, 0x5f, 0x71, 0x63, 0x6f, 0x6e, 0x73, 0x74, 0x00, 0x00, 0x00, 0x04, 0x00, 0x00, 0x00, 0x20, 0x00, 0x00, 0x00, 0x01, 0x00, 0x00, 0x00, 0x03, 0x00, 0x00, 0x00, 0x10, 0x00, 0x00, 0x00, 0x2a, 0xfe, 0xff, 0xff, 0x00, 0x00, 0x00, 0x01, 0x14, 0x00, 0x00, 0x00, 0x14, 0x00, 0x00, 0x00, 0x0a, 0x00, 0x00, 0x00, 0x00, 0x00, 0x00, 0x02, 0x1c, 0x00, 0x00, 0x00, 0xc4, 0xfd, 0xff, 0xff, 0x0f, 0x00, 0x00, 0x00, 0x61, 0x72, 0x69, 0x74, 0x68, 0x2e, 0x63, 0x6f, 0x6e, 0x73, 0x74, 0x61, 0x6e, 0x74, 0x38, 0x00, 0x01, 0x00, 0x00, 0x00, 0x03, 0x00, 0x00, 0x00, 0x12, 0xfe, 0xff, 0xff, 0x00, 0x00, 0x00, 0x01, 0x10, 0x00, 0x00, 0x00, 0x10, 0x00, 0x00, 0x00, 0x09, 0x00, 0x00, 0x00, 0x1c, 0x00, 0x00, 0x00, 0xfc, 0xfd, 0xff, 0xff, 0x0f, 0x00, 0x00, 0x00, 0x61, 0x72, 0x69, 0x74, 0x68, 0x2e, 0x63, 0x6f, 0x6e, 0x73, 0x74, 0x61, 0x6e, 0x74, 0x37, 0x00, 0x01, 0x00, 0x00, 0x00, 0x10, 0x00, 0x00, 0x00, 0x4a, 0xfe, 0xff, 0xff, 0x00, 0x00, 0x00, 0x01, 0x10, 0x00, 0x00, 0x00, 0x10, 0x00, 0x00, 0x00, 0x08, 0x00, 0x00, 0x00, 0x1c, 0x00, 0x00, 0x00, 0x34, 0xfe, 0xff, 0xff, 0x0f, 0x00, 0x00, 0x00, 0x61, 0x72, 0x69, 0x74, 0x68, 0x2e, 0x63, 0x6f, 0x6e, 0x73, 0x74, 0x61, 0x6e, 0x74, 0x36, 0x00, 0x01, 0x00, 0x00, 0x00, 0x20, 0x00, 0x00, 0x00, 0x82, 0xfe, 0xff, 0xff, 0x00, 0x00, 0x00, 0x01, 0x10, 0x00, 0x00, 0x00, 0x10, 0x00, 0x00, 0x00, 0x07, 0x00, 0x00, 0x00, 0x1c, 0x00, 0x00, 0x00, 0x6c, 0xfe, 0xff, 0xff, 0x0f, 0x00, 0x00, 0x00, 0x61, 0x72, 0x69, 0x74, 0x68, 0x2e, 0x63, 0x6f, 0x6e, 0x73, 0x74, 0x61, 0x6e, 0x74, 0x35, 0x00, 0x04, 0x00, 0x00, 0x00, 0x10, 0x00, 0x00, 0x00, 0x01, 0x00, 0x00, 0x00, 0x03, 0x00, 0x00, 0x00, 0x05, 0x00, 0x00, 0x00, 0xc6, 0xfe, 0xff, 0xff, 0x00, 0x00, 0x00, 0x01, 0x10, 0x00, 0x00, 0x00, 0x10, 0x00, 0x00, 0x00, 0x06, 0x00, 0x00, 0x00, 0x1c, 0x00, 0x00, 0x00, 0xb0, 0xfe, 0xff, 0xff, 0x0f, 0x00, 0x00, 0x00, 0x61, 0x72, 0x69, 0x74, 0x68, 0x2e, 0x63, 0x6f, 0x6e, 0x73, 0x74, 0x61, 0x6e, 0x74, 0x34, 0x00, 0x02, 0x00, 0x00, 0x00, 0x0b, 0x00, 0x00, 0x00, 0x20, 0x00, 0x00, 0x00, 0x56, 0xff, 0xff, 0xff, 0x00, 0x00, 0x00, 0x01, 0x14, 0x00, 0x00, 0x00, 0x14, 0x00, 0x00, 0x00, 0x05, 0x00, 0x00, 0x00, 0x00, 0x00, 0x00, 0x02, 0x1c, 0x00, 0x00, 0x00, 0xf0, 0xfe, 0xff, 0xff, 0x0f, 0x00, 0x00, 0x00, 0x61, 0x72, 0x69, 0x74, 0x68, 0x2e, 0x63, 0x6f, 0x6e, 0x73, 0x74, 0x61, 0x6e, 0x74, 0x33, 0x00, 0x00, 0x00, 0x00, 0x00, 0x3a, 0xff, 0xff, 0xff, 0x00, 0x00, 0x00, 0x01, 0x10, 0x00, 0x00, 0x00, 0x10, 0x00, 0x00, 0x00, 0x04, 0x00, 0x00, 0x00, 0x1c, 0x00, 0x00, 0x00, 0x24, 0xff, 0xff, 0xff, 0x0f, 0x00, 0x00, 0x00, 0x61, 0x72, 0x69, 0x74, 0x68, 0x2e, 0x63, 0x6f, 0x6e, 0x73, 0x74, 0x61, 0x6e, 0x74, 0x32, 0x00, 0x01, 0x00, 0x00, 0x00, 0x0b, 0x00, 0x00, 0x00, 0x72, 0xff, 0xff, 0xff, 0x00, 0x00, 0x00, 0x01, 0x10, 0x00, 0x00, 0x00, 0x10, 0x00, 0x00, 0x00, 0x03, 0x00, 0x00, 0x00, 0x1c, 0x00, 0x00, 0x00, 0x5c, 0xff, 0xff, 0xff, 0x0f, 0x00, 0x00, 0x00, 0x61, 0x72, 0x69, 0x74, 0x68, 0x2e, 0x63, 0x6f, 0x6e, 0x73, 0x74, 0x61, 0x6e, 0x74, 0x31, 0x00, 0x01, 0x00, 0x00, 0x00, 0x20, 0x00, 0x00, 0x00, 0x00, 0x00, 0x16, 0x00, 0x1c, 0x00, 0x18, 0x00, 0x17, 0x00, 0x10, 0x00, 0x0c, 0x00, 0x08, 0x00, 0x00, 0x00, 0x00, 0x00, 0x00, 0x00, 0x07, 0x00, 0x16, 0x00, 0x00, 0x00, 0x00, 0x00, 0x00, 0x01, 0x14, 0x00, 0x00, 0x00, 0x14, 0x00, 0x00, 0x00, 0x02, 0x00, 0x00, 0x00, 0x00, 0x00, 0x00, 0x02, 0x1c, 0x00, 0x00, 0x00, 0xb0, 0xff, 0xff, 0xff, 0x0e, 0x00, 0x00, 0x00, 0x61, 0x72, 0x69, 0x74, 0x68, 0x2e, 0x63, 0x6f, 0x6e, 0x73, 0x74, 0x61, 0x6e, 0x74, 0x00, 0x00, 0x01, 0x00, 0x00, 0x00, 0x04, 0x00, 0x00, 0x00, 0x00, 0x00, 0x16, 0x00, 0x18, 0x00, 0x14, 0x00, 0x00, 0x00, 0x10, 0x00, 0x0c, 0x00, 0x08, 0x00, 0x00, 0x00, 0x00, 0x00, 0x00, 0x00, 0x07, 0x00, 0x16, 0x00, 0x00, 0x00, 0x00, 0x00, 0x00, 0x01, 0x14, 0x00, 0x00, 0x00, 0x14, 0x00, 0x00, 0x00, 0x01, 0x00, 0x00, 0x00, 0x14, 0x00, 0x00, 0x00, 0x04, 0x00, 0x04, 0x00, 0x04, 0x00, 0x00, 0x00, 0x01, 0x00, 0x00, 0x00, 0x78, 0x00, 0x00, 0x00, 0x03, 0x00, 0x00, 0x00, 0x01, 0x00, 0x00, 0x00, 0x64, 0x00, 0x00, 0x00, 0x05, 0x00, 0x00, 0x00, 0x06, 0x00, 0x00, 0x00, 0x74, 0x00, 0x00, 0x00, 0x54, 0x00, 0x00, 0x00, 0x38, 0x00, 0x00, 0x00, 0x28, 0x00, 0x00, 0x00, 0x14, 0x00, 0x00, 0x00, 0x04, 0x00, 0x00, 0x00, 0xb0, 0xff, 0xff, 0xff, 0x19, 0x00, 0x00, 0x00, 0x00, 0x00, 0x00, 0x19, 0xd8, 0xff, 0xff, 0xff, 0x09, 0x00, 0x00, 0x00, 0x09, 0x00, 0x00, 0x00, 0x00, 0x00, 0x00, 0x09, 0xcc, 0xff, 0xff, 0xff, 0x28, 0x00, 0x00, 0x00, 0x00, 0x00, 0x00, 0x28, 0xd8, 0xff, 0xff, 0xff, 0x11, 0x00, 0x00, 0x00, 0x00, 0x00, 0x00, 0x11, 0x0c, 0x00, 0x10, 0x00, 0x0f, 0x00, 0x00, 0x00, 0x08, 0x00, 0x04, 0x00, 0x0c, 0x00, 0x00, 0x00, 0x03, 0x00, 0x00, 0x00, 0x05, 0x00, 0x00, 0x00, 0x00, 0x00, 0x00, 0x03, 0x0c, 0x00, 0x0c, 0x00, 0x0b, 0x00, 0x00, 0x00, 0x00, 0x00, 0x04, 0x00, 0x0c, 0x00, 0x00, 0x00, 0x16, 0x00, 0x00, 0x00, 0x00, 0x00, 0x00, 0x16
};
const unsigned int model_data_len = 9408;

#endif // BSL_MODEL_H_20250717_221930
