/*
 * BSL Gesture Recognition Model
 *
 * Model Type: 1D_CNN_Arduino
 * Timestamp:  20250725_151905
 * Model Size: 9048 bytes
 */

#ifndef BSL_MODEL_H_20250725_151905
#define BSL_MODEL_H_20250725_151905

// Feature count for normalization
const int BSL_MODEL_FEATURES = 5;

// Normalization parameters (StandardScaler)
const float scaler_mean[BSL_MODEL_FEATURES] = { 219.33342957f, 141.16145402f, 362.30922989f, 277.72765408f, 130.19149629f };
const float scaler_scale[BSL_MODEL_FEATURES] = { 199.52285777f, 145.41853085f, 182.02434837f, 198.42436474f, 125.78641406f };

// TFLite model data
alignas(16) const unsigned char model_data[] = {
    0x20, 0x00, 0x00, 0x00, 0x54, 0x46, 0x4c, 0x33, 0x00, 0x00, 0x00, 0x00, 0x14, 0x00, 0x20, 0x00, 0x1c, 0x00, 0x18, 0x00, 0x14, 0x00, 0x10, 0x00, 0x0c, 0x00, 0x00, 0x00, 0x08, 0x00, 0x04, 0x00, 0x14, 0x00, 0x00, 0x00, 0x1c, 0x00, 0x00, 0x00, 0x1c, 0x00, 0x00, 0x00, 0x9c, 0x00, 0x00, 0x00, 0x30, 0x10, 0x00, 0x00, 0x40, 0x10, 0x00, 0x00, 0x90, 0x22, 0x00, 0x00, 0x03, 0x00, 0x00, 0x00, 0x00, 0x00, 0x00, 0x00, 0x03, 0x00, 0x00, 0x00, 0x5c, 0x00, 0x00, 0x00, 0x2c, 0x00, 0x00, 0x00, 0x04, 0x00, 0x00, 0x00, 0xb8, 0xff, 0xff, 0xff, 0x19, 0x00, 0x00, 0x00, 0x04, 0x00, 0x00, 0x00, 0x13, 0x00, 0x00, 0x00, 0x43, 0x4f, 0x4e, 0x56, 0x45, 0x52, 0x53, 0x49, 0x4f, 0x4e, 0x5f, 0x4d, 0x45, 0x54, 0x41, 0x44, 0x41, 0x54, 0x41, 0x00, 0xdc, 0xff, 0xff, 0xff, 0x18, 0x00, 0x00, 0x00, 0x04, 0x00, 0x00, 0x00, 0x13, 0x00, 0x00, 0x00, 0x6d, 0x69, 0x6e, 0x5f, 0x72, 0x75, 0x6e, 0x74, 0x69, 0x6d, 0x65, 0x5f, 0x76, 0x65, 0x72, 0x73, 0x69, 0x6f, 0x6e, 0x00, 0x08, 0x00, 0x0c, 0x00, 0x08, 0x00, 0x04, 0x00, 0x08, 0x00, 0x00, 0x00, 0x17, 0x00, 0x00, 0x00, 0x04, 0x00, 0x00, 0x00, 0x13, 0x00, 0x00, 0x00, 0x6d, 0x69, 0x6e, 0x5f, 0x72, 0x75, 0x6e, 0x74, 0x69, 0x6d, 0x65, 0x5f, 0x76, 0x65, 0x72, 0x73, 0x69, 0x6f, 0x6e, 0x00, 0x1a, 0x00, 0x00, 0x00, 0x90, 0x0f, 0x00, 0x00, 0x88, 0x0f, 0x00, 0x00, 0x68, 0x0f, 0x00, 0x00, 0x4c, 0x0f, 0x00, 0x00, 0x38, 0x0f, 0x00, 0x00, 0xfc, 0x0e, 0x00, 0x00, 0x8c, 0x0d, 0x00, 0x00, 0xfc, 0x0c, 0x00, 0x00, 0xec, 0x08, 0x00, 0x00, 0x5c, 0x08, 0x00, 0x00, 0x4c, 0x02, 0x00, 0x00, 0xfc, 0x01, 0x00, 0x00, 0xfc, 0x00, 0x00, 0x00, 0xf4, 0x00, 0x00, 0x00, 0xec, 0x00, 0x00, 0x00, 0xe4, 0x00, 0x00, 0x00, 0xdc, 0x00, 0x00, 0x00, 0xd4, 0x00, 0x00, 0x00, 0xcc, 0x00, 0x00, 0x00, 0xc4, 0x00, 0x00, 0x00, 0xbc, 0x00, 0x00, 0x00, 0xb4, 0x00, 0x00, 0x00, 0xac, 0x00, 0x00, 0x00, 0x8c, 0x00, 0x00, 0x00, 0x6c, 0x00, 0x00, 0x00, 0x04, 0x00, 0x00, 0x00, 0x3e, 0xf0, 0xff, 0xff, 0x04, 0x00, 0x00, 0x00, 0x58, 0x00, 0x00, 0x00, 0x0c, 0x00, 0x00, 0x00, 0x08, 0x00, 0x0e, 0x00, 0x08, 0x00, 0x04, 0x00, 0x08, 0x00, 0x00, 0x00, 0x10, 0x00, 0x00, 0x00, 0x28, 0x00, 0x00, 0x00, 0x00, 0x00, 0x06, 0x00, 0x08, 0x00, 0x04, 0x00, 0x06, 0x00, 0x00, 0x00, 0x04, 0x00, 0x00, 0x00, 0x01, 0x00, 0x00, 0x00, 0xeb, 0x03, 0x00, 0x00, 0x00, 0x00, 0x0a, 0x00, 0x10, 0x00, 0x0c, 0x00, 0x08, 0x00, 0x04, 0x00, 0x0a, 0x00, 0x00, 0x00, 0x03, 0x00, 0x00, 0x00, 0x02, 0x00, 0x00, 0x00, 0x04, 0x00, 0x00, 0x00, 0x06, 0x00, 0x00, 0x00, 0x32, 0x2e, 0x31, 0x36, 0x2e, 0x32, 0x00, 0x00, 0xa2, 0xf0, 0xff, 0xff, 0x04, 0x00, 0x00, 0x00, 0x10, 0x00, 0x00, 0x00, 0x00, 0x00, 0x00, 0x00, 0x00, 0x00, 0x00, 0x00, 0x00, 0x00, 0x00, 0x00, 0x00, 0x00, 0x00, 0x00, 0xbe, 0xf0, 0xff, 0xff, 0x04, 0x00, 0x00, 0x00, 0x10, 0x00, 0x00, 0x00, 0x31, 0x2e, 0x31, 0x34, 0x2e, 0x30, 0x00, 0x00, 0x00, 0x00, 0x00, 0x00, 0x00, 0x00, 0x00, 0x00, 0xa4, 0xdf, 0xff, 0xff, 0xa8, 0xdf, 0xff, 0xff, 0xac, 0xdf, 0xff, 0xff, 0xb0, 0xdf, 0xff, 0xff, 0xb4, 0xdf, 0xff, 0xff, 0xb8, 0xdf, 0xff, 0xff, 0xbc, 0xdf, 0xff, 0xff, 0xc0, 0xdf, 0xff, 0xff, 0xc4, 0xdf, 0xff, 0xff, 0xc8, 0xdf, 0xff, 0xff, 0x02, 0xf1, 0xff, 0xff, 0x04, 0x00, 0x00, 0x00, 0xf0, 0x00, 0x00, 0x00, 0x3d, 0xc2, 0x09, 0xf4, 0xac, 0x12, 0x9f, 0xfc, 0x8d, 0x81, 0x65, 0x0a, 0x3f, 0xd5, 0x95, 0xdd, 0x39, 0x81, 0x7a, 0x6d, 0xc6, 0x3b, 0xa7, 0x7a, 0x47, 0x7b, 0x7f, 0x85, 0x2f, 0xc7, 0x0d, 0x34, 0x90, 0x81, 0xa0, 0x2f, 0x8e, 0x91, 0xb4, 0xf2, 0x20, 0xbf, 0x81, 0xf9, 0x8b, 0x62, 0x0f, 0xf4, 0x85, 0x4a, 0x43, 0xe4, 0xf8, 0xe1, 0xbd, 0x0f, 0x81, 0xf4, 0x9f, 0xda, 0x9a, 0x9a, 0x36, 0xde, 0x90, 0x1b, 0x9b, 0x37, 0xfb, 0xd5, 0xb9, 0xd4, 0x92, 0x81, 0xdb, 0xb3, 0x2e, 0xd7, 0xfc, 0x08, 0xe1, 0x38, 0x23, 0x81, 0x20, 0x93, 0xe4, 0xc8, 0xa3, 0xee, 0x26, 0xf5, 0x0d, 0x6f, 0x57, 0xb6, 0xe0, 0x37, 0xe6, 0xb5, 0xc4, 0x2a, 0x1a, 0x7f, 0xc4, 0xc1, 0x8f, 0xb1, 0x30, 0xf6, 0xd6, 0xc9, 0xa2, 0x3a, 0xfc, 0xb2, 0x81, 0xa9, 0x36, 0x61, 0x7f, 0xc2, 0x45, 0x44, 0x51, 0x4a, 0x2a, 0x10, 0xc5, 0x29, 0x1d, 0x19, 0xe4, 0xf0, 0x50, 0xbd, 0xab, 0x3d, 0x9a, 0x10, 0xae, 0x81, 0x2e, 0xac, 0xa4, 0x12, 0xe2, 0x0c, 0xf8, 0x0f, 0xce, 0x7f, 0xfd, 0x12, 0x51, 0x61, 0x6f, 0x6c, 0x0b, 0xac, 0xac, 0x12, 0x30, 0xef, 0x10, 0x51, 0x1b, 0x86, 0x5a, 0x40, 0x47, 0x33, 0x0a, 0x39, 0x7f, 0xdb, 0xbb, 0xa5, 0xe5, 0x71, 0x98, 0xbb, 0xcb, 0x09, 0x72, 0xde, 0xf9, 0x61, 0x64, 0x0b, 0x81, 0x8a, 0x3f, 0x74, 0x49, 0x00, 0xa7, 0xfd, 0x37, 0x2c, 0xef, 0xfe, 0xcc, 0x7f, 0x15, 0x51, 0xc0, 0x06, 0x32, 0xb7, 0x31, 0x41, 0xf9, 0x3e, 0x3a, 0x7f, 0x5e, 0x67, 0x34, 0xf5, 0x51, 0x0b, 0x4d, 0x54, 0x2b, 0x50, 0xc7, 0xc8, 0xd0, 0x85, 0x72, 0x27, 0x0d, 0xf3, 0x10, 0x7f, 0xa1, 0xce, 0x24, 0xa1, 0xfe, 0xf1, 0xff, 0xff, 0x04, 0x00, 0x00, 0x00, 0x40, 0x00, 0x00, 0x00, 0x1f, 0x06, 0x00, 0x00, 0x08, 0x0b, 0x00, 0x00, 0x3f, 0x0f, 0x00, 0x00, 0x1c, 0x09, 0x00, 0x00, 0xdb, 0x08, 0x00, 0x00, 0x1f, 0x07, 0x00, 0x00, 0x1d, 0x03, 0x00, 0x00, 0x03, 0x0a, 0x00, 0x00, 0x84, 0x05, 0x00, 0x00, 0x36, 0x0b, 0x00, 0x00, 0xbc, 0x07, 0x00, 0x00, 0xc1, 0x09, 0x00, 0x00, 0x5e, 0x04, 0x00, 0x00, 0x31, 0x07, 0x00, 0x00, 0x4a, 0x05, 0x00, 0x00, 0x0d, 0x0c, 0x00, 0x00, 0x4a, 0xf2, 0xff, 0xff, 0x04, 0x00, 0x00, 0x00, 0x00, 0x06, 0x00, 0x00, 0x9e, 0x11, 0xc9, 0xa0, 0x1c, 0x00, 0x9e, 0xd1, 0xb6, 0x94, 0x5f, 0xc1, 0x50, 0xf0, 0x28, 0xa0, 0x59, 0x9d, 0xb6, 0xe9, 0x93, 0xff, 0x9a, 0x30, 0x05, 0x8e, 0x05, 0x46, 0xe5, 0xcf, 0xc2, 0xa4, 0x92, 0x85, 0xb0, 0xa5, 0x15, 0xa7, 0x81, 0xaf, 0xf8, 0xe0, 0x58, 0xc1, 0x4f, 0x03, 0xb0, 0x5a, 0x4e, 0xb1, 0xe6, 0x4f, 0xf4, 0xc2, 0x37, 0xc7, 0xa2, 0xcb, 0xe8, 0xe3, 0xc8, 0x23, 0x11, 0x71, 0x62, 0x1a, 0x4b, 0x20, 0x20, 0xa5, 0x41, 0xac, 0xfd, 0xd7, 0x04, 0xf6, 0xad, 0x0d, 0x0f, 0x09, 0x35, 0x18, 0xe2, 0x62, 0xce, 0xa1, 0x19, 0xf0, 0xf6, 0xac, 0x41, 0xc2, 0xb7, 0x43, 0xbd, 0x7f, 0xc6, 0x0e, 0x00, 0xf8, 0xf5, 0x38, 0xe6, 0x04, 0xae, 0x2c, 0x3e, 0xb3, 0xd9, 0x3a, 0xd8, 0xbd, 0x45, 0xc8, 0x34, 0xd9, 0xf1, 0x52, 0x3f, 0x33, 0x81, 0xbf, 0xf5, 0x2d, 0xfb, 0x55, 0xfc, 0xf8, 0x40, 0x09, 0x55, 0x01, 0x1a, 0x74, 0xeb, 0x09, 0xdd, 0x46, 0xe0, 0xac, 0x71, 0x3e, 0xf9, 0x32, 0x11, 0x47, 0xf5, 0xee, 0x0b, 0xf1, 0xc4, 0x15, 0x6d, 0x0d, 0x8e, 0x15, 0xfa, 0x3f, 0x06, 0x50, 0x3e, 0x5c, 0xab, 0xcc, 0xda, 0xf6, 0x1f, 0x6c, 0x42, 0x37, 0xf9, 0x74, 0x35, 0x7f, 0x18, 0x5c, 0xc2, 0x2b, 0x15, 0x0d, 0x09, 0xc6, 0x41, 0x70, 0x7a, 0x01, 0xb7, 0x70, 0xcb, 0x59, 0xcb, 0x0c, 0xc2, 0x3e, 0x2b, 0x97, 0x10, 0xc3, 0x6a, 0xd7, 0x54, 0xe9, 0xff, 0x2d, 0xee, 0x3a, 0x61, 0xe7, 0x28, 0xf5, 0x3a, 0x14, 0xcd, 0x0a, 0x0c, 0x2a, 0xfa, 0x25, 0xa9, 0xea, 0x3f, 0x41, 0xef, 0xeb, 0xe5, 0x3a, 0x0d, 0xb0, 0x08, 0xc0, 0x67, 0x05, 0x1a, 0xfe, 0xfd, 0xfa, 0x28, 0x7f, 0xf9, 0x2b, 0x46, 0xc1, 0x1e, 0x6f, 0xf7, 0xdc, 0x03, 0x1f, 0x1e, 0xde, 0x2b, 0xf4, 0x38, 0xff, 0x0d, 0x4d, 0x31, 0xfe, 0xf3, 0x3b, 0x20, 0xb8, 0xe9, 0xa7, 0xfc, 0x26, 0xf8, 0xf7, 0x60, 0xda, 0x4a, 0xe0, 0x38, 0xc4, 0x4e, 0x7f, 0xde, 0x2c, 0x11, 0xab, 0x48, 0x32, 0xf5, 0xda, 0x6f, 0xe5, 0x00, 0xe4, 0x1d, 0x25, 0x2e, 0x1c, 0x27, 0xf6, 0x1d, 0x31, 0xf4, 0x1e, 0x75, 0xc7, 0xbb, 0x07, 0x6b, 0x0c, 0x26, 0xd3, 0x06, 0x18, 0x37, 0xf9, 0x22, 0xc5, 0x46, 0x35, 0x68, 0x01, 0xe6, 0xc2, 0x2d, 0x3b, 0x45, 0x41, 0x23, 0x26, 0x28, 0x0f, 0x19, 0xdf, 0x2d, 0x35, 0x7f, 0x18, 0x1f, 0x01, 0x5d, 0x26, 0x04, 0x6c, 0xd4, 0x29, 0xc2, 0x32, 0xcb, 0xb9, 0x2f, 0x3b, 0x55, 0x38, 0xe5, 0x4a, 0x61, 0x6e, 0x23, 0x78, 0x56, 0x52, 0xd6, 0xe1, 0xc9, 0xb1, 0xf1, 0x18, 0x6b, 0x4a, 0xa1, 0xed, 0x7f, 0x44, 0xe2, 0x15, 0xd4, 0x23, 0xce, 0x9f, 0xc1, 0xeb, 0x3b, 0x35, 0x7d, 0x22, 0xba, 0xdc, 0x4c, 0x5a, 0xda, 0x7f, 0xcd, 0xec, 0xee, 0x12, 0xcf, 0x75, 0x22, 0x05, 0x9e, 0xfb, 0xcc, 0x0c, 0x1f, 0xbb, 0x06, 0x36, 0xff, 0xd5, 0xe5, 0x50, 0xd1, 0x56, 0x2e, 0x44, 0x1e, 0x51, 0xd4, 0x1d, 0xc7, 0xe4, 0x2f, 0x5d, 0x46, 0x17, 0x34, 0x21, 0x22, 0x54, 0x1d, 0x3f, 0x99, 0x6b, 0xfd, 0xe6, 0x18, 0x0e, 0x25, 0xbe, 0x07, 0xf6, 0x0f, 0xf3, 0xeb, 0x42, 0x5b, 0x1a, 0x13, 0x2d, 0x1a, 0x0b, 0x4e, 0x10, 0xfa, 0xf1, 0xdb, 0x1f, 0x5e, 0x05, 0xb9, 0x3f, 0x7f, 0x14, 0xda, 0x1d, 0xce, 0x19, 0xe4, 0x24, 0x4a, 0x0a, 0x4e, 0x2c, 0x4f, 0xbe, 0xf6, 0x02, 0x3e, 0xde, 0xbe, 0xda, 0xb2, 0xfd, 0x37, 0xf8, 0x41, 0x31, 0x4f, 0x2c, 0xce, 0xee, 0xbd, 0xc8, 0xf0, 0x3c, 0xe5, 0xe9, 0xf8, 0x04, 0xca, 0x7f, 0x2b, 0x42, 0x71, 0xeb, 0x3c, 0xe1, 0x2a, 0xe5, 0xfc, 0x3e, 0x05, 0x92, 0x14, 0xf2, 0xf2, 0x52, 0x2e, 0xd1, 0xde, 0x00, 0xf4, 0xad, 0x57, 0xc0, 0x1f, 0x05, 0xea, 0xd4, 0x00, 0xfa, 0xe5, 0x5f, 0x24, 0x11, 0x1a, 0x7f, 0x18, 0xe4, 0xf1, 0xc1, 0x24, 0xb8, 0xb7, 0x15, 0xcb, 0xbd, 0xea, 0x19, 0x1d, 0xe2, 0x35, 0x74, 0xfe, 0xf5, 0xba, 0xae, 0x5b, 0xbb, 0x08, 0xf4, 0xf2, 0xba, 0xc8, 0x28, 0x18, 0x08, 0xf9, 0x15, 0xcc, 0x11, 0xb0, 0xc2, 0x4f, 0xf7, 0xce, 0x0e, 0xfd, 0x22, 0xdc, 0x54, 0xe0, 0x64, 0x41, 0x26, 0x48, 0xd5, 0xc4, 0x05, 0x5b, 0x67, 0x26, 0x1f, 0x99, 0xe1, 0x07, 0xcf, 0xbb, 0x7f, 0xbf, 0xd9, 0xb9, 0xf5, 0xd6, 0x37, 0xef, 0xec, 0x58, 0x72, 0x02, 0xd8, 0x17, 0x11, 0x05, 0x43, 0x31, 0x5c, 0xe2, 0xf7, 0xed, 0x35, 0xf9, 0xd6, 0x28, 0x42, 0xcb, 0xfc, 0x1c, 0x2c, 0x4a, 0x2c, 0xd3, 0x32, 0x56, 0x1e, 0x05, 0xfd, 0xc3, 0xc9, 0xdc, 0x5b, 0x16, 0xf3, 0xbd, 0x4f, 0x3d, 0x42, 0x10, 0x59, 0x0c, 0x10, 0x4c, 0x5f, 0xe4, 0xf2, 0xaf, 0x30, 0xfb, 0x44, 0xed, 0x3a, 0x0b, 0x7f, 0x44, 0x7a, 0x2d, 0x24, 0x3e, 0x59, 0x06, 0xda, 0xf0, 0x2b, 0x4a, 0x2d, 0xb4, 0x5b, 0x05, 0x44, 0xc6, 0x21, 0x31, 0x6c, 0x29, 0x2e, 0xfe, 0x0f, 0x77, 0x18, 0x3e, 0x0f, 0xf0, 0x18, 0x02, 0xdd, 0xf0, 0x40, 0xf6, 0x67, 0x2d, 0x6b, 0xe4, 0xe7, 0x19, 0x25, 0x50, 0xf1, 0x44, 0xec, 0x33, 0xc6, 0x53, 0xd7, 0xc9, 0x28, 0x09, 0xe8, 0xf9, 0x46, 0x64, 0xb0, 0xf1, 0x81, 0x1c, 0x2f, 0x33, 0xc1, 0xdb, 0xa1, 0xcc, 0xe0, 0x77, 0xd8, 0xfe, 0xe7, 0x6e, 0xa0, 0x44, 0x4b, 0xd3, 0x61, 0x38, 0x17, 0xc4, 0xbf, 0xa8, 0x06, 0xff, 0x81, 0x32, 0xc2, 0x6b, 0x39, 0x6a, 0xf9, 0x13, 0x5c, 0x4f, 0x88, 0xc2, 0x03, 0x03, 0xac, 0x2a, 0xa4, 0xcf, 0x24, 0x47, 0x2b, 0x36, 0x05, 0x15, 0xee, 0xe0, 0xbf, 0x56, 0xdc, 0xe7, 0x49, 0xf9, 0xe3, 0x16, 0x55, 0xdd, 0x17, 0xd4, 0xc3, 0xdb, 0xb1, 0xdb, 0xd3, 0x56, 0xde, 0x29, 0x77, 0x96, 0xfb, 0x23, 0x79, 0x34, 0x3f, 0x20, 0xef, 0x15, 0x3f, 0x1f, 0xce, 0x0d, 0x0a, 0x56, 0x04, 0x8d, 0x56, 0x6b, 0x7f, 0x03, 0x2b, 0x15, 0xad, 0xc6, 0xba, 0x11, 0xd7, 0x1c, 0xad, 0x27, 0x2a, 0x49, 0x6b, 0xa6, 0xe3, 0xeb, 0xfb, 0x7f, 0x2a, 0x36, 0xcf, 0xd1, 0x4f, 0x25, 0x08, 0xcc, 0x03, 0x73, 0x44, 0xa9, 0x50, 0xee, 0xf2, 0x35, 0x78, 0xea, 0x01, 0x9f, 0x15, 0xce, 0x07, 0x1d, 0x23, 0x65, 0x5d, 0x09, 0xc0, 0x5c, 0xfc, 0x13, 0x66, 0x36, 0xe8, 0xdd, 0x15, 0x2d, 0xf4, 0x13, 0xa8, 0x3c, 0x01, 0x40, 0xac, 0xe8, 0xe9, 0x34, 0x31, 0xf6, 0x26, 0x0a, 0x52, 0x1d, 0x32, 0xfb, 0xe8, 0x08, 0x40, 0xda, 0xc1, 0x04, 0x0d, 0x38, 0x7f, 0x26, 0x6c, 0xd0, 0xea, 0xce, 0x61, 0x91, 0xd4, 0xfb, 0x06, 0x05, 0x0e, 0xad, 0xe9, 0xf5, 0x72, 0xd1, 0x59, 0x3a, 0x58, 0x23, 0xe7, 0x69, 0x69, 0x24, 0x6f, 0xeb, 0xfc, 0x58, 0x05, 0xfe, 0x01, 0xf4, 0xc1, 0xd7, 0x7f, 0xe9, 0xc1, 0x05, 0x29, 0xd5, 0x77, 0x1f, 0x19, 0xf3, 0x79, 0xf1, 0x33, 0x20, 0x0f, 0x0a, 0x37, 0x29, 0x0a, 0x67, 0x70, 0x32, 0x04, 0xc9, 0xea, 0x68, 0x37, 0x14, 0xd7, 0x31, 0x04, 0x4d, 0xcd, 0x06, 0xf3, 0xe9, 0x1d, 0xdb, 0xb2, 0x10, 0x03, 0xd7, 0x4e, 0xcd, 0x6c, 0x5d, 0x20, 0x39, 0x21, 0x2d, 0x38, 0x11, 0xd3, 0x4c, 0xcd, 0x11, 0x38, 0xab, 0x12, 0xf8, 0x34, 0x45, 0x00, 0xff, 0xe8, 0xe2, 0xe1, 0x0a, 0xf9, 0xf7, 0x33, 0x7f, 0x15, 0xa8, 0x50, 0x0e, 0x3e, 0x01, 0x71, 0xef, 0xb9, 0x25, 0xd0, 0x03, 0x01, 0xd4, 0xf2, 0x35, 0xe8, 0x85, 0x1c, 0x27, 0x53, 0x59, 0xf3, 0xf7, 0x11, 0xbe, 0xcc, 0xf0, 0xf0, 0xe3, 0xda, 0x5c, 0x3f, 0x98, 0xcb, 0x00, 0x6d, 0x4f, 0xed, 0x33, 0xc8, 0x30, 0xe8, 0x0b, 0x20, 0xcd, 0xaa, 0xef, 0x20, 0xa5, 0xfb, 0xca, 0x7f, 0xf6, 0x28, 0xd2, 0x21, 0x32, 0xe2, 0x39, 0xf6, 0x93, 0xbf, 0x41, 0x5c, 0x88, 0xf8, 0xcd, 0x47, 0x4e, 0xb4, 0xc6, 0x12, 0x67, 0xe3, 0x69, 0xca, 0xbc, 0x63, 0x7f, 0x0b, 0x9c, 0x18, 0xf4, 0x4a, 0x12, 0x1d, 0x1d, 0xc8, 0xbd, 0x24, 0x7b, 0x28, 0xbf, 0x17, 0xd7, 0xfe, 0x19, 0x37, 0x15, 0x54, 0x59, 0xae, 0x20, 0x7f, 0xed, 0xd0, 0xe3, 0x20, 0xf8, 0xe1, 0x42, 0x5a, 0x13, 0xd5, 0x00, 0x37, 0x79, 0xec, 0x98, 0x13, 0x3d, 0x23, 0x02, 0x51, 0xcd, 0xc2, 0x5e, 0xee, 0xfd, 0x27, 0xd0, 0x2b, 0x55, 0xc6, 0xcf, 0x5b, 0x08, 0x1b, 0xab, 0x07, 0x2e, 0xe3, 0x57, 0xe7, 0x42, 0x39, 0xfc, 0xfa, 0x0f, 0x28, 0xf4, 0xfe, 0xc7, 0x8f, 0x0a, 0xe8, 0xe9, 0x62, 0x1a, 0x8e, 0x07, 0xd7, 0x29, 0x58, 0x18, 0xe4, 0xb9, 0x48, 0x16, 0xfe, 0xf5, 0x37, 0x2f, 0x28, 0xe6, 0x91, 0x7f, 0x1e, 0x1d, 0x55, 0x32, 0x1f, 0xf0, 0x28, 0xb1, 0xd9, 0x19, 0x59, 0x3f, 0x2d, 0x11, 0xc8, 0x78, 0x04, 0xfe, 0x03, 0x00, 0xf9, 0x24, 0xb4, 0x00, 0x2a, 0x4b, 0x1f, 0x02, 0x44, 0x19, 0x36, 0x78, 0x2f, 0x00, 0x2a, 0xf5, 0xaf, 0xf7, 0xfd, 0x2b, 0x34, 0x62, 0x2a, 0x33, 0xf0, 0xda, 0x4c, 0xe2, 0xb8, 0xf3, 0xc3, 0x2e, 0xfc, 0x23, 0x99, 0x14, 0x16, 0x60, 0x53, 0x21, 0x0f, 0xde, 0x12, 0xe4, 0x81, 0xd1, 0xdf, 0xe7, 0xec, 0xe7, 0x09, 0x27, 0x74, 0x17, 0x7f, 0xd4, 0x52, 0xbf, 0x1e, 0x17, 0xf8, 0xf7, 0xbf, 0xb9, 0x5e, 0x2d, 0x10, 0x4c, 0x13, 0x43, 0x03, 0xf4, 0x13, 0xdb, 0x6b, 0x43, 0x19, 0x32, 0x39, 0xa7, 0x10, 0x47, 0xaa, 0xf5, 0x00, 0x46, 0x28, 0x3e, 0x0b, 0xd8, 0x5b, 0x15, 0x37, 0x57, 0xd2, 0xad, 0xce, 0x36, 0xc2, 0x46, 0x1c, 0x3a, 0xfe, 0xf6, 0x1e, 0xa3, 0x33, 0xe8, 0x8e, 0x07, 0xc6, 0x14, 0x00, 0x6c, 0xda, 0x5a, 0x3d, 0x66, 0x47, 0xce, 0xce, 0xbb, 0x1c, 0xf9, 0x81, 0x97, 0xeb, 0x1c, 0x25, 0x04, 0x08, 0x56, 0x67, 0x47, 0xef, 0xc5, 0x16, 0xe3, 0x67, 0xfa, 0xb6, 0xcc, 0xd3, 0x33, 0x5c, 0x07, 0x50, 0xe6, 0x8d, 0x18, 0xc5, 0x02, 0x20, 0xd1, 0x0c, 0xeb, 0x60, 0xf7, 0x7f, 0x24, 0x22, 0xee, 0x30, 0x3a, 0x84, 0xf6, 0xb0, 0x35, 0x4c, 0x3d, 0xba, 0x4d, 0xdb, 0x01, 0x29, 0x39, 0x03, 0x17, 0x55, 0x38, 0x99, 0xf4, 0x27, 0x16, 0xca, 0x2e, 0xf3, 0xd9, 0x38, 0x46, 0x2b, 0x20, 0x70, 0x0b, 0xc6, 0x02, 0xf9, 0xb4, 0x2c, 0x6e, 0x42, 0x2c, 0x02, 0x99, 0xe8, 0x61, 0x2a, 0x44, 0xd0, 0xda, 0x47, 0xfe, 0xd5, 0xd2, 0x12, 0x12, 0xee, 0xfd, 0x25, 0xcd, 0x2b, 0xfa, 0x7e, 0xdb, 0x03, 0xa4, 0x19, 0xae, 0x9b, 0x20, 0xfe, 0x69, 0x62, 0xbc, 0xf8, 0xcb, 0x37, 0x7f, 0x64, 0x17, 0x2c, 0x23, 0x71, 0xe7, 0xfd, 0xe9, 0x2e, 0x07, 0x14, 0x00, 0x22, 0x14, 0x1d, 0x7a, 0xf9, 0xe0, 0xaa, 0x35, 0xdc, 0xfa, 0x1d, 0x4c, 0x4c, 0xa0, 0x0c, 0x5a, 0x12, 0x59, 0x7f, 0xd8, 0x15, 0xc7, 0x2c, 0xbc, 0xf5, 0x45, 0x29, 0x24, 0x75, 0x11, 0x23, 0xf7, 0x00, 0x57, 0x40, 0x57, 0xb3, 0xac, 0xfa, 0xe3, 0xd9, 0xb5, 0xdf, 0xf0, 0xcc, 0x31, 0xd2, 0x35, 0xfe, 0x0b, 0xfa, 0x3a, 0xd4, 0x25, 0x18, 0xf5, 0x17, 0xea, 0x8b, 0xc9, 0x0e, 0x5f, 0x9c, 0xe5, 0xd6, 0x2c, 0xd9, 0x10, 0x2e, 0x6b, 0xfc, 0x2e, 0xe7, 0x9f, 0xd2, 0x0e, 0x2e, 0x39, 0xea, 0x2e, 0x0a, 0x7f, 0xc4, 0x34, 0x0e, 0x3e, 0xbe, 0x56, 0xf8, 0xff, 0xff, 0x04, 0x00, 0x00, 0x00, 0x80, 0x00, 0x00, 0x00, 0x1a, 0xfd, 0xff, 0xff, 0xd5, 0xff, 0xff, 0xff, 0x2a, 0x03, 0x00, 0x00, 0x49, 0x06, 0x00, 0x00, 0x64, 0x02, 0x00, 0x00, 0x53, 0x04, 0x00, 0x00, 0x2e, 0x01, 0x00, 0x00, 0x8d, 0x05, 0x00, 0x00, 0xc6, 0x01, 0x00, 0x00, 0xa1, 0x01, 0x00, 0x00, 0x21, 0x05, 0x00, 0x00, 0x0d, 0x04, 0x00, 0x00, 0x19, 0x05, 0x00, 0x00, 0x18, 0x07, 0x00, 0x00, 0x4f, 0xff, 0xff, 0xff, 0xb2, 0x00, 0x00, 0x00, 0x72, 0x07, 0x00, 0x00, 0x3a, 0x02, 0x00, 0x00, 0xa1, 0x04, 0x00, 0x00, 0x05, 0x04, 0x00, 0x00, 0x01, 0x04, 0x00, 0x00, 0x6d, 0x01, 0x00, 0x00, 0x69, 0x03, 0x00, 0x00, 0x0a, 0x05, 0x00, 0x00, 0x75, 0x04, 0x00, 0x00, 0x80, 0x00, 0x00, 0x00, 0x87, 0x07, 0x00, 0x00, 0xf1, 0x04, 0x00, 0x00, 0xa7, 0x05, 0x00, 0x00, 0x6e, 0x02, 0x00, 0x00, 0xbc, 0x07, 0x00, 0x00, 0x9f, 0x00, 0x00, 0x00, 0xe2, 0xf8, 0xff, 0xff, 0x04, 0x00, 0x00, 0x00, 0x00, 0x04, 0x00, 0x00, 0x2d, 0xe1, 0xfa, 0x17, 0x64, 0x32, 0xfd, 0x5c, 0xed, 0xbf, 0x13, 0x11, 0xe8, 0x0b, 0xd1, 0x57, 0xd2, 0x53, 0x70, 0x36, 0x0d, 0x75, 0xe2, 0x1e, 0x55, 0xb4, 0xbf, 0xc2, 0x5e, 0x0a, 0xeb, 0x0a, 0xc6, 0x35, 0xda, 0xae, 0xe0, 0xd4, 0x37, 0x3e, 0xe8, 0x1b, 0x2f, 0xdc, 0xeb, 0xef, 0x62, 0xe3, 0xee, 0x2d, 0x89, 0x43, 0xc8, 0x95, 0x02, 0x07, 0x5c, 0x07, 0x4c, 0x5d, 0x0f, 0xa4, 0x5b, 0x45, 0x2c, 0xfb, 0x12, 0x3d, 0x38, 0x27, 0x56, 0x4b, 0xcb, 0x6a, 0x04, 0xcc, 0x60, 0x16, 0xe0, 0xe9, 0xf5, 0xf5, 0x3a, 0xbf, 0xf1, 0x15, 0x3f, 0x2b, 0x12, 0xee, 0xd7, 0x23, 0xed, 0xb5, 0xbf, 0xeb, 0xb4, 0x1b, 0x2e, 0x45, 0xea, 0x57, 0xb9, 0xcf, 0xd2, 0xd6, 0xf0, 0x3a, 0x27, 0x4a, 0x0f, 0xd4, 0x0f, 0x08, 0x57, 0x28, 0x30, 0xcb, 0xfd, 0xc5, 0xcd, 0xd4, 0x62, 0x10, 0xb7, 0x47, 0x65, 0xb4, 0xed, 0xc1, 0x3a, 0xbe, 0xb6, 0x40, 0xcc, 0xdf, 0xf8, 0xe8, 0x2e, 0x1b, 0x22, 0x38, 0xea, 0xdb, 0xdf, 0x13, 0xe1, 0xe0, 0x0a, 0x11, 0x26, 0x44, 0xf3, 0x14, 0xc5, 0xfc, 0xd2, 0xb5, 0xbc, 0xec, 0xb9, 0x5b, 0xd2, 0x6e, 0x23, 0x05, 0x05, 0x57, 0x10, 0xd1, 0x24, 0xe2, 0x4e, 0x3a, 0xa9, 0xaf, 0x47, 0x07, 0x69, 0xfc, 0x46, 0xd6, 0xef, 0x1d, 0xec, 0xc3, 0xbe, 0xb8, 0x50, 0xd0, 0x0e, 0xc2, 0x41, 0xd0, 0xf8, 0xb8, 0xbe, 0xf0, 0xd3, 0xd0, 0x1f, 0x12, 0xb6, 0xde, 0x3a, 0xf5, 0xd9, 0x0b, 0xf0, 0x2c, 0x3f, 0xfb, 0x2f, 0xcf, 0x39, 0xcd, 0x39, 0xd2, 0xc9, 0xe0, 0x08, 0xdd, 0x26, 0xb9, 0xfe, 0x99, 0x53, 0x44, 0x23, 0xd1, 0x10, 0xc4, 0x1f, 0x30, 0xca, 0xc9, 0xdf, 0x0f, 0xea, 0xd4, 0x2a, 0xf9, 0xc7, 0x59, 0xce, 0x47, 0x58, 0x4b, 0xea, 0x2f, 0x05, 0x21, 0x19, 0x25, 0x54, 0xc9, 0x02, 0x6d, 0x32, 0xf7, 0x1c, 0xe5, 0xcd, 0xd2, 0x59, 0xc0, 0xc7, 0x25, 0xf9, 0x5f, 0x14, 0xdf, 0xf7, 0x65, 0x11, 0x2e, 0xc7, 0xf0, 0xe6, 0xfc, 0x52, 0xc7, 0x56, 0xcf, 0x4d, 0x71, 0xf3, 0xda, 0x14, 0xeb, 0x4f, 0xb6, 0xec, 0x37, 0x4c, 0x38, 0xf4, 0x3b, 0x2c, 0x31, 0xe1, 0xd2, 0x25, 0x14, 0x0b, 0x35, 0x16, 0x01, 0x12, 0x23, 0xf9, 0xd4, 0xd0, 0xd5, 0x39, 0x5e, 0xb8, 0x0e, 0x2b, 0x26, 0xe3, 0xab, 0xf9, 0xf7, 0x47, 0x00, 0x48, 0xd6, 0xf7, 0xee, 0xf6, 0xb4, 0xda, 0xf1, 0x3d, 0x2e, 0xdf, 0x0d, 0x1e, 0x5f, 0x0a, 0xe7, 0x0e, 0x05, 0x25, 0x76, 0x37, 0xeb, 0x0f, 0x42, 0xc9, 0x1f, 0x19, 0xff, 0xdc, 0x22, 0xeb, 0xf1, 0x37, 0x21, 0xfd, 0x30, 0x12, 0x39, 0xd6, 0xdd, 0xd7, 0xc3, 0x7d, 0xeb, 0xb3, 0x21, 0x3c, 0xe2, 0x13, 0x1c, 0xc0, 0x5a, 0x46, 0x27, 0xc7, 0x10, 0xe9, 0xb4, 0xdb, 0x3b, 0x0b, 0x4f, 0xc1, 0x3a, 0x3d, 0x38, 0xdb, 0x3f, 0x6e, 0x63, 0x1d, 0x37, 0xc4, 0x24, 0xfe, 0xc9, 0x48, 0xe8, 0x6b, 0xf0, 0xfc, 0xda, 0xa0, 0xf5, 0x0f, 0x5c, 0x1a, 0xac, 0x0d, 0xa7, 0xb6, 0x23, 0xba, 0xf2, 0xf8, 0x0a, 0xca, 0x21, 0x11, 0x2a, 0xbd, 0x45, 0x23, 0xdf, 0xbd, 0xe1, 0x04, 0xb0, 0xeb, 0xe4, 0xb4, 0x1c, 0xf8, 0xdb, 0x2e, 0x18, 0x10, 0xbd, 0xbd, 0x27, 0x46, 0xfe, 0x1f, 0xec, 0xb7, 0x0e, 0x10, 0xbe, 0xde, 0xd0, 0xff, 0xda, 0xce, 0x44, 0xea, 0xcb, 0xf9, 0x3a, 0x2c, 0xb9, 0xcb, 0xbc, 0x1d, 0x18, 0x0d, 0x03, 0x27, 0xd1, 0xd0, 0xf3, 0xf3, 0xc4, 0xc2, 0x22, 0xf5, 0x01, 0x4a, 0x3e, 0xc4, 0xce, 0xbd, 0xa9, 0xfd, 0xc5, 0xf6, 0xc4, 0x16, 0x4c, 0x0b, 0x3d, 0x64, 0x36, 0xb9, 0x27, 0xc7, 0xf4, 0x24, 0xab, 0x29, 0x07, 0x51, 0xf9, 0xe3, 0x2c, 0x36, 0xe7, 0x2d, 0xf8, 0xd1, 0x4c, 0x3f, 0xe1, 0xeb, 0x0f, 0xfe, 0x5a, 0xcf, 0x41, 0x20, 0x15, 0x42, 0x07, 0x12, 0xd0, 0x42, 0x36, 0x6e, 0x2f, 0x2e, 0x1e, 0xb4, 0xe3, 0xbd, 0xdf, 0x1a, 0x36, 0x4a, 0xb5, 0xbd, 0x3e, 0x3d, 0x30, 0x33, 0x43, 0xd9, 0xc7, 0xd5, 0x3b, 0x0c, 0x38, 0xab, 0xda, 0x21, 0x3a, 0xbc, 0x51, 0x05, 0x12, 0x40, 0x38, 0xe4, 0xf4, 0x27, 0xfa, 0xf6, 0xec, 0x50, 0x09, 0x3d, 0xd8, 0x44, 0xf1, 0xd7, 0x1e, 0x4e, 0x00, 0x3b, 0x3b, 0x2c, 0x35, 0xb9, 0x99, 0xf5, 0xf0, 0xc4, 0xd4, 0xef, 0xdd, 0x33, 0xd2, 0x5c, 0x59, 0x4a, 0x0c, 0xea, 0x19, 0xfa, 0x2f, 0x62, 0x11, 0xe2, 0x4d, 0x28, 0x81, 0xe8, 0xe3, 0x10, 0x75, 0x35, 0xed, 0xa4, 0xbb, 0x9a, 0xa8, 0xd6, 0xbe, 0xf3, 0x06, 0xe0, 0x07, 0xd1, 0x02, 0x3d, 0x51, 0x40, 0x2e, 0x5c, 0xdf, 0xe2, 0xc3, 0x08, 0x0a, 0x44, 0x42, 0xef, 0xa7, 0xee, 0x0c, 0xdd, 0xc7, 0x44, 0x16, 0xfb, 0x28, 0xc9, 0x0c, 0xf5, 0xe5, 0x36, 0xeb, 0xf7, 0x5c, 0xf9, 0x21, 0x03, 0xfe, 0xb9, 0x44, 0x1d, 0xf7, 0xac, 0xa1, 0x42, 0xd2, 0x11, 0xc7, 0xef, 0x19, 0xf5, 0xcf, 0xd8, 0xf6, 0xc5, 0x0a, 0xd5, 0xd7, 0xf9, 0xe8, 0xe0, 0xeb, 0xdc, 0x3e, 0xbc, 0x0b, 0x49, 0xea, 0xff, 0x0d, 0x37, 0xc9, 0xd8, 0xb9, 0xe7, 0x25, 0x11, 0xbd, 0x3f, 0xb4, 0xdf, 0xb4, 0x23, 0x08, 0x28, 0x3a, 0xe7, 0xe6, 0x3d, 0xee, 0xcb, 0xc1, 0xaf, 0x3d, 0xe9, 0x31, 0xcf, 0xdf, 0xe1, 0x38, 0x10, 0xd1, 0xbc, 0xe5, 0x56, 0x28, 0x30, 0x2b, 0x3c, 0x28, 0x0a, 0x45, 0xe7, 0xb8, 0x20, 0xe8, 0x2d, 0x19, 0x4c, 0x0d, 0x24, 0xb9, 0x9f, 0x43, 0x4d, 0xe5, 0x24, 0xd5, 0xf1, 0x30, 0x37, 0x0a, 0x9f, 0xc0, 0xcb, 0x3b, 0x4b, 0x35, 0x2f, 0xcf, 0xe2, 0xb5, 0x67, 0xc7, 0x34, 0x2f, 0x46, 0x18, 0xd0, 0x02, 0x40, 0xae, 0x49, 0x58, 0x18, 0x48, 0xdd, 0x3b, 0x41, 0xd4, 0x26, 0xcb, 0x23, 0x32, 0xe2, 0xb2, 0x3d, 0xad, 0x03, 0x14, 0xca, 0x53, 0xee, 0xbd, 0x11, 0x16, 0xea, 0x20, 0xe3, 0xe1, 0xd0, 0xb6, 0x03, 0x57, 0x18, 0x10, 0xf5, 0xbd, 0x70, 0x15, 0x3b, 0x02, 0x55, 0xc3, 0x9e, 0x59, 0x1a, 0x0b, 0x02, 0x4a, 0x53, 0xec, 0x1a, 0xeb, 0x51, 0xfe, 0x32, 0xcb, 0xea, 0xf4, 0xe8, 0xc2, 0xff, 0x4d, 0x13, 0x21, 0xc7, 0xf0, 0x30, 0xde, 0xf4, 0xe3, 0x47, 0x75, 0x46, 0x1b, 0x4c, 0xd1, 0xd5, 0xd9, 0xeb, 0x53, 0x26, 0xdd, 0x28, 0x29, 0x33, 0xfb, 0x3a, 0x76, 0x2b, 0xd1, 0xf4, 0x2a, 0x32, 0xa3, 0x4d, 0x2d, 0x13, 0x4e, 0x41, 0x96, 0x5c, 0x01, 0xfd, 0xa9, 0x0a, 0x2e, 0xdb, 0x2a, 0x4d, 0xd2, 0x1f, 0x31, 0x2a, 0xff, 0x22, 0xc0, 0x2f, 0x1c, 0xb6, 0x1e, 0xff, 0x8e, 0x1c, 0x68, 0x5f, 0x0d, 0xba, 0xc5, 0x46, 0xd2, 0x22, 0xf2, 0xec, 0x3d, 0xf6, 0xb9, 0x03, 0x65, 0x38, 0x07, 0x22, 0xca, 0x12, 0x0e, 0x40, 0x31, 0x47, 0xb8, 0x28, 0x58, 0x73, 0xce, 0xbd, 0x30, 0x4b, 0xd7, 0x03, 0x6e, 0x6e, 0xd5, 0xaf, 0x13, 0x49, 0x11, 0xb9, 0x0e, 0x10, 0xfd, 0x12, 0xef, 0xae, 0x0a, 0x19, 0xed, 0xcd, 0x2d, 0xbc, 0x4f, 0x4a, 0x5d, 0xf3, 0x3f, 0xd1, 0xf6, 0xe1, 0xd5, 0xf9, 0xe7, 0xdc, 0xec, 0x0f, 0x4c, 0x0c, 0x32, 0x13, 0xc4, 0x41, 0xc9, 0x18, 0xec, 0x37, 0x22, 0x97, 0x11, 0xf6, 0x05, 0xea, 0x58, 0xe2, 0x50, 0x06, 0xfb, 0xd5, 0xab, 0xe1, 0x35, 0x3f, 0xbb, 0x1a, 0x24, 0x18, 0x0b, 0xc8, 0xc8, 0xd7, 0xf6, 0xfe, 0x1c, 0x28, 0xf0, 0x02, 0x2d, 0xea, 0x1f, 0xe6, 0xbd, 0xe6, 0xf4, 0xe1, 0x04, 0x3f, 0x19, 0x04, 0xef, 0xd0, 0xf9, 0xe9, 0xcf, 0xee, 0xfc, 0xff, 0xff, 0x04, 0x00, 0x00, 0x00, 0x80, 0x00, 0x00, 0x00, 0xf2, 0x00, 0x00, 0x00, 0x88, 0x00, 0x00, 0x00, 0x51, 0x00, 0x00, 0x00, 0xd7, 0x02, 0x00, 0x00, 0x00, 0x00, 0x00, 0x00, 0xca, 0x02, 0x00, 0x00, 0x00, 0x00, 0x00, 0x00, 0xea, 0xff, 0xff, 0xff, 0x8e, 0x03, 0x00, 0x00, 0x87, 0x01, 0x00, 0x00, 0x6b, 0x00, 0x00, 0x00, 0x13, 0x03, 0x00, 0x00, 0xb3, 0x02, 0x00, 0x00, 0x8c, 0xff, 0xff, 0xff, 0x00, 0x00, 0x00, 0x00, 0x9b, 0x01, 0x00, 0x00, 0x72, 0x00, 0x00, 0x00, 0xf6, 0xff, 0xff, 0xff, 0x48, 0x01, 0x00, 0x00, 0x82, 0x00, 0x00, 0x00, 0x59, 0x01, 0x00, 0x00, 0x00, 0x00, 0x00, 0x00, 0x55, 0x00, 0x00, 0x00, 0x8a, 0x00, 0x00, 0x00, 0xc0, 0x00, 0x00, 0x00, 0x7c, 0x01, 0x00, 0x00, 0x0d, 0x03, 0x00, 0x00, 0xbc, 0xff, 0xff, 0xff, 0x7a, 0x02, 0x00, 0x00, 0x22, 0x01, 0x00, 0x00, 0x87, 0xff, 0xff, 0xff, 0xe3, 0xff, 0xff, 0xff, 0x7a, 0xfd, 0xff, 0xff, 0x04, 0x00, 0x00, 0x00, 0x60, 0x01, 0x00, 0x00, 0x0b, 0x0d, 0x12, 0xec, 0x17, 0x09, 0xcf, 0xe4, 0xc6, 0xe2, 0x04, 0x08, 0x1b, 0x19, 0x12, 0xf1, 0xe8, 0xf9, 0x41, 0xe8, 0xde, 0x2f, 0x1c, 0xed, 0x05, 0x35, 0x09, 0x38, 0xa6, 0xf6, 0xf1, 0x04, 0x34, 0xd1, 0x24, 0xf2, 0xf0, 0xc9, 0x1e, 0x0b, 0xc1, 0x24, 0x33, 0xdb, 0xe3, 0xf7, 0x34, 0xcd, 0x22, 0x27, 0x2f, 0x08, 0xdf, 0xe5, 0xcc, 0xdb, 0xc4, 0xce, 0xda, 0x32, 0x1c, 0x19, 0x19, 0x26, 0x38, 0xc2, 0xe8, 0xcb, 0xcb, 0x37, 0x08, 0x39, 0xee, 0xbd, 0xbf, 0xdf, 0x16, 0xdf, 0x35, 0xe7, 0x0e, 0xd3, 0x32, 0xb7, 0x2e, 0xec, 0xf1, 0x01, 0xd9, 0x3b, 0xb8, 0x41, 0x0f, 0x96, 0xc1, 0x1a, 0x14, 0xc2, 0x11, 0x16, 0x20, 0x10, 0xec, 0xf3, 0xfb, 0x08, 0x9e, 0x1d, 0x3d, 0xdb, 0x37, 0xf1, 0x2d, 0xe8, 0x0a, 0x3e, 0x20, 0x07, 0xb5, 0x24, 0x11, 0x0d, 0xdf, 0xf2, 0x1b, 0xef, 0x2e, 0xfb, 0xdc, 0x1f, 0xf8, 0x26, 0x21, 0xdf, 0x1f, 0xc0, 0x2b, 0x20, 0xc1, 0x04, 0x3e, 0x17, 0xd2, 0xce, 0x0a, 0xee, 0xb7, 0x0a, 0xed, 0x22, 0xe4, 0xb1, 0x10, 0xa0, 0xd1, 0xcb, 0xb1, 0x41, 0xb8, 0xbf, 0xa9, 0x28, 0x13, 0xa9, 0xcd, 0xbc, 0x17, 0x12, 0xa3, 0xd4, 0x0a, 0x00, 0x05, 0xfb, 0xde, 0xf4, 0x29, 0xae, 0xfb, 0x81, 0xcf, 0x29, 0x17, 0x26, 0x0b, 0x37, 0xe2, 0x32, 0x10, 0x0d, 0x41, 0x2e, 0x31, 0x32, 0xfe, 0xe0, 0xcb, 0xd0, 0xd4, 0xec, 0xfe, 0x32, 0xff, 0xa5, 0xa9, 0x0f, 0xd2, 0x09, 0xc5, 0xd2, 0xd1, 0xfb, 0x4a, 0xd7, 0xcf, 0x41, 0xc2, 0x0e, 0x13, 0x08, 0xf9, 0x14, 0x1b, 0x13, 0x36, 0x02, 0xd4, 0xe7, 0x0c, 0xf4, 0x11, 0xcd, 0x14, 0x14, 0xff, 0x0b, 0xf3, 0xca, 0x05, 0x2e, 0xea, 0x26, 0x07, 0x17, 0xe9, 0xd4, 0x37, 0x03, 0xe0, 0xc5, 0x3a, 0xe0, 0x1b, 0x23, 0xef, 0x08, 0x2e, 0xc1, 0xf9, 0x0d, 0x37, 0x15, 0xf3, 0xdf, 0x37, 0x9f, 0x03, 0xa2, 0xf8, 0xd2, 0xcb, 0x1d, 0xe6, 0x3f, 0xf1, 0xca, 0x21, 0x00, 0x33, 0x3b, 0x00, 0xe6, 0xc2, 0xec, 0x44, 0xb7, 0xf4, 0x19, 0xdd, 0x0b, 0xbf, 0x19, 0xe9, 0xf6, 0x20, 0x1e, 0x37, 0xc5, 0xfd, 0x1a, 0xdb, 0xfb, 0xee, 0x4a, 0x32, 0xdd, 0xc4, 0xec, 0xc5, 0xc7, 0xef, 0x05, 0x0e, 0x12, 0xef, 0x05, 0x36, 0xc9, 0xfb, 0xca, 0x01, 0x14, 0xaa, 0x0d, 0xda, 0xdf, 0x1d, 0x19, 0xa2, 0x30, 0xe8, 0x23, 0x2a, 0x00, 0xf3, 0x36, 0xc1, 0xb6, 0xc4, 0xc1, 0x19, 0xc9, 0x0b, 0x11, 0x1c, 0x0f, 0xb9, 0xad, 0xfb, 0x10, 0xf6, 0xef, 0xe6, 0xfe, 0xff, 0xff, 0x04, 0x00, 0x00, 0x00, 0x2c, 0x00, 0x00, 0x00, 0x1a, 0x00, 0x00, 0x00, 0x81, 0xff, 0xff, 0xff, 0x17, 0x00, 0x00, 0x00, 0x79, 0x00, 0x00, 0x00, 0x3e, 0x00, 0x00, 0x00, 0x40, 0xff, 0xff, 0xff, 0x1f, 0x00, 0x00, 0x00, 0x70, 0x00, 0x00, 0x00, 0xab, 0xff, 0xff, 0xff, 0x63, 0x00, 0x00, 0x00, 0x72, 0xff, 0xff, 0xff, 0x1e, 0xff, 0xff, 0xff, 0x04, 0x00, 0x00, 0x00, 0x04, 0x00, 0x00, 0x00, 0x01, 0x00, 0x00, 0x00, 0x2e, 0xff, 0xff, 0xff, 0x04, 0x00, 0x00, 0x00, 0x0c, 0x00, 0x00, 0x00, 0x01, 0x00, 0x00, 0x00, 0x17, 0x00, 0x00, 0x00, 0x20, 0x00, 0x00, 0x00, 0x46, 0xff, 0xff, 0xff, 0x04, 0x00, 0x00, 0x00, 0x10, 0x00, 0x00, 0x00, 0x01, 0x00, 0x00, 0x00, 0x01, 0x00, 0x00, 0x00, 0x64, 0x00, 0x00, 0x00, 0x05, 0x00, 0x00, 0x00, 0x2c, 0xee, 0xff, 0xff, 0x30, 0xee, 0xff, 0xff, 0x0f, 0x00, 0x00, 0x00, 0x4d, 0x4c, 0x49, 0x52, 0x20, 0x43, 0x6f, 0x6e, 0x76, 0x65, 0x72, 0x74, 0x65, 0x64, 0x2e, 0x00, 0x01, 0x00, 0x00, 0x00, 0x14, 0x00, 0x00, 0x00, 0x00, 0x00, 0x0e, 0x00, 0x18, 0x00, 0x14, 0x00, 0x10, 0x00, 0x0c, 0x00, 0x08, 0x00, 0x04, 0x00, 0x0e, 0x00, 0x00, 0x00, 0x14, 0x00, 0x00, 0x00, 0x1c, 0x00, 0x00, 0x00, 0xa0, 0x02, 0x00, 0x00, 0xa4, 0x02, 0x00, 0x00, 0xa8, 0x02, 0x00, 0x00, 0x04, 0x00, 0x00, 0x00, 0x6d, 0x61, 0x69, 0x6e, 0x00, 0x00, 0x00, 0x00, 0x0a, 0x00, 0x00, 0x00, 0x64, 0x02, 0x00, 0x00, 0x04, 0x02, 0x00, 0x00, 0xa0, 0x01, 0x00, 0x00, 0x58, 0x01, 0x00, 0x00, 0x14, 0x01, 0x00, 0x00, 0xf0, 0x00, 0x00, 0x00, 0xbc, 0x00, 0x00, 0x00, 0x78, 0x00, 0x00, 0x00, 0x40, 0x00, 0x00, 0x00, 0x04, 0x00, 0x00, 0x00, 0x2e, 0xfe, 0xff, 0xff, 0x1c, 0x00, 0x00, 0x00, 0x00, 0x00, 0x00, 0x09, 0x1c, 0x00, 0x00, 0x00, 0x20, 0x00, 0x00, 0x00, 0x05, 0x00, 0x00, 0x00, 0x00, 0x00, 0x06, 0x00, 0x08, 0x00, 0x04, 0x00, 0x06, 0x00, 0x00, 0x00, 0x00, 0x00, 0x80, 0x3f, 0x01, 0x00, 0x00, 0x00, 0x15, 0x00, 0x00, 0x00, 0x01, 0x00, 0x00, 0x00, 0x14, 0x00, 0x00, 0x00, 0x66, 0xfe, 0xff, 0xff, 0x14, 0x00, 0x00, 0x00, 0x00, 0x00, 0x00, 0x08, 0x10, 0x00, 0x00, 0x00, 0x14, 0x00, 0x00, 0x00, 0x04, 0x00, 0x00, 0x00, 0x00, 0xef, 0xff, 0xff, 0x01, 0x00, 0x00, 0x00, 0x14, 0x00, 0x00, 0x00, 0x03, 0x00, 0x00, 0x00, 0x13, 0x00, 0x00, 0x00, 0x05, 0x00, 0x00, 0x00, 0x04, 0x00, 0x00, 0x00, 0x9a, 0xfe, 0xff, 0xff, 0x1c, 0x00, 0x00, 0x00, 0x00, 0x00, 0x00, 0x08, 0x1c, 0x00, 0x00, 0x00, 0x20, 0x00, 0x00, 0x00, 0x04, 0x00, 0x00, 0x00, 0x00, 0x00, 0x06, 0x00, 0x08, 0x00, 0x07, 0x00, 0x06, 0x00, 0x00, 0x00, 0x00, 0x00, 0x00, 0x01, 0x01, 0x00, 0x00, 0x00, 0x13, 0x00, 0x00, 0x00, 0x03, 0x00, 0x00, 0x00, 0x12, 0x00, 0x00, 0x00, 0x07, 0x00, 0x00, 0x00, 0x06, 0x00, 0x00, 0x00, 0xda, 0xfe, 0xff, 0xff, 0x14, 0x00, 0x00, 0x00, 0x00, 0x00, 0x00, 0x1b, 0x10, 0x00, 0x00, 0x00, 0x14, 0x00, 0x00, 0x00, 0x03, 0x00, 0x00, 0x00, 0x74, 0xef, 0xff, 0xff, 0x01, 0x00, 0x00, 0x00, 0x12, 0x00, 0x00, 0x00, 0x02, 0x00, 0x00, 0x00, 0x11, 0x00, 0x00, 0x00, 0x03, 0x00, 0x00, 0x00, 0xaa, 0xfe, 0xff, 0xff, 0x08, 0x00, 0x00, 0x00, 0x0c, 0x00, 0x00, 0x00, 0x01, 0x00, 0x00, 0x00, 0x11, 0x00, 0x00, 0x00, 0x02, 0x00, 0x00, 0x00, 0x10, 0x00, 0x00, 0x00, 0x02, 0x00, 0x00, 0x00, 0x2a, 0xff, 0xff, 0xff, 0x14, 0x00, 0x00, 0x00, 0x00, 0x00, 0x00, 0x05, 0x24, 0x00, 0x00, 0x00, 0x28, 0x00, 0x00, 0x00, 0x02, 0x00, 0x00, 0x00, 0x7a, 0xff, 0xff, 0xff, 0x01, 0x00, 0x00, 0x00, 0x02, 0x00, 0x00, 0x00, 0x01, 0x00, 0x00, 0x00, 0x02, 0x00, 0x00, 0x00, 0x00, 0x00, 0x00, 0x01, 0x01, 0x00, 0x00, 0x00, 0x10, 0x00, 0x00, 0x00, 0x01, 0x00, 0x00, 0x00, 0x0f, 0x00, 0x00, 0x00, 0x6a, 0xff, 0xff, 0xff, 0x14, 0x00, 0x00, 0x00, 0x00, 0x00, 0x00, 0x01, 0x20, 0x00, 0x00, 0x00, 0x24, 0x00, 0x00, 0x00, 0x01, 0x00, 0x00, 0x00, 0x5c, 0xff, 0xff, 0xff, 0x00, 0x00, 0x00, 0x01, 0x01, 0x00, 0x00, 0x00, 0x01, 0x00, 0x00, 0x00, 0x00, 0x00, 0x00, 0x01, 0x01, 0x00, 0x00, 0x00, 0x0f, 0x00, 0x00, 0x00, 0x03, 0x00, 0x00, 0x00, 0x0e, 0x00, 0x00, 0x00, 0x09, 0x00, 0x00, 0x00, 0x08, 0x00, 0x00, 0x00, 0xae, 0xff, 0xff, 0xff, 0x24, 0x00, 0x00, 0x00, 0x00, 0x00, 0x00, 0x05, 0x34, 0x00, 0x00, 0x00, 0x38, 0x00, 0x00, 0x00, 0x02, 0x00, 0x00, 0x00, 0x00, 0x00, 0x0e, 0x00, 0x18, 0x00, 0x17, 0x00, 0x10, 0x00, 0x0c, 0x00, 0x08, 0x00, 0x04, 0x00, 0x0e, 0x00, 0x00, 0x00, 0x01, 0x00, 0x00, 0x00, 0x02, 0x00, 0x00, 0x00, 0x01, 0x00, 0x00, 0x00, 0x02, 0x00, 0x00, 0x00, 0x00, 0x00, 0x00, 0x01, 0x01, 0x00, 0x00, 0x00, 0x0e, 0x00, 0x00, 0x00, 0x01, 0x00, 0x00, 0x00, 0x0d, 0x00, 0x00, 0x00, 0x00, 0x00, 0x0e, 0x00, 0x18, 0x00, 0x14, 0x00, 0x10, 0x00, 0x0c, 0x00, 0x0b, 0x00, 0x04, 0x00, 0x0e, 0x00, 0x00, 0x00, 0x20, 0x00, 0x00, 0x00, 0x00, 0x00, 0x00, 0x01, 0x2c, 0x00, 0x00, 0x00, 0x30, 0x00, 0x00, 0x00, 0x01, 0x00, 0x00, 0x00, 0x0c, 0x00, 0x14, 0x00, 0x13, 0x00, 0x0c, 0x00, 0x08, 0x00, 0x07, 0x00, 0x0c, 0x00, 0x00, 0x00, 0x00, 0x00, 0x00, 0x01, 0x01, 0x00, 0x00, 0x00, 0x01, 0x00, 0x00, 0x00, 0x00, 0x00, 0x00, 0x01, 0x01, 0x00, 0x00, 0x00, 0x0d, 0x00, 0x00, 0x00, 0x03, 0x00, 0x00, 0x00, 0x0c, 0x00, 0x00, 0x00, 0x0b, 0x00, 0x00, 0x00, 0x0a, 0x00, 0x00, 0x00, 0x00, 0x00, 0x0a, 0x00, 0x0c, 0x00, 0x00, 0x00, 0x08, 0x00, 0x04, 0x00, 0x0a, 0x00, 0x00, 0x00, 0x08, 0x00, 0x00, 0x00, 0x0c, 0x00, 0x00, 0x00, 0x01, 0x00, 0x00, 0x00, 0x0c, 0x00, 0x00, 0x00, 0x02, 0x00, 0x00, 0x00, 0x00, 0x00, 0x00, 0x00, 0x01, 0x00, 0x00, 0x00, 0x01, 0x00, 0x00, 0x00, 0x15, 0x00, 0x00, 0x00, 0x01, 0x00, 0x00, 0x00, 0x00, 0x00, 0x00, 0x00, 0x16, 0x00, 0x00, 0x00, 0x1c, 0x0f, 0x00, 0x00, 0xc0, 0x0e, 0x00, 0x00, 0x80, 0x0e, 0x00, 0x00, 0x44, 0x0e, 0x00, 0x00, 0xe0, 0x0d, 0x00, 0x00, 0x7c, 0x0d, 0x00, 0x00, 0x18, 0x0d, 0x00, 0x00, 0xb4, 0x0c, 0x00, 0x00, 0xe0, 0x0a, 0x00, 0x00, 0xfc, 0x08, 0x00, 0x00, 0xe8, 0x07, 0x00, 0x00, 0xc4, 0x06, 0x00, 0x00, 0x30, 0x06, 0x00, 0x00, 0x0c, 0x05, 0x00, 0x00, 0x80, 0x04, 0x00, 0x00, 0x5c, 0x03, 0x00, 0x00, 0xd0, 0x02, 0x00, 0x00, 0x44, 0x02, 0x00, 0x00, 0xb8, 0x01, 0x00, 0x00, 0xfc, 0x00, 0x00, 0x00, 0x60, 0x00, 0x00, 0x00, 0x04, 0x00, 0x00, 0x00, 0x52, 0xf1, 0xff, 0xff, 0x00, 0x00, 0x00, 0x01, 0x14, 0x00, 0x00, 0x00, 0x30, 0x00, 0x00, 0x00, 0x16, 0x00, 0x00, 0x00, 0x00, 0x00, 0x00, 0x09, 0x34, 0x00, 0x00, 0x00, 0x3c, 0xf1, 0xff, 0xff, 0x08, 0x00, 0x00, 0x00, 0x10, 0x00, 0x00, 0x00, 0x01, 0x00, 0x00, 0x00, 0x80, 0xff, 0xff, 0xff, 0xff, 0xff, 0xff, 0xff, 0x01, 0x00, 0x00, 0x00, 0x00, 0x00, 0x80, 0x3b, 0x08, 0x00, 0x00, 0x00, 0x49, 0x64, 0x65, 0x6e, 0x74, 0x69, 0x74, 0x79, 0x00, 0x00, 0x00, 0x00, 0x02, 0x00, 0x00, 0x00, 0x01, 0x00, 0x00, 0x00, 0x0b, 0x00, 0x00, 0x00, 0xaa, 0xf1, 0xff, 0xff, 0x00, 0x00, 0x00, 0x01, 0x14, 0x00, 0x00, 0x00, 0x30, 0x00, 0x00, 0x00, 0x15, 0x00, 0x00, 0x00, 0x00, 0x00, 0x00, 0x09, 0x74, 0x00, 0x00, 0x00, 0x94, 0xf1, 0xff, 0xff, 0x08, 0x00, 0x00, 0x00, 0x10, 0x00, 0x00, 0x00, 0x01, 0x00, 0x00, 0x00, 0x14, 0x00, 0x00, 0x00, 0x00, 0x00, 0x00, 0x00, 0x01, 0x00, 0x00, 0x00, 0x67, 0x91, 0x14, 0x3e, 0x48, 0x00, 0x00, 0x00, 0x73, 0x65, 0x71, 0x75, 0x65, 0x6e, 0x74, 0x69, 0x61, 0x6c, 0x5f, 0x31, 0x30, 0x30, 0x5f, 0x31, 0x2f, 0x64, 0x65, 0x6e, 0x73, 0x65, 0x5f, 0x32, 0x30, 0x31, 0x5f, 0x31, 0x2f, 0x4d, 0x61, 0x74, 0x4d, 0x75, 0x6c, 0x3b, 0x73, 0x65, 0x71, 0x75, 0x65, 0x6e, 0x74, 0x69, 0x61, 0x6c, 0x5f, 0x31, 0x30, 0x30, 0x5f, 0x31, 0x2f, 0x64, 0x65, 0x6e, 0x73, 0x65, 0x5f, 0x32, 0x30, 0x31, 0x5f, 0x31, 0x2f, 0x42, 0x69, 0x61, 0x73, 0x41, 0x64, 0x64, 0x00, 0x00, 0x00, 0x00, 0x02, 0x00, 0x00, 0x00, 0x01, 0x00, 0x00, 0x00, 0x0b, 0x00, 0x00, 0x00, 0x42, 0xf2, 0xff, 0xff, 0x00, 0x00, 0x00, 0x01, 0x14, 0x00, 0x00, 0x00, 0x30, 0x00, 0x00, 0x00, 0x14, 0x00, 0x00, 0x00, 0x00, 0x00, 0x00, 0x09, 0x94, 0x00, 0x00, 0x00, 0x2c, 0xf2, 0xff, 0xff, 0x08, 0x00, 0x00, 0x00, 0x10, 0x00, 0x00, 0x00, 0x01, 0x00, 0x00, 0x00, 0x80, 0xff, 0xff, 0xff, 0xff, 0xff, 0xff, 0xff, 0x01, 0x00, 0x00, 0x00, 0xc0, 0x8f, 0x69, 0x3d, 0x6a, 0x00, 0x00, 0x00, 0x73, 0x65, 0x71, 0x75, 0x65, 0x6e, 0x74, 0x69, 0x61, 0x6c, 0x5f, 0x31, 0x30, 0x30, 0x5f, 0x31, 0x2f, 0x64, 0x65, 0x6e, 0x73, 0x65, 0x5f, 0x32, 0x30, 0x30, 0x5f, 0x31, 0x2f, 0x4d, 0x61, 0x74, 0x4d, 0x75, 0x6c, 0x3b, 0x73, 0x65, 0x71, 0x75, 0x65, 0x6e, 0x74, 0x69, 0x61, 0x6c, 0x5f, 0x31, 0x30, 0x30, 0x5f, 0x31, 0x2f, 0x64, 0x65, 0x6e, 0x73, 0x65, 0x5f, 0x32, 0x30, 0x30, 0x5f, 0x31, 0x2f, 0x52, 0x65, 0x6c, 0x75, 0x3b, 0x73, 0x65, 0x71, 0x75, 0x65, 0x6e, 0x74, 0x69, 0x61, 0x6c, 0x5f, 0x31, 0x30, 0x30, 0x5f, 0x31, 0x2f, 0x64, 0x65, 0x6e, 0x73, 0x65, 0x5f, 0x32, 0x30, 0x30, 0x5f, 0x31, 0x2f, 0x42, 0x69, 0x61, 0x73, 0x41, 0x64, 0x64, 0x00, 0x00, 0x02, 0x00, 0x00, 0x00, 0x01, 0x00, 0x00, 0x00, 0x20, 0x00, 0x00, 0x00, 0xfa, 0xf2, 0xff, 0xff, 0x00, 0x00, 0x00, 0x01, 0x14, 0x00, 0x00, 0x00, 0x34, 0x00, 0x00, 0x00, 0x13, 0x00, 0x00, 0x00, 0x00, 0x00, 0x00, 0x09, 0x64, 0x00, 0x00, 0x00, 0xe4, 0xf2, 0xff, 0xff, 0x08, 0x00, 0x00, 0x00, 0x14, 0x00, 0x00, 0x00, 0x01, 0x00, 0x00, 0x00, 0x80, 0xff, 0xff, 0xff, 0xff, 0xff, 0xff, 0xff, 0x00, 0x00, 0x00, 0x00, 0x01, 0x00, 0x00, 0x00, 0xba, 0xbc, 0x02, 0x3d, 0x34, 0x00, 0x00, 0x00, 0x73, 0x65, 0x71, 0x75, 0x65, 0x6e, 0x74, 0x69, 0x61, 0x6c, 0x5f, 0x31, 0x30, 0x30, 0x5f, 0x31, 0x2f, 0x67, 0x6c, 0x6f, 0x62, 0x61, 0x6c, 0x5f, 0x61, 0x76, 0x65, 0x72, 0x61, 0x67, 0x65, 0x5f, 0x70, 0x6f, 0x6f, 0x6c, 0x69, 0x6e, 0x67, 0x31, 0x64, 0x5f, 0x31, 0x30, 0x30, 0x5f, 0x31, 0x2f, 0x4d, 0x65, 0x61, 0x6e, 0x00, 0x00, 0x00, 0x00, 0x02, 0x00, 0x00, 0x00, 0x01, 0x00, 0x00, 0x00, 0x20, 0x00, 0x00, 0x00, 0x82, 0xf3, 0xff, 0xff, 0x00, 0x00, 0x00, 0x01, 0x14, 0x00, 0x00, 0x00, 0x30, 0x00, 0x00, 0x00, 0x12, 0x00, 0x00, 0x00, 0x00, 0x00, 0x00, 0x09, 0x60, 0x00, 0x00, 0x00, 0x6c, 0xf3, 0xff, 0xff, 0x08, 0x00, 0x00, 0x00, 0x10, 0x00, 0x00, 0x00, 0x01, 0x00, 0x00, 0x00, 0x80, 0xff, 0xff, 0xff, 0xff, 0xff, 0xff, 0xff, 0x01, 0x00, 0x00, 0x00, 0xb1, 0x7a, 0x27, 0x3d, 0x36, 0x00, 0x00, 0x00, 0x73, 0x65, 0x71, 0x75, 0x65, 0x6e, 0x74, 0x69, 0x61, 0x6c, 0x5f, 0x31, 0x30, 0x30, 0x5f, 0x31, 0x2f, 0x6d, 0x61, 0x78, 0x5f, 0x70, 0x6f, 0x6f, 0x6c, 0x69, 0x6e, 0x67, 0x31, 0x64, 0x5f, 0x32, 0x30, 0x31, 0x5f, 0x31, 0x2f, 0x4d, 0x61, 0x78, 0x50, 0x6f, 0x6f, 0x6c, 0x31, 0x64, 0x2f, 0x53, 0x71, 0x75, 0x65, 0x65, 0x7a, 0x65, 0x00, 0x00, 0x03, 0x00, 0x00, 0x00, 0x01, 0x00, 0x00, 0x00, 0x17, 0x00, 0x00, 0x00, 0x20, 0x00, 0x00, 0x00, 0x0a, 0xf4, 0xff, 0xff, 0x00, 0x00, 0x00, 0x01, 0x14, 0x00, 0x00, 0x00, 0x34, 0x00, 0x00, 0x00, 0x11, 0x00, 0x00, 0x00, 0x00, 0x00, 0x00, 0x09, 0x5c, 0x00, 0x00, 0x00, 0xf4, 0xf3, 0xff, 0xff, 0x08, 0x00, 0x00, 0x00, 0x14, 0x00, 0x00, 0x00, 0x01, 0x00, 0x00, 0x00, 0x80, 0xff, 0xff, 0xff, 0xff, 0xff, 0xff, 0xff, 0x00, 0x00, 0x00, 0x00, 0x01, 0x00, 0x00, 0x00, 0xb1, 0x7a, 0x27, 0x3d, 0x2e, 0x00, 0x00, 0x00, 0x73, 0x65, 0x71, 0x75, 0x65, 0x6e, 0x74, 0x69, 0x61, 0x6c, 0x5f, 0x31, 0x30, 0x30, 0x5f, 0x31, 0x2f, 0x6d, 0x61, 0x78, 0x5f, 0x70, 0x6f, 0x6f, 0x6c, 0x69, 0x6e, 0x67, 0x31, 0x64, 0x5f, 0x32, 0x30, 0x31, 0x5f, 0x31, 0x2f, 0x4d, 0x61, 0x78, 0x50, 0x6f, 0x6f, 0x6c, 0x31, 0x64, 0x00, 0x00, 0x04, 0x00, 0x00, 0x00, 0x01, 0x00, 0x00, 0x00, 0x01, 0x00, 0x00, 0x00, 0x17, 0x00, 0x00, 0x00, 0x20, 0x00, 0x00, 0x00, 0x92, 0xf4, 0xff, 0xff, 0x00, 0x00, 0x00, 0x01, 0x14, 0x00, 0x00, 0x00, 0x30, 0x00, 0x00, 0x00, 0x10, 0x00, 0x00, 0x00, 0x00, 0x00, 0x00, 0x09, 0xf4, 0x00, 0x00, 0x00, 0x7c, 0xf4, 0xff, 0xff, 0x08, 0x00, 0x00, 0x00, 0x10, 0x00, 0x00, 0x00, 0x01, 0x00, 0x00, 0x00, 0x80, 0xff, 0xff, 0xff, 0xff, 0xff, 0xff, 0xff, 0x01, 0x00, 0x00, 0x00, 0xb1, 0x7a, 0x27, 0x3d, 0xca, 0x00, 0x00, 0x00, 0x73, 0x65, 0x71, 0x75, 0x65, 0x6e, 0x74, 0x69, 0x61, 0x6c, 0x5f, 0x31, 0x30, 0x30, 0x5f, 0x31, 0x2f, 0x63, 0x6f, 0x6e, 0x76, 0x31, 0x64, 0x5f, 0x32, 0x30, 0x31, 0x5f, 0x31, 0x2f, 0x52, 0x65, 0x6c, 0x75, 0x3b, 0x73, 0x65, 0x71, 0x75, 0x65, 0x6e, 0x74, 0x69, 0x61, 0x6c, 0x5f, 0x31, 0x30, 0x30, 0x5f, 0x31, 0x2f, 0x63, 0x6f, 0x6e, 0x76, 0x31, 0x64, 0x5f, 0x32, 0x30, 0x31, 0x5f, 0x31, 0x2f, 0x42, 0x69, 0x61, 0x73, 0x41, 0x64, 0x64, 0x3b, 0x73, 0x65, 0x71, 0x75, 0x65, 0x6e, 0x74, 0x69, 0x61, 0x6c, 0x5f, 0x31, 0x30, 0x30, 0x5f, 0x31, 0x2f, 0x63, 0x6f, 0x6e, 0x76, 0x31, 0x64, 0x5f, 0x32, 0x30, 0x31, 0x5f, 0x31, 0x2f, 0x63, 0x6f, 0x6e, 0x76, 0x6f, 0x6c, 0x75, 0x74, 0x69, 0x6f, 0x6e, 0x2f, 0x53, 0x71, 0x75, 0x65, 0x65, 0x7a, 0x65, 0x3b, 0x73, 0x65, 0x71, 0x75, 0x65, 0x6e, 0x74, 0x69, 0x61, 0x6c, 0x5f, 0x31, 0x30, 0x30, 0x5f, 0x31, 0x2f, 0x63, 0x6f, 0x6e, 0x76, 0x31, 0x64, 0x5f, 0x32, 0x30, 0x31, 0x5f, 0x31, 0x2f, 0x53, 0x71, 0x75, 0x65, 0x65, 0x7a, 0x65, 0x3b, 0x73, 0x65, 0x71, 0x75, 0x65, 0x6e, 0x74, 0x69, 0x61, 0x6c, 0x5f, 0x31, 0x30, 0x30, 0x5f, 0x31, 0x2f, 0x63, 0x6f, 0x6e, 0x76, 0x31, 0x64, 0x5f, 0x32, 0x30, 0x31, 0x5f, 0x31, 0x2f, 0x63, 0x6f, 0x6e, 0x76, 0x6f, 0x6c, 0x75, 0x74, 0x69, 0x6f, 0x6e, 0x00, 0x00, 0x04, 0x00, 0x00, 0x00, 0x01, 0x00, 0x00, 0x00, 0x01, 0x00, 0x00, 0x00, 0x2f, 0x00, 0x00, 0x00, 0x20, 0x00, 0x00, 0x00, 0xb2, 0xf5, 0xff, 0xff, 0x00, 0x00, 0x00, 0x01, 0x14, 0x00, 0x00, 0x00, 0x34, 0x00, 0x00, 0x00, 0x0f, 0x00, 0x00, 0x00, 0x00, 0x00, 0x00, 0x09, 0x5c, 0x00, 0x00, 0x00, 0x9c, 0xf5, 0xff, 0xff, 0x08, 0x00, 0x00, 0x00, 0x14, 0x00, 0x00, 0x00, 0x01, 0x00, 0x00, 0x00, 0x80, 0xff, 0xff, 0xff, 0xff, 0xff, 0xff, 0xff, 0x00, 0x00, 0x00, 0x00, 0x01, 0x00, 0x00, 0x00, 0x24, 0x29, 0xc0, 0x3c, 0x2e, 0x00, 0x00, 0x00, 0x73, 0x65, 0x71, 0x75, 0x65, 0x6e, 0x74, 0x69, 0x61, 0x6c, 0x5f, 0x31, 0x30, 0x30, 0x5f, 0x31, 0x2f, 0x6d, 0x61, 0x78, 0x5f, 0x70, 0x6f, 0x6f, 0x6c, 0x69, 0x6e, 0x67, 0x31, 0x64, 0x5f, 0x32, 0x30, 0x30, 0x5f, 0x31, 0x2f, 0x4d, 0x61, 0x78, 0x50, 0x6f, 0x6f, 0x6c, 0x31, 0x64, 0x00, 0x00, 0x04, 0x00, 0x00, 0x00, 0x01, 0x00, 0x00, 0x00, 0x01, 0x00, 0x00, 0x00, 0x31, 0x00, 0x00, 0x00, 0x10, 0x00, 0x00, 0x00, 0x3a, 0xf6, 0xff, 0xff, 0x00, 0x00, 0x00, 0x01, 0x14, 0x00, 0x00, 0x00, 0x30, 0x00, 0x00, 0x00, 0x0e, 0x00, 0x00, 0x00, 0x00, 0x00, 0x00, 0x09, 0xf4, 0x00, 0x00, 0x00, 0x24, 0xf6, 0xff, 0xff, 0x08, 0x00, 0x00, 0x00, 0x10, 0x00, 0x00, 0x00, 0x01, 0x00, 0x00, 0x00, 0x80, 0xff, 0xff, 0xff, 0xff, 0xff, 0xff, 0xff, 0x01, 0x00, 0x00, 0x00, 0x24, 0x29, 0xc0, 0x3c, 0xca, 0x00, 0x00, 0x00, 0x73, 0x65, 0x71, 0x75, 0x65, 0x6e, 0x74, 0x69, 0x61, 0x6c, 0x5f, 0x31, 0x30, 0x30, 0x5f, 0x31, 0x2f, 0x63, 0x6f, 0x6e, 0x76, 0x31, 0x64, 0x5f, 0x32, 0x30, 0x30, 0x5f, 0x31, 0x2f, 0x52, 0x65, 0x6c, 0x75, 0x3b, 0x73, 0x65, 0x71, 0x75, 0x65, 0x6e, 0x74, 0x69, 0x61, 0x6c, 0x5f, 0x31, 0x30, 0x30, 0x5f, 0x31, 0x2f, 0x63, 0x6f, 0x6e, 0x76, 0x31, 0x64, 0x5f, 0x32, 0x30, 0x30, 0x5f, 0x31, 0x2f, 0x42, 0x69, 0x61, 0x73, 0x41, 0x64, 0x64, 0x3b, 0x73, 0x65, 0x71, 0x75, 0x65, 0x6e, 0x74, 0x69, 0x61, 0x6c, 0x5f, 0x31, 0x30, 0x30, 0x5f, 0x31, 0x2f, 0x63, 0x6f, 0x6e, 0x76, 0x31, 0x64, 0x5f, 0x32, 0x30, 0x30, 0x5f, 0x31, 0x2f, 0x63, 0x6f, 0x6e, 0x76, 0x6f, 0x6c, 0x75, 0x74, 0x69, 0x6f, 0x6e, 0x2f, 0x53, 0x71, 0x75, 0x65, 0x65, 0x7a, 0x65, 0x3b, 0x73, 0x65, 0x71, 0x75, 0x65, 0x6e, 0x74, 0x69, 0x61, 0x6c, 0x5f, 0x31, 0x30, 0x30, 0x5f, 0x31, 0x2f, 0x63, 0x6f, 0x6e, 0x76, 0x31, 0x64, 0x5f, 0x32, 0x30, 0x30, 0x5f, 0x31, 0x2f, 0x53, 0x71, 0x75, 0x65, 0x65, 0x7a, 0x65, 0x3b, 0x73, 0x65, 0x71, 0x75, 0x65, 0x6e, 0x74, 0x69, 0x61, 0x6c, 0x5f, 0x31, 0x30, 0x30, 0x5f, 0x31, 0x2f, 0x63, 0x6f, 0x6e, 0x76, 0x31, 0x64, 0x5f, 0x32, 0x30, 0x30, 0x5f, 0x31, 0x2f, 0x63, 0x6f, 0x6e, 0x76, 0x6f, 0x6c, 0x75, 0x74, 0x69, 0x6f, 0x6e, 0x00, 0x00, 0x04, 0x00, 0x00, 0x00, 0x01, 0x00, 0x00, 0x00, 0x01, 0x00, 0x00, 0x00, 0x62, 0x00, 0x00, 0x00, 0x10, 0x00, 0x00, 0x00, 0x5a, 0xf7, 0xff, 0xff, 0x00, 0x00, 0x00, 0x01, 0x14, 0x00, 0x00, 0x00, 0x34, 0x00, 0x00, 0x00, 0x0d, 0x00, 0x00, 0x00, 0x00, 0x00, 0x00, 0x09, 0x64, 0x00, 0x00, 0x00, 0x44, 0xf7, 0xff, 0xff, 0x08, 0x00, 0x00, 0x00, 0x14, 0x00, 0x00, 0x00, 0x01, 0x00, 0x00, 0x00, 0xe2, 0xff, 0xff, 0xff, 0xff, 0xff, 0xff, 0xff, 0x00, 0x00, 0x00, 0x00, 0x01, 0x00, 0x00, 0x00, 0x8e, 0x50, 0xa4, 0x3c, 0x35, 0x00, 0x00, 0x00, 0x73, 0x65, 0x71, 0x75, 0x65, 0x6e, 0x74, 0x69, 0x61, 0x6c, 0x5f, 0x31, 0x30, 0x30, 0x5f, 0x31, 0x2f, 0x63, 0x6f, 0x6e, 0x76, 0x31, 0x64, 0x5f, 0x32, 0x30, 0x30, 0x5f, 0x31, 0x2f, 0x63, 0x6f, 0x6e, 0x76, 0x6f, 0x6c, 0x75, 0x74, 0x69, 0x6f, 0x6e, 0x2f, 0x45, 0x78, 0x70, 0x61, 0x6e, 0x64, 0x44, 0x69, 0x6d, 0x73, 0x31, 0x00, 0x00, 0x00, 0x04, 0x00, 0x00, 0x00, 0x01, 0x00, 0x00, 0x00, 0x01, 0x00, 0x00, 0x00, 0x64, 0x00, 0x00, 0x00, 0x05, 0x00, 0x00, 0x00, 0xea, 0xf7, 0xff, 0xff, 0x00, 0x00, 0x00, 0x01, 0x14, 0x00, 0x00, 0x00, 0xe8, 0x00, 0x00, 0x00, 0x0c, 0x00, 0x00, 0x00, 0x00, 0x00, 0x00, 0x09, 0xf4, 0x00, 0x00, 0x00, 0xd4, 0xf7, 0xff, 0xff, 0x08, 0x00, 0x00, 0x00, 0x8c, 0x00, 0x00, 0x00, 0x10, 0x00, 0x00, 0x00, 0x00, 0x00, 0x00, 0x00, 0x00, 0x00, 0x00, 0x00, 0x00, 0x00, 0x00, 0x00, 0x00, 0x00, 0x00, 0x00, 0x00, 0x00, 0x00, 0x00, 0x00, 0x00, 0x00, 0x00, 0x00, 0x00, 0x00, 0x00, 0x00, 0x00, 0x00, 0x00, 0x00, 0x00, 0x00, 0x00, 0x00, 0x00, 0x00, 0x00, 0x00, 0x00, 0x00, 0x00, 0x00, 0x00, 0x00, 0x00, 0x00, 0x00, 0x00, 0x00, 0x00, 0x00, 0x00, 0x00, 0x00, 0x00, 0x00, 0x00, 0x00, 0x00, 0x00, 0x00, 0x00, 0x00, 0x00, 0x00, 0x00, 0x00, 0x00, 0x00, 0x00, 0x00, 0x00, 0x00, 0x00, 0x00, 0x00, 0x00, 0x00, 0x00, 0x00, 0x00, 0x00, 0x00, 0x00, 0x00, 0x00, 0x00, 0x00, 0x00, 0x00, 0x00, 0x00, 0x00, 0x00, 0x00, 0x00, 0x00, 0x00, 0x00, 0x00, 0x00, 0x00, 0x00, 0x00, 0x00, 0x00, 0x00, 0x00, 0x00, 0x00, 0x00, 0x00, 0x00, 0x00, 0x00, 0x00, 0x00, 0x00, 0x00, 0x00, 0x00, 0x00, 0x00, 0x00, 0x00, 0x00, 0x00, 0x00, 0x00, 0x10, 0x00, 0x00, 0x00, 0xd4, 0xae, 0x74, 0x3b, 0x4c, 0x10, 0x3e, 0x3b, 0x77, 0x5b, 0x1f, 0x3b, 0x55, 0x29, 0x4b, 0x3b, 0x17, 0x89, 0x5d, 0x3b, 0x34, 0x7c, 0x5a, 0x3b, 0x03, 0xa0, 0x4f, 0x3b, 0x53, 0x3a, 0x50, 0x3b, 0x62, 0x6c, 0x8e, 0x3b, 0x16, 0x44, 0x82, 0x3b, 0x92, 0x5e, 0x57, 0x3b, 0x4c, 0x57, 0x58, 0x3b, 0x43, 0xe3, 0x46, 0x3b, 0xe1, 0x52, 0x8c, 0x3b, 0x9b, 0x84, 0x81, 0x3b, 0xc2, 0xf2, 0x57, 0x3b, 0x12, 0x00, 0x00, 0x00, 0x74, 0x66, 0x6c, 0x2e, 0x70, 0x73, 0x65, 0x75, 0x64, 0x6f, 0x5f, 0x71, 0x63, 0x6f, 0x6e, 0x73, 0x74, 0x37, 0x00, 0x00, 0x04, 0x00, 0x00, 0x00, 0x10, 0x00, 0x00, 0x00, 0x01, 0x00, 0x00, 0x00, 0x03, 0x00, 0x00, 0x00, 0x05, 0x00, 0x00, 0x00, 0x0a, 0xf9, 0xff, 0xff, 0x00, 0x00, 0x00, 0x01, 0x14, 0x00, 0x00, 0x00, 0xe4, 0x00, 0x00, 0x00, 0x0b, 0x00, 0x00, 0x00, 0x00, 0x00, 0x00, 0x02, 0xf0, 0x00, 0x00, 0x00, 0xf4, 0xf8, 0xff, 0xff, 0x08, 0x00, 0x00, 0x00, 0x88, 0x00, 0x00, 0x00, 0x10, 0x00, 0x00, 0x00, 0x00, 0x00, 0x00, 0x00, 0x00, 0x00, 0x00, 0x00, 0x00, 0x00, 0x00, 0x00, 0x00, 0x00, 0x00, 0x00, 0x00, 0x00, 0x00, 0x00, 0x00, 0x00, 0x00, 0x00, 0x00, 0x00, 0x00, 0x00, 0x00, 0x00, 0x00, 0x00, 0x00, 0x00, 0x00, 0x00, 0x00, 0x00, 0x00, 0x00, 0x00, 0x00, 0x00, 0x00, 0x00, 0x00, 0x00, 0x00, 0x00, 0x00, 0x00, 0x00, 0x00, 0x00, 0x00, 0x00, 0x00, 0x00, 0x00, 0x00, 0x00, 0x00, 0x00, 0x00, 0x00, 0x00, 0x00, 0x00, 0x00, 0x00, 0x00, 0x00, 0x00, 0x00, 0x00, 0x00, 0x00, 0x00, 0x00, 0x00, 0x00, 0x00, 0x00, 0x00, 0x00, 0x00, 0x00, 0x00, 0x00, 0x00, 0x00, 0x00, 0x00, 0x00, 0x00, 0x00, 0x00, 0x00, 0x00, 0x00, 0x00, 0x00, 0x00, 0x00, 0x00, 0x00, 0x00, 0x00, 0x00, 0x00, 0x00, 0x00, 0x00, 0x00, 0x00, 0x00, 0x00, 0x00, 0x00, 0x00, 0x00, 0x00, 0x00, 0x00, 0x00, 0x00, 0x00, 0x00, 0x10, 0x00, 0x00, 0x00, 0xfe, 0x0c, 0x9d, 0x38, 0x7e, 0xfc, 0x73, 0x38, 0x7a, 0x91, 0x4c, 0x38, 0x68, 0x66, 0x82, 0x38, 0x88, 0x31, 0x8e, 0x38, 0x51, 0x3c, 0x8c, 0x38, 0xd7, 0x43, 0x85, 0x38, 0xe3, 0xa6, 0x85, 0x38, 0x7f, 0xd4, 0xb6, 0x38, 0x37, 0x39, 0xa7, 0x38, 0x5b, 0x3c, 0x8a, 0x38, 0x00, 0xdc, 0x8a, 0x38, 0x59, 0x50, 0x7f, 0x38, 0x80, 0x22, 0xb4, 0x38, 0x69, 0x43, 0xa6, 0x38, 0x78, 0x9b, 0x8a, 0x38, 0x12, 0x00, 0x00, 0x00, 0x74, 0x66, 0x6c, 0x2e, 0x70, 0x73, 0x65, 0x75, 0x64, 0x6f, 0x5f, 0x71, 0x63, 0x6f, 0x6e, 0x73, 0x74, 0x36, 0x00, 0x00, 0x01, 0x00, 0x00, 0x00, 0x10, 0x00, 0x00, 0x00, 0x1a, 0xfa, 0xff, 0xff, 0x00, 0x00, 0x00, 0x01, 0x14, 0x00, 0x00, 0x00, 0xa8, 0x01, 0x00, 0x00, 0x0a, 0x00, 0x00, 0x00, 0x00, 0x00, 0x00, 0x09, 0xb4, 0x01, 0x00, 0x00, 0x04, 0xfa, 0xff, 0xff, 0x08, 0x00, 0x00, 0x00, 0x0c, 0x01, 0x00, 0x00, 0x20, 0x00, 0x00, 0x00, 0x00, 0x00, 0x00, 0x00, 0x00, 0x00, 0x00, 0x00, 0x00, 0x00, 0x00, 0x00, 0x00, 0x00, 0x00, 0x00, 0x00, 0x00, 0x00, 0x00, 0x00, 0x00, 0x00, 0x00, 0x00, 0x00, 0x00, 0x00, 0x00, 0x00, 0x00, 0x00, 0x00, 0x00, 0x00, 0x00, 0x00, 0x00, 0x00, 0x00, 0x00, 0x00, 0x00, 0x00, 0x00, 0x00, 0x00, 0x00, 0x00, 0x00, 0x00, 0x00, 0x00, 0x00, 0x00, 0x00, 0x00, 0x00, 0x00, 0x00, 0x00, 0x00, 0x00, 0x00, 0x00, 0x00, 0x00, 0x00, 0x00, 0x00, 0x00, 0x00, 0x00, 0x00, 0x00, 0x00, 0x00, 0x00, 0x00, 0x00, 0x00, 0x00, 0x00, 0x00, 0x00, 0x00, 0x00, 0x00, 0x00, 0x00, 0x00, 0x00, 0x00, 0x00, 0x00, 0x00, 0x00, 0x00, 0x00, 0x00, 0x00, 0x00, 0x00, 0x00, 0x00, 0x00, 0x00, 0x00, 0x00, 0x00, 0x00, 0x00, 0x00, 0x00, 0x00, 0x00, 0x00, 0x00, 0x00, 0x00, 0x00, 0x00, 0x00, 0x00, 0x00, 0x00, 0x00, 0x00, 0x00, 0x00, 0x00, 0x00, 0x00, 0x00, 0x00, 0x00, 0x00, 0x00, 0x00, 0x00, 0x00, 0x00, 0x00, 0x00, 0x00, 0x00, 0x00, 0x00, 0x00, 0x00, 0x00, 0x00, 0x00, 0x00, 0x00, 0x00, 0x00, 0x00, 0x00, 0x00, 0x00, 0x00, 0x00, 0x00, 0x00, 0x00, 0x00, 0x00, 0x00, 0x00, 0x00, 0x00, 0x00, 0x00, 0x00, 0x00, 0x00, 0x00, 0x00, 0x00, 0x00, 0x00, 0x00, 0x00, 0x00, 0x00, 0x00, 0x00, 0x00, 0x00, 0x00, 0x00, 0x00, 0x00, 0x00, 0x00, 0x00, 0x00, 0x00, 0x00, 0x00, 0x00, 0x00, 0x00, 0x00, 0x00, 0x00, 0x00, 0x00, 0x00, 0x00, 0x00, 0x00, 0x00, 0x00, 0x00, 0x00, 0x00, 0x00, 0x00, 0x00, 0x00, 0x00, 0x00, 0x00, 0x00, 0x00, 0x00, 0x00, 0x00, 0x00, 0x00, 0x00, 0x00, 0x00, 0x00, 0x00, 0x00, 0x00, 0x00, 0x00, 0x00, 0x00, 0x00, 0x00, 0x00, 0x00, 0x00, 0x00, 0x00, 0x00, 0x00, 0x00, 0x00, 0x00, 0x00, 0x00, 0x00, 0x00, 0x00, 0x20, 0x00, 0x00, 0x00, 0xe4, 0xa3, 0xea, 0x3a, 0x5d, 0x11, 0x3b, 0x3b, 0xd8, 0xda, 0x0b, 0x3b, 0xf4, 0xcf, 0x30, 0x3b, 0x5f, 0xa3, 0x4f, 0x3b, 0x34, 0xd3, 0x29, 0x3b, 0x62, 0xd0, 0x61, 0x3b, 0xd1, 0x7b, 0x1d, 0x3b, 0x4a, 0x7f, 0x41, 0x3b, 0xe3, 0x2a, 0x38, 0x3b, 0x74, 0xa0, 0x18, 0x3b, 0xe5, 0xca, 0x4b, 0x3b, 0x65, 0xe4, 0x2b, 0x3b, 0x30, 0xc2, 0x32, 0x3b, 0x0c, 0xc6, 0x1c, 0x3b, 0x24, 0xd2, 0x1f, 0x3b, 0xc2, 0xdb, 0x25, 0x3b, 0x38, 0xd0, 0x2c, 0x3b, 0x99, 0x0a, 0x41, 0x3b, 0xca, 0x8a, 0x31, 0x3b, 0x99, 0xb9, 0x37, 0x3b, 0xfd, 0x6b, 0x3f, 0x3b, 0x1e, 0xea, 0x01, 0x3b, 0xde, 0x18, 0x34, 0x3b, 0xce, 0xa8, 0x3d, 0x3b, 0xb5, 0xe1, 0x4a, 0x3b, 0x54, 0x1b, 0x35, 0x3b, 0x6a, 0xf4, 0x4e, 0x3b, 0x58, 0x90, 0x32, 0x3b, 0x6d, 0x68, 0x3b, 0x3b, 0x31, 0xf1, 0x15, 0x3b, 0xc2, 0x57, 0x5e, 0x3b, 0x12, 0x00, 0x00, 0x00, 0x74, 0x66, 0x6c, 0x2e, 0x70, 0x73, 0x65, 0x75, 0x64, 0x6f, 0x5f, 0x71, 0x63, 0x6f, 0x6e, 0x73, 0x74, 0x35, 0x00, 0x00, 0x04, 0x00, 0x00, 0x00, 0x20, 0x00, 0x00, 0x00, 0x01, 0x00, 0x00, 0x00, 0x03, 0x00, 0x00, 0x00, 0x10, 0x00, 0x00, 0x00, 0xfa, 0xfb, 0xff, 0xff, 0x00, 0x00, 0x00, 0x01, 0x14, 0x00, 0x00, 0x00, 0xa4, 0x01, 0x00, 0x00, 0x09, 0x00, 0x00, 0x00, 0x00, 0x00, 0x00, 0x02, 0xb0, 0x01, 0x00, 0x00, 0xe4, 0xfb, 0xff, 0xff, 0x08, 0x00, 0x00, 0x00, 0x08, 0x01, 0x00, 0x00, 0x20, 0x00, 0x00, 0x00, 0x00, 0x00, 0x00, 0x00, 0x00, 0x00, 0x00, 0x00, 0x00, 0x00, 0x00, 0x00, 0x00, 0x00, 0x00, 0x00, 0x00, 0x00, 0x00, 0x00, 0x00, 0x00, 0x00, 0x00, 0x00, 0x00, 0x00, 0x00, 0x00, 0x00, 0x00, 0x00, 0x00, 0x00, 0x00, 0x00, 0x00, 0x00, 0x00, 0x00, 0x00, 0x00, 0x00, 0x00, 0x00, 0x00, 0x00, 0x00, 0x00, 0x00, 0x00, 0x00, 0x00, 0x00, 0x00, 0x00, 0x00, 0x00, 0x00, 0x00, 0x00, 0x00, 0x00, 0x00, 0x00, 0x00, 0x00, 0x00, 0x00, 0x00, 0x00, 0x00, 0x00, 0x00, 0x00, 0x00, 0x00, 0x00, 0x00, 0x00, 0x00, 0x00, 0x00, 0x00, 0x00, 0x00, 0x00, 0x00, 0x00, 0x00, 0x00, 0x00, 0x00, 0x00, 0x00, 0x00, 0x00, 0x00, 0x00, 0x00, 0x00, 0x00, 0x00, 0x00, 0x00, 0x00, 0x00, 0x00, 0x00, 0x00, 0x00, 0x00, 0x00, 0x00, 0x00, 0x00, 0x00, 0x00, 0x00, 0x00, 0x00, 0x00, 0x00, 0x00, 0x00, 0x00, 0x00, 0x00, 0x00, 0x00, 0x00, 0x00, 0x00, 0x00, 0x00, 0x00, 0x00, 0x00, 0x00, 0x00, 0x00, 0x00, 0x00, 0x00, 0x00, 0x00, 0x00, 0x00, 0x00, 0x00, 0x00, 0x00, 0x00, 0x00, 0x00, 0x00, 0x00, 0x00, 0x00, 0x00, 0x00, 0x00, 0x00, 0x00, 0x00, 0x00, 0x00, 0x00, 0x00, 0x00, 0x00, 0x00, 0x00, 0x00, 0x00, 0x00, 0x00, 0x00, 0x00, 0x00, 0x00, 0x00, 0x00, 0x00, 0x00, 0x00, 0x00, 0x00, 0x00, 0x00, 0x00, 0x00, 0x00, 0x00, 0x00, 0x00, 0x00, 0x00, 0x00, 0x00, 0x00, 0x00, 0x00, 0x00, 0x00, 0x00, 0x00, 0x00, 0x00, 0x00, 0x00, 0x00, 0x00, 0x00, 0x00, 0x00, 0x00, 0x00, 0x00, 0x00, 0x00, 0x00, 0x00, 0x00, 0x00, 0x00, 0x00, 0x00, 0x00, 0x00, 0x00, 0x00, 0x00, 0x00, 0x00, 0x00, 0x00, 0x00, 0x00, 0x00, 0x00, 0x00, 0x00, 0x00, 0x00, 0x00, 0x00, 0x00, 0x00, 0x00, 0x00, 0x00, 0x00, 0x00, 0x00, 0x00, 0x20, 0x00, 0x00, 0x00, 0xa0, 0x20, 0x30, 0x38, 0x16, 0x6b, 0x8c, 0x38, 0x37, 0xf5, 0x51, 0x38, 0x61, 0xb8, 0x84, 0x38, 0xe6, 0xdb, 0x9b, 0x38, 0x63, 0xf3, 0x7e, 0x38, 0x94, 0x80, 0xa9, 0x38, 0x57, 0x6c, 0x6c, 0x38, 0x90, 0x3e, 0x91, 0x38, 0xc3, 0x3d, 0x8a, 0x38, 0xbc, 0x21, 0x65, 0x38, 0xec, 0xf8, 0x98, 0x38, 0xec, 0x06, 0x81, 0x38, 0x5e, 0x2e, 0x86, 0x38, 0x76, 0x5b, 0x6b, 0x38, 0x94, 0xee, 0x6f, 0x38, 0xf2, 0xfe, 0x78, 0x38, 0xf0, 0xb7, 0x81, 0x38, 0xf9, 0xe6, 0x90, 0x38, 0xa0, 0x44, 0x85, 0x38, 0xb9, 0xe8, 0x89, 0x38, 0xc1, 0xaf, 0x8f, 0x38, 0xef, 0x08, 0x43, 0x38, 0x98, 0x2f, 0x87, 0x38, 0x15, 0x5d, 0x8e, 0x38, 0xe2, 0x49, 0x98, 0x38, 0x9a, 0xf1, 0x87, 0x38, 0x92, 0x58, 0x9b, 0x38, 0xf4, 0x08, 0x86, 0x38, 0x70, 0xac, 0x8c, 0x38, 0xfb, 0x19, 0x61, 0x38, 0x8d, 0xe5, 0xa6, 0x38, 0x12, 0x00, 0x00, 0x00, 0x74, 0x66, 0x6c, 0x2e, 0x70, 0x73, 0x65, 0x75, 0x64, 0x6f, 0x5f, 0x71, 0x63, 0x6f, 0x6e, 0x73, 0x74, 0x34, 0x00, 0x00, 0x01, 0x00, 0x00, 0x00, 0x20, 0x00, 0x00, 0x00, 0xca, 0xfd, 0xff, 0xff, 0x00, 0x00, 0x00, 0x01, 0x14, 0x00, 0x00, 0x00, 0x30, 0x00, 0x00, 0x00, 0x08, 0x00, 0x00, 0x00, 0x00, 0x00, 0x00, 0x09, 0x3c, 0x00, 0x00, 0x00, 0xb4, 0xfd, 0xff, 0xff, 0x08, 0x00, 0x00, 0x00, 0x10, 0x00, 0x00, 0x00, 0x01, 0x00, 0x00, 0x00, 0x00, 0x00, 0x00, 0x00, 0x00, 0x00, 0x00, 0x00, 0x01, 0x00, 0x00, 0x00, 0x83, 0x27, 0x82, 0x3b, 0x12, 0x00, 0x00, 0x00, 0x74, 0x66, 0x6c, 0x2e, 0x70, 0x73, 0x65, 0x75, 0x64, 0x6f, 0x5f, 0x71, 0x63, 0x6f, 0x6e, 0x73, 0x74, 0x33, 0x00, 0x00, 0x02, 0x00, 0x00, 0x00, 0x20, 0x00, 0x00, 0x00, 0x20, 0x00, 0x00, 0x00, 0x2a, 0xfe, 0xff, 0xff, 0x00, 0x00, 0x00, 0x01, 0x14, 0x00, 0x00, 0x00, 0x34, 0x00, 0x00, 0x00, 0x07, 0x00, 0x00, 0x00, 0x00, 0x00, 0x00, 0x02, 0x40, 0x00, 0x00, 0x00, 0x14, 0xfe, 0xff, 0xff, 0x08, 0x00, 0x00, 0x00, 0x14, 0x00, 0x00, 0x00, 0x01, 0x00, 0x00, 0x00, 0x00, 0x00, 0x00, 0x00, 0x00, 0x00, 0x00, 0x00, 0x00, 0x00, 0x00, 0x00, 0x01, 0x00, 0x00, 0x00, 0x08, 0xf0, 0x04, 0x39, 0x12, 0x00, 0x00, 0x00, 0x74, 0x66, 0x6c, 0x2e, 0x70, 0x73, 0x65, 0x75, 0x64, 0x6f, 0x5f, 0x71, 0x63, 0x6f, 0x6e, 0x73, 0x74, 0x32, 0x00, 0x00, 0x01, 0x00, 0x00, 0x00, 0x20, 0x00, 0x00, 0x00, 0x8a, 0xfe, 0xff, 0xff, 0x00, 0x00, 0x00, 0x01, 0x14, 0x00, 0x00, 0x00, 0x30, 0x00, 0x00, 0x00, 0x06, 0x00, 0x00, 0x00, 0x00, 0x00, 0x00, 0x09, 0x3c, 0x00, 0x00, 0x00, 0x74, 0xfe, 0xff, 0xff, 0x08, 0x00, 0x00, 0x00, 0x10, 0x00, 0x00, 0x00, 0x01, 0x00, 0x00, 0x00, 0x00, 0x00, 0x00, 0x00, 0x00, 0x00, 0x00, 0x00, 0x01, 0x00, 0x00, 0x00, 0xdb, 0xc4, 0xd4, 0x3b, 0x12, 0x00, 0x00, 0x00, 0x74, 0x66, 0x6c, 0x2e, 0x70, 0x73, 0x65, 0x75, 0x64, 0x6f, 0x5f, 0x71, 0x63, 0x6f, 0x6e, 0x73, 0x74, 0x31, 0x00, 0x00, 0x02, 0x00, 0x00, 0x00, 0x0b, 0x00, 0x00, 0x00, 0x20, 0x00, 0x00, 0x00, 0xea, 0xfe, 0xff, 0xff, 0x00, 0x00, 0x00, 0x01, 0x14, 0x00, 0x00, 0x00, 0x34, 0x00, 0x00, 0x00, 0x05, 0x00, 0x00, 0x00, 0x00, 0x00, 0x00, 0x02, 0x40, 0x00, 0x00, 0x00, 0xd4, 0xfe, 0xff, 0xff, 0x08, 0x00, 0x00, 0x00, 0x14, 0x00, 0x00, 0x00, 0x01, 0x00, 0x00, 0x00, 0x00, 0x00, 0x00, 0x00, 0x00, 0x00, 0x00, 0x00, 0x00, 0x00, 0x00, 0x00, 0x01, 0x00, 0x00, 0x00, 0xa5, 0x1e, 0xc2, 0x39, 0x11, 0x00, 0x00, 0x00, 0x74, 0x66, 0x6c, 0x2e, 0x70, 0x73, 0x65, 0x75, 0x64, 0x6f, 0x5f, 0x71, 0x63, 0x6f, 0x6e, 0x73, 0x74, 0x00, 0x00, 0x00, 0x01, 0x00, 0x00, 0x00, 0x0b, 0x00, 0x00, 0x00, 0x4a, 0xff, 0xff, 0xff, 0x00, 0x00, 0x00, 0x01, 0x14, 0x00, 0x00, 0x00, 0x14, 0x00, 0x00, 0x00, 0x04, 0x00, 0x00, 0x00, 0x00, 0x00, 0x00, 0x02, 0x1c, 0x00, 0x00, 0x00, 0x8c, 0xff, 0xff, 0xff, 0x0f, 0x00, 0x00, 0x00, 0x61, 0x72, 0x69, 0x74, 0x68, 0x2e, 0x63, 0x6f, 0x6e, 0x73, 0x74, 0x61, 0x6e, 0x74, 0x32, 0x00, 0x00, 0x00, 0x00, 0x00, 0x82, 0xff, 0xff, 0xff, 0x00, 0x00, 0x00, 0x01, 0x14, 0x00, 0x00, 0x00, 0x14, 0x00, 0x00, 0x00, 0x03, 0x00, 0x00, 0x00, 0x00, 0x00, 0x00, 0x02, 0x1c, 0x00, 0x00, 0x00, 0xc4, 0xff, 0xff, 0xff, 0x0f, 0x00, 0x00, 0x00, 0x61, 0x72, 0x69, 0x74, 0x68, 0x2e, 0x63, 0x6f, 0x6e, 0x73, 0x74, 0x61, 0x6e, 0x74, 0x31, 0x00, 0x01, 0x00, 0x00, 0x00, 0x03, 0x00, 0x00, 0x00, 0xbe, 0xff, 0xff, 0xff, 0x00, 0x00, 0x00, 0x01, 0x18, 0x00, 0x00, 0x00, 0x18, 0x00, 0x00, 0x00, 0x02, 0x00, 0x00, 0x00, 0x00, 0x00, 0x00, 0x02, 0x20, 0x00, 0x00, 0x00, 0x04, 0x00, 0x04, 0x00, 0x04, 0x00, 0x00, 0x00, 0x0e, 0x00, 0x00, 0x00, 0x61, 0x72, 0x69, 0x74, 0x68, 0x2e, 0x63, 0x6f, 0x6e, 0x73, 0x74, 0x61, 0x6e, 0x74, 0x00, 0x00, 0x01, 0x00, 0x00, 0x00, 0x04, 0x00, 0x00, 0x00, 0x00, 0x00, 0x16, 0x00, 0x1c, 0x00, 0x18, 0x00, 0x17, 0x00, 0x10, 0x00, 0x0c, 0x00, 0x08, 0x00, 0x00, 0x00, 0x00, 0x00, 0x00, 0x00, 0x07, 0x00, 0x16, 0x00, 0x00, 0x00, 0x00, 0x00, 0x00, 0x01, 0x20, 0x00, 0x00, 0x00, 0x3c, 0x00, 0x00, 0x00, 0x01, 0x00, 0x00, 0x00, 0x00, 0x00, 0x00, 0x09, 0x38, 0x00, 0x00, 0x00, 0x0c, 0x00, 0x0c, 0x00, 0x00, 0x00, 0x00, 0x00, 0x08, 0x00, 0x04, 0x00, 0x0c, 0x00, 0x00, 0x00, 0x08, 0x00, 0x00, 0x00, 0x10, 0x00, 0x00, 0x00, 0x01, 0x00, 0x00, 0x00, 0xe2, 0xff, 0xff, 0xff, 0xff, 0xff, 0xff, 0xff, 0x01, 0x00, 0x00, 0x00, 0x8e, 0x50, 0xa4, 0x3c, 0x01, 0x00, 0x00, 0x00, 0x78, 0x00, 0x00, 0x00, 0x03, 0x00, 0x00, 0x00, 0x01, 0x00, 0x00, 0x00, 0x64, 0x00, 0x00, 0x00, 0x05, 0x00, 0x00, 0x00, 0x06, 0x00, 0x00, 0x00, 0x80, 0x00, 0x00, 0x00, 0x60, 0x00, 0x00, 0x00, 0x40, 0x00, 0x00, 0x00, 0x2c, 0x00, 0x00, 0x00, 0x18, 0x00, 0x00, 0x00, 0x04, 0x00, 0x00, 0x00, 0xc0, 0xff, 0xff, 0xff, 0x19, 0x00, 0x00, 0x00, 0x02, 0x00, 0x00, 0x00, 0x00, 0x00, 0x00, 0x19, 0xd0, 0xff, 0xff, 0xff, 0x09, 0x00, 0x00, 0x00, 0x04, 0x00, 0x00, 0x00, 0x00, 0x00, 0x00, 0x09, 0xe0, 0xff, 0xff, 0xff, 0x28, 0x00, 0x00, 0x00, 0x02, 0x00, 0x00, 0x00, 0x00, 0x00, 0x00, 0x28, 0xf0, 0xff, 0xff, 0xff, 0x11, 0x00, 0x00, 0x00, 0x02, 0x00, 0x00, 0x00, 0x00, 0x00, 0x00, 0x11, 0x0c, 0x00, 0x10, 0x00, 0x0f, 0x00, 0x00, 0x00, 0x08, 0x00, 0x04, 0x00, 0x0c, 0x00, 0x00, 0x00, 0x03, 0x00, 0x00, 0x00, 0x03, 0x00, 0x00, 0x00, 0x00, 0x00, 0x00, 0x03, 0x0c, 0x00, 0x0c, 0x00, 0x0b, 0x00, 0x00, 0x00, 0x00, 0x00, 0x04, 0x00, 0x0c, 0x00, 0x00, 0x00, 0x16, 0x00, 0x00, 0x00, 0x00, 0x00, 0x00, 0x16
};
const unsigned int model_data_len = 9048;

#endif // BSL_MODEL_H_20250725_151905
