/*
 * BSL Gesture Recognition Model
 *
 * Model Type: Transformer_Encoder_Arduino
 * Timestamp:  20250717_231916
 * Model Size: 35348 bytes
 */

#ifndef BSL_MODEL_H_20250717_231916
#define BSL_MODEL_H_20250717_231916

// Feature count for normalization
const int BSL_MODEL_FEATURES = 5;

// Normalization parameters (StandardScaler)
const float scaler_mean[BSL_MODEL_FEATURES] = { 236.43887165f, 152.37936569f, 328.61752741f, 316.69635454f, 101.83935373f };
const float scaler_scale[BSL_MODEL_FEATURES] = { 177.03868095f, 153.40072310f, 204.37148658f, 203.09171501f, 121.78085463f };

// TFLite model data
alignas(16) const unsigned char model_data[] = {
    0x1c, 0x00, 0x00, 0x00, 0x54, 0x46, 0x4c, 0x33, 0x14, 0x00, 0x20, 0x00, 0x1c, 0x00, 0x18, 0x00, 0x14, 0x00, 0x10, 0x00, 0x0c, 0x00, 0x00, 0x00, 0x08, 0x00, 0x04, 0x00, 0x14, 0x00, 0x00, 0x00, 0x1c, 0x00, 0x00, 0x00, 0x1c, 0x00, 0x00, 0x00, 0xa4, 0x00, 0x00, 0x00, 0x28, 0x55, 0x00, 0x00, 0x38, 0x55, 0x00, 0x00, 0x00, 0x89, 0x00, 0x00, 0x03, 0x00, 0x00, 0x00, 0x00, 0x00, 0x00, 0x00, 0x03, 0x00, 0x00, 0x00, 0x64, 0x00, 0x00, 0x00, 0x2c, 0x00, 0x00, 0x00, 0x04, 0x00, 0x00, 0x00, 0xb0, 0xff, 0xff, 0xff, 0x69, 0x00, 0x00, 0x00, 0x04, 0x00, 0x00, 0x00, 0x13, 0x00, 0x00, 0x00, 0x43, 0x4f, 0x4e, 0x56, 0x45, 0x52, 0x53, 0x49, 0x4f, 0x4e, 0x5f, 0x4d, 0x45, 0x54, 0x41, 0x44, 0x41, 0x54, 0x41, 0x00, 0xd4, 0xff, 0xff, 0xff, 0x68, 0x00, 0x00, 0x00, 0x04, 0x00, 0x00, 0x00, 0x19, 0x00, 0x00, 0x00, 0x72, 0x65, 0x64, 0x75, 0x63, 0x65, 0x64, 0x5f, 0x70, 0x72, 0x65, 0x63, 0x69, 0x73, 0x69, 0x6f, 0x6e, 0x5f, 0x73, 0x75, 0x70, 0x70, 0x6f, 0x72, 0x74, 0x00, 0x00, 0x00, 0x08, 0x00, 0x0c, 0x00, 0x08, 0x00, 0x04, 0x00, 0x08, 0x00, 0x00, 0x00, 0x67, 0x00, 0x00, 0x00, 0x04, 0x00, 0x00, 0x00, 0x13, 0x00, 0x00, 0x00, 0x6d, 0x69, 0x6e, 0x5f, 0x72, 0x75, 0x6e, 0x74, 0x69, 0x6d, 0x65, 0x5f, 0x76, 0x65, 0x72, 0x73, 0x69, 0x6f, 0x6e, 0x00, 0x6a, 0x00, 0x00, 0x00, 0x80, 0x54, 0x00, 0x00, 0x78, 0x54, 0x00, 0x00, 0x28, 0x53, 0x00, 0x00, 0xd8, 0x52, 0x00, 0x00, 0x88, 0x52, 0x00, 0x00, 0x38, 0x52, 0x00, 0x00, 0xe8, 0x51, 0x00, 0x00, 0x98, 0x51, 0x00, 0x00, 0x08, 0x51, 0x00, 0x00, 0xb8, 0x50, 0x00, 0x00, 0x68, 0x50, 0x00, 0x00, 0x40, 0x50, 0x00, 0x00, 0x2c, 0x50, 0x00, 0x00, 0x18, 0x50, 0x00, 0x00, 0x04, 0x50, 0x00, 0x00, 0xb4, 0x4f, 0x00, 0x00, 0x98, 0x4f, 0x00, 0x00, 0x78, 0x4f, 0x00, 0x00, 0x58, 0x4f, 0x00, 0x00, 0x38, 0x4f, 0x00, 0x00, 0x18, 0x4f, 0x00, 0x00, 0x08, 0x47, 0x00, 0x00, 0x38, 0x44, 0x00, 0x00, 0x28, 0x3c, 0x00, 0x00, 0x18, 0x34, 0x00, 0x00, 0x08, 0x2c, 0x00, 0x00, 0xf8, 0x1b, 0x00, 0x00, 0xe8, 0x0b, 0x00, 0x00, 0x98, 0x0b, 0x00, 0x00, 0x88, 0x03, 0x00, 0x00, 0x38, 0x03, 0x00, 0x00, 0xe8, 0x02, 0x00, 0x00, 0xe0, 0x02, 0x00, 0x00, 0xd8, 0x02, 0x00, 0x00, 0xd0, 0x02, 0x00, 0x00, 0xc8, 0x02, 0x00, 0x00, 0xc0, 0x02, 0x00, 0x00, 0xb8, 0x02, 0x00, 0x00, 0xb0, 0x02, 0x00, 0x00, 0xa8, 0x02, 0x00, 0x00, 0xa0, 0x02, 0x00, 0x00, 0x98, 0x02, 0x00, 0x00, 0x90, 0x02, 0x00, 0x00, 0x88, 0x02, 0x00, 0x00, 0x80, 0x02, 0x00, 0x00, 0x78, 0x02, 0x00, 0x00, 0x70, 0x02, 0x00, 0x00, 0x68, 0x02, 0x00, 0x00, 0x60, 0x02, 0x00, 0x00, 0x58, 0x02, 0x00, 0x00, 0x50, 0x02, 0x00, 0x00, 0x48, 0x02, 0x00, 0x00, 0x40, 0x02, 0x00, 0x00, 0x38, 0x02, 0x00, 0x00, 0x30, 0x02, 0x00, 0x00, 0x28, 0x02, 0x00, 0x00, 0x20, 0x02, 0x00, 0x00, 0x18, 0x02, 0x00, 0x00, 0x10, 0x02, 0x00, 0x00, 0x08, 0x02, 0x00, 0x00, 0x00, 0x02, 0x00, 0x00, 0xf8, 0x01, 0x00, 0x00, 0xf0, 0x01, 0x00, 0x00, 0xe8, 0x01, 0x00, 0x00, 0xe0, 0x01, 0x00, 0x00, 0xd8, 0x01, 0x00, 0x00, 0xd0, 0x01, 0x00, 0x00, 0xc8, 0x01, 0x00, 0x00, 0xc0, 0x01, 0x00, 0x00, 0xb8, 0x01, 0x00, 0x00, 0xb0, 0x01, 0x00, 0x00, 0xa8, 0x01, 0x00, 0x00, 0xa0, 0x01, 0x00, 0x00, 0x98, 0x01, 0x00, 0x00, 0x90, 0x01, 0x00, 0x00, 0x88, 0x01, 0x00, 0x00, 0x80, 0x01, 0x00, 0x00, 0x78, 0x01, 0x00, 0x00, 0x70, 0x01, 0x00, 0x00, 0x68, 0x01, 0x00, 0x00, 0x60, 0x01, 0x00, 0x00, 0x58, 0x01, 0x00, 0x00, 0x50, 0x01, 0x00, 0x00, 0x48, 0x01, 0x00, 0x00, 0x40, 0x01, 0x00, 0x00, 0x38, 0x01, 0x00, 0x00, 0x30, 0x01, 0x00, 0x00, 0x28, 0x01, 0x00, 0x00, 0x20, 0x01, 0x00, 0x00, 0x18, 0x01, 0x00, 0x00, 0x10, 0x01, 0x00, 0x00, 0x08, 0x01, 0x00, 0x00, 0x00, 0x01, 0x00, 0x00, 0xf8, 0x00, 0x00, 0x00, 0xf0, 0x00, 0x00, 0x00, 0xe8, 0x00, 0x00, 0x00, 0xe0, 0x00, 0x00, 0x00, 0xd8, 0x00, 0x00, 0x00, 0xd0, 0x00, 0x00, 0x00, 0xc8, 0x00, 0x00, 0x00, 0xc0, 0x00, 0x00, 0x00, 0xb8, 0x00, 0x00, 0x00, 0xb0, 0x00, 0x00, 0x00, 0x90, 0x00, 0x00, 0x00, 0x74, 0x00, 0x00, 0x00, 0x04, 0x00, 0x00, 0x00, 0xca, 0xa4, 0xff, 0xff, 0x04, 0x00, 0x00, 0x00, 0x60, 0x00, 0x00, 0x00, 0x0c, 0x00, 0x00, 0x00, 0x08, 0x00, 0x0e, 0x00, 0x08, 0x00, 0x04, 0x00, 0x08, 0x00, 0x00, 0x00, 0x14, 0x00, 0x00, 0x00, 0x30, 0x00, 0x00, 0x00, 0x00, 0x00, 0x0a, 0x00, 0x0c, 0x00, 0x08, 0x00, 0x00, 0x00, 0x07, 0x00, 0x0a, 0x00, 0x00, 0x00, 0x00, 0x00, 0x00, 0x01, 0x04, 0x00, 0x00, 0x00, 0x01, 0x00, 0x00, 0x00, 0xe9, 0x03, 0x00, 0x00, 0x00, 0x00, 0x0a, 0x00, 0x10, 0x00, 0x0c, 0x00, 0x08, 0x00, 0x04, 0x00, 0x0a, 0x00, 0x00, 0x00, 0x03, 0x00, 0x00, 0x00, 0x02, 0x00, 0x00, 0x00, 0x04, 0x00, 0x00, 0x00, 0x06, 0x00, 0x00, 0x00, 0x32, 0x2e, 0x31, 0x36, 0x2e, 0x32, 0x00, 0x00, 0x36, 0xa5, 0xff, 0xff, 0x04, 0x00, 0x00, 0x00, 0x0b, 0x00, 0x00, 0x00, 0x66, 0x70, 0x31, 0x36, 0x61, 0x63, 0x63, 0x66, 0x70, 0x33, 0x32, 0x00, 0x4e, 0xa5, 0xff, 0xff, 0x04, 0x00, 0x00, 0x00, 0x10, 0x00, 0x00, 0x00, 0x32, 0x2e, 0x33, 0x2e, 0x30, 0x00, 0x00, 0x00, 0x00, 0x00, 0x00, 0x00, 0x00, 0x00, 0x00, 0x00, 0x74, 0x79, 0xff, 0xff, 0x78, 0x79, 0xff, 0xff, 0x7c, 0x79, 0xff, 0xff, 0x80, 0x79, 0xff, 0xff, 0x84, 0x79, 0xff, 0xff, 0x88, 0x79, 0xff, 0xff, 0x8c, 0x79, 0xff, 0xff, 0x90, 0x79, 0xff, 0xff, 0x94, 0x79, 0xff, 0xff, 0x98, 0x79, 0xff, 0xff, 0x9c, 0x79, 0xff, 0xff, 0xa0, 0x79, 0xff, 0xff, 0xa4, 0x79, 0xff, 0xff, 0xa8, 0x79, 0xff, 0xff, 0xac, 0x79, 0xff, 0xff, 0xb0, 0x79, 0xff, 0xff, 0xb4, 0x79, 0xff, 0xff, 0xb8, 0x79, 0xff, 0xff, 0xbc, 0x79, 0xff, 0xff, 0xc0, 0x79, 0xff, 0xff, 0xc4, 0x79, 0xff, 0xff, 0xc8, 0x79, 0xff, 0xff, 0xcc, 0x79, 0xff, 0xff, 0xd0, 0x79, 0xff, 0xff, 0xd4, 0x79, 0xff, 0xff, 0xd8, 0x79, 0xff, 0xff, 0xdc, 0x79, 0xff, 0xff, 0xe0, 0x79, 0xff, 0xff, 0xe4, 0x79, 0xff, 0xff, 0xe8, 0x79, 0xff, 0xff, 0xec, 0x79, 0xff, 0xff, 0xf0, 0x79, 0xff, 0xff, 0xf4, 0x79, 0xff, 0xff, 0xf8, 0x79, 0xff, 0xff, 0xfc, 0x79, 0xff, 0xff, 0x00, 0x7a, 0xff, 0xff, 0x04, 0x7a, 0xff, 0xff, 0x08, 0x7a, 0xff, 0xff, 0x0c, 0x7a, 0xff, 0xff, 0x10, 0x7a, 0xff, 0xff, 0x14, 0x7a, 0xff, 0xff, 0x18, 0x7a, 0xff, 0xff, 0x1c, 0x7a, 0xff, 0xff, 0x20, 0x7a, 0xff, 0xff, 0x24, 0x7a, 0xff, 0xff, 0x28, 0x7a, 0xff, 0xff, 0x2c, 0x7a, 0xff, 0xff, 0x30, 0x7a, 0xff, 0xff, 0x34, 0x7a, 0xff, 0xff, 0x38, 0x7a, 0xff, 0xff, 0x3c, 0x7a, 0xff, 0xff, 0x40, 0x7a, 0xff, 0xff, 0x44, 0x7a, 0xff, 0xff, 0x48, 0x7a, 0xff, 0xff, 0x4c, 0x7a, 0xff, 0xff, 0x50, 0x7a, 0xff, 0xff, 0x54, 0x7a, 0xff, 0xff, 0x58, 0x7a, 0xff, 0xff, 0x5c, 0x7a, 0xff, 0xff, 0x60, 0x7a, 0xff, 0xff, 0x64, 0x7a, 0xff, 0xff, 0x68, 0x7a, 0xff, 0xff, 0x6c, 0x7a, 0xff, 0xff, 0x70, 0x7a, 0xff, 0xff, 0x74, 0x7a, 0xff, 0xff, 0x78, 0x7a, 0xff, 0xff, 0x7c, 0x7a, 0xff, 0xff, 0x80, 0x7a, 0xff, 0xff, 0x84, 0x7a, 0xff, 0xff, 0x88, 0x7a, 0xff, 0xff, 0x8c, 0x7a, 0xff, 0xff, 0x86, 0xa6, 0xff, 0xff, 0x04, 0x00, 0x00, 0x00, 0x40, 0x00, 0x00, 0x00, 0x4e, 0xa7, 0xaa, 0x94, 0x95, 0x1c, 0x29, 0xa1, 0xaa, 0x2a, 0x29, 0xa8, 0x02, 0x22, 0xae, 0xa1, 0x08, 0x24, 0x0b, 0xaa, 0x3e, 0xa0, 0xaf, 0xa5, 0x49, 0xa6, 0xa6, 0x29, 0xae, 0x22, 0x0d, 0xa5, 0x56, 0x28, 0xf5, 0xa3, 0xbf, 0x1d, 0x70, 0x96, 0x52, 0xa4, 0x2a, 0x22, 0x0c, 0xa9, 0x1f, 0xa4, 0x1d, 0xac, 0x54, 0x9b, 0xc5, 0x20, 0x95, 0xa1, 0x84, 0xa8, 0xd7, 0x20, 0xf1, 0x28, 0xf6, 0xa4, 0xd2, 0xa6, 0xff, 0xff, 0x04, 0x00, 0x00, 0x00, 0x40, 0x00, 0x00, 0x00, 0xc5, 0xa8, 0x94, 0x26, 0x33, 0x28, 0x39, 0xa8, 0x1f, 0x25, 0xd6, 0xa4, 0xbb, 0xa9, 0x9f, 0xa7, 0x74, 0x28, 0x91, 0x28, 0x57, 0xa8, 0xfc, 0x26, 0x2d, 0xa7, 0x1b, 0x25, 0x0d, 0x28, 0xc9, 0xa8, 0xa8, 0x1c, 0x20, 0x25, 0x06, 0x93, 0x8f, 0x9d, 0x88, 0xa6, 0x1b, 0x21, 0x25, 0xa4, 0xb2, 0x16, 0x32, 0xa0, 0x4a, 0x1a, 0xf0, 0x17, 0xad, 0x20, 0xf6, 0x12, 0x78, 0x20, 0xbe, 0x9e, 0x4b, 0x99, 0x1e, 0xa7, 0xff, 0xff, 0x04, 0x00, 0x00, 0x00, 0x00, 0x08, 0x00, 0x00, 0x46, 0x1d, 0x2c, 0x28, 0xa2, 0x29, 0x56, 0xa6, 0x87, 0x9e, 0x95, 0xa1, 0xe1, 0x25, 0x65, 0xa1, 0x9b, 0x1f, 0x3f, 0x20, 0x22, 0xa6, 0x3d, 0xa4, 0x91, 0xa1, 0x6d, 0xa7, 0x49, 0x21, 0x16, 0x98, 0xde, 0x1d, 0xfe, 0x9d, 0x40, 0x90, 0x45, 0x21, 0xfe, 0x24, 0xb9, 0xa8, 0xf4, 0x28, 0x93, 0xa5, 0xeb, 0x23, 0x30, 0x1f, 0x3e, 0xa4, 0x27, 0xa2, 0x8e, 0x1e, 0x4d, 0x24, 0xe8, 0x28, 0xab, 0x14, 0xd6, 0x28, 0x5b, 0xa0, 0xe1, 0xa9, 0x78, 0x29, 0xe1, 0xa3, 0x27, 0x2a, 0xe5, 0x9f, 0x65, 0x28, 0x3a, 0xa5, 0x94, 0x29, 0xf7, 0x21, 0x4b, 0x29, 0xc0, 0xa5, 0x64, 0x26, 0xf9, 0xa8, 0x1b, 0x24, 0xc0, 0x22, 0x9f, 0xa7, 0x50, 0x28, 0x76, 0xa0, 0x43, 0xaa, 0x8a, 0x1c, 0x06, 0xa9, 0xce, 0x2a, 0x4a, 0xa2, 0xab, 0xa5, 0xd0, 0x1f, 0xbc, 0xa1, 0xcb, 0xa7, 0x9b, 0xa7, 0xdb, 0xaa, 0x88, 0xa7, 0xae, 0xa7, 0xf5, 0xa4, 0x82, 0x1e, 0x1f, 0x23, 0x25, 0x9e, 0x73, 0xa5, 0x12, 0x98, 0x41, 0x19, 0xc9, 0x9c, 0xed, 0x1f, 0x32, 0xa2, 0xdb, 0x26, 0x64, 0xa1, 0xfd, 0x27, 0x76, 0xa7, 0xd6, 0x1c, 0x42, 0x1e, 0x92, 0x9c, 0xaf, 0x20, 0x08, 0xa4, 0x2b, 0xa9, 0x60, 0xa3, 0xe6, 0x95, 0xa4, 0xa5, 0x5a, 0x1d, 0x9f, 0x9d, 0x87, 0x25, 0xd6, 0x90, 0x03, 0xa7, 0x04, 0xa6, 0xc8, 0xa1, 0x64, 0xa7, 0xbe, 0x28, 0x3c, 0x25, 0x7b, 0x24, 0xd5, 0xa2, 0x72, 0x24, 0xcb, 0x98, 0x13, 0xa1, 0x93, 0xa5, 0x6d, 0x22, 0x36, 0x9f, 0x38, 0x19, 0xee, 0xa1, 0x08, 0x9a, 0x00, 0xa4, 0x5d, 0x28, 0x7d, 0x9c, 0xf2, 0x1e, 0x0b, 0xa9, 0x7c, 0xa5, 0x53, 0x18, 0x68, 0x27, 0xe4, 0x96, 0x4b, 0x18, 0xe2, 0x9f, 0x45, 0x28, 0xd8, 0xa0, 0x78, 0x9c, 0x02, 0xa7, 0xae, 0xa4, 0x29, 0x95, 0xc5, 0xa6, 0xab, 0xa1, 0x2c, 0x96, 0x4e, 0xa0, 0xd2, 0xa2, 0xc6, 0x21, 0x8f, 0x26, 0x64, 0x23, 0x60, 0x20, 0xd8, 0x28, 0xaa, 0xa3, 0xed, 0x23, 0xc4, 0x90, 0x76, 0x29, 0x18, 0x25, 0x17, 0xa5, 0x2a, 0xa4, 0x2a, 0x29, 0x32, 0x9e, 0x90, 0xa2, 0x76, 0x28, 0x9d, 0xa1, 0x4b, 0xa7, 0x98, 0xa3, 0x56, 0x9d, 0xc9, 0x26, 0xcd, 0x1f, 0x45, 0x27, 0x45, 0x1e, 0x43, 0x19, 0xa6, 0xa8, 0xf4, 0xa4, 0x0b, 0xa4, 0x18, 0xa3, 0x4d, 0x28, 0xdf, 0x25, 0x7c, 0x9f, 0x91, 0x25, 0x90, 0x24, 0x57, 0x27, 0x83, 0x26, 0x93, 0x22, 0x52, 0xa8, 0xfd, 0x27, 0x34, 0x23, 0x33, 0x26, 0x36, 0x99, 0x69, 0x17, 0x08, 0x24, 0x18, 0x28, 0x91, 0x29, 0x5e, 0xa6, 0x24, 0x25, 0x7f, 0x25, 0xab, 0xa5, 0xa3, 0xa5, 0x04, 0x10, 0x40, 0x28, 0xd3, 0x28, 0x42, 0x24, 0x7e, 0xa4, 0xfd, 0x9c, 0x84, 0xa4, 0x14, 0x24, 0xcb, 0x0e, 0x01, 0xa7, 0x0a, 0x22, 0x66, 0xa3, 0x45, 0x2b, 0x24, 0x9c, 0x8e, 0x29, 0xbd, 0xa6, 0x3d, 0x19, 0x5f, 0xa7, 0x15, 0x2a, 0x28, 0xa3, 0x58, 0x9f, 0x73, 0x9a, 0x7c, 0x25, 0x8b, 0xa2, 0xdf, 0x23, 0x02, 0xa8, 0xd6, 0x21, 0xa5, 0x22, 0xab, 0x1b, 0x49, 0xa4, 0x59, 0x26, 0x7a, 0xa5, 0x4b, 0x26, 0xd1, 0xa8, 0xf6, 0x1b, 0xf8, 0x26, 0x8d, 0xa7, 0x2c, 0x21, 0xae, 0x23, 0x4b, 0x24, 0x08, 0x29, 0xf3, 0x1e, 0xf0, 0x27, 0xab, 0x24, 0xec, 0xa3, 0x87, 0x20, 0x47, 0x98, 0x34, 0x24, 0x17, 0x9e, 0x9a, 0xa6, 0xeb, 0xa2, 0x28, 0x20, 0xfe, 0xa1, 0xd3, 0x1e, 0x40, 0x22, 0x3f, 0xa0, 0xc6, 0x28, 0x49, 0xa4, 0x2d, 0x21, 0x65, 0x25, 0x71, 0xa6, 0x98, 0x23, 0x37, 0x1b, 0x82, 0x21, 0x97, 0x9e, 0x3e, 0x26, 0x5a, 0xa5, 0xa0, 0x23, 0xac, 0xa2, 0x6e, 0xa2, 0x86, 0xa2, 0x0e, 0x24, 0xe2, 0x26, 0xf9, 0x25, 0xc7, 0x20, 0x26, 0xa8, 0x66, 0xa5, 0x21, 0x26, 0x4c, 0xa3, 0x92, 0xa5, 0xde, 0xa3, 0xab, 0x28, 0xca, 0x20, 0xf8, 0xa7, 0xea, 0x96, 0xe3, 0x17, 0x47, 0xa1, 0x2b, 0x22, 0x14, 0xa0, 0x17, 0x22, 0x45, 0x24, 0x12, 0x24, 0xbb, 0xa2, 0x55, 0xa6, 0x93, 0xa1, 0x87, 0x25, 0x6a, 0x99, 0xf5, 0xa2, 0x96, 0xa5, 0xdd, 0x9e, 0xd3, 0x28, 0x71, 0x1a, 0x5c, 0x27, 0x77, 0xa4, 0x94, 0xa6, 0x23, 0x9c, 0x5a, 0x9a, 0xc7, 0xa5, 0x92, 0xa8, 0x2d, 0x1e, 0x60, 0x9b, 0x78, 0xa1, 0xf1, 0x9e, 0x4b, 0x28, 0xe0, 0xa6, 0x92, 0x93, 0x8a, 0x27, 0xab, 0xa4, 0x90, 0xa7, 0xc2, 0x99, 0x2f, 0x1a, 0xf4, 0x8f, 0x87, 0xa2, 0x6a, 0x27, 0x83, 0xa0, 0xa0, 0xa6, 0x26, 0xa8, 0x69, 0x20, 0x50, 0xa4, 0x0c, 0xa4, 0x3d, 0xa3, 0x33, 0xa4, 0x87, 0x26, 0x2d, 0xa2, 0x6b, 0x24, 0x79, 0x26, 0x27, 0x22, 0x74, 0xa0, 0x87, 0x9f, 0x86, 0x23, 0x50, 0x26, 0x2b, 0xa8, 0x35, 0xa2, 0x95, 0x14, 0xe6, 0x23, 0xeb, 0xa4, 0x2a, 0x26, 0xc4, 0x25, 0xc0, 0x9e, 0x6f, 0x1d, 0xb9, 0x21, 0x7f, 0x90, 0x3d, 0x27, 0x0a, 0xa6, 0x40, 0x23, 0x03, 0x23, 0x77, 0x22, 0x6e, 0x28, 0x94, 0x21, 0x5e, 0x21, 0x89, 0x26, 0xaa, 0xa1, 0xd5, 0x26, 0x34, 0x9e, 0xf3, 0x20, 0xae, 0xa6, 0x39, 0x18, 0x4a, 0x26, 0x69, 0x10, 0xc6, 0xa3, 0x07, 0xaa, 0xc2, 0xa1, 0x90, 0x9e, 0xfd, 0xa4, 0x3a, 0x23, 0x7f, 0x9b, 0x65, 0x15, 0x51, 0x9f, 0x91, 0x25, 0xba, 0xa1, 0xba, 0x23, 0x68, 0xa8, 0x10, 0xa7, 0xc8, 0x97, 0xe9, 0x1c, 0x41, 0xa1, 0xd6, 0x9e, 0x64, 0x9a, 0xcc, 0x1d, 0x4a, 0x20, 0x8c, 0x22, 0xf3, 0x26, 0xa5, 0x9d, 0x06, 0xa3, 0xd9, 0x24, 0xf7, 0x20, 0x5e, 0x25, 0x9d, 0x27, 0x8a, 0x1f, 0x56, 0x18, 0x06, 0x99, 0x25, 0x24, 0xe7, 0x26, 0x49, 0x26, 0x20, 0x25, 0x93, 0xa5, 0x2e, 0x1f, 0x94, 0x28, 0xe0, 0x22, 0x1b, 0xa6, 0x6c, 0x1e, 0x21, 0x29, 0xfe, 0x13, 0xb6, 0x24, 0x74, 0x21, 0xe5, 0x17, 0x39, 0x21, 0xcb, 0x25, 0x67, 0x9f, 0xa5, 0xa5, 0x87, 0xa1, 0x4a, 0x29, 0x11, 0xa2, 0x07, 0xa4, 0x61, 0xa8, 0xc2, 0x1e, 0xdc, 0x92, 0xf9, 0x1c, 0x1e, 0xa5, 0x29, 0xa7, 0x09, 0x20, 0x4e, 0x9a, 0x30, 0xa4, 0x31, 0x22, 0x0a, 0xa5, 0xa0, 0x26, 0x14, 0xaa, 0x5c, 0x9e, 0xc4, 0xa5, 0x36, 0xa4, 0xfa, 0x9e, 0x62, 0xa4, 0x7f, 0x8f, 0xb8, 0x9e, 0xb0, 0x22, 0x2f, 0xa5, 0x46, 0xa9, 0x7a, 0x27, 0x97, 0xa3, 0xec, 0x1e, 0x22, 0x22, 0xe2, 0x27, 0x0e, 0xa0, 0x67, 0xa2, 0x42, 0x24, 0x56, 0x25, 0x46, 0x9c, 0x87, 0xa6, 0x4e, 0xa5, 0x69, 0x9f, 0x03, 0x29, 0x57, 0x25, 0xa1, 0x1b, 0xd4, 0x1f, 0x6e, 0x1e, 0xba, 0x9d, 0x6b, 0x20, 0x97, 0x9c, 0x0f, 0x1c, 0xef, 0x22, 0xa9, 0xa2, 0x75, 0x27, 0xbc, 0x22, 0x66, 0x29, 0x57, 0xa6, 0x36, 0x24, 0x56, 0x22, 0xaa, 0xa0, 0x46, 0xa0, 0x47, 0xa2, 0x6f, 0xa4, 0x40, 0x28, 0xe3, 0x27, 0xca, 0x1e, 0xf8, 0x27, 0xf9, 0xa3, 0x7c, 0xa8, 0x3d, 0x99, 0x9e, 0xa4, 0xaa, 0x21, 0x00, 0xa2, 0xcd, 0x25, 0x3e, 0x1d, 0x74, 0x26, 0x9b, 0xa8, 0x8e, 0xa7, 0xbe, 0x8c, 0xce, 0x9b, 0x06, 0x21, 0xd4, 0x25, 0x18, 0x1e, 0x94, 0xa1, 0x1b, 0x9d, 0x8f, 0xa8, 0x19, 0xa0, 0x5b, 0xa9, 0x3a, 0x29, 0xf3, 0xa4, 0x44, 0xa7, 0x12, 0x9a, 0xf3, 0x24, 0x5b, 0xa4, 0xe2, 0x25, 0x29, 0x20, 0xfe, 0xa0, 0x34, 0xa5, 0x15, 0xa1, 0x22, 0xa2, 0x73, 0x28, 0x27, 0xa8, 0xc7, 0x26, 0x68, 0xa8, 0x5b, 0x1f, 0x1a, 0x25, 0x83, 0xa1, 0x05, 0x20, 0x7f, 0x28, 0xc3, 0x98, 0x12, 0x25, 0x90, 0x27, 0x22, 0x9a, 0xa7, 0x25, 0xf3, 0xa1, 0x88, 0x25, 0x9d, 0xa5, 0x03, 0x24, 0xb7, 0x2a, 0x5f, 0x99, 0xd5, 0xa9, 0xaf, 0x28, 0x0f, 0x28, 0x11, 0x26, 0x1a, 0xa7, 0x86, 0x26, 0x60, 0x26, 0x1d, 0x9a, 0x47, 0x9a, 0x8b, 0x25, 0x02, 0x26, 0xa1, 0x28, 0x57, 0xa5, 0xbe, 0x25, 0x95, 0xa7, 0xc7, 0x27, 0x44, 0xa8, 0x3d, 0x16, 0x0c, 0x1a, 0x66, 0xa7, 0xaf, 0xa4, 0xbc, 0xa3, 0xab, 0xa1, 0x23, 0xa8, 0x73, 0x23, 0x2d, 0x94, 0x4f, 0xa4, 0x56, 0x28, 0x1d, 0x26, 0xec, 0x25, 0x5b, 0x21, 0xf4, 0x21, 0xaa, 0x1c, 0x57, 0x29, 0xe1, 0xa0, 0x7b, 0x29, 0x11, 0x27, 0xd8, 0x25, 0x0e, 0x25, 0xf1, 0x28, 0xe3, 0x26, 0xa1, 0x9b, 0x61, 0x22, 0x51, 0x24, 0xbf, 0x1d, 0x72, 0x24, 0xd5, 0x20, 0x15, 0x28, 0xe9, 0x21, 0xc8, 0xa3, 0x82, 0xa0, 0x62, 0xa5, 0x38, 0xaa, 0x50, 0x1f, 0x1d, 0xa9, 0x89, 0x96, 0x76, 0xa4, 0x4f, 0xa6, 0xa8, 0xa5, 0xc0, 0x26, 0x44, 0x22, 0x13, 0x1f, 0xa3, 0x21, 0x90, 0x9c, 0xb2, 0x1b, 0x71, 0x28, 0x9e, 0x25, 0x87, 0x9e, 0xd0, 0x21, 0x11, 0xa3, 0x55, 0x23, 0xc2, 0x18, 0x0a, 0x9e, 0x3e, 0xa4, 0xf1, 0x27, 0x0c, 0x1c, 0x14, 0xa7, 0x60, 0x95, 0xd9, 0xa7, 0x8d, 0x20, 0x6e, 0x05, 0xec, 0x9d, 0x60, 0xa3, 0x15, 0x22, 0x4d, 0xa9, 0xb7, 0x99, 0x85, 0xa0, 0x4c, 0x1e, 0xde, 0xa0, 0x46, 0x1f, 0x1c, 0x1d, 0xa7, 0xa4, 0xb4, 0x1d, 0x4d, 0x1a, 0xe0, 0x25, 0x8e, 0xa5, 0x19, 0x00, 0xcc, 0x15, 0xfe, 0x24, 0xef, 0x1c, 0x96, 0xa8, 0xc0, 0x24, 0xaf, 0x1c, 0x74, 0x25, 0x7b, 0x98, 0x30, 0x19, 0x91, 0x25, 0xc6, 0x28, 0xe4, 0xa6, 0x41, 0x24, 0x8d, 0xa7, 0xb9, 0x21, 0x72, 0xa2, 0x96, 0xa5, 0xcf, 0x27, 0x21, 0x25, 0x21, 0xa8, 0x43, 0xa6, 0x7f, 0x1b, 0x52, 0xa0, 0x80, 0xa7, 0x9b, 0xa4, 0xff, 0x9e, 0x73, 0xa7, 0x7e, 0x25, 0xb7, 0x23, 0xc1, 0xa9, 0xa2, 0xa8, 0xa5, 0x1c, 0xc4, 0xa2, 0xb6, 0xa5, 0x58, 0x25, 0x4f, 0x1a, 0xa8, 0x9e, 0xd8, 0x9e, 0x09, 0xa3, 0xf8, 0x23, 0xd7, 0x21, 0x05, 0x1e, 0xfd, 0x23, 0x45, 0x25, 0xe6, 0xa0, 0x08, 0x1e, 0x7f, 0x13, 0xb8, 0x28, 0x69, 0xa9, 0xcf, 0x21, 0xea, 0x25, 0xd3, 0xa4, 0xf4, 0xa8, 0xa9, 0xa9, 0x92, 0x01, 0x8f, 0x26, 0x8d, 0x27, 0xb2, 0x28, 0x12, 0xa9, 0x4a, 0x23, 0x52, 0xaa, 0x7f, 0xa8, 0x1d, 0x9c, 0xea, 0x27, 0x56, 0xa6, 0x3a, 0xa8, 0x5a, 0x20, 0x87, 0x9f, 0x90, 0xa7, 0x5e, 0x23, 0x0b, 0xa3, 0x23, 0x26, 0xcb, 0xa6, 0xa2, 0xa1, 0x7e, 0xa8, 0x4a, 0x27, 0x96, 0x9d, 0xa0, 0x2a, 0x2e, 0xa9, 0x30, 0x93, 0x65, 0xa5, 0x39, 0x10, 0x9a, 0x22, 0x4e, 0x27, 0x59, 0xa5, 0xb7, 0x29, 0x35, 0x26, 0xfc, 0x1c, 0xfb, 0xa1, 0x83, 0xaa, 0xcc, 0x14, 0xda, 0xa8, 0xb7, 0x28, 0x39, 0xa1, 0x57, 0xa9, 0xb9, 0xa4, 0xad, 0x27, 0x77, 0xa3, 0xb5, 0x25, 0x96, 0xa1, 0xf4, 0xa3, 0x39, 0x21, 0x6c, 0xa3, 0xf1, 0xa4, 0x37, 0x9b, 0x65, 0xa2, 0xda, 0x29, 0x65, 0xa3, 0xad, 0x24, 0xa5, 0xa5, 0x01, 0x29, 0x29, 0xa1, 0x09, 0xa5, 0x94, 0x26, 0x58, 0x24, 0x85, 0xa9, 0x68, 0x97, 0x39, 0xa8, 0x66, 0xa3, 0x54, 0x28, 0xcc, 0xa1, 0x4c, 0x21, 0x8c, 0x23, 0xf5, 0x1e, 0x18, 0x24, 0x45, 0x25, 0x5e, 0xa3, 0xf3, 0xa4, 0x07, 0x28, 0x32, 0x19, 0x0d, 0x26, 0xdf, 0x26, 0xeb, 0x1c, 0xfb, 0x20, 0x5f, 0x26, 0xc7, 0x20, 0xaa, 0x24, 0x3e, 0xa6, 0x70, 0x92, 0xfa, 0x25, 0x9c, 0x21, 0xb3, 0xa4, 0x76, 0xa4, 0xa4, 0x24, 0x10, 0x16, 0x81, 0xa4, 0x16, 0x23, 0x67, 0x1f, 0x40, 0xa0, 0xb5, 0x9c, 0x9a, 0xa0, 0x6e, 0xa6, 0xec, 0xa2, 0xb4, 0x9f, 0x30, 0xa5, 0xca, 0x25, 0xd2, 0x20, 0x4f, 0xa8, 0xa5, 0xa4, 0x47, 0x26, 0x4c, 0xa2, 0xcb, 0x1d, 0x95, 0x22, 0x00, 0xa6, 0x6e, 0x26, 0x2a, 0x26, 0xf8, 0xa4, 0xc7, 0xa6, 0xa1, 0x22, 0xa0, 0x21, 0x78, 0x9f, 0x01, 0x1c, 0x2a, 0xa2, 0xaa, 0x27, 0x5a, 0xa2, 0xfd, 0x99, 0xc7, 0x21, 0x45, 0xa0, 0xd4, 0x0c, 0xf9, 0x97, 0x9a, 0xa3, 0xdf, 0x23, 0xb3, 0x25, 0x8a, 0x1b, 0x30, 0x23, 0x59, 0xa8, 0x48, 0x1e, 0x6d, 0xa7, 0x66, 0x29, 0xb4, 0x0e, 0x56, 0x27, 0xc1, 0xa5, 0xd2, 0x24, 0xa5, 0x20, 0xca, 0x28, 0x54, 0x25, 0x6f, 0x1e, 0x79, 0xa9, 0xef, 0x21, 0x6c, 0x25, 0xb4, 0xa2, 0xc6, 0x28, 0x21, 0x21, 0x1a, 0xa2, 0xdc, 0x28, 0xb1, 0xa9, 0xfa, 0x25, 0xb9, 0xa7, 0xd6, 0x1f, 0xbc, 0xa0, 0xfa, 0x18, 0x97, 0xa9, 0xae, 0x23, 0xc4, 0xa8, 0xf4, 0xa9, 0x14, 0x20, 0xc6, 0xa4, 0x02, 0x97, 0x8e, 0x24, 0x41, 0xa9, 0xea, 0x28, 0x1b, 0x2b, 0x8e, 0x28, 0x62, 0x9e, 0x25, 0x2a, 0xc2, 0x24, 0xdf, 0x23, 0x2a, 0x1b, 0xf7, 0x26, 0x57, 0x9e, 0xfc, 0x23, 0x58, 0xa4, 0xf0, 0x19, 0x4e, 0x29, 0x2b, 0x29, 0xfa, 0xa8, 0xce, 0x25, 0xdf, 0xab, 0x9e, 0x23, 0xb2, 0x9a, 0x55, 0x26, 0x2b, 0x26, 0xca, 0xa4, 0xe4, 0xa9, 0x78, 0xa2, 0x96, 0x9e, 0xb8, 0xa8, 0xa2, 0x18, 0x7a, 0x22, 0xf0, 0x21, 0xc8, 0x9e, 0x90, 0x26, 0x97, 0x27, 0x0d, 0x9d, 0xc8, 0x19, 0xc3, 0xa5, 0xe7, 0x16, 0xc3, 0xa1, 0x50, 0x25, 0xf3, 0x1a, 0x8a, 0xa2, 0x87, 0x9f, 0xf6, 0x98, 0x2a, 0xa0, 0xb4, 0xa5, 0x2e, 0x9b, 0x3d, 0xa2, 0xdc, 0x11, 0x36, 0x25, 0x11, 0xa8, 0xe7, 0x9d, 0x30, 0x0f, 0x43, 0x25, 0xc6, 0x1d, 0xf8, 0xa6, 0xfb, 0xa0, 0x97, 0xa2, 0x4e, 0xa5, 0xc1, 0x9f, 0x75, 0x24, 0x10, 0x25, 0xee, 0x22, 0xcd, 0xa4, 0x4e, 0x26, 0x2b, 0xaa, 0x51, 0x23, 0x01, 0x12, 0xc9, 0x28, 0x51, 0xa2, 0xee, 0xa0, 0x94, 0xa2, 0x27, 0x26, 0xe7, 0xa6, 0x05, 0x21, 0x1d, 0x94, 0x8f, 0xa3, 0x57, 0x24, 0x32, 0x9e, 0xc7, 0xa3, 0x81, 0x20, 0x07, 0xa8, 0xd5, 0x25, 0x98, 0xa7, 0xc7, 0xa5, 0x9a, 0x24, 0xa5, 0x22, 0xee, 0x1e, 0xdf, 0x29, 0x73, 0xa2, 0xda, 0x25, 0x87, 0x27, 0x40, 0x26, 0xaa, 0x15, 0x69, 0x29, 0x61, 0x15, 0x87, 0xa6, 0x02, 0x9c, 0x03, 0x28, 0xf5, 0x23, 0x45, 0x21, 0x0f, 0xa6, 0x19, 0x20, 0xe1, 0x22, 0xbe, 0x0d, 0xfd, 0x20, 0x5f, 0x20, 0xf0, 0xa5, 0xd4, 0x96, 0x80, 0xa6, 0x0c, 0x21, 0x79, 0x9f, 0x0c, 0x25, 0xf1, 0xa1, 0x23, 0x9e, 0x3e, 0xa6, 0xf0, 0xa1, 0xc1, 0x1b, 0x08, 0xa4, 0x25, 0x14, 0x4b, 0x17, 0x8c, 0x9f, 0x72, 0x29, 0xa3, 0x24, 0xf5, 0x9e, 0x9f, 0x9e, 0x13, 0x23, 0xd7, 0x18, 0x6e, 0x21, 0xb5, 0xa6, 0x0d, 0xa8, 0x30, 0x21, 0x29, 0x24, 0x63, 0xa1, 0x94, 0xa1, 0x3c, 0x25, 0x97, 0x1f, 0x1e, 0x1a, 0xeb, 0xa6, 0x4e, 0x15, 0x93, 0x18, 0x89, 0x24, 0xd4, 0x9f, 0x7d, 0x1b, 0xa5, 0xa3, 0x2e, 0x22, 0x67, 0x24, 0x50, 0x20, 0xb8, 0x24, 0x34, 0xa4, 0xde, 0x1d, 0x5c, 0x27, 0x1e, 0xa4, 0x90, 0xa7, 0x44, 0xa0, 0xe3, 0xa5, 0x7e, 0x24, 0x91, 0x20, 0xf7, 0x24, 0x42, 0x10, 0x6f, 0xa3, 0x9a, 0x20, 0xfe, 0x1c, 0xc9, 0xa8, 0xe4, 0x94, 0x3e, 0x98, 0x0d, 0xa3, 0xd1, 0x23, 0x1a, 0x9f, 0x4d, 0x9e, 0xc2, 0x2a, 0x4f, 0xa1, 0x99, 0xa4, 0x4f, 0x26, 0xa4, 0xa9, 0x1f, 0x9d, 0xc3, 0x28, 0x5e, 0xa8, 0x56, 0xa0, 0x20, 0x1c, 0xae, 0x27, 0x37, 0xa8, 0x43, 0x0c, 0x71, 0xa0, 0x1f, 0xa5, 0xfe, 0x25, 0x5e, 0xa4, 0xc3, 0x22, 0x2a, 0xaf, 0xff, 0xff, 0x04, 0x00, 0x00, 0x00, 0x40, 0x00, 0x00, 0x00, 0xe9, 0x1a, 0x23, 0x23, 0x2d, 0xa6, 0x1b, 0x21, 0x67, 0x9c, 0x15, 0x27, 0xdd, 0xa3, 0x68, 0x21, 0x1d, 0xa9, 0x5e, 0xa0, 0x54, 0x1c, 0x1b, 0xa1, 0x85, 0x24, 0x93, 0x07, 0x1d, 0xa0, 0x41, 0x9b, 0xf3, 0x23, 0x06, 0xa6, 0x06, 0x23, 0x55, 0x23, 0x96, 0xa5, 0x49, 0xa5, 0x37, 0x24, 0xdb, 0x20, 0xcd, 0x1a, 0x96, 0x1b, 0x87, 0x1a, 0xbd, 0xa0, 0xe4, 0xa4, 0x1c, 0x9c, 0xc2, 0xa5, 0x79, 0x20, 0x76, 0xaf, 0xff, 0xff, 0x04, 0x00, 0x00, 0x00, 0x00, 0x10, 0x00, 0x00, 0x6e, 0x33, 0xf8, 0xb0, 0x02, 0x2d, 0xc2, 0xad, 0x48, 0xaa, 0x80, 0x1a, 0xeb, 0xa2, 0x63, 0x19, 0xac, 0xaf, 0xa8, 0xa6, 0xff, 0x31, 0x77, 0xad, 0xc1, 0x2f, 0x1a, 0x31, 0x29, 0x32, 0x33, 0x9f, 0x90, 0x2f, 0x51, 0x34, 0xaf, 0xaa, 0x03, 0x31, 0x8b, 0x17, 0xc5, 0x30, 0xac, 0xb0, 0x36, 0xb2, 0x19, 0xb2, 0xb6, 0xa9, 0x0d, 0xa8, 0x06, 0x28, 0xab, 0x2b, 0x6d, 0x2f, 0x90, 0x34, 0x89, 0x2e, 0x84, 0xb0, 0xaa, 0x2d, 0x3a, 0xb1, 0x48, 0x34, 0xe8, 0x33, 0xc9, 0xb0, 0xf7, 0xb4, 0x9f, 0xb3, 0x77, 0x34, 0x06, 0xb2, 0x67, 0x2e, 0x71, 0x33, 0x60, 0xaf, 0xf0, 0xb1, 0xf3, 0xad, 0x99, 0xb0, 0x13, 0xb1, 0x59, 0xad, 0xa4, 0xa4, 0x1e, 0xb0, 0x03, 0xb0, 0x43, 0x34, 0x41, 0x21, 0xfe, 0x33, 0x24, 0x30, 0x58, 0x31, 0xf8, 0x2b, 0x15, 0xad, 0x04, 0xb2, 0xa8, 0x30, 0x32, 0x2f, 0x69, 0xb1, 0xf2, 0x31, 0xe6, 0xb1, 0x01, 0x22, 0x4b, 0x2e, 0x7e, 0x29, 0x8a, 0x1f, 0xff, 0xb2, 0xbe, 0x31, 0xb3, 0xb0, 0xbb, 0xa8, 0x44, 0x28, 0x47, 0x28, 0xaf, 0xb1, 0xcc, 0xaf, 0x83, 0x2c, 0x5d, 0x31, 0xe1, 0x21, 0x1e, 0xae, 0xb8, 0x17, 0x43, 0xa8, 0xdf, 0xae, 0x67, 0x33, 0xdb, 0x31, 0x37, 0xa4, 0x5e, 0x33, 0x77, 0xb4, 0xed, 0x30, 0xd7, 0xb4, 0x91, 0xb1, 0x6e, 0xb2, 0x25, 0xb0, 0x5e, 0x2d, 0x3e, 0x24, 0x0c, 0x34, 0xc9, 0x22, 0x24, 0xb4, 0x1a, 0x34, 0xa6, 0xb0, 0x91, 0xaa, 0xa3, 0xb0, 0x84, 0xac, 0x68, 0x2c, 0x63, 0x31, 0xb5, 0xb3, 0x3e, 0xac, 0x14, 0xaa, 0x1f, 0x30, 0x48, 0xaf, 0xd1, 0x30, 0xfa, 0x30, 0xd3, 0xae, 0x81, 0x33, 0x78, 0x34, 0x54, 0x30, 0x04, 0xb1, 0xbd, 0xa8, 0x60, 0xb3, 0xb5, 0xaf, 0x60, 0xb1, 0x16, 0x2e, 0x46, 0x2f, 0xbd, 0xad, 0x93, 0xa6, 0x61, 0xb1, 0x72, 0x2d, 0x2f, 0x1e, 0xce, 0xb1, 0xb5, 0xae, 0x2c, 0xb3, 0x04, 0x2f, 0xb2, 0xae, 0xe7, 0x32, 0x45, 0xb0, 0x21, 0xaf, 0x86, 0x2d, 0xe5, 0x29, 0xa8, 0x25, 0x5c, 0x34, 0xf3, 0x31, 0x7a, 0xb0, 0x25, 0x30, 0xbc, 0xaf, 0xea, 0xa9, 0xc3, 0xac, 0x4d, 0x2a, 0x5c, 0x2c, 0x4e, 0x2d, 0xa7, 0x26, 0xcb, 0x25, 0x38, 0xa8, 0x96, 0xa9, 0x6e, 0x30, 0x7b, 0x31, 0xb5, 0x30, 0x95, 0x34, 0x29, 0x2c, 0x08, 0x30, 0x99, 0xa9, 0x5d, 0xb4, 0xdd, 0xb1, 0xf7, 0x2e, 0xf7, 0xb1, 0x34, 0x2f, 0xb2, 0x30, 0x2e, 0xa0, 0x94, 0x25, 0x48, 0x30, 0xe1, 0x31, 0xc4, 0xb0, 0x19, 0xaf, 0x96, 0x30, 0x9a, 0x9e, 0x7c, 0xb1, 0xb3, 0xb0, 0x91, 0xb1, 0xfb, 0x2d, 0x66, 0xaf, 0xc7, 0xb0, 0x0c, 0x2c, 0x33, 0x1f, 0x9e, 0xb4, 0xdd, 0xae, 0x9e, 0x28, 0x33, 0x2f, 0xbb, 0xb2, 0x50, 0x1e, 0xc9, 0x2f, 0xce, 0x20, 0x50, 0x2d, 0x93, 0x31, 0xa5, 0xa9, 0x70, 0xaf, 0x5d, 0x2f, 0xdb, 0xab, 0x1a, 0xa3, 0xbd, 0x2b, 0x39, 0xaf, 0xd8, 0x2e, 0x23, 0xad, 0x05, 0x30, 0x96, 0x30, 0x68, 0x2c, 0x48, 0xa8, 0xab, 0x2b, 0xa9, 0xab, 0xbb, 0xb2, 0xf3, 0xa7, 0x81, 0xb4, 0x3c, 0xa5, 0xf4, 0x95, 0xab, 0xb0, 0x4d, 0xac, 0xf9, 0x32, 0xd5, 0xb0, 0xfb, 0x24, 0xfe, 0xaf, 0xbd, 0x2e, 0x94, 0xa5, 0x7c, 0xb3, 0x92, 0x26, 0x82, 0x32, 0xbd, 0xb1, 0x77, 0xb1, 0x27, 0x2c, 0x0a, 0xb3, 0xd8, 0x33, 0x88, 0xb2, 0x4b, 0x22, 0x01, 0xb4, 0xa5, 0xab, 0xe5, 0xb0, 0x41, 0xa8, 0xaf, 0x33, 0xfa, 0xb3, 0x71, 0x2d, 0x1e, 0xae, 0x43, 0x2e, 0x8e, 0xb2, 0x23, 0xae, 0x60, 0x2e, 0x8e, 0xa5, 0xdc, 0xa8, 0xd4, 0x28, 0xc6, 0x2b, 0x98, 0xa3, 0x70, 0x2f, 0xf8, 0xae, 0x69, 0x33, 0x69, 0x31, 0x5c, 0xb1, 0x42, 0x2d, 0xf4, 0xa6, 0xa8, 0xad, 0x7f, 0x32, 0x87, 0x30, 0x9d, 0xb2, 0x5a, 0xae, 0xb8, 0x31, 0x19, 0x26, 0xe7, 0x2c, 0x37, 0x33, 0x70, 0x34, 0x81, 0xb1, 0x57, 0x2c, 0x15, 0x31, 0x92, 0x31, 0x29, 0x32, 0x66, 0xb2, 0x1f, 0x32, 0x0e, 0x2d, 0x39, 0x34, 0xed, 0x30, 0xb5, 0xa7, 0xd8, 0xb2, 0xd9, 0x32, 0xbe, 0xa6, 0x74, 0xb3, 0x92, 0xad, 0x43, 0x2a, 0x2b, 0xb2, 0xcf, 0xaa, 0x4f, 0xb4, 0x9b, 0x9f, 0x9c, 0x31, 0x0c, 0xab, 0xa9, 0xa0, 0x24, 0xae, 0x76, 0x27, 0xea, 0xb3, 0x40, 0xb1, 0x05, 0x30, 0x6d, 0xa7, 0xd0, 0xb2, 0x5e, 0x1b, 0xc7, 0x32, 0xc1, 0xaf, 0x75, 0x21, 0x52, 0xb2, 0x22, 0xb2, 0x6e, 0x32, 0xb9, 0xb2, 0xc6, 0xa9, 0x63, 0x26, 0x54, 0xa4, 0x92, 0xaa, 0x1a, 0x34, 0x65, 0x33, 0x4e, 0x34, 0xca, 0x30, 0x40, 0xb0, 0x1d, 0xaa, 0x02, 0x2e, 0xb1, 0xa9, 0x3a, 0xab, 0xf1, 0x31, 0x45, 0xae, 0xcc, 0xb4, 0x63, 0x31, 0x80, 0xad, 0x9e, 0x30, 0x2d, 0x2c, 0x81, 0x21, 0xf4, 0xb2, 0x09, 0xb2, 0x38, 0xb1, 0x1d, 0xb2, 0xe2, 0x30, 0x92, 0x30, 0x0d, 0xad, 0x0f, 0x2f, 0x77, 0xb0, 0x0f, 0x30, 0x5c, 0x2e, 0x2e, 0xb2, 0x8c, 0x33, 0xce, 0xae, 0x9c, 0x32, 0x91, 0x9f, 0x4a, 0x2d, 0x96, 0xaf, 0xe2, 0xb0, 0xaf, 0xab, 0x52, 0x26, 0x87, 0xb2, 0x31, 0xb0, 0x34, 0x2f, 0x4f, 0x30, 0x0b, 0x2f, 0x9a, 0x2c, 0xab, 0x2b, 0x4c, 0x2f, 0x8f, 0xac, 0x45, 0xa9, 0x68, 0x31, 0x6b, 0x28, 0xd0, 0xb0, 0x55, 0xb4, 0x3c, 0x2e, 0x10, 0x29, 0x20, 0xb4, 0x52, 0x2c, 0x0b, 0xb3, 0xfd, 0x31, 0x17, 0x25, 0xbb, 0xa8, 0x5a, 0x2c, 0xc1, 0xb2, 0x6a, 0x1b, 0x16, 0xb1, 0x75, 0x2e, 0xb2, 0xb4, 0x72, 0x30, 0xe9, 0x30, 0x66, 0xb2, 0xb0, 0x33, 0xd4, 0x31, 0x3d, 0xad, 0x4a, 0xaa, 0xe1, 0xac, 0x06, 0x27, 0x3c, 0x33, 0x9e, 0xb1, 0xd6, 0x33, 0x41, 0xb3, 0x7e, 0x23, 0x2e, 0x9e, 0x9e, 0xad, 0xeb, 0x2c, 0xd2, 0xaf, 0x7a, 0x2a, 0xce, 0x33, 0x29, 0x2a, 0xa6, 0xb0, 0xb6, 0x2c, 0x6a, 0xad, 0xa4, 0xac, 0xc0, 0x33, 0x32, 0x33, 0x01, 0x31, 0x5e, 0x2e, 0x9c, 0xb3, 0x7b, 0xab, 0xe3, 0xb1, 0x8c, 0xb0, 0x88, 0x2a, 0x1b, 0xb1, 0x41, 0xb0, 0x8a, 0x30, 0xda, 0x32, 0xc4, 0x31, 0x1a, 0xa9, 0x57, 0x8e, 0x27, 0x31, 0x26, 0x33, 0x17, 0x34, 0x40, 0x30, 0x4b, 0xb2, 0xa7, 0x2f, 0xa9, 0xb2, 0x39, 0x12, 0xd1, 0x2b, 0x5d, 0x29, 0xd1, 0x2b, 0xf3, 0xb0, 0x25, 0x34, 0xcf, 0xaf, 0xb3, 0xb1, 0x49, 0x34, 0x66, 0xb2, 0xd9, 0xae, 0x81, 0xaf, 0x5e, 0xb0, 0x68, 0xab, 0x0d, 0x2c, 0xa4, 0xae, 0x9c, 0xb2, 0xa0, 0x30, 0x40, 0xb0, 0x08, 0xa9, 0x39, 0x2e, 0xff, 0x2d, 0xb2, 0x2d, 0x1d, 0xb1, 0x7c, 0x2b, 0xc6, 0x31, 0xd4, 0x29, 0xbd, 0xb3, 0x72, 0x32, 0xf7, 0xb0, 0x79, 0xac, 0xa4, 0xb1, 0xb3, 0xaf, 0x20, 0xad, 0xf3, 0xb1, 0x75, 0x30, 0x42, 0xb4, 0xc5, 0x2d, 0x65, 0x34, 0x49, 0xb1, 0xfb, 0x28, 0xc5, 0xaa, 0xa9, 0xb0, 0xfb, 0x25, 0x75, 0x2f, 0xa8, 0xa9, 0xd0, 0x2e, 0xf9, 0xb0, 0x34, 0xb2, 0x29, 0x2c, 0x4c, 0x29, 0x4b, 0xae, 0x81, 0x30, 0x72, 0x31, 0xba, 0x32, 0xff, 0xb0, 0xf8, 0x2f, 0xb1, 0x2f, 0x72, 0xb1, 0x60, 0xb2, 0x43, 0x31, 0x13, 0x1c, 0xb0, 0x32, 0xeb, 0xa8, 0xe4, 0x33, 0x48, 0x31, 0xdb, 0xab, 0x03, 0x2f, 0x6e, 0x32, 0xda, 0xa7, 0x6a, 0xb0, 0x9e, 0xb3, 0x4d, 0xae, 0xc6, 0x31, 0xd3, 0xaf, 0xca, 0x34, 0xe9, 0x30, 0x49, 0x2e, 0xce, 0x2a, 0x28, 0xb0, 0xde, 0x1d, 0x97, 0xaf, 0xb2, 0x2c, 0x52, 0xb1, 0x49, 0x34, 0x57, 0xaf, 0x23, 0xb1, 0x49, 0xab, 0x7c, 0xb3, 0x61, 0xa9, 0xa3, 0x33, 0x63, 0xb2, 0x26, 0xae, 0xc0, 0x2c, 0xd9, 0x30, 0x26, 0x2f, 0x6b, 0x30, 0x36, 0xb0, 0x4c, 0xb1, 0x90, 0x32, 0x34, 0xab, 0x70, 0xb1, 0xb4, 0x2e, 0x54, 0x97, 0xdd, 0x34, 0x7a, 0xb2, 0xc7, 0xb2, 0xba, 0x32, 0x57, 0xb3, 0x01, 0xae, 0x1d, 0xb0, 0x30, 0x1d, 0x50, 0x32, 0x2d, 0x2f, 0x34, 0xb0, 0xdb, 0x32, 0x97, 0x1d, 0xc0, 0x33, 0xfc, 0xa9, 0x64, 0xb2, 0x59, 0x2f, 0xb7, 0x2f, 0x05, 0xa6, 0x7e, 0x9b, 0x51, 0xa4, 0x89, 0x31, 0xbd, 0xad, 0x1d, 0x2a, 0x27, 0xb4, 0x39, 0xaa, 0xd7, 0xb2, 0x51, 0x33, 0x33, 0xb4, 0x62, 0x31, 0x6a, 0xad, 0x83, 0x2e, 0xb9, 0x2d, 0x21, 0x32, 0xbc, 0x2e, 0x27, 0x33, 0x2a, 0xa9, 0x6f, 0xac, 0xdd, 0xb1, 0x2d, 0xa9, 0x24, 0x28, 0x0b, 0x2e, 0xb8, 0xb2, 0x0e, 0xb0, 0xb3, 0xac, 0xfa, 0xab, 0xcc, 0xb0, 0x15, 0x2e, 0x5f, 0xb2, 0x42, 0xb4, 0xe1, 0x30, 0x37, 0xb2, 0x6b, 0xa8, 0x9b, 0x2e, 0x5f, 0xad, 0xdf, 0xaf, 0x8f, 0xa6, 0x69, 0x25, 0x8e, 0x1e, 0x6d, 0x2f, 0xd6, 0x31, 0xec, 0x23, 0x8f, 0xb1, 0x35, 0x2c, 0x45, 0xaf, 0xcc, 0x9b, 0xa8, 0xa7, 0xb8, 0x2a, 0x8c, 0x33, 0xee, 0xac, 0x97, 0x32, 0xbc, 0x2f, 0x4e, 0x30, 0x31, 0xa3, 0x62, 0x33, 0xa7, 0xad, 0xdb, 0xb3, 0x6a, 0x32, 0x3e, 0x32, 0x0d, 0xb0, 0x1d, 0x33, 0xa7, 0x2e, 0x7a, 0x31, 0xd0, 0xad, 0x6e, 0xb4, 0x59, 0xae, 0xd1, 0x32, 0x21, 0x9c, 0x2e, 0x28, 0xe8, 0xa8, 0x55, 0xae, 0x3b, 0x32, 0x25, 0xa4, 0xcb, 0x33, 0xce, 0x32, 0xac, 0x20, 0xe7, 0x31, 0x10, 0x17, 0x1d, 0xa1, 0x7b, 0x2c, 0x69, 0xb2, 0x97, 0x34, 0x9c, 0x2c, 0x6c, 0xb4, 0x8b, 0xb0, 0xc2, 0xb2, 0x94, 0xb3, 0x88, 0xa1, 0xe1, 0xaf, 0xf1, 0xa7, 0xd0, 0x33, 0x65, 0xae, 0xd3, 0x29, 0x1d, 0xaf, 0x56, 0xac, 0x36, 0xb4, 0xe0, 0x30, 0x62, 0xb3, 0x91, 0x33, 0x06, 0xaf, 0x2a, 0x34, 0xad, 0x32, 0xba, 0x33, 0xca, 0xb3, 0xb3, 0xb2, 0x35, 0x2e, 0xf8, 0xb2, 0x23, 0x33, 0x15, 0x34, 0xc1, 0x33, 0x99, 0xb1, 0x9d, 0x2e, 0x35, 0x9b, 0xce, 0xae, 0x13, 0xae, 0x07, 0x25, 0x94, 0x2f, 0x7f, 0xa5, 0x85, 0x29, 0x28, 0xb4, 0xce, 0xb0, 0x30, 0xb3, 0xe4, 0x0e, 0xc4, 0x30, 0xc2, 0x32, 0x7f, 0xb2, 0x9f, 0x2a, 0xde, 0x30, 0x0f, 0x28, 0x40, 0xb0, 0x4e, 0x2d, 0xc1, 0x32, 0xc8, 0xb2, 0x8c, 0x19, 0xef, 0xb1, 0xd3, 0x2c, 0xe8, 0x24, 0x6a, 0xb1, 0xef, 0x31, 0x5d, 0x30, 0xd4, 0x32, 0xae, 0xa2, 0x47, 0xae, 0x72, 0xb0, 0xc0, 0xae, 0x25, 0xac, 0xbe, 0xa3, 0x36, 0x31, 0x8e, 0x30, 0x25, 0xb0, 0x2d, 0xaf, 0xbe, 0x33, 0xb6, 0xac, 0xd0, 0x2f, 0x04, 0xb3, 0xb3, 0x2d, 0x90, 0x26, 0xe9, 0xb4, 0x7e, 0xb3, 0x57, 0x30, 0x1d, 0xb4, 0x40, 0xae, 0xf3, 0x1d, 0xa2, 0xb3, 0x2b, 0x31, 0x2b, 0xa3, 0xc9, 0xa1, 0xa4, 0x28, 0xc9, 0xb0, 0xb0, 0x32, 0x57, 0x9a, 0xf1, 0xb0, 0xc8, 0xac, 0x2d, 0xb2, 0x92, 0x30, 0x03, 0x21, 0x72, 0x32, 0xcf, 0x2e, 0x6a, 0xb0, 0xe9, 0x2e, 0x19, 0x12, 0x86, 0x2b, 0x63, 0xb2, 0x1a, 0xad, 0xef, 0x2e, 0x08, 0x30, 0x23, 0x30, 0x9a, 0xac, 0x54, 0x1e, 0xb8, 0xae, 0xb2, 0x30, 0xa5, 0x32, 0xc2, 0x26, 0xe5, 0x2f, 0x76, 0x33, 0x10, 0x2a, 0x2a, 0xb0, 0xa3, 0xad, 0xe4, 0xac, 0x57, 0x2f, 0x7e, 0x29, 0x1f, 0xb3, 0x4e, 0xac, 0xd4, 0xb2, 0xb6, 0x2c, 0xed, 0x30, 0xe5, 0x9e, 0xd9, 0x1f, 0x5c, 0xb3, 0x11, 0x32, 0x71, 0xae, 0x92, 0xb2, 0xd7, 0x2c, 0x86, 0x29, 0xf8, 0xb3, 0x5d, 0xad, 0xd2, 0x29, 0x4e, 0xaf, 0x0c, 0x33, 0x88, 0xac, 0xe2, 0x2b, 0x4a, 0x9c, 0x10, 0xb0, 0x9f, 0x2f, 0xce, 0x31, 0x92, 0x2d, 0xb1, 0x32, 0xf0, 0x26, 0x09, 0x2c, 0xf5, 0xaf, 0x7b, 0x33, 0xe0, 0x30, 0x66, 0xb0, 0x1c, 0x1c, 0x14, 0xac, 0x4f, 0xb2, 0x42, 0x28, 0xe5, 0x30, 0x73, 0x2a, 0x1e, 0x1e, 0x72, 0xb1, 0xaa, 0xac, 0xe0, 0xb3, 0xaa, 0x31, 0xea, 0xb0, 0xd6, 0xb1, 0xc6, 0xb3, 0x00, 0x31, 0xcb, 0x28, 0x36, 0x31, 0x51, 0xaf, 0x24, 0x2c, 0x33, 0x33, 0x94, 0x2a, 0x42, 0x29, 0xf4, 0x32, 0x25, 0xb2, 0x2e, 0x31, 0x1f, 0xb2, 0x28, 0x25, 0xde, 0xac, 0x76, 0xab, 0xf7, 0x2c, 0xde, 0x30, 0x7c, 0xb1, 0x37, 0x33, 0x69, 0x29, 0xff, 0xb1, 0x03, 0x2f, 0x73, 0xa6, 0x58, 0x26, 0x11, 0x30, 0xe6, 0xaf, 0x80, 0xae, 0x96, 0x32, 0x48, 0xb0, 0xdb, 0xaf, 0x69, 0x2d, 0x75, 0x29, 0xc4, 0x31, 0xb9, 0x2f, 0xbf, 0x2f, 0xf4, 0xb3, 0xc5, 0x32, 0xeb, 0xb3, 0x5d, 0x31, 0x1b, 0xad, 0xb5, 0xb2, 0x77, 0x35, 0x32, 0xad, 0xeb, 0x29, 0xae, 0x9d, 0x39, 0xb2, 0x26, 0x32, 0xb9, 0xb0, 0x35, 0x31, 0x94, 0x32, 0xb7, 0x34, 0x2d, 0xa6, 0xfe, 0xad, 0x56, 0x2e, 0x29, 0xb1, 0x7c, 0xb4, 0xde, 0x32, 0x77, 0xb2, 0xc2, 0xa9, 0x2a, 0x32, 0xaf, 0xb3, 0x28, 0xb1, 0x4e, 0xb2, 0x13, 0xb2, 0x02, 0x29, 0x89, 0x31, 0x5e, 0xb1, 0x5d, 0xb2, 0x89, 0xb0, 0xf1, 0x34, 0xcf, 0xb2, 0x66, 0xa1, 0x15, 0x32, 0xc0, 0x19, 0x8c, 0xa2, 0x9c, 0x34, 0x27, 0x32, 0xfe, 0x33, 0x7a, 0x32, 0x70, 0x30, 0x03, 0xb2, 0xe0, 0x32, 0x02, 0xb2, 0x16, 0xb4, 0x90, 0x23, 0xda, 0xb1, 0x88, 0xb0, 0x21, 0x2d, 0x68, 0xae, 0xf4, 0xa9, 0x2e, 0x2d, 0x4f, 0x9d, 0x42, 0xae, 0xc4, 0x32, 0x7d, 0x2e, 0x2d, 0xb1, 0xb4, 0x2b, 0x5c, 0xac, 0xe8, 0xaf, 0x66, 0x23, 0xe0, 0x2e, 0xf3, 0x31, 0xfa, 0x2d, 0x0f, 0xb4, 0x2e, 0x33, 0xbc, 0x2e, 0x7b, 0x25, 0x2a, 0x30, 0xf5, 0xa9, 0x35, 0x30, 0xcf, 0x29, 0x5c, 0x32, 0x89, 0x31, 0xbc, 0x9a, 0x18, 0x2f, 0x0c, 0x31, 0x78, 0x31, 0xfb, 0xb3, 0x68, 0x34, 0x1a, 0x28, 0xb0, 0x2e, 0x8e, 0xa1, 0x5c, 0x33, 0x70, 0xb0, 0x08, 0xb3, 0x3d, 0xb2, 0x39, 0x2b, 0xc8, 0x30, 0xa9, 0xae, 0x91, 0xb0, 0x7e, 0x32, 0x1e, 0x30, 0x55, 0x34, 0x09, 0x30, 0xd7, 0xa1, 0x7b, 0xad, 0x1d, 0x2e, 0x10, 0xa1, 0x0f, 0xad, 0x16, 0xb1, 0x22, 0xb1, 0x20, 0xa1, 0xae, 0xa7, 0xe4, 0x2a, 0x79, 0x31, 0x8d, 0x30, 0x3e, 0x29, 0xa6, 0xaf, 0x4b, 0xb1, 0x37, 0x30, 0xa9, 0xb1, 0x66, 0xb0, 0x45, 0x2c, 0x4d, 0x2e, 0x4d, 0x2e, 0xa9, 0xac, 0xcc, 0xaa, 0x0d, 0xb3, 0x55, 0xab, 0xb2, 0x2f, 0x16, 0xac, 0x1f, 0xa9, 0xfd, 0x25, 0xe4, 0xad, 0xd9, 0xac, 0xa4, 0xb0, 0x24, 0x33, 0x99, 0x2d, 0xbd, 0xaf, 0x48, 0x2f, 0x66, 0xb2, 0x59, 0x31, 0xce, 0x30, 0xd5, 0xb1, 0x0e, 0x34, 0x83, 0xae, 0xc3, 0x30, 0xea, 0xae, 0xfb, 0xaa, 0x0b, 0xac, 0xa8, 0xb3, 0x4c, 0xad, 0xec, 0x33, 0x77, 0x2e, 0x07, 0x31, 0x27, 0xb1, 0xc0, 0xb2, 0x1e, 0x33, 0x0a, 0xb0, 0x0d, 0xad, 0xe3, 0xa9, 0x05, 0xb1, 0x11, 0x25, 0xec, 0xaa, 0x84, 0xa7, 0xd2, 0xb4, 0x03, 0xac, 0xf9, 0xad, 0xc8, 0xae, 0x57, 0xb1, 0x05, 0x2d, 0x8c, 0xb1, 0x31, 0x2a, 0x1e, 0x2e, 0x2d, 0x21, 0xd8, 0xae, 0xfe, 0x2a, 0x83, 0xb3, 0xfc, 0x33, 0x40, 0x31, 0xf1, 0x30, 0x0f, 0x30, 0xb7, 0x32, 0xa4, 0x33, 0xd7, 0x28, 0xe5, 0x2d, 0xa9, 0xa7, 0x79, 0x28, 0xf8, 0xb2, 0x82, 0xb3, 0xa7, 0xa4, 0xfe, 0xad, 0x27, 0xb2, 0x70, 0x30, 0x34, 0x2f, 0xb7, 0xad, 0x48, 0x31, 0xb4, 0xaf, 0x4b, 0xb0, 0x48, 0xb3, 0xed, 0x30, 0xa6, 0x31, 0xd3, 0x12, 0x41, 0x29, 0x5f, 0x2d, 0xae, 0xb1, 0x63, 0x30, 0x34, 0x18, 0xa9, 0xb3, 0xe2, 0x2c, 0x41, 0xaf, 0x14, 0x9f, 0xb2, 0x33, 0x0b, 0xb2, 0x83, 0x2c, 0xa2, 0x32, 0xe9, 0xac, 0x0b, 0xb4, 0x60, 0x31, 0x9c, 0xb1, 0x41, 0xb2, 0x0e, 0xa9, 0x11, 0x33, 0x16, 0x1b, 0x02, 0x34, 0x46, 0xb3, 0xef, 0x2e, 0xe9, 0x30, 0x58, 0x2c, 0x50, 0xa8, 0x08, 0xac, 0x53, 0x2c, 0x15, 0xa4, 0xab, 0xb4, 0xed, 0x2c, 0x00, 0xae, 0x4c, 0x33, 0x35, 0xb1, 0xb3, 0x2b, 0x4c, 0x99, 0x15, 0xa6, 0xc3, 0xa8, 0x23, 0x34, 0x24, 0x31, 0xb5, 0x10, 0xae, 0x31, 0xc7, 0x31, 0xfd, 0xa6, 0xab, 0xb2, 0x5e, 0x32, 0xfa, 0xa9, 0x87, 0xb4, 0x29, 0x2f, 0xe8, 0x2e, 0xf0, 0xa8, 0x62, 0xad, 0x03, 0xad, 0x98, 0x2a, 0xc5, 0x33, 0x52, 0x28, 0x53, 0x31, 0x28, 0xaf, 0x05, 0x31, 0x38, 0x34, 0x39, 0x2a, 0xa0, 0x31, 0x7e, 0xac, 0x14, 0x2c, 0x0d, 0x33, 0xd6, 0x33, 0x7e, 0x30, 0xc4, 0x2c, 0x88, 0x32, 0x6c, 0xac, 0xdd, 0x2b, 0x12, 0xa5, 0x79, 0x2c, 0xb6, 0x31, 0x37, 0x29, 0x38, 0x28, 0x3a, 0xb3, 0xed, 0xb1, 0x4c, 0xa6, 0xf3, 0x2c, 0x21, 0xa5, 0x1b, 0x18, 0x85, 0xac, 0x08, 0x2b, 0x57, 0x30, 0x8d, 0xa0, 0x95, 0x32, 0xe8, 0x2f, 0x63, 0x2a, 0x48, 0xb1, 0x26, 0xae, 0x31, 0x33, 0x38, 0xb0, 0x2b, 0x33, 0x98, 0x32, 0xca, 0x2b, 0x3e, 0xac, 0xc2, 0xb2, 0x6c, 0x33, 0x8a, 0x9e, 0x22, 0x2c, 0x3b, 0x33, 0xa0, 0xaf, 0x92, 0x33, 0x2d, 0xa2, 0xdb, 0x2c, 0xde, 0xac, 0x50, 0xad, 0x4c, 0x32, 0x90, 0x2f, 0x7f, 0xaf, 0x80, 0x34, 0x43, 0x32, 0xe5, 0xad, 0x71, 0x32, 0x61, 0xb0, 0x7a, 0x34, 0x68, 0x33, 0x75, 0xa8, 0x2e, 0xab, 0x14, 0x28, 0x45, 0x34, 0xc5, 0x30, 0x24, 0xb3, 0xb4, 0xa8, 0x80, 0x2d, 0x16, 0x28, 0xe8, 0x9d, 0x3e, 0x2d, 0xfb, 0x2e, 0x42, 0x31, 0x9a, 0xb2, 0xe4, 0x21, 0x7c, 0xb0, 0xbb, 0xa3, 0x79, 0xb1, 0x55, 0xb2, 0x9d, 0xb1, 0x20, 0xb2, 0x11, 0x2e, 0x20, 0xb5, 0x44, 0xb3, 0xa7, 0x33, 0xc8, 0xa6, 0xbe, 0x2c, 0x11, 0x32, 0x56, 0x31, 0x1b, 0x30, 0x50, 0x2d, 0x94, 0x1d, 0x1e, 0x88, 0xb5, 0xa5, 0xdf, 0x29, 0x05, 0xb2, 0xfd, 0xb4, 0x19, 0x32, 0xed, 0x33, 0x4b, 0x28, 0xd9, 0x31, 0x5f, 0x32, 0xaf, 0xaf, 0xf3, 0xb1, 0x12, 0x35, 0x15, 0x30, 0x97, 0x2c, 0x65, 0x34, 0x3f, 0xb0, 0x5d, 0xb0, 0x6a, 0xb1, 0x4b, 0x28, 0x72, 0x2d, 0x67, 0xb4, 0x67, 0xb3, 0xda, 0xb0, 0x57, 0x2a, 0xa5, 0x32, 0xc5, 0x2a, 0xec, 0xb1, 0x4e, 0x30, 0x71, 0xab, 0x78, 0x2d, 0x00, 0xad, 0xd9, 0xb1, 0x61, 0x24, 0xb5, 0x2a, 0xf1, 0xb1, 0x43, 0x28, 0xe4, 0xae, 0x17, 0x2c, 0x73, 0x31, 0xf4, 0x33, 0xa0, 0xb0, 0x0e, 0xa9, 0xba, 0xad, 0xab, 0xb1, 0xea, 0x2b, 0x3e, 0x2b, 0x44, 0x33, 0x2e, 0xb4, 0xec, 0xaf, 0xc9, 0xad, 0xc8, 0xb3, 0xc1, 0x30, 0x3d, 0x31, 0x0d, 0x31, 0x21, 0x31, 0xcc, 0x32, 0x58, 0x22, 0x24, 0xab, 0xd9, 0xb0, 0x32, 0x2f, 0xb5, 0x31, 0xaa, 0x2d, 0x03, 0xb2, 0xd3, 0xb0, 0xf8, 0x1b, 0x0b, 0x31, 0xd8, 0xb3, 0xcc, 0xb1, 0x8c, 0xb4, 0xb8, 0x30, 0x8a, 0x33, 0x57, 0xab, 0x26, 0xa5, 0xc5, 0x30, 0x13, 0xb4, 0xbb, 0xad, 0xc9, 0xa3, 0xdd, 0x33, 0xec, 0xa9, 0xfc, 0xab, 0xda, 0x2e, 0xb3, 0xb2, 0x18, 0x2e, 0x32, 0xaa, 0xf6, 0xa4, 0xee, 0xa7, 0x08, 0x30, 0xd0, 0xb2, 0x73, 0x31, 0x2b, 0xb2, 0x14, 0x30, 0xeb, 0x2c, 0x25, 0xb0, 0xb1, 0x31, 0x3b, 0xb4, 0x67, 0xa9, 0x0e, 0xaf, 0x00, 0xb3, 0x14, 0x32, 0xcb, 0x28, 0x14, 0xb0, 0x05, 0x2e, 0x83, 0xb1, 0x74, 0x28, 0xd1, 0xb1, 0x37, 0x29, 0x76, 0xaf, 0x55, 0xae, 0xde, 0x29, 0xa4, 0xa8, 0xa7, 0xa7, 0xc2, 0xb3, 0x44, 0x34, 0xe5, 0xb0, 0x34, 0xad, 0xa9, 0xac, 0x20, 0xaf, 0xfa, 0xac, 0xa6, 0x30, 0xa6, 0xb1, 0xda, 0xb0, 0xc5, 0x28, 0x3d, 0xac, 0x42, 0x22, 0xc8, 0x30, 0x2e, 0x2a, 0x5a, 0xad, 0x27, 0x32, 0xa8, 0x2a, 0xcd, 0xb0, 0x81, 0xad, 0xc2, 0xb0, 0xef, 0xb2, 0xaf, 0x33, 0x74, 0x22, 0x7c, 0xb2, 0xfb, 0xab, 0x13, 0xad, 0x9e, 0x33, 0x90, 0xb2, 0x9b, 0xb0, 0x3c, 0xa9, 0x56, 0xb1, 0x83, 0xab, 0x7c, 0x34, 0xb6, 0x2f, 0x33, 0xae, 0xb0, 0xaa, 0x30, 0xad, 0x9b, 0x30, 0x4e, 0xb2, 0xab, 0xa1, 0x4e, 0xb0, 0x4d, 0x24, 0x45, 0xb1, 0xb4, 0x2f, 0xf9, 0x32, 0xe1, 0xb3, 0x7d, 0xa6, 0x7f, 0xad, 0x7e, 0x30, 0x01, 0x34, 0x4f, 0xb3, 0xb2, 0x31, 0xbd, 0x2f, 0x16, 0xaa, 0x09, 0x34, 0x72, 0xb4, 0x4c, 0xb2, 0x25, 0x23, 0x73, 0x9d, 0xc3, 0x2e, 0x7d, 0xb2, 0xe6, 0x32, 0x55, 0xa8, 0x75, 0x21, 0x8f, 0x21, 0x1e, 0xb2, 0x6b, 0x29, 0x2a, 0xa1, 0xfd, 0xa2, 0x6f, 0xac, 0x88, 0xae, 0xa4, 0x2f, 0x1a, 0x32, 0x82, 0xb2, 0xd7, 0xb2, 0x4c, 0xa4, 0xf0, 0x32, 0xb2, 0xae, 0x77, 0x2e, 0x17, 0xb3, 0x6f, 0xa5, 0xb5, 0x31, 0x15, 0x2e, 0x70, 0x30, 0xa5, 0xae, 0x8c, 0xaf, 0x1e, 0xae, 0x48, 0xb1, 0xf0, 0x33, 0x27, 0x30, 0xbf, 0xb2, 0x7b, 0xad, 0xe8, 0xb0, 0xae, 0xb0, 0x34, 0x29, 0x8b, 0xad, 0x77, 0xb1, 0xca, 0x2a, 0x12, 0xb4, 0x2d, 0xa1, 0x3c, 0xb0, 0x82, 0x2a, 0x20, 0xb2, 0xe8, 0xb3, 0x6d, 0xb4, 0xfa, 0x32, 0x99, 0x33, 0x5c, 0x34, 0x2a, 0x26, 0x38, 0x30, 0xc7, 0xaf, 0xb9, 0x25, 0x52, 0xa8, 0x92, 0x32, 0x2c, 0xb3, 0xc8, 0xb1, 0x1c, 0xb2, 0x99, 0xb1, 0xe7, 0x30, 0xb8, 0x31, 0x69, 0xa7, 0x2e, 0x24, 0x5d, 0x31, 0x9f, 0x24, 0xf0, 0x30, 0x78, 0xb3, 0x56, 0x33, 0xc8, 0x2d, 0x50, 0xa3, 0xfe, 0xb0, 0xbf, 0x25, 0xb9, 0xb3, 0xfe, 0xac, 0x97, 0xaa, 0x6d, 0xaf, 0xc2, 0xa5, 0xcf, 0x24, 0x98, 0x30, 0xa5, 0x2a, 0x85, 0x2c, 0x08, 0x2f, 0xbc, 0x1f, 0xce, 0x2c, 0xf5, 0x32, 0xbd, 0xb2, 0x78, 0xaa, 0xd2, 0xa6, 0x23, 0x2c, 0x30, 0x28, 0x22, 0x2f, 0x11, 0x2d, 0x6b, 0x34, 0xfe, 0xa4, 0x31, 0x2b, 0xd2, 0xb1, 0x1f, 0x1e, 0x09, 0xb3, 0x1e, 0x2d, 0xdd, 0xb1, 0xb6, 0x2c, 0x80, 0xb3, 0xa9, 0x31, 0x49, 0x2f, 0xe2, 0x33, 0xf9, 0xb0, 0x62, 0x33, 0xf1, 0xb3, 0xf5, 0xb0, 0x54, 0xaa, 0x80, 0xb0, 0xf6, 0xb0, 0x60, 0xb0, 0xbf, 0x33, 0xdf, 0xae, 0x00, 0xad, 0x2f, 0x33, 0xd1, 0x32, 0x8c, 0xb1, 0x41, 0x1b, 0xb1, 0xaf, 0xe9, 0x2f, 0x33, 0x30, 0x67, 0x2b, 0xb4, 0x2a, 0xe5, 0x30, 0x81, 0xa5, 0xec, 0xb3, 0x8a, 0xb0, 0xfc, 0x27, 0x10, 0xa8, 0x46, 0x2a, 0xc6, 0x32, 0x4c, 0x31, 0x73, 0xb3, 0x1b, 0x31, 0x1d, 0xb4, 0xb6, 0xb4, 0x82, 0xab, 0x01, 0x31, 0x9c, 0x26, 0x46, 0x32, 0x27, 0x31, 0xdf, 0x2e, 0xbb, 0xad, 0x21, 0xb4, 0x66, 0xad, 0x5d, 0xb4, 0xcb, 0x2d, 0x07, 0x34, 0x43, 0x19, 0xa7, 0x2f, 0xe9, 0xb0, 0x1b, 0xaf, 0x4d, 0xb4, 0xaa, 0xaf, 0xbd, 0xb3, 0x5c, 0xb0, 0xc9, 0xb1, 0xe7, 0x31, 0x81, 0xb4, 0xb0, 0xb3, 0x69, 0xb0, 0xb9, 0x1e, 0x18, 0xb4, 0x8b, 0x22, 0x48, 0x2b, 0x5b, 0x24, 0xa4, 0x2f, 0x38, 0xb4, 0xd4, 0x30, 0x02, 0x34, 0x97, 0x24, 0x6e, 0x2d, 0xbc, 0xb0, 0x33, 0x33, 0x57, 0xaa, 0xb6, 0x2d, 0x10, 0x34, 0xd0, 0x30, 0xd5, 0x32, 0x69, 0x31, 0x98, 0x28, 0x1b, 0x34, 0x70, 0x30, 0x1a, 0x1e, 0xfb, 0x32, 0x57, 0x2e, 0xa9, 0xb1, 0x1b, 0xa2, 0x43, 0x28, 0xc1, 0x31, 0xdf, 0x31, 0x6b, 0x33, 0x21, 0xad, 0x14, 0xaf, 0x73, 0x33, 0x9d, 0x28, 0xb0, 0x2c, 0xd2, 0x30, 0xee, 0x30, 0x92, 0xb3, 0xe7, 0x2b, 0x5c, 0x35, 0xc2, 0x2e, 0xa3, 0xa8, 0x4a, 0x2e, 0x3b, 0xa6, 0x05, 0xb3, 0x63, 0x31, 0x8c, 0x2c, 0xef, 0xab, 0x28, 0xb3, 0xca, 0x20, 0xc1, 0x2b, 0x98, 0xa5, 0xc5, 0x26, 0xfb, 0xac, 0x56, 0xae, 0x6d, 0xac, 0x62, 0xb3, 0x40, 0xb2, 0x80, 0x33, 0x33, 0xb2, 0x22, 0xb3, 0x94, 0x2f, 0x0a, 0xb4, 0x0c, 0xac, 0x52, 0xb2, 0x4d, 0xae, 0xfb, 0xa5, 0xeb, 0x2d, 0x48, 0xae, 0x68, 0xae, 0x29, 0x2b, 0x68, 0x19, 0x1e, 0x23, 0x1f, 0xb2, 0xd4, 0xb0, 0x29, 0xad, 0xe8, 0xb2, 0x6f, 0xb2, 0xfd, 0x32, 0xc4, 0xb2, 0x7b, 0x32, 0x92, 0x30, 0x1a, 0xa8, 0x10, 0x22, 0xf1, 0xb1, 0x88, 0x2e, 0x41, 0x32, 0xc3, 0x29, 0xa8, 0xb3, 0x00, 0x2d, 0x21, 0xb3, 0x87, 0xaf, 0x9f, 0xaf, 0x9b, 0x30, 0xd6, 0x25, 0x8d, 0x30, 0x57, 0x2a, 0x96, 0x30, 0x5e, 0x2a, 0x50, 0x2c, 0x23, 0xa9, 0xcf, 0x31, 0xca, 0x31, 0x8f, 0xab, 0x16, 0xa8, 0x9f, 0x2e, 0xe1, 0xb3, 0x25, 0x29, 0x9c, 0x2d, 0x20, 0x26, 0xc6, 0xb3, 0x98, 0xad, 0x28, 0xad, 0x54, 0xb3, 0x9b, 0xa6, 0xe9, 0x26, 0x36, 0x32, 0x9f, 0x28, 0x0b, 0x2c, 0xe8, 0x30, 0x37, 0x35, 0x5b, 0xa9, 0x36, 0x2c, 0xc3, 0xaf, 0x03, 0xac, 0x11, 0x31, 0xda, 0xa7, 0x9a, 0xaf, 0xc1, 0xac, 0x75, 0xb4, 0x7f, 0xaa, 0xde, 0xb0, 0x0e, 0x32, 0xd4, 0xb0, 0xc2, 0x2d, 0x5b, 0xad, 0x4d, 0x32, 0xf7, 0x34, 0x9b, 0xac, 0x4f, 0x31, 0xe5, 0x32, 0xd5, 0xb1, 0xb2, 0x31, 0xfe, 0x98, 0x2a, 0xa8, 0xf6, 0x96, 0xe4, 0x21, 0xdf, 0x2d, 0xbe, 0x31, 0xce, 0xb0, 0x84, 0x33, 0x05, 0xb3, 0x25, 0x2e, 0xde, 0xa8, 0xbe, 0xb2, 0x6d, 0x30, 0x2c, 0x33, 0xd2, 0xa9, 0xf3, 0x27, 0x94, 0x30, 0x3a, 0xb2, 0x75, 0x31, 0xd9, 0xae, 0x52, 0xaa, 0x11, 0xb2, 0x45, 0xaf, 0x9a, 0xb3, 0xc0, 0x10, 0xc2, 0x2e, 0x97, 0x30, 0x00, 0xb3, 0x99, 0xa7, 0x43, 0x2c, 0xa5, 0xab, 0x8e, 0x32, 0xac, 0xac, 0x9c, 0xae, 0x34, 0x30, 0x06, 0xb4, 0x3d, 0xb3, 0xcc, 0x31, 0x1e, 0xb0, 0x97, 0xb2, 0x6b, 0xb3, 0xfd, 0xb2, 0x71, 0xaf, 0xa1, 0x30, 0x47, 0x2e, 0x9c, 0x31, 0x23, 0x31, 0x2c, 0x34, 0x36, 0x30, 0x84, 0xb4, 0x09, 0xb3, 0x10, 0x2d, 0xee, 0x32, 0x3e, 0x34, 0xe3, 0xb3, 0x03, 0xab, 0x8f, 0xa9, 0xf6, 0xb1, 0x98, 0xa8, 0xcf, 0xb0, 0x3a, 0x2f, 0x99, 0x28, 0xc2, 0x32, 0x2d, 0x31, 0x1f, 0xb3, 0xa1, 0xb2, 0x34, 0x2d, 0x09, 0xb3, 0x41, 0xb4, 0x6d, 0xb2, 0x40, 0xb4, 0xe2, 0x2a, 0x74, 0xb2, 0x65, 0xb4, 0xce, 0x30, 0x06, 0xb1, 0xe6, 0xb0, 0x78, 0x2d, 0x0d, 0x30, 0x0d, 0x33, 0x25, 0xa9, 0x9c, 0x9d, 0x9e, 0x31, 0x7c, 0x31, 0x69, 0x33, 0xba, 0xae, 0xb1, 0x30, 0x47, 0x30, 0x26, 0xb3, 0x3d, 0xb3, 0x40, 0xb0, 0x5a, 0x32, 0x31, 0xa5, 0xa9, 0xa9, 0x91, 0x31, 0xb4, 0x33, 0x2d, 0x25, 0x48, 0xb2, 0xd4, 0xa7, 0x52, 0xa2, 0x81, 0xb2, 0x74, 0x1f, 0x25, 0x33, 0x72, 0xa4, 0xbf, 0x1d, 0xab, 0xad, 0xe3, 0x34, 0x58, 0x2d, 0x88, 0xb1, 0x3a, 0xb4, 0xe3, 0x2f, 0x1d, 0x2c, 0x1a, 0x31, 0x5d, 0xb4, 0x41, 0x33, 0xcd, 0xb2, 0x23, 0xab, 0x72, 0xb0, 0xd7, 0x2a, 0xef, 0xa0, 0x1d, 0x31, 0xc3, 0x29, 0xd4, 0x24, 0x98, 0xb4, 0x37, 0xaa, 0x50, 0x30, 0xc0, 0xb2, 0x8d, 0xa5, 0x93, 0x30, 0xb9, 0x19, 0x13, 0xaf, 0xea, 0xad, 0x6f, 0xad, 0x76, 0x32, 0x4f, 0xb2, 0x06, 0x34, 0xcb, 0x2c, 0x12, 0xb2, 0xbe, 0x31, 0x06, 0xb4, 0x73, 0xad, 0x29, 0xa5, 0xcf, 0xb1, 0xcb, 0x1f, 0x8a, 0xa4, 0xd6, 0x2b, 0xe4, 0xab, 0xb5, 0xb1, 0x83, 0x29, 0x29, 0x26, 0x36, 0x30, 0x5b, 0xaf, 0x19, 0xb0, 0x3d, 0x31, 0x66, 0x30, 0x30, 0x2e, 0x45, 0x2f, 0x6e, 0x30, 0xa4, 0xb2, 0x6c, 0x30, 0x58, 0x30, 0xff, 0xb3, 0x56, 0x34, 0x26, 0x31, 0x45, 0xaf, 0x7b, 0xa3, 0x69, 0xaf, 0x87, 0x2e, 0xdf, 0xb0, 0x6b, 0xb1, 0xa2, 0x2a, 0x90, 0xb3, 0x28, 0xad, 0x51, 0x30, 0x64, 0x2e, 0x44, 0x30, 0x78, 0x29, 0xc5, 0x2c, 0xf8, 0xb1, 0x6e, 0x28, 0xb1, 0xad, 0x0a, 0x2d, 0x52, 0x15, 0x27, 0x30, 0x02, 0xb1, 0x76, 0x2c, 0x57, 0xb4, 0x56, 0x2d, 0x3f, 0xac, 0x40, 0xb1, 0xcf, 0xb1, 0x94, 0xa6, 0xb1, 0x33, 0x18, 0xb2, 0xd1, 0xa4, 0x80, 0xa5, 0x77, 0x1b, 0x03, 0xb4, 0xdf, 0x31, 0xca, 0xb0, 0xe1, 0xb0, 0x9e, 0x31, 0x02, 0x2f, 0xc3, 0x2f, 0x0a, 0x31, 0xd4, 0xad, 0x74, 0xb3, 0x01, 0x34, 0x51, 0x30, 0xc6, 0xb0, 0x48, 0x2f, 0xdc, 0x30, 0xd1, 0x10, 0xe8, 0x0e, 0xc4, 0x1c, 0x1f, 0x30, 0x0e, 0x20, 0x40, 0x2a, 0x38, 0x31, 0xb6, 0xa1, 0xb6, 0x30, 0x85, 0xb2, 0x0d, 0xaf, 0x81, 0x28, 0x83, 0xa5, 0x65, 0x34, 0x70, 0x28, 0x91, 0x32, 0x00, 0xa5, 0x95, 0xb0, 0x5e, 0x32, 0xd7, 0x32, 0x7e, 0xa0, 0x27, 0xb4, 0xca, 0xb3, 0x28, 0xb2, 0x08, 0x9f, 0x46, 0x2c, 0xdc, 0xad, 0x1a, 0xb0, 0x77, 0x2e, 0x09, 0xb0, 0x6d, 0x29, 0x13, 0xac, 0x04, 0x33, 0x61, 0xa7, 0xf2, 0x31, 0x90, 0x34, 0xd3, 0x0c, 0x0a, 0x31, 0x92, 0x2e, 0xb5, 0xb1, 0x6f, 0x32, 0x9b, 0x99, 0x41, 0x2c, 0xbf, 0xad, 0x77, 0x2c, 0xdd, 0x9c, 0x98, 0x29, 0xda, 0xae, 0xcb, 0xb2, 0x0e, 0x34, 0x6c, 0xaf, 0x2d, 0x26, 0xe9, 0x30, 0x46, 0x30, 0xf8, 0x23, 0xcf, 0x20, 0x20, 0xa8, 0x18, 0x33, 0xa9, 0xb0, 0xe5, 0x27, 0xcf, 0x30, 0x8d, 0x29, 0x18, 0x34, 0x37, 0xac, 0x8f, 0xad, 0x75, 0xa7, 0x5e, 0x31, 0x50, 0xb1, 0xfe, 0x32, 0x2a, 0xae, 0x0f, 0xa3, 0xc6, 0xb0, 0x83, 0x32, 0xc9, 0x33, 0xfc, 0xaf, 0x13, 0xa9, 0xfb, 0xb4, 0xc6, 0x2e, 0xa2, 0x24, 0x7e, 0xb2, 0x78, 0xb2, 0x7d, 0x2e, 0x40, 0x32, 0x6a, 0xaf, 0x75, 0xb2, 0x0e, 0x32, 0x83, 0xa8, 0x8c, 0xb3, 0x43, 0xb3, 0x94, 0x2e, 0x2a, 0xa3, 0x5e, 0xb0, 0x01, 0x33, 0xcd, 0xb3, 0x11, 0xb4, 0x8d, 0x2f, 0x4d, 0xa8, 0x2b, 0x30, 0x3f, 0x2e, 0xad, 0xb0, 0x0f, 0x34, 0x44, 0x33, 0x49, 0x34, 0x5d, 0x33, 0xc6, 0x30, 0xd5, 0xb3, 0xa8, 0x2f, 0x3e, 0x32, 0x4b, 0xad, 0xf7, 0x32, 0xae, 0x31, 0x90, 0x2c, 0x82, 0x2e, 0xc8, 0x31, 0xa4, 0xad, 0xff, 0xb3, 0x91, 0xb0, 0x8b, 0xb1, 0xc7, 0xb2, 0x55, 0xb2, 0x8a, 0x30, 0x94, 0x31, 0x1e, 0xb0, 0x72, 0xad, 0xe1, 0x95, 0x4e, 0x2a, 0x2d, 0x2d, 0x91, 0x32, 0xbf, 0x32, 0xc0, 0xa7, 0x58, 0xb2, 0x4d, 0x33, 0x80, 0x32, 0x0a, 0x30, 0xb4, 0x31, 0x2b, 0xb4, 0xbd, 0x2d, 0x23, 0x89, 0xcd, 0xb0, 0x24, 0x10, 0x7a, 0xac, 0xd2, 0xb2, 0x04, 0x32, 0xc0, 0xb3, 0x50, 0x28, 0x6f, 0x2a, 0x57, 0x33, 0x05, 0xb2, 0x21, 0x31, 0xcb, 0xb1, 0xbb, 0x33, 0xd8, 0x33, 0x2a, 0x29, 0x8a, 0x32, 0x59, 0xa7, 0x3b, 0x2c, 0x71, 0x33, 0x93, 0x2a, 0xbb, 0xb2, 0x4f, 0x2e, 0xa2, 0x30, 0x7d, 0x32, 0xc4, 0x32, 0xe2, 0xb2, 0x8c, 0xb1, 0x1b, 0xad, 0x52, 0x2b, 0x91, 0x2e, 0x24, 0x2a, 0xe3, 0x30, 0x5d, 0x29, 0x2b, 0xa5, 0x28, 0x33, 0xf1, 0xad, 0xef, 0xb3, 0x22, 0xb4, 0x95, 0xa8, 0x35, 0xb2, 0x59, 0x24, 0x82, 0xbf, 0xff, 0xff, 0x04, 0x00, 0x00, 0x00, 0x00, 0x10, 0x00, 0x00, 0xe8, 0xad, 0x7f, 0xb1, 0x0d, 0xaa, 0x46, 0x31, 0xcf, 0x30, 0xe5, 0x30, 0x9f, 0xad, 0x6f, 0x2f, 0x2a, 0x31, 0x1a, 0xb1, 0x04, 0xae, 0xe6, 0x32, 0x84, 0xb2, 0xb7, 0xb1, 0x18, 0x31, 0xad, 0xad, 0x51, 0x31, 0x7f, 0xac, 0x25, 0x31, 0x04, 0x30, 0x77, 0xb1, 0x47, 0x26, 0x53, 0xaa, 0x7d, 0x2e, 0xd6, 0x2d, 0x6b, 0xa7, 0xbc, 0x2e, 0x3b, 0xa8, 0x90, 0x21, 0xad, 0x22, 0x55, 0xb2, 0x1a, 0xb1, 0x7e, 0xaf, 0x9e, 0x31, 0xff, 0xb1, 0xb8, 0xac, 0x71, 0xb2, 0x01, 0xaa, 0x98, 0x23, 0xe3, 0xb3, 0xb6, 0x20, 0xd6, 0xad, 0xaa, 0xb1, 0xb6, 0xa8, 0x7c, 0xad, 0xd9, 0x2b, 0x99, 0x21, 0xf7, 0xa8, 0x09, 0xaa, 0xc7, 0x29, 0x94, 0xb3, 0x2c, 0xb1, 0x8d, 0xb1, 0x43, 0xb4, 0xd7, 0x32, 0xc4, 0xa8, 0x47, 0x2f, 0x2b, 0xaa, 0x24, 0xb4, 0x27, 0xaf, 0x4d, 0x2c, 0xf4, 0xb0, 0x8b, 0xb0, 0xe7, 0xac, 0x87, 0x33, 0x5e, 0xb4, 0x15, 0xaa, 0x0c, 0x33, 0x9b, 0xb0, 0x22, 0x2d, 0x5f, 0xaf, 0xbb, 0x32, 0x61, 0xac, 0xe8, 0xb2, 0xc1, 0x1b, 0xd7, 0x32, 0xf1, 0xb2, 0x9f, 0x2d, 0xec, 0xb0, 0x9d, 0xb2, 0xa6, 0xaa, 0x6c, 0x2d, 0xfc, 0xac, 0x54, 0xb1, 0x09, 0xb1, 0x75, 0x1f, 0x89, 0xb1, 0xfa, 0x27, 0x33, 0xb2, 0x15, 0x34, 0x36, 0xb0, 0x77, 0x2c, 0xa0, 0x32, 0x6a, 0xb2, 0x22, 0xa8, 0x84, 0xa5, 0xba, 0xb3, 0x54, 0x32, 0x8f, 0xa5, 0x5f, 0x31, 0xa1, 0xa8, 0x10, 0x22, 0x73, 0xab, 0x58, 0x33, 0xb1, 0x2a, 0x63, 0xb0, 0xf6, 0xb2, 0x9a, 0x2c, 0x9b, 0xa0, 0x8a, 0x31, 0x02, 0xae, 0x6b, 0x32, 0x30, 0xac, 0xfa, 0xaf, 0xf5, 0x2c, 0x36, 0xb2, 0x96, 0xb2, 0x56, 0x33, 0xed, 0xad, 0x4f, 0x31, 0x98, 0xb4, 0x6e, 0xae, 0x80, 0xb0, 0x33, 0xb3, 0xf8, 0x2f, 0xae, 0x32, 0xe9, 0xaf, 0xab, 0xae, 0x45, 0x32, 0x37, 0xb4, 0x32, 0x34, 0x51, 0xb3, 0x5f, 0x28, 0x2b, 0x25, 0x7e, 0x2d, 0x6e, 0xae, 0xbb, 0xad, 0x03, 0xb1, 0x51, 0xa2, 0x5f, 0xae, 0xbf, 0x2b, 0xd1, 0xb0, 0xc0, 0xb2, 0x8c, 0x33, 0xf2, 0x33, 0xe2, 0xad, 0xdf, 0xa6, 0x5d, 0x2f, 0x66, 0x2f, 0xb0, 0xae, 0xb5, 0x31, 0x48, 0xb2, 0x71, 0xb2, 0x12, 0x2e, 0x13, 0x31, 0x49, 0x30, 0x0f, 0xb2, 0x43, 0x28, 0x2a, 0x23, 0xfa, 0xb0, 0xd6, 0x2f, 0x91, 0x31, 0x19, 0x1c, 0xc0, 0xb0, 0x5a, 0xaf, 0xd7, 0xb0, 0xef, 0x30, 0x4d, 0xb2, 0x0f, 0x24, 0x96, 0x30, 0xf2, 0x20, 0x6b, 0xa2, 0x15, 0xb0, 0x42, 0xb0, 0x77, 0xb2, 0xfc, 0x30, 0xfa, 0xad, 0x6b, 0xa9, 0x30, 0x34, 0x44, 0x30, 0x5c, 0x2f, 0x6a, 0xa8, 0x33, 0xb2, 0x50, 0xb5, 0xfc, 0x31, 0x9f, 0x33, 0xf9, 0x29, 0xa4, 0x2e, 0x7d, 0xaf, 0xc1, 0xb0, 0x05, 0xb1, 0x4b, 0x34, 0xdb, 0xb0, 0xa1, 0xaa, 0xfc, 0x31, 0xce, 0x2b, 0x82, 0x32, 0x25, 0x25, 0x48, 0x2f, 0x8e, 0xb0, 0x58, 0xa9, 0x24, 0x34, 0x54, 0x30, 0xc8, 0x2d, 0xf9, 0xb2, 0xa0, 0x2b, 0x89, 0xaf, 0xac, 0x2e, 0x28, 0xb3, 0x81, 0x31, 0x64, 0x31, 0x75, 0x33, 0x57, 0xad, 0xc7, 0x2f, 0xcc, 0xb3, 0xff, 0xa9, 0x1a, 0x2e, 0xf4, 0xb0, 0x7c, 0xac, 0x26, 0x2e, 0xbd, 0x24, 0x96, 0x32, 0x7c, 0x33, 0xa0, 0xae, 0xf6, 0x32, 0xea, 0xb0, 0x47, 0x9c, 0x65, 0xb0, 0x49, 0xb2, 0xaf, 0xb3, 0xf8, 0x32, 0x9c, 0x32, 0x36, 0xb1, 0x48, 0xb0, 0x1b, 0x2c, 0x65, 0x2a, 0xa1, 0xb2, 0x2b, 0x26, 0xaa, 0x32, 0x79, 0x2d, 0x14, 0xb1, 0x0b, 0x33, 0xc2, 0xac, 0x5f, 0xa9, 0xb3, 0x30, 0xee, 0x32, 0x0f, 0xad, 0xbc, 0xb0, 0x40, 0x34, 0x16, 0x31, 0x51, 0x2f, 0xb6, 0x2c, 0xbf, 0xaf, 0xd9, 0x2b, 0x1d, 0x29, 0x73, 0x24, 0xf8, 0xac, 0x8a, 0x34, 0xd6, 0xb0, 0x2f, 0x30, 0x33, 0x32, 0x5b, 0xae, 0x47, 0x23, 0x45, 0x33, 0x7f, 0x22, 0x42, 0x33, 0x96, 0xa4, 0xb4, 0xad, 0x71, 0x32, 0xdc, 0xa7, 0x0a, 0xa5, 0xe6, 0xb2, 0x24, 0x21, 0x61, 0x2a, 0x57, 0xb3, 0x7b, 0xae, 0xc2, 0x2b, 0x7f, 0x30, 0x59, 0x2f, 0x64, 0xb1, 0xec, 0xae, 0xbe, 0xac, 0xf1, 0x30, 0x74, 0x2d, 0xe2, 0x30, 0x6d, 0xac, 0x7d, 0xb1, 0x01, 0x31, 0x57, 0xad, 0x0a, 0x24, 0x54, 0x30, 0x06, 0xac, 0x8e, 0x1d, 0x16, 0xaf, 0xf3, 0xae, 0x7c, 0x26, 0xbd, 0xb2, 0x03, 0xa9, 0x22, 0xaa, 0x18, 0x2f, 0x23, 0x2c, 0x28, 0x30, 0xbc, 0x2c, 0xa4, 0x32, 0x62, 0xa1, 0xf3, 0xa8, 0xf5, 0xb0, 0xf7, 0xa9, 0x11, 0xb1, 0x73, 0xb2, 0x37, 0x28, 0x3a, 0x2b, 0xb1, 0x30, 0x85, 0xb1, 0xa6, 0x2e, 0x78, 0xb1, 0x1b, 0x32, 0x9b, 0x32, 0x7d, 0xa9, 0x58, 0x31, 0x74, 0x31, 0x1b, 0x2a, 0x07, 0xab, 0x66, 0x32, 0x78, 0xaf, 0xac, 0xb0, 0xb5, 0xaa, 0x29, 0x33, 0x3a, 0xb4, 0xc0, 0x30, 0x7d, 0x30, 0xb9, 0x32, 0x08, 0xb2, 0xca, 0xa6, 0xef, 0x31, 0x1a, 0x2c, 0x8c, 0x27, 0xc8, 0x9c, 0x56, 0xb0, 0xf6, 0x2c, 0x8d, 0xa9, 0xc4, 0xb4, 0x19, 0xb2, 0x28, 0xad, 0xaa, 0xa1, 0xce, 0xac, 0x78, 0xb0, 0x09, 0x31, 0x8d, 0xa9, 0xaa, 0xb3, 0xe9, 0xb3, 0xb0, 0x32, 0x75, 0x2d, 0xf7, 0x9f, 0xf7, 0xa3, 0x85, 0x2c, 0x34, 0x2a, 0xc2, 0xb0, 0xce, 0x29, 0x79, 0x29, 0x25, 0x29, 0x46, 0x30, 0x73, 0xb1, 0x00, 0x35, 0xf4, 0xb1, 0xec, 0xaf, 0x78, 0xae, 0xab, 0x32, 0x86, 0x2a, 0x36, 0xb1, 0x3a, 0x30, 0x41, 0xad, 0x8b, 0xaf, 0xbe, 0x29, 0x1b, 0xb2, 0x05, 0x2f, 0x1a, 0x33, 0xd7, 0x2e, 0x0a, 0xb0, 0x1b, 0x2e, 0x23, 0xb0, 0x6c, 0x2b, 0xb6, 0x33, 0xda, 0xad, 0xa6, 0xae, 0xa1, 0x2f, 0x74, 0xb1, 0x02, 0xb5, 0x2c, 0x2b, 0x39, 0xb2, 0x43, 0x34, 0x18, 0xb2, 0x4e, 0xa7, 0xea, 0xaf, 0x0d, 0xae, 0x8f, 0xad, 0x18, 0x2c, 0x43, 0x31, 0xf7, 0x2d, 0x11, 0x31, 0x38, 0xb4, 0x6a, 0x33, 0xcc, 0x2f, 0x1d, 0x95, 0xd7, 0x34, 0xa3, 0x31, 0x0a, 0x34, 0xc8, 0x2c, 0xb5, 0x20, 0xca, 0x2e, 0x17, 0xac, 0x03, 0xb5, 0x02, 0xae, 0x32, 0x35, 0xc5, 0x33, 0x4a, 0x29, 0xdf, 0xad, 0xd9, 0xac, 0x77, 0xab, 0x94, 0x33, 0x28, 0xb4, 0x3d, 0xb1, 0xac, 0xb2, 0x0a, 0xa4, 0xd7, 0xb4, 0xcc, 0xac, 0xaf, 0x2c, 0x93, 0xaf, 0x54, 0xae, 0x9d, 0xa4, 0x02, 0x32, 0xb2, 0x2e, 0x15, 0xb1, 0xa5, 0x32, 0xf7, 0x2c, 0x45, 0x30, 0x98, 0xb4, 0x47, 0xb3, 0x83, 0x2d, 0x18, 0x30, 0x5f, 0x28, 0xc0, 0xb4, 0x43, 0x32, 0x1c, 0x30, 0x0b, 0x2e, 0x54, 0x2d, 0xac, 0xab, 0x78, 0xaf, 0x6d, 0xae, 0x97, 0x26, 0x05, 0x2c, 0x20, 0x30, 0xca, 0xb1, 0xf3, 0x2d, 0xd9, 0xad, 0xd0, 0xb0, 0xb5, 0x32, 0xca, 0x29, 0x67, 0xb1, 0x0d, 0xab, 0x5f, 0xa2, 0x49, 0x33, 0x38, 0x2c, 0xb3, 0xb0, 0x80, 0xae, 0x80, 0xb0, 0x73, 0xaa, 0x45, 0xaa, 0x9d, 0x2e, 0x4e, 0x26, 0x8d, 0x2c, 0x7f, 0xb1, 0x3e, 0x29, 0x1d, 0xb3, 0x27, 0xab, 0x74, 0xae, 0xa3, 0xaa, 0xbb, 0xb0, 0xe1, 0x30, 0xa5, 0x32, 0xd3, 0x2b, 0x83, 0x25, 0xb1, 0x9c, 0x9e, 0xb1, 0x4c, 0x24, 0xf9, 0x20, 0x8e, 0xb2, 0x98, 0xb1, 0x36, 0x33, 0x6c, 0xb3, 0x97, 0x28, 0xe7, 0xb0, 0x0b, 0xa2, 0x93, 0xb0, 0x23, 0x32, 0xc1, 0xa9, 0xa4, 0xa9, 0x57, 0xb0, 0xc9, 0x30, 0x2e, 0x2d, 0x8a, 0xae, 0x7c, 0xb2, 0x21, 0xae, 0x79, 0xaf, 0x2f, 0xb1, 0x86, 0x29, 0x16, 0xa7, 0x4c, 0xb4, 0xaa, 0xaf, 0x3a, 0xb0, 0xe5, 0xae, 0x39, 0xb0, 0x8e, 0xb4, 0xdf, 0x30, 0x4c, 0xb1, 0x64, 0x34, 0xcd, 0x30, 0xcb, 0xaf, 0x9a, 0xb3, 0xcf, 0x30, 0x60, 0xb1, 0xe0, 0xae, 0x3b, 0xae, 0x2f, 0x1f, 0x13, 0x33, 0x25, 0xaf, 0x0f, 0xa8, 0xb4, 0x2f, 0xdd, 0xb0, 0xe2, 0x31, 0x85, 0x34, 0xaa, 0x2f, 0xdb, 0xac, 0x76, 0x2f, 0x5a, 0x33, 0x75, 0x2c, 0xab, 0x28, 0xf6, 0x2c, 0xf0, 0xb1, 0xd9, 0xac, 0xd9, 0x9f, 0x37, 0xa5, 0x51, 0x2e, 0x4e, 0xb1, 0x05, 0xb4, 0xa5, 0xb3, 0x26, 0xb3, 0x20, 0xb1, 0x6e, 0x31, 0x39, 0x32, 0xfa, 0xa9, 0x44, 0x2e, 0xee, 0xa4, 0x09, 0xb3, 0x1a, 0xb2, 0x4a, 0x2d, 0x3e, 0xb3, 0x93, 0x9d, 0x80, 0xb4, 0x79, 0x2f, 0x4d, 0xb1, 0xf7, 0x27, 0x9e, 0x30, 0x64, 0xac, 0xa6, 0x25, 0x34, 0x26, 0x31, 0xb1, 0x84, 0x34, 0x7c, 0xb1, 0x2a, 0x2f, 0x73, 0x2f, 0xae, 0x34, 0x8c, 0x32, 0x31, 0x2c, 0x32, 0x2c, 0x52, 0xa9, 0x44, 0x28, 0xc6, 0xb0, 0xc5, 0xac, 0x8d, 0xb2, 0x9f, 0x30, 0xa9, 0x2b, 0x4f, 0x31, 0x40, 0xb2, 0xac, 0x33, 0x3e, 0xb2, 0x17, 0xae, 0x26, 0xb1, 0x80, 0x34, 0x79, 0xb4, 0x03, 0xb3, 0xb1, 0x30, 0x7f, 0xb0, 0x86, 0xad, 0x5a, 0x2d, 0xa7, 0xaf, 0x5e, 0x33, 0x1c, 0xb4, 0xd9, 0xb0, 0x5a, 0x2c, 0xd0, 0x20, 0xd3, 0x2f, 0xac, 0xb4, 0x2d, 0x30, 0x63, 0x34, 0xd2, 0xa8, 0x82, 0xa6, 0x1f, 0x28, 0xcd, 0x9b, 0x7f, 0xb3, 0x7d, 0xaf, 0xf5, 0x2e, 0x11, 0xac, 0x67, 0xb1, 0x20, 0x31, 0xe7, 0xad, 0x28, 0xb1, 0x44, 0xaf, 0x2f, 0x9e, 0xc3, 0x30, 0x7f, 0x2d, 0x2d, 0x9e, 0xa3, 0xb3, 0x5d, 0x1a, 0xb0, 0x30, 0x0f, 0x33, 0x1a, 0xa3, 0x21, 0xb4, 0x67, 0xa4, 0xdf, 0x26, 0x3f, 0x28, 0x52, 0xa8, 0x6d, 0xb1, 0x1f, 0x31, 0x4e, 0xb4, 0x7f, 0x30, 0xa1, 0x1c, 0xc5, 0x9f, 0x84, 0x29, 0xcc, 0xb2, 0x4c, 0xad, 0x6a, 0x34, 0xb1, 0x1e, 0x90, 0xb1, 0xe3, 0x2a, 0x70, 0x95, 0xf5, 0xac, 0x8a, 0x29, 0x1a, 0x33, 0x2e, 0xb1, 0x8e, 0xa9, 0xbe, 0xab, 0xef, 0x32, 0x36, 0x31, 0xb0, 0xaf, 0x16, 0x32, 0x9c, 0xa5, 0xfd, 0xaa, 0x5e, 0xb2, 0x63, 0xb1, 0xec, 0x30, 0xf5, 0x33, 0xf4, 0xa9, 0x0a, 0x31, 0x31, 0xb4, 0x64, 0x34, 0x06, 0xac, 0x12, 0xaa, 0xf1, 0x30, 0xd5, 0xb1, 0xe2, 0x27, 0x54, 0xae, 0xe4, 0xb0, 0x57, 0x30, 0xe8, 0x27, 0x97, 0xa9, 0x58, 0x33, 0x7a, 0xb1, 0x2c, 0x2e, 0x3c, 0xab, 0x06, 0xa4, 0xd1, 0x2f, 0xa4, 0xb0, 0x5f, 0x30, 0x83, 0x2e, 0xf8, 0xab, 0x0c, 0x28, 0x00, 0xb3, 0x9f, 0xb3, 0xf1, 0xad, 0x04, 0xb2, 0xa2, 0xa1, 0xbf, 0xb1, 0x9b, 0x2b, 0xc2, 0x2e, 0x0f, 0xb4, 0x08, 0x2b, 0xa6, 0xa5, 0xcd, 0x30, 0x0a, 0xa9, 0x38, 0x30, 0xfe, 0x2d, 0xa3, 0x33, 0xf5, 0x1b, 0xbd, 0xaa, 0x28, 0xb0, 0x34, 0x20, 0xd4, 0xad, 0xae, 0x2f, 0x6e, 0x32, 0xc0, 0x2a, 0x8b, 0x30, 0x2b, 0xad, 0x8b, 0x30, 0xde, 0x32, 0xa4, 0xb2, 0x9b, 0xac, 0xd7, 0x33, 0x15, 0x34, 0x8d, 0xad, 0x72, 0x2c, 0x21, 0x31, 0x44, 0xa6, 0x20, 0x30, 0xcf, 0xb1, 0x99, 0xa5, 0xbb, 0xb1, 0x5a, 0xb0, 0x51, 0x2d, 0xb3, 0x31, 0x43, 0xb2, 0x54, 0x31, 0x85, 0x2e, 0x95, 0xaf, 0x9c, 0xac, 0xd4, 0xb1, 0x61, 0x2c, 0x68, 0xa3, 0x2f, 0x33, 0xe1, 0xa2, 0xf2, 0xb1, 0xdf, 0x30, 0x65, 0x30, 0xe0, 0xb1, 0xa9, 0xac, 0x81, 0x2f, 0x5c, 0x31, 0x9d, 0x31, 0x4b, 0xac, 0xe0, 0x2e, 0x58, 0xb2, 0xd9, 0x2e, 0xd5, 0xae, 0x51, 0xa9, 0x29, 0xb0, 0x36, 0x30, 0x25, 0xab, 0x03, 0x34, 0xef, 0xb1, 0xc6, 0xa1, 0x58, 0xb1, 0x2a, 0xaa, 0x64, 0x2c, 0x44, 0x32, 0x09, 0xb0, 0x8c, 0x29, 0xc2, 0x2b, 0x54, 0x32, 0x3e, 0x2d, 0x19, 0xb4, 0x91, 0x27, 0x47, 0x34, 0x6e, 0xb2, 0x08, 0xb1, 0xb7, 0xab, 0xfa, 0x2e, 0xf3, 0xb0, 0xd9, 0x24, 0xb9, 0x32, 0x77, 0x21, 0xf4, 0x24, 0x24, 0xb3, 0x1a, 0x31, 0x71, 0xa5, 0xee, 0xb1, 0x3d, 0x2f, 0xff, 0xaf, 0x25, 0xb2, 0x22, 0xa4, 0xc4, 0x32, 0xfb, 0x29, 0x4d, 0x32, 0x14, 0x2c, 0x3b, 0xb2, 0xdb, 0x2c, 0xe4, 0xa1, 0x9e, 0xb3, 0x43, 0x28, 0xc5, 0xa9, 0xfc, 0x29, 0xd1, 0xac, 0xab, 0x22, 0x60, 0xb1, 0x07, 0xb1, 0xf1, 0x9f, 0x32, 0xac, 0x50, 0x33, 0x57, 0xaf, 0x04, 0xb2, 0xb7, 0x31, 0x04, 0x33, 0x48, 0xb4, 0x44, 0x29, 0xca, 0xab, 0x2d, 0x2e, 0x0e, 0xb2, 0xd3, 0x1c, 0xa6, 0xb3, 0xbd, 0x2f, 0x99, 0x25, 0xc3, 0x1c, 0x3c, 0xb2, 0x84, 0x32, 0x70, 0x1a, 0xf9, 0xb2, 0xa7, 0x2e, 0x01, 0xaf, 0x06, 0xb3, 0x59, 0xb4, 0x2b, 0x32, 0x73, 0x28, 0x69, 0x31, 0x83, 0xb3, 0x1c, 0x2a, 0x5d, 0xaf, 0xff, 0x2d, 0x03, 0xb2, 0xa7, 0x96, 0x7d, 0x34, 0x99, 0xac, 0xf4, 0xa9, 0x55, 0x98, 0xd3, 0xb2, 0x8d, 0x30, 0xd4, 0x2b, 0xf4, 0x33, 0x00, 0xab, 0x6c, 0x30, 0x18, 0x29, 0xaa, 0x31, 0x0d, 0x33, 0xd5, 0xab, 0x77, 0xb1, 0xc2, 0x26, 0xd9, 0x31, 0xea, 0x2e, 0xa1, 0xaf, 0x53, 0xac, 0x6e, 0xac, 0x53, 0x33, 0xe4, 0xa6, 0x87, 0x34, 0x8c, 0xb0, 0xf3, 0x2e, 0x55, 0xa8, 0x5b, 0x33, 0x56, 0xb2, 0x81, 0x32, 0x7e, 0x32, 0xfd, 0xaf, 0xd0, 0x33, 0xd8, 0x2d, 0xb3, 0xb0, 0xb1, 0xad, 0xa2, 0xb1, 0x0e, 0x34, 0x20, 0x30, 0x88, 0xa3, 0x24, 0x32, 0x96, 0x31, 0x1d, 0xae, 0xe0, 0xb1, 0x0b, 0xb4, 0x52, 0x32, 0x5e, 0x2e, 0x23, 0x27, 0x4b, 0x1e, 0xa7, 0xaf, 0x46, 0xb4, 0x3a, 0x34, 0x81, 0xae, 0xe0, 0x2a, 0x30, 0x29, 0xb7, 0xad, 0xec, 0x26, 0x10, 0x30, 0x76, 0x32, 0x31, 0xa9, 0x3f, 0xac, 0x1a, 0x2f, 0x5a, 0xaf, 0x9f, 0x2e, 0x9f, 0x2e, 0xde, 0x25, 0x2b, 0xab, 0xa2, 0x32, 0x32, 0x31, 0x57, 0x32, 0x90, 0xb2, 0xe7, 0x2e, 0x39, 0xac, 0x34, 0x32, 0x24, 0xab, 0xd6, 0x21, 0x2f, 0xb3, 0x5d, 0x2e, 0x52, 0x33, 0xcc, 0xac, 0xcf, 0xae, 0x3b, 0xaf, 0x74, 0x2e, 0x5a, 0xb2, 0xc1, 0x33, 0xde, 0x30, 0xac, 0x32, 0x0a, 0xad, 0x70, 0xaf, 0x83, 0xae, 0x97, 0xb2, 0x11, 0x2f, 0x83, 0xb0, 0x0a, 0xae, 0x87, 0x28, 0xa2, 0x30, 0x07, 0x32, 0xd2, 0x2c, 0x4c, 0x31, 0x9c, 0xa7, 0x11, 0xb2, 0xf8, 0x9d, 0x05, 0x32, 0xe2, 0xb2, 0x37, 0x2b, 0x2f, 0x26, 0x45, 0x32, 0x4d, 0xb3, 0x48, 0x30, 0x65, 0xae, 0x9b, 0x30, 0x09, 0x33, 0x35, 0xb4, 0x33, 0x29, 0xa6, 0x33, 0x74, 0xb1, 0x58, 0xa0, 0x9b, 0x30, 0x92, 0xb1, 0xda, 0xad, 0x2b, 0xaf, 0x38, 0x28, 0x9b, 0xae, 0x9b, 0xb1, 0xdb, 0xb2, 0xad, 0x33, 0x6f, 0x34, 0x87, 0xa3, 0x79, 0x28, 0x7b, 0x2c, 0x1f, 0xb2, 0xce, 0xb0, 0xe9, 0x32, 0xd4, 0x31, 0x95, 0x30, 0xc2, 0x30, 0x56, 0x2b, 0x68, 0xab, 0xe8, 0x32, 0x17, 0x2c, 0xa1, 0xa9, 0x42, 0xb0, 0x53, 0xae, 0x49, 0x29, 0xc8, 0x27, 0x21, 0x2f, 0x75, 0x30, 0xf1, 0xb1, 0xf8, 0x2e, 0xe8, 0x24, 0xa1, 0x2d, 0x5f, 0xaf, 0xae, 0xac, 0xa7, 0x28, 0x6e, 0x30, 0x0a, 0x2c, 0x2b, 0x30, 0x4e, 0xa4, 0x0f, 0xac, 0x7a, 0x31, 0x92, 0xb0, 0x60, 0xb0, 0x24, 0x32, 0xd2, 0x30, 0x08, 0x34, 0x74, 0xae, 0x47, 0xb2, 0x4a, 0xaf, 0x58, 0x33, 0xb7, 0xb0, 0xd1, 0x30, 0x49, 0x8b, 0x28, 0x31, 0xfa, 0xae, 0x5f, 0x32, 0xad, 0xb0, 0xf3, 0xae, 0x1d, 0xb4, 0xc0, 0xac, 0xba, 0x31, 0x7c, 0xa8, 0x4a, 0xb3, 0x48, 0x31, 0x1d, 0x32, 0xdd, 0xb1, 0xbe, 0xac, 0x28, 0xb1, 0xfb, 0x30, 0x6d, 0x34, 0x90, 0x30, 0x11, 0x90, 0x8a, 0xaa, 0xef, 0xaf, 0x2f, 0xb3, 0x5f, 0x32, 0xb3, 0x24, 0x5e, 0x24, 0xb4, 0xb1, 0x38, 0xb2, 0x12, 0xb0, 0x48, 0x2f, 0x28, 0x2a, 0xf0, 0xa4, 0x0b, 0xaf, 0x18, 0x24, 0xff, 0x2f, 0x02, 0x26, 0x48, 0x9c, 0x8a, 0x33, 0x43, 0xad, 0xfd, 0x2c, 0x18, 0xb1, 0xa6, 0xaf, 0x1d, 0xac, 0x5b, 0x32, 0x0a, 0x30, 0xf5, 0xac, 0x2e, 0x32, 0x2c, 0xb1, 0x95, 0xa8, 0xa1, 0x33, 0x5f, 0xae, 0x73, 0xb0, 0x71, 0x2d, 0xde, 0x2c, 0x9c, 0x21, 0x7f, 0x32, 0xf5, 0x31, 0xc7, 0xb3, 0x0c, 0xb1, 0x21, 0x27, 0xba, 0xad, 0x11, 0xb4, 0xb1, 0xb0, 0x31, 0x32, 0x8b, 0xb1, 0x16, 0xb1, 0xec, 0x28, 0x94, 0x2c, 0x62, 0x30, 0x53, 0x34, 0xdd, 0xad, 0x2d, 0x2c, 0xad, 0xb0, 0x15, 0x30, 0xc1, 0x2c, 0x77, 0x2c, 0xff, 0xb1, 0x7d, 0x2c, 0xe9, 0xa8, 0x78, 0xb2, 0x24, 0xad, 0x16, 0x33, 0x47, 0xb2, 0x98, 0xaf, 0xfd, 0x2d, 0xfe, 0xb3, 0x63, 0xb2, 0x0a, 0x32, 0xb5, 0xac, 0x36, 0x31, 0xd2, 0xad, 0x57, 0x30, 0x6f, 0xb3, 0x0a, 0xb1, 0x9a, 0xac, 0x80, 0x32, 0x04, 0x24, 0x91, 0x24, 0xc4, 0x31, 0x14, 0x2b, 0x18, 0xaf, 0x32, 0x30, 0x83, 0x32, 0xaf, 0x32, 0x29, 0xb3, 0x2d, 0x32, 0xe3, 0xb3, 0x8b, 0x2e, 0x8f, 0x2e, 0x16, 0x30, 0x5b, 0xb1, 0xd7, 0x29, 0x8e, 0x32, 0xc0, 0xb1, 0x0d, 0x29, 0x63, 0x27, 0x12, 0xb4, 0xc6, 0xa5, 0x93, 0x31, 0xfc, 0x30, 0xd3, 0x29, 0x0f, 0xac, 0xd4, 0x31, 0xa2, 0x2d, 0x13, 0x2d, 0x44, 0xb1, 0xa4, 0x33, 0xc0, 0x26, 0x11, 0xb1, 0x52, 0xb4, 0x3a, 0xad, 0x5b, 0xaf, 0x8a, 0x30, 0x80, 0xb1, 0x95, 0x2c, 0x01, 0xaf, 0xe3, 0xb4, 0xc0, 0xa6, 0xd4, 0xad, 0x53, 0x30, 0x66, 0x34, 0x08, 0xb2, 0x78, 0xa8, 0x35, 0x31, 0xd8, 0x27, 0xfd, 0xaa, 0x0f, 0x2c, 0x04, 0xb2, 0xc7, 0xb2, 0x36, 0xb1, 0xb1, 0x30, 0xa5, 0x21, 0x30, 0xab, 0xf0, 0xad, 0x27, 0x2c, 0xcc, 0x31, 0x6c, 0x2a, 0x11, 0x31, 0x6f, 0xac, 0x97, 0x28, 0x70, 0x32, 0xdf, 0xad, 0x04, 0x31, 0x49, 0xb2, 0x34, 0x33, 0xdf, 0x33, 0x4e, 0x30, 0xbe, 0x30, 0x84, 0x2a, 0x30, 0x30, 0x24, 0x31, 0xdd, 0x30, 0x0d, 0xb4, 0xa9, 0xa6, 0x00, 0x24, 0x27, 0x2b, 0x51, 0x33, 0x2d, 0x2a, 0x80, 0xb1, 0xb5, 0x31, 0x38, 0xad, 0x1f, 0xa9, 0x45, 0xaa, 0xfd, 0xaf, 0x84, 0x2a, 0x4d, 0xb0, 0x83, 0xac, 0xdd, 0x33, 0x17, 0xad, 0x50, 0x2c, 0x64, 0x21, 0xa0, 0x31, 0xe9, 0xb0, 0x1e, 0x30, 0x31, 0xb0, 0x7d, 0xa5, 0x1d, 0x2d, 0x78, 0xb1, 0x64, 0x2f, 0x1d, 0x2e, 0x4a, 0x32, 0x16, 0x27, 0x4f, 0xb4, 0x49, 0xb4, 0xed, 0xb0, 0x26, 0xb1, 0x30, 0xb0, 0xeb, 0x32, 0x37, 0xb4, 0xc8, 0x31, 0x08, 0xb2, 0x89, 0xb1, 0x9c, 0x31, 0x69, 0xae, 0xaf, 0xaa, 0x25, 0xaa, 0xcb, 0xb2, 0x76, 0x2c, 0x2e, 0x2e, 0xef, 0x30, 0x5a, 0xb2, 0x3e, 0x31, 0xae, 0x2f, 0x99, 0x9d, 0xb6, 0x27, 0x48, 0x2e, 0x40, 0xb3, 0x2d, 0x34, 0x59, 0xaa, 0x16, 0x33, 0x16, 0x33, 0xac, 0x32, 0xb5, 0x33, 0xc1, 0x2a, 0x19, 0xac, 0x2e, 0xb0, 0x3c, 0xb4, 0xc8, 0x2c, 0x2a, 0x9d, 0xdc, 0xb0, 0x3d, 0x2a, 0xf5, 0x31, 0x65, 0xb2, 0x49, 0xb2, 0x1c, 0xb0, 0x77, 0xb4, 0x5b, 0x2d, 0x24, 0x29, 0x35, 0x33, 0x70, 0x32, 0x8e, 0x32, 0x4a, 0xb1, 0x3f, 0x2e, 0x5d, 0xb2, 0xbb, 0x28, 0x85, 0xb1, 0xeb, 0x30, 0xf5, 0xae, 0xb9, 0xad, 0xf3, 0xb1, 0xa6, 0xac, 0xb0, 0x99, 0x57, 0x2c, 0x89, 0xb0, 0xe7, 0xb0, 0xd5, 0x22, 0x04, 0x32, 0xf0, 0xb1, 0x16, 0xad, 0x97, 0x32, 0x80, 0xac, 0xe4, 0x33, 0xa4, 0x1f, 0xa3, 0x25, 0x35, 0x31, 0xf5, 0xa5, 0xf2, 0x30, 0x9e, 0x26, 0x1c, 0x33, 0x35, 0x31, 0xba, 0xb3, 0x93, 0x34, 0xf5, 0xb1, 0x3f, 0xb0, 0x1f, 0xb2, 0xbb, 0x22, 0x9e, 0xad, 0x2d, 0xb1, 0x19, 0x32, 0x0e, 0x33, 0x93, 0x2f, 0x75, 0x31, 0x01, 0xb3, 0xd9, 0x31, 0x01, 0x1c, 0xe6, 0x30, 0x1f, 0x2a, 0x60, 0x2e, 0x9d, 0x33, 0x01, 0xb4, 0xfb, 0x25, 0x99, 0x33, 0xf8, 0xa5, 0x4a, 0xb0, 0xc3, 0x33, 0xf3, 0xaf, 0x9f, 0xb2, 0x57, 0x2d, 0x22, 0x33, 0x5d, 0xaa, 0xc6, 0xb2, 0x50, 0xb2, 0xdb, 0x30, 0x0c, 0xb4, 0xee, 0x31, 0x1f, 0xb1, 0xa0, 0xac, 0x9d, 0x30, 0xc1, 0x30, 0xba, 0xae, 0x60, 0xb1, 0x8b, 0xb2, 0xcc, 0xb0, 0x70, 0x33, 0x7f, 0xb2, 0xa4, 0xaf, 0xcc, 0xab, 0xfd, 0xa8, 0x9c, 0xab, 0xeb, 0xaf, 0xaf, 0x2d, 0xa2, 0xb3, 0xcd, 0x30, 0x5f, 0x24, 0x12, 0x2e, 0xf7, 0x30, 0xd7, 0x31, 0xd0, 0x30, 0xb6, 0x32, 0x19, 0x31, 0x96, 0xa3, 0xf7, 0x30, 0xa0, 0x24, 0x36, 0xb1, 0x23, 0xa5, 0x40, 0x33, 0xab, 0x30, 0x15, 0x2c, 0xbc, 0x34, 0x8e, 0x2c, 0xa4, 0x28, 0x38, 0xad, 0xc2, 0xaa, 0x21, 0xb1, 0x0f, 0x30, 0xee, 0x2b, 0xfb, 0x2c, 0x05, 0xb2, 0x4d, 0x33, 0xdd, 0xb2, 0x4d, 0x2c, 0xd8, 0x2a, 0x98, 0x20, 0x6c, 0xb1, 0x4e, 0x2d, 0xc0, 0x30, 0xc0, 0x2a, 0x54, 0xb1, 0x05, 0x24, 0x09, 0xa5, 0xef, 0x2d, 0x9d, 0x33, 0x45, 0x2f, 0x70, 0xb4, 0x85, 0x34, 0xc1, 0x34, 0xdd, 0x2c, 0x14, 0xac, 0x75, 0x2d, 0xd5, 0x33, 0x8e, 0x33, 0x90, 0x31, 0x91, 0x30, 0x64, 0x90, 0xe2, 0x31, 0xf1, 0xaf, 0x21, 0x2f, 0x6d, 0xab, 0x73, 0x31, 0xec, 0xb0, 0xed, 0xaf, 0x97, 0xab, 0x8f, 0x31, 0xfa, 0x30, 0x57, 0xb2, 0x6c, 0x2f, 0xc3, 0xae, 0xd1, 0x1f, 0x9e, 0xad, 0x23, 0x34, 0xa6, 0x2e, 0xdd, 0x30, 0x8e, 0x9c, 0x3e, 0x2a, 0xc5, 0x2e, 0xe0, 0xae, 0xfc, 0xab, 0x8d, 0x29, 0x55, 0xb1, 0x36, 0xb1, 0x2f, 0xb2, 0x95, 0xa1, 0x9c, 0x33, 0x45, 0x2a, 0xca, 0x2f, 0x2b, 0xb0, 0x41, 0x34, 0x02, 0x34, 0xa8, 0x22, 0x25, 0x2f, 0xd1, 0xb1, 0xc3, 0xac, 0x0b, 0x34, 0x4c, 0xb1, 0xd3, 0xb0, 0x4f, 0xb2, 0xc5, 0x31, 0xa1, 0x32, 0xa7, 0xb2, 0x45, 0x2b, 0x1e, 0xb1, 0x58, 0x33, 0x2c, 0xa9, 0x7d, 0xad, 0xb3, 0x32, 0x07, 0x33, 0xd7, 0xb0, 0x3c, 0xac, 0x99, 0xae, 0x68, 0x30, 0xb2, 0xb0, 0x9c, 0x33, 0x8e, 0x30, 0xfe, 0xb2, 0xc1, 0x9a, 0x3c, 0x2e, 0xfd, 0xab, 0x92, 0x30, 0xe5, 0x2e, 0x68, 0x32, 0x14, 0x31, 0x2e, 0xb0, 0xcb, 0x2c, 0x3b, 0xaa, 0x7a, 0x26, 0xf9, 0xb2, 0xef, 0x26, 0x3c, 0xb2, 0x31, 0x9c, 0x3d, 0x2e, 0xff, 0xa7, 0x74, 0xb3, 0x82, 0x30, 0x03, 0xab, 0x5c, 0x2f, 0x52, 0x32, 0x0e, 0xb1, 0xca, 0xb3, 0x3b, 0xab, 0x3e, 0x34, 0x7d, 0x2a, 0xf4, 0x2c, 0x27, 0x9e, 0x04, 0x30, 0x3a, 0x30, 0xbb, 0x32, 0xac, 0x31, 0xa4, 0x31, 0x69, 0xae, 0x42, 0x31, 0x0f, 0x29, 0x54, 0xb3, 0x9e, 0x2f, 0xea, 0xb2, 0x8f, 0x32, 0x44, 0xb3, 0x95, 0xaf, 0x88, 0xac, 0x53, 0x2b, 0xc9, 0x22, 0xf3, 0x1c, 0xa8, 0xb4, 0x61, 0xb1, 0x93, 0x30, 0xb4, 0x9c, 0x9b, 0xb0, 0xb0, 0xb0, 0x30, 0x32, 0xc0, 0x2c, 0x78, 0xb0, 0x8a, 0xad, 0x4a, 0xb4, 0x95, 0x2c, 0x41, 0x33, 0x4f, 0xb2, 0x9e, 0x26, 0x36, 0xb0, 0xd5, 0xb1, 0x0b, 0xb1, 0x82, 0xac, 0x15, 0x31, 0x73, 0xb3, 0xa5, 0x34, 0x10, 0x2c, 0x12, 0xa3, 0xb9, 0x26, 0xbf, 0xb1, 0x45, 0xb1, 0x7a, 0x30, 0x1d, 0xa9, 0x38, 0xad, 0x5a, 0xb1, 0xb9, 0x32, 0x94, 0xa4, 0x60, 0x2e, 0xa1, 0xb2, 0x57, 0xad, 0xb3, 0x26, 0xe4, 0xb2, 0x05, 0x33, 0xf9, 0x2c, 0xf4, 0x31, 0x87, 0xa7, 0x52, 0xb3, 0x8b, 0x29, 0x5a, 0x2d, 0x6f, 0xae, 0x35, 0x9c, 0xf0, 0x29, 0x4e, 0xa5, 0x0c, 0x2d, 0x37, 0xb3, 0x25, 0x2f, 0x0d, 0xb0, 0xb3, 0xad, 0x7e, 0x33, 0x27, 0xb0, 0xad, 0xb2, 0x0f, 0x33, 0xe4, 0x28, 0x2a, 0xb4, 0x36, 0x31, 0x37, 0x34, 0x9b, 0xad, 0x08, 0x32, 0xce, 0x2f, 0xdd, 0xa8, 0x43, 0x30, 0x16, 0xb3, 0xcf, 0x32, 0x84, 0xa3, 0xd6, 0xaf, 0x27, 0x2f, 0x4e, 0xaf, 0x0f, 0x29, 0x9e, 0x29, 0x3e, 0xb0, 0xfd, 0x34, 0x91, 0xab, 0x13, 0xad, 0xd1, 0xb0, 0x5b, 0x32, 0x6c, 0x26, 0x2b, 0x33, 0x56, 0xb0, 0xb4, 0x1f, 0x16, 0xa8, 0x7a, 0xb2, 0x32, 0x31, 0x49, 0x2d, 0x2f, 0x31, 0x85, 0x2b, 0x7e, 0xa9, 0xf2, 0xb0, 0x83, 0xb1, 0xb5, 0x30, 0x30, 0xaf, 0x2e, 0xa5, 0x0c, 0x33, 0x13, 0x34, 0xdb, 0x31, 0x48, 0xad, 0x53, 0x1b, 0xf9, 0x2f, 0x79, 0x30, 0xf4, 0x23, 0x88, 0xa6, 0xef, 0xa5, 0x1d, 0xb4, 0x2a, 0x32, 0xaa, 0x31, 0xa9, 0xa4, 0x27, 0x32, 0x14, 0xac, 0xdc, 0xb3, 0x6e, 0xac, 0x24, 0x2a, 0x8e, 0xb3, 0x84, 0x33, 0x7b, 0xb3, 0x34, 0x34, 0x59, 0x2d, 0xcb, 0xb0, 0xba, 0xab, 0xef, 0xb0, 0x62, 0x34, 0x8d, 0xa9, 0x15, 0xaf, 0x18, 0x32, 0x7b, 0x2e, 0xe3, 0x31, 0xa7, 0xae, 0x32, 0x2e, 0xdb, 0x32, 0xc4, 0x28, 0x37, 0xb0, 0xd3, 0xa9, 0x5d, 0xb2, 0x38, 0xb2, 0xe7, 0x34, 0x94, 0xaf, 0xb0, 0xb0, 0x4c, 0xac, 0x09, 0x30, 0xc4, 0xb1, 0x88, 0x34, 0x0b, 0xb2, 0xb7, 0x30, 0xf6, 0xaf, 0xcd, 0x30, 0x22, 0xad, 0xe0, 0xb1, 0xce, 0x32, 0xb0, 0xaf, 0x94, 0xae, 0x65, 0x32, 0x6d, 0xaf, 0xad, 0x34, 0xb6, 0xb1, 0x83, 0x2d, 0x9a, 0xa4, 0x09, 0x2d, 0x11, 0x33, 0x98, 0xab, 0xbd, 0x32, 0xc3, 0xab, 0xf7, 0xb0, 0x12, 0xac, 0x01, 0x34, 0xe0, 0x30, 0xbb, 0xaf, 0xfc, 0xb1, 0x93, 0x93, 0xa2, 0xaa, 0x6d, 0xb1, 0x21, 0xad, 0xf8, 0xb1, 0x2c, 0x30, 0xb7, 0x32, 0x8e, 0x30, 0x54, 0xb1, 0x1d, 0xad, 0xde, 0x33, 0x0e, 0x34, 0x3f, 0xa0, 0xad, 0x2a, 0x9b, 0xb4, 0x10, 0xad, 0x01, 0x2e, 0x03, 0x2d, 0xd9, 0x26, 0x62, 0xb3, 0x3d, 0x34, 0x28, 0x32, 0x18, 0xae, 0x04, 0x31, 0x6b, 0x31, 0x31, 0x28, 0x31, 0xae, 0xde, 0xb1, 0x80, 0xad, 0x7c, 0x33, 0xe7, 0x2c, 0x19, 0x2c, 0x58, 0x33, 0x2b, 0x2c, 0x78, 0x30, 0x4d, 0xb0, 0x54, 0xa2, 0xeb, 0xaa, 0x14, 0x98, 0x24, 0x32, 0x93, 0xab, 0x76, 0x32, 0x49, 0x32, 0x07, 0x9e, 0x6f, 0xb1, 0xe0, 0x2f, 0x78, 0x2e, 0xa0, 0xb1, 0x16, 0xb2, 0x16, 0xb2, 0xa2, 0xb2, 0xeb, 0xae, 0x03, 0x19, 0x5b, 0x33, 0x11, 0x33, 0xbf, 0xab, 0x7d, 0xa1, 0x9e, 0xb1, 0x85, 0xb1, 0xeb, 0x30, 0xcd, 0xb2, 0x32, 0x9d, 0x1a, 0xb4, 0xe9, 0x2d, 0xe1, 0x32, 0x54, 0xb0, 0xae, 0xab, 0x22, 0xb3, 0x71, 0x33, 0x3d, 0xb1, 0x87, 0x32, 0x94, 0x2e, 0x71, 0x33, 0x10, 0xae, 0xe2, 0xb3, 0x9d, 0x2a, 0x2b, 0x2e, 0x61, 0xb0, 0xa6, 0xb1, 0x84, 0x2e, 0x58, 0x31, 0x2b, 0x2f, 0x56, 0x2a, 0x86, 0xb0, 0xce, 0xb2, 0x12, 0x33, 0x5c, 0x33, 0x88, 0xb2, 0x4a, 0xb4, 0x12, 0x33, 0x99, 0xb4, 0x6d, 0xab, 0x4f, 0x32, 0xc0, 0xaf, 0x62, 0xb3, 0xef, 0x2e, 0xd2, 0x31, 0xc9, 0x32, 0x52, 0xb4, 0xec, 0x25, 0xf9, 0x2e, 0x6f, 0x2b, 0xe1, 0xac, 0x43, 0x33, 0x5a, 0x29, 0x6b, 0x25, 0xb7, 0xa7, 0x9c, 0xa4, 0x43, 0xb2, 0x26, 0xa8, 0x03, 0xb0, 0xe0, 0xad, 0x3b, 0xb4, 0xd6, 0xb0, 0x1e, 0x18, 0x07, 0xae, 0x53, 0x31, 0x81, 0x33, 0x7c, 0x31, 0x3d, 0xb2, 0x73, 0xb1, 0xf1, 0x2e, 0xcb, 0x34, 0x49, 0x34, 0xab, 0xb3, 0x5f, 0xa9, 0x9f, 0xb1, 0x6c, 0xa5, 0xf8, 0x30, 0xa5, 0xb2, 0xd5, 0x31, 0x3f, 0xb0, 0x2f, 0x23, 0x26, 0x2c, 0x6a, 0xac, 0xf6, 0xab, 0x15, 0x34, 0xe5, 0xae, 0x8c, 0x2f, 0x4c, 0xac, 0x18, 0x2f, 0x29, 0xae, 0xd5, 0xac, 0x12, 0x31, 0xa4, 0xac, 0x74, 0xad, 0x63, 0xb1, 0x80, 0x2c, 0x59, 0x2f, 0x1e, 0xb3, 0x8c, 0xb0, 0xfc, 0x27, 0x64, 0x2c, 0x08, 0x2c, 0x53, 0x32, 0x96, 0x1a, 0x59, 0xb1, 0x53, 0xaf, 0xdf, 0x31, 0x5f, 0x29, 0xdc, 0xb1, 0xd5, 0x28, 0x74, 0x25, 0x99, 0xad, 0x6d, 0xa0, 0x88, 0x29, 0xd9, 0xa9, 0xd6, 0x31, 0xe3, 0x2a, 0x50, 0xb4, 0x43, 0xad, 0x6f, 0x33, 0xc9, 0xb0, 0x8a, 0x2d, 0x0a, 0xac, 0xa5, 0x98, 0x08, 0x33, 0x21, 0x33, 0x1e, 0xb4, 0x69, 0x34, 0x31, 0x33, 0xb6, 0xaa, 0x84, 0xb1, 0x87, 0x2d, 0x62, 0x32, 0xea, 0xab, 0x7e, 0xb2, 0x8c, 0xa0, 0x80, 0xa8, 0xaa, 0xa0, 0x6f, 0xac, 0xd9, 0x2d, 0xb1, 0xac, 0x00, 0xb4, 0x5a, 0x2f, 0xb4, 0xb2, 0x99, 0x1c, 0xc1, 0xb0, 0x3c, 0x30, 0x32, 0xb2, 0x7f, 0xb1, 0x42, 0x32, 0x9a, 0xa9, 0x11, 0xaf, 0x25, 0xb3, 0x42, 0x2e, 0x43, 0x34, 0x38, 0xb4, 0x6b, 0xb0, 0x06, 0xb1, 0x49, 0x30, 0xbc, 0xab, 0x3f, 0xa7, 0xf6, 0x27, 0x50, 0x31, 0xd7, 0xae, 0x48, 0x2d, 0xac, 0x28, 0x22, 0x33, 0x53, 0x2b, 0x29, 0xb2, 0xd1, 0xb0, 0x00, 0xb2, 0x73, 0xb1, 0x3b, 0x2c, 0xc5, 0xb2, 0x7d, 0x2d, 0x47, 0x2a, 0x06, 0x31, 0x58, 0xb4, 0x99, 0xaa, 0x7c, 0x2d, 0x28, 0x2d, 0x2a, 0x91, 0xd6, 0xa3, 0xee, 0xad, 0x3b, 0x31, 0x9e, 0xa9, 0x5d, 0x33, 0xdc, 0x2e, 0x4d, 0x32, 0x39, 0xb4, 0xa4, 0x33, 0x29, 0xb4, 0xb6, 0x28, 0xd3, 0x30, 0x53, 0x31, 0x86, 0xb2, 0x78, 0x33, 0x33, 0x32, 0x6d, 0xb2, 0xba, 0xa5, 0x64, 0x28, 0x05, 0x2f, 0x16, 0xa4, 0xe5, 0x2d, 0x15, 0xb0, 0x0d, 0xa5, 0xe4, 0xb1, 0x27, 0xb0, 0xb3, 0x32, 0x47, 0x28, 0xe0, 0xb3, 0x9c, 0x97, 0xd5, 0x33, 0xa3, 0x22, 0x09, 0x2e, 0x99, 0x30, 0x79, 0x30, 0x7f, 0x30, 0x67, 0x20, 0x4f, 0x32, 0x38, 0xad, 0xeb, 0xb1, 0x01, 0xa8, 0x75, 0xa3, 0xfb, 0x21, 0x0b, 0x2a, 0xd5, 0x33, 0x87, 0x26, 0xc4, 0xb0, 0x86, 0xaa, 0x36, 0x34, 0xce, 0x31, 0x82, 0xb3, 0x69, 0x33, 0xad, 0x2e, 0x20, 0xaf, 0xe8, 0x30, 0xa8, 0x30, 0xeb, 0xad, 0xd1, 0x30, 0xda, 0x2a, 0xe7, 0xaa, 0x1d, 0xae, 0x63, 0x9e, 0xc3, 0x30, 0xe8, 0xac, 0xb7, 0xb0, 0xad, 0xad, 0x65, 0x31, 0xea, 0xb2, 0xcb, 0xac, 0x29, 0x30, 0xb9, 0xb1, 0x10, 0xb2, 0xc9, 0xb2, 0xd0, 0x34, 0xa1, 0x2f, 0x52, 0xb1, 0x0c, 0x31, 0x78, 0x30, 0xec, 0xb1, 0x41, 0x2a, 0xb3, 0xae, 0xe8, 0xa2, 0x12, 0xac, 0x63, 0x2b, 0x49, 0x23, 0xd2, 0xb1, 0x87, 0xb3, 0xc3, 0x34, 0xe4, 0xae, 0x0a, 0xb4, 0x4a, 0x2a, 0x13, 0x32, 0xc1, 0x2d, 0x88, 0x2f, 0xf8, 0xb3, 0xa9, 0xa0, 0xe0, 0x32, 0xb2, 0x31, 0x76, 0x35, 0x05, 0xa9, 0xd4, 0xad, 0x7d, 0x30, 0x0e, 0x32, 0x31, 0x33, 0x12, 0x30, 0x21, 0x32, 0x5d, 0xa8, 0x27, 0x2b, 0x42, 0x34, 0x45, 0x29, 0x63, 0x2d, 0x09, 0x9c, 0x94, 0x32, 0x3b, 0x31, 0xeb, 0x27, 0xa9, 0xb1, 0xde, 0x32, 0x0f, 0xaf, 0xa8, 0xae, 0x79, 0xb1, 0x30, 0xb2, 0x33, 0xb1, 0x3f, 0x29, 0xa5, 0xb2, 0x4a, 0x26, 0x7c, 0xad, 0x91, 0x2c, 0xed, 0x2a, 0x3e, 0x2c, 0xb0, 0xb2, 0xe3, 0x30, 0xf3, 0xb1, 0xbf, 0xa9, 0x01, 0xa9, 0x43, 0x2c, 0xb6, 0xb2, 0xb8, 0xb3, 0x2d, 0xac, 0xa6, 0x32, 0xdf, 0xa0, 0x1a, 0xae, 0xb1, 0xb1, 0x01, 0xae, 0x8e, 0xcf, 0xff, 0xff, 0x04, 0x00, 0x00, 0x00, 0x00, 0x08, 0x00, 0x00, 0xb8, 0xb4, 0xe3, 0xad, 0x5c, 0x2c, 0x11, 0x2f, 0x64, 0xaa, 0xba, 0xac, 0xa9, 0x22, 0x5c, 0x2d, 0x96, 0xb4, 0x9e, 0xa4, 0x88, 0x32, 0xaf, 0x34, 0x65, 0x02, 0x61, 0xad, 0x98, 0x2f, 0x4c, 0x32, 0x9b, 0xb0, 0xbb, 0x30, 0x1a, 0xad, 0xa6, 0x34, 0x52, 0x33, 0x34, 0x2d, 0xf1, 0xaf, 0x4f, 0xb4, 0x12, 0xa5, 0x38, 0x2c, 0x16, 0x30, 0xb2, 0xae, 0xe5, 0x2e, 0x11, 0x24, 0x0a, 0xb0, 0xd8, 0x2b, 0x5b, 0xb0, 0x0d, 0x24, 0xd4, 0xb1, 0xdd, 0xb2, 0x65, 0x33, 0x64, 0x32, 0xfe, 0x1e, 0xef, 0x23, 0xc7, 0x30, 0x35, 0xb0, 0x34, 0xae, 0xd5, 0xae, 0x43, 0xa8, 0x3e, 0x33, 0x47, 0xa1, 0xf7, 0xad, 0xf9, 0x33, 0x47, 0xac, 0xd8, 0x33, 0x09, 0x32, 0xf7, 0x25, 0x38, 0xa3, 0xa0, 0xa5, 0xc8, 0xae, 0xa9, 0xac, 0x41, 0x34, 0x76, 0x32, 0x96, 0xa3, 0x34, 0xb1, 0x3b, 0x30, 0x2c, 0x31, 0xab, 0xad, 0x6a, 0x2f, 0x79, 0xb0, 0x58, 0x2f, 0x12, 0xa9, 0x8e, 0x18, 0x51, 0x22, 0x11, 0xae, 0xff, 0xb1, 0x13, 0x33, 0x58, 0xaf, 0x5a, 0x33, 0x23, 0x31, 0xa5, 0x25, 0x40, 0xb3, 0xc7, 0xb0, 0x9a, 0x25, 0x83, 0xa8, 0x29, 0x31, 0xbe, 0xb3, 0xf9, 0xa8, 0x96, 0x31, 0xa2, 0x31, 0xbb, 0x30, 0x10, 0x32, 0x73, 0xb1, 0x2e, 0x22, 0x79, 0x2a, 0x40, 0x25, 0x2f, 0xb1, 0x18, 0xb2, 0xfa, 0xb2, 0x8e, 0xb2, 0x7c, 0x30, 0xfe, 0xb2, 0x0d, 0x2b, 0xfd, 0x9d, 0x3b, 0x31, 0x88, 0xae, 0x72, 0x2a, 0xbe, 0xb4, 0xbb, 0xb2, 0xef, 0xb0, 0xb5, 0x30, 0x44, 0x30, 0x5d, 0xb1, 0xb6, 0x30, 0x3e, 0xb2, 0x24, 0x32, 0x3e, 0xad, 0x91, 0x2d, 0x53, 0x24, 0x35, 0x34, 0xff, 0x28, 0x15, 0x2d, 0x52, 0x2b, 0x07, 0xb0, 0x70, 0xaf, 0x8c, 0xae, 0x27, 0x2c, 0xf6, 0xa9, 0xab, 0x30, 0xbe, 0xb1, 0xd0, 0x2d, 0xea, 0x32, 0x06, 0x2e, 0xd7, 0x2e, 0xf6, 0x32, 0x4e, 0xb2, 0xdb, 0xb4, 0x57, 0xaf, 0xad, 0x2d, 0x36, 0xb0, 0x13, 0x26, 0xfa, 0x26, 0x83, 0x31, 0xae, 0x33, 0xeb, 0x2c, 0xb3, 0xb2, 0x32, 0xb4, 0xb1, 0x9e, 0xcb, 0x2d, 0xbe, 0x30, 0x9b, 0x33, 0x59, 0x31, 0x3c, 0x2d, 0x08, 0x2c, 0xed, 0x28, 0xb1, 0xb3, 0x93, 0x33, 0x13, 0x30, 0x3d, 0xaf, 0x6a, 0xb0, 0x18, 0x34, 0x8a, 0xa9, 0x59, 0xa4, 0xde, 0xb2, 0x78, 0x34, 0xb3, 0xb0, 0xf7, 0x2f, 0x8a, 0xb3, 0x98, 0xad, 0x3b, 0x30, 0xd6, 0xb3, 0x69, 0xa8, 0x06, 0x32, 0x5f, 0xb4, 0x03, 0x30, 0xe4, 0x29, 0xef, 0x30, 0xb9, 0x2d, 0x2b, 0x34, 0xd0, 0x33, 0x13, 0xaf, 0x21, 0xb1, 0x9e, 0xad, 0x5d, 0x30, 0x2c, 0xaf, 0x18, 0x1f, 0x4f, 0x2c, 0x5f, 0x2f, 0x86, 0xb1, 0x4d, 0x2e, 0xf6, 0xa8, 0xe2, 0xab, 0x1f, 0xb0, 0xf3, 0x31, 0xb2, 0x2d, 0xe2, 0xb0, 0xab, 0xaa, 0xf5, 0x2d, 0x5d, 0xb2, 0x3b, 0xaf, 0x90, 0x34, 0x53, 0xb0, 0xa7, 0x26, 0xf0, 0x26, 0xaf, 0xb0, 0x81, 0xae, 0xa0, 0x32, 0x7d, 0xb2, 0x47, 0xb2, 0x7c, 0x30, 0x02, 0x2e, 0x60, 0x33, 0xdb, 0xae, 0xde, 0xac, 0x54, 0x2a, 0xbb, 0xac, 0x22, 0x31, 0x13, 0x2f, 0x1d, 0xb1, 0x1c, 0x2d, 0x2d, 0x1c, 0x19, 0x2f, 0xb3, 0x2f, 0xcb, 0x2d, 0xbf, 0xb1, 0xf5, 0x2e, 0x98, 0x30, 0x67, 0xb2, 0x08, 0xac, 0x89, 0xae, 0x9b, 0xb0, 0x98, 0x30, 0x9f, 0x2a, 0x62, 0xb1, 0x7d, 0xae, 0xdf, 0xa8, 0x2e, 0x2c, 0x75, 0xa4, 0x95, 0xb2, 0x2f, 0xb4, 0xb8, 0x20, 0x50, 0xb1, 0x0b, 0xb3, 0xda, 0x30, 0x22, 0x2d, 0x13, 0x2d, 0x81, 0xb3, 0x73, 0xa8, 0x4d, 0x2c, 0x31, 0xb0, 0xa3, 0xb1, 0xd5, 0x2f, 0x88, 0x2e, 0xaa, 0xaa, 0x0b, 0x30, 0xfb, 0xb2, 0x3d, 0x26, 0x13, 0x32, 0xe3, 0xa6, 0xaa, 0xa8, 0x96, 0x2c, 0x11, 0x30, 0x83, 0xa0, 0xa1, 0x2c, 0x6a, 0xb3, 0x24, 0xaa, 0xd9, 0xb0, 0x42, 0xa9, 0x86, 0xa9, 0x21, 0x33, 0x1c, 0x33, 0xb0, 0x2c, 0xb1, 0x33, 0x5c, 0x33, 0x9d, 0x2d, 0x8e, 0x31, 0x85, 0x2a, 0xeb, 0xae, 0x71, 0xb3, 0xf4, 0xad, 0xcd, 0xad, 0xc5, 0x30, 0xe3, 0x33, 0xa2, 0xad, 0xb0, 0x2f, 0xc4, 0xb1, 0xd2, 0xb1, 0x63, 0xb0, 0xbd, 0x31, 0xce, 0x2c, 0x07, 0x30, 0xf6, 0xb0, 0xcc, 0x30, 0x1b, 0x33, 0xab, 0xae, 0x3b, 0xb0, 0xbb, 0x1a, 0x24, 0x30, 0x7d, 0xb1, 0xda, 0x2d, 0x6f, 0xb0, 0x40, 0xb4, 0x59, 0x31, 0xcf, 0xb3, 0xb1, 0x2e, 0x69, 0xb1, 0xfe, 0xaf, 0x93, 0x31, 0x4a, 0xb3, 0x13, 0xb1, 0x5a, 0xa4, 0x13, 0xb4, 0xa6, 0xb0, 0x9a, 0x2f, 0x6a, 0xb1, 0x85, 0x31, 0xb5, 0xae, 0x10, 0x34, 0x8e, 0x33, 0xda, 0x9c, 0x72, 0xb2, 0xc6, 0x91, 0x4a, 0xa7, 0x5f, 0xb2, 0x0a, 0xb4, 0x3d, 0xae, 0x2f, 0x27, 0xc4, 0xac, 0x69, 0xab, 0x5f, 0x34, 0x04, 0x31, 0xcd, 0xad, 0x0d, 0x31, 0x18, 0x2c, 0x57, 0x2e, 0xe1, 0x2d, 0xa9, 0xb3, 0xe3, 0xa7, 0x38, 0x28, 0xa7, 0xac, 0x6c, 0xa6, 0xfc, 0xb1, 0xb5, 0xaf, 0x53, 0x31, 0xfb, 0x2c, 0xb1, 0x2b, 0xff, 0xa5, 0x74, 0x32, 0x7f, 0x2a, 0x4d, 0x31, 0xba, 0x24, 0x34, 0x34, 0xf6, 0x2b, 0x5f, 0x2e, 0x07, 0xb0, 0xf0, 0x32, 0x7e, 0x2e, 0x54, 0x2c, 0x2d, 0xb2, 0xee, 0x9d, 0xd8, 0x2c, 0xba, 0xac, 0x38, 0xb4, 0xfc, 0xb4, 0xc8, 0xaf, 0x1a, 0xb0, 0x6c, 0xb2, 0xd0, 0x2d, 0x57, 0x33, 0x47, 0xb4, 0x25, 0x29, 0xb0, 0xab, 0xf2, 0x31, 0x0c, 0x2d, 0xc4, 0xae, 0xf7, 0x33, 0x96, 0xaf, 0x21, 0xb0, 0x9a, 0x32, 0x13, 0x29, 0x26, 0xb1, 0x4c, 0xb0, 0x04, 0x2f, 0xff, 0xb3, 0x34, 0x2e, 0xa7, 0x26, 0x6c, 0xb4, 0xb8, 0x2e, 0x1e, 0x2f, 0x29, 0xb2, 0x28, 0x27, 0xc4, 0xaf, 0xae, 0xb4, 0x30, 0x34, 0x5b, 0xb4, 0x43, 0xb1, 0xd7, 0xae, 0x4f, 0x31, 0x3f, 0xae, 0xff, 0xb2, 0x55, 0x30, 0x47, 0xb0, 0xe6, 0xac, 0x86, 0x2f, 0x5e, 0x2c, 0xd6, 0x32, 0x39, 0xb1, 0xb5, 0xb1, 0x0a, 0x31, 0x18, 0xb4, 0x0c, 0x2e, 0x66, 0x30, 0x88, 0x31, 0x88, 0x32, 0x62, 0x31, 0xd6, 0x2b, 0x81, 0x34, 0xb4, 0x32, 0x18, 0x31, 0x12, 0x34, 0x24, 0x2f, 0x49, 0xab, 0x57, 0xb4, 0x16, 0xa3, 0x76, 0x29, 0x67, 0xae, 0x61, 0xb0, 0x42, 0xb3, 0xd6, 0x2c, 0x35, 0xae, 0xff, 0x27, 0xe1, 0x2c, 0xac, 0x27, 0x4a, 0x2f, 0xc8, 0xae, 0x3a, 0xa7, 0x9c, 0x33, 0xc6, 0x32, 0xb3, 0x34, 0x84, 0x2f, 0xb2, 0xb2, 0xc3, 0xb4, 0x7e, 0x34, 0x9e, 0xb1, 0x05, 0x33, 0x69, 0xb2, 0x85, 0x32, 0x10, 0xb5, 0x7f, 0x2d, 0x90, 0x2e, 0x9e, 0x32, 0x88, 0x2e, 0xb8, 0xb0, 0x11, 0xab, 0x73, 0x32, 0x6e, 0xa8, 0x93, 0xae, 0x2a, 0xb2, 0x25, 0x2e, 0x9e, 0xb2, 0xd8, 0x9a, 0x9b, 0x1f, 0xa7, 0x9e, 0xc2, 0x30, 0x32, 0x2a, 0xfc, 0x27, 0x42, 0xb4, 0xb4, 0xb1, 0xdd, 0x32, 0x33, 0x1e, 0x07, 0xaf, 0x84, 0xa9, 0xa5, 0x2c, 0x09, 0x22, 0x1f, 0xa9, 0x49, 0xb2, 0xd4, 0x23, 0x6b, 0xb2, 0x2c, 0xab, 0xcd, 0xae, 0x45, 0x32, 0x68, 0x33, 0x52, 0x2e, 0x86, 0xb0, 0x14, 0x34, 0x50, 0xaf, 0x67, 0xb4, 0xf1, 0xb1, 0x1d, 0x32, 0x3f, 0xa5, 0xbc, 0xb0, 0xcf, 0x30, 0x1c, 0xab, 0xef, 0xa8, 0x1f, 0x2b, 0xd0, 0xb2, 0xec, 0x32, 0x1c, 0xaf, 0xe4, 0x31, 0x2e, 0x2d, 0x0f, 0xab, 0x41, 0xad, 0xd9, 0x33, 0x4b, 0xae, 0xaa, 0xa4, 0x55, 0x31, 0x16, 0xb1, 0xbe, 0x2d, 0xd4, 0xac, 0x99, 0xb3, 0x71, 0x2c, 0xb4, 0x30, 0x4f, 0xa9, 0xac, 0xaa, 0xe7, 0x2c, 0xf1, 0xae, 0x65, 0x31, 0x9a, 0xa6, 0xfb, 0xb1, 0xed, 0x2f, 0x0b, 0x2d, 0x19, 0x2a, 0x73, 0x30, 0x53, 0xad, 0x67, 0x2c, 0xe4, 0xb1, 0xfb, 0xb0, 0x06, 0xb4, 0x9c, 0x2c, 0x1c, 0xb3, 0x74, 0xad, 0x5a, 0xa9, 0x26, 0x32, 0x13, 0x29, 0x6f, 0x2a, 0xe4, 0x2f, 0x6b, 0xa2, 0xa5, 0x33, 0xda, 0xae, 0x08, 0xa9, 0x37, 0x30, 0xdc, 0x32, 0x3f, 0xb2, 0x7c, 0x30, 0xa6, 0x2d, 0x18, 0x23, 0x8e, 0xab, 0x23, 0xad, 0xe1, 0xb3, 0xf1, 0xa8, 0x63, 0x34, 0x28, 0x29, 0x1a, 0xb0, 0xb7, 0xa9, 0xdf, 0xab, 0xa9, 0xab, 0xe1, 0x2e, 0x4d, 0xb4, 0xc9, 0xb1, 0xed, 0x31, 0xff, 0xb1, 0x4a, 0x27, 0x8c, 0x17, 0x86, 0xa5, 0xdf, 0xad, 0xef, 0xb1, 0xb9, 0xaf, 0x1a, 0xb4, 0xb7, 0xb2, 0x97, 0x32, 0xa8, 0x2c, 0x0d, 0xaf, 0xf2, 0xb0, 0x0b, 0x30, 0xb9, 0xb2, 0x5f, 0xb2, 0x4c, 0x29, 0x33, 0xac, 0xa8, 0x2f, 0x41, 0x30, 0xb5, 0x33, 0x15, 0xb4, 0x03, 0x2e, 0xe3, 0x31, 0x5c, 0xb0, 0xb6, 0x2a, 0x7a, 0xb3, 0x76, 0x32, 0x85, 0xb1, 0x70, 0xae, 0x3d, 0xa8, 0x69, 0x2e, 0xe5, 0xab, 0x2f, 0x2d, 0xb6, 0xb0, 0x36, 0x34, 0x41, 0xae, 0x39, 0xa4, 0x69, 0xb4, 0x90, 0x32, 0x71, 0xad, 0x6d, 0xa5, 0x1c, 0x29, 0xc9, 0x29, 0x6c, 0x33, 0x41, 0x32, 0xb2, 0x34, 0x9b, 0x2e, 0xa2, 0x25, 0xed, 0xaf, 0x25, 0xb0, 0xda, 0x32, 0x4d, 0xb0, 0x53, 0xb1, 0xd4, 0x20, 0x47, 0xa8, 0x5e, 0xb2, 0xde, 0x30, 0x46, 0x30, 0x45, 0x2e, 0x5f, 0xb2, 0x92, 0x30, 0x1e, 0x2c, 0xee, 0x31, 0x60, 0xa9, 0x9b, 0xb0, 0xc3, 0x30, 0x3e, 0xae, 0x48, 0xb1, 0x1b, 0x25, 0x2a, 0x30, 0xe6, 0xb0, 0x63, 0x32, 0xb7, 0xb2, 0x92, 0x24, 0x44, 0x33, 0x86, 0x2e, 0x30, 0xb3, 0x9d, 0x30, 0x22, 0x29, 0x18, 0x24, 0xd7, 0x2a, 0x7d, 0x24, 0x86, 0x2d, 0x5b, 0x2c, 0xd4, 0x33, 0x3c, 0xb1, 0xab, 0xa5, 0x62, 0xb4, 0x35, 0x20, 0xa3, 0x1d, 0x0c, 0x34, 0x60, 0xb1, 0xc6, 0x2d, 0x4b, 0xb4, 0xbb, 0x31, 0x7a, 0x1e, 0xbb, 0xa5, 0xde, 0xad, 0xd0, 0xb0, 0x4b, 0xa8, 0x04, 0x2d, 0xa8, 0x2a, 0xbb, 0x2d, 0x49, 0x27, 0xd9, 0xb3, 0xa1, 0x31, 0x61, 0xa9, 0x99, 0x1e, 0x19, 0xb1, 0xae, 0x26, 0xa8, 0x31, 0xbf, 0xad, 0x00, 0xad, 0x4c, 0xb3, 0x6b, 0x31, 0x8d, 0x2a, 0x06, 0xaf, 0xef, 0x2c, 0x20, 0xa2, 0x41, 0xb2, 0x72, 0xae, 0xfc, 0x2d, 0xc8, 0xa0, 0xf9, 0x94, 0x02, 0x2e, 0x30, 0xb0, 0xae, 0x2f, 0x42, 0xab, 0xdb, 0xae, 0x20, 0x31, 0x6e, 0xb2, 0x2a, 0x34, 0x28, 0x32, 0x2e, 0x32, 0xf3, 0xb2, 0x97, 0xb3, 0x48, 0xaf, 0x11, 0xb4, 0xca, 0xb0, 0x42, 0xb2, 0xc0, 0xb3, 0x45, 0xb3, 0xf0, 0x21, 0x2d, 0x30, 0xd0, 0xaa, 0x35, 0xaf, 0x62, 0x2b, 0x24, 0x28, 0x07, 0x2d, 0x2b, 0x31, 0xed, 0x31, 0xa1, 0xb1, 0x95, 0x30, 0x7a, 0xac, 0x38, 0xb1, 0x10, 0xae, 0xc6, 0x33, 0x7a, 0x31, 0x95, 0xb0, 0x2e, 0x2f, 0xc3, 0x30, 0x9b, 0xb3, 0xcc, 0x15, 0x53, 0x31, 0xe5, 0xb2, 0xa6, 0x31, 0x71, 0x1f, 0x90, 0xb2, 0x58, 0x32, 0x47, 0x2c, 0x71, 0x33, 0x8a, 0xac, 0x4c, 0xb0, 0x25, 0xb1, 0x2f, 0x30, 0x2e, 0x2d, 0xd4, 0xb0, 0x84, 0xa9, 0xbe, 0xb1, 0x29, 0xb2, 0xa1, 0xb2, 0x26, 0xb3, 0xd2, 0xb4, 0x9a, 0x9b, 0xcc, 0xa8, 0x76, 0x2d, 0x8f, 0xb3, 0x9e, 0x2d, 0x35, 0x34, 0xd7, 0x33, 0xbf, 0xac, 0x32, 0x34, 0xea, 0xb4, 0x91, 0x2d, 0x2d, 0xb2, 0xa4, 0xad, 0xce, 0xa7, 0xf3, 0xb0, 0xf7, 0x32, 0x7a, 0x30, 0x6f, 0x31, 0x2f, 0x2d, 0x97, 0x31, 0x05, 0xb1, 0xae, 0x24, 0x88, 0x31, 0x5c, 0x30, 0xcc, 0x2f, 0x4b, 0x29, 0x20, 0xb4, 0xc2, 0x2c, 0x8d, 0x30, 0x47, 0xb0, 0xc4, 0x33, 0x67, 0x32, 0x24, 0xb2, 0x35, 0x31, 0x46, 0x2b, 0xdf, 0x32, 0xc8, 0x33, 0x36, 0xaf, 0x2c, 0x30, 0x30, 0x2d, 0xbc, 0x31, 0xdc, 0x2c, 0xfd, 0xaa, 0x85, 0xb2, 0x2c, 0x33, 0x5c, 0x31, 0xce, 0x9a, 0x83, 0x22, 0xd3, 0x1c, 0x95, 0xad, 0xbd, 0xac, 0x2f, 0x32, 0xa0, 0x2c, 0xe8, 0x9f, 0x90, 0x2e, 0x94, 0x32, 0xda, 0x30, 0x1c, 0x31, 0xe6, 0x33, 0xea, 0x24, 0x5c, 0x2c, 0xda, 0x32, 0x50, 0xab, 0x4a, 0x32, 0xf6, 0xa6, 0x9c, 0xb0, 0x18, 0xa6, 0xa5, 0x16, 0x8e, 0x33, 0x39, 0x32, 0x5c, 0xb2, 0xff, 0x2b, 0x37, 0xae, 0x12, 0xb0, 0x7a, 0x34, 0xe0, 0x23, 0x37, 0xb0, 0xfb, 0xb2, 0x50, 0x33, 0x71, 0xb2, 0x39, 0x28, 0x96, 0x1b, 0xac, 0xaf, 0x7e, 0xb0, 0x57, 0x30, 0x7e, 0x2f, 0xf7, 0xaf, 0xc6, 0xb4, 0x21, 0x31, 0x55, 0xb4, 0x9c, 0x32, 0xc3, 0x31, 0x9a, 0x29, 0xaf, 0x14, 0x39, 0x31, 0x61, 0x32, 0x83, 0xac, 0x53, 0x34, 0x08, 0x2d, 0xd2, 0x28, 0xe1, 0xb1, 0xe0, 0xb1, 0xe9, 0x24, 0x77, 0x2d, 0x55, 0xb2, 0xba, 0xae, 0x63, 0xb4, 0x5c, 0xb2, 0x2f, 0xb3, 0x3d, 0xb2, 0x3c, 0xb0, 0x8f, 0x30, 0x13, 0x32, 0x9f, 0xab, 0x86, 0xb4, 0x17, 0x34, 0x89, 0xb4, 0x3e, 0x34, 0xad, 0x2f, 0x36, 0x34, 0x5b, 0x28, 0x9b, 0x2f, 0x7a, 0x31, 0x34, 0x31, 0x32, 0x2b, 0x63, 0xae, 0x00, 0x26, 0xad, 0x30, 0x89, 0x2d, 0x46, 0xad, 0xef, 0x20, 0x3a, 0xaa, 0xfc, 0x32, 0x6a, 0xab, 0xfe, 0xb2, 0x94, 0x2f, 0xc7, 0x2c, 0x7f, 0x32, 0x32, 0x32, 0x8b, 0x32, 0x97, 0xb3, 0x72, 0xaa, 0x83, 0x2a, 0x41, 0xa0, 0x17, 0x34, 0xba, 0x23, 0x00, 0xb0, 0x90, 0x25, 0x32, 0xaa, 0x93, 0x32, 0x8a, 0x33, 0x71, 0x2f, 0x3e, 0x2c, 0xc7, 0xb2, 0xff, 0x30, 0x79, 0xaa, 0x87, 0x32, 0xaf, 0xb2, 0xd8, 0xaf, 0x25, 0xa9, 0x13, 0x32, 0xf8, 0x31, 0x00, 0x21, 0x06, 0xb1, 0xbe, 0x99, 0xfd, 0xaa, 0x32, 0xb3, 0x9c, 0x31, 0x37, 0x2f, 0xa6, 0xb0, 0x6d, 0x31, 0x17, 0x31, 0x10, 0xa9, 0xc8, 0xa8, 0x17, 0x31, 0x35, 0x33, 0xd4, 0xa6, 0x52, 0x31, 0x3b, 0x2d, 0xb5, 0x31, 0x1d, 0x34, 0x47, 0xb2, 0x7a, 0x33, 0x7a, 0xb2, 0xd3, 0xaf, 0xbc, 0xae, 0xc0, 0xb4, 0x74, 0xa9, 0xf0, 0x30, 0xf4, 0xaf, 0xb2, 0xaf, 0x09, 0xab, 0x02, 0xb4, 0x26, 0xaa, 0x80, 0x2a, 0x92, 0xb2, 0x39, 0x30, 0xc1, 0x2f, 0x9b, 0x26, 0x47, 0x1b, 0x4d, 0x2d, 0xb9, 0xaf, 0x4c, 0xac, 0x88, 0x2a, 0x4d, 0xb2, 0x67, 0xb1, 0xac, 0x33, 0xda, 0x2f, 0x2c, 0x33, 0x3c, 0x24, 0x96, 0x2b, 0x84, 0xb1, 0xd0, 0x2c, 0x18, 0xad, 0x81, 0x31, 0x7f, 0xb4, 0x5c, 0x2f, 0x6c, 0xb3, 0x59, 0xad, 0xc0, 0x30, 0x9e, 0xab, 0x41, 0xab, 0x82, 0x29, 0x33, 0xac, 0xbb, 0xb2, 0x0f, 0x31, 0x4d, 0x34, 0x71, 0x30, 0x7e, 0xae, 0x6c, 0x2d, 0x26, 0x2a, 0xc2, 0xac, 0x0d, 0x2f, 0x8a, 0x32, 0x4b, 0xa1, 0x30, 0xad, 0x5b, 0x33, 0x42, 0xae, 0x90, 0xb1, 0x35, 0x2d, 0x0d, 0x34, 0xa4, 0xb2, 0xcb, 0xac, 0x11, 0x30, 0xf1, 0xaf, 0x5b, 0x31, 0x86, 0x30, 0x4b, 0x29, 0x2f, 0xaf, 0xc2, 0xab, 0x96, 0x2d, 0x88, 0xb3, 0xcb, 0x32, 0x4f, 0x34, 0xa6, 0x33, 0xce, 0x20, 0x15, 0x33, 0x8e, 0xab, 0xef, 0xb2, 0x6a, 0x32, 0x41, 0x2f, 0x46, 0xb3, 0x85, 0x18, 0xd8, 0x2d, 0x5b, 0xad, 0xaa, 0xb0, 0x5b, 0x1d, 0x1d, 0x31, 0x61, 0x34, 0x99, 0xa0, 0x63, 0x31, 0xe3, 0xae, 0x5f, 0xac, 0x41, 0xad, 0x3a, 0xb4, 0x3b, 0xa4, 0xc6, 0xad, 0xc6, 0xab, 0x35, 0x2b, 0x79, 0x2a, 0x4a, 0xb4, 0x8b, 0x2b, 0xd6, 0x30, 0xb3, 0xb4, 0x9a, 0xd7, 0xff, 0xff, 0x04, 0x00, 0x00, 0x00, 0x00, 0x08, 0x00, 0x00, 0x4e, 0x29, 0x9c, 0x27, 0xb9, 0x30, 0xf6, 0xa4, 0xf9, 0x2e, 0x04, 0x2f, 0xc6, 0x2d, 0x7d, 0x2c, 0xf0, 0x9d, 0xae, 0xa3, 0x01, 0x30, 0x99, 0x2d, 0x01, 0x2a, 0xf6, 0xac, 0x61, 0x20, 0x6f, 0xab, 0x8c, 0x2f, 0x90, 0x2c, 0x10, 0x26, 0xdb, 0xae, 0x55, 0xad, 0x10, 0xa8, 0x1f, 0xa9, 0x75, 0x2b, 0xac, 0xa5, 0x9a, 0xab, 0x0b, 0xae, 0xb5, 0x2b, 0x5e, 0x29, 0x07, 0xab, 0x2f, 0x2b, 0xf4, 0xa9, 0xae, 0x1c, 0xdd, 0x9a, 0x7c, 0x9e, 0x64, 0xa0, 0x47, 0xac, 0x7a, 0x2f, 0x90, 0x2f, 0x50, 0x2b, 0xf8, 0x2d, 0x98, 0x1c, 0x31, 0x2c, 0x83, 0xa9, 0x7f, 0xa8, 0x74, 0xa8, 0xcf, 0x2d, 0x19, 0xb0, 0x46, 0xa9, 0xe3, 0x2a, 0x29, 0xa9, 0xb3, 0x25, 0x7b, 0xa4, 0x9f, 0xae, 0xb7, 0xac, 0x07, 0xaf, 0x92, 0x24, 0x53, 0x22, 0x62, 0x2a, 0x63, 0x20, 0x7e, 0x1f, 0x41, 0x2f, 0xff, 0x2e, 0x86, 0xae, 0xbd, 0xad, 0x6e, 0x2e, 0x41, 0xb0, 0x0e, 0x2b, 0x83, 0xac, 0x11, 0x2d, 0x75, 0x2f, 0x1e, 0xb0, 0x4d, 0xb0, 0x95, 0x28, 0xe0, 0x2b, 0x6e, 0xae, 0x6c, 0xaf, 0xc8, 0x1e, 0xd0, 0xa5, 0x6f, 0xad, 0xd8, 0x25, 0xd2, 0x30, 0x27, 0x2a, 0x07, 0x30, 0x4f, 0x2a, 0xd4, 0x23, 0x88, 0xa9, 0xb4, 0x21, 0x64, 0xa9, 0x75, 0x2e, 0xed, 0xac, 0x4f, 0x2f, 0xf2, 0x9f, 0x46, 0x2d, 0xdf, 0xad, 0xd1, 0x2c, 0xbc, 0xa9, 0x46, 0xa9, 0x4f, 0x2a, 0xd5, 0xac, 0x68, 0xaf, 0x68, 0xad, 0x5b, 0x2a, 0xa0, 0xa8, 0x40, 0xa6, 0x50, 0x2c, 0xb2, 0x28, 0x1c, 0xaf, 0x52, 0x29, 0x24, 0xa6, 0x6b, 0x2c, 0xb5, 0xa8, 0xc0, 0xae, 0xbb, 0x2b, 0x1b, 0x29, 0x88, 0x29, 0xee, 0x26, 0x61, 0x25, 0x57, 0xa6, 0xa5, 0x2b, 0x1b, 0x2c, 0xb6, 0xae, 0x63, 0x20, 0x7f, 0x25, 0x2d, 0x2d, 0x7d, 0x2e, 0x42, 0x27, 0xb5, 0x14, 0x32, 0x28, 0xa3, 0xa8, 0x00, 0x27, 0x6e, 0x2a, 0x22, 0xa4, 0x3a, 0x2f, 0x01, 0x8b, 0x3b, 0xa5, 0xee, 0xa9, 0x06, 0x2c, 0xce, 0x28, 0x06, 0x25, 0x37, 0x27, 0xd3, 0xac, 0x9e, 0x25, 0x31, 0x30, 0x42, 0xa9, 0x8a, 0x23, 0xf4, 0xab, 0x7c, 0xac, 0xde, 0x9d, 0x69, 0xaa, 0x0b, 0xa4, 0xca, 0x2d, 0xf4, 0x2d, 0x38, 0xa9, 0xbe, 0x23, 0xff, 0xab, 0x4c, 0xb0, 0xcb, 0xa1, 0x2e, 0xaf, 0x30, 0xac, 0x5f, 0xaa, 0xec, 0xa5, 0xa8, 0x2c, 0x25, 0x2e, 0x63, 0xad, 0x2e, 0xa3, 0x2c, 0x23, 0x7f, 0xb0, 0xb2, 0xa2, 0x46, 0xac, 0x42, 0xa7, 0x48, 0xad, 0xab, 0xad, 0x73, 0x2e, 0x14, 0x30, 0x5a, 0xb0, 0x0d, 0xad, 0x16, 0x2c, 0xcc, 0x2a, 0x16, 0x1f, 0x8e, 0x28, 0x90, 0xad, 0x37, 0x2d, 0x19, 0x2c, 0x12, 0xa2, 0x14, 0x30, 0x91, 0xa6, 0xce, 0xa9, 0x43, 0x28, 0x4a, 0xa9, 0x26, 0x9d, 0xc6, 0x24, 0x02, 0xaa, 0x2f, 0x30, 0xdf, 0xaa, 0xd6, 0x1c, 0xb2, 0xb0, 0x18, 0xa2, 0x88, 0xac, 0x37, 0xaa, 0xc6, 0xae, 0x1e, 0xaa, 0xe4, 0xaf, 0x3c, 0x24, 0x4c, 0xab, 0x66, 0x2d, 0xe6, 0x22, 0x4f, 0x2c, 0x33, 0xaf, 0xfb, 0x1c, 0xe7, 0xad, 0xd1, 0x1b, 0xc4, 0x1d, 0xd0, 0x2c, 0x7e, 0x22, 0xcf, 0xad, 0xcd, 0xac, 0x6e, 0xaf, 0x39, 0xa4, 0x10, 0xac, 0x72, 0x28, 0x32, 0xac, 0xa4, 0xaf, 0x94, 0x29, 0x04, 0xa9, 0x9f, 0x2a, 0xba, 0xa2, 0x11, 0x2b, 0x4c, 0xa5, 0xc2, 0x2e, 0xa3, 0x2d, 0x1f, 0xaf, 0x75, 0x2a, 0xce, 0x2b, 0x97, 0x2d, 0xc8, 0xa6, 0xb4, 0x25, 0x17, 0x30, 0x80, 0x26, 0x57, 0xae, 0x07, 0xaf, 0x28, 0x2d, 0xb5, 0xa5, 0x10, 0x2d, 0x75, 0x2f, 0x1f, 0x2c, 0x6e, 0x24, 0xc6, 0x24, 0x46, 0xaa, 0xed, 0x2f, 0x01, 0x20, 0xb8, 0xaa, 0x88, 0xae, 0xe0, 0x28, 0x8e, 0x2d, 0x82, 0xae, 0xad, 0xa6, 0xb3, 0xb0, 0x49, 0x2e, 0xdf, 0x25, 0x35, 0x2e, 0x2b, 0x28, 0x27, 0x2b, 0x51, 0xa9, 0xfc, 0xac, 0xf5, 0xa9, 0xb5, 0x2b, 0xd2, 0xa0, 0xf2, 0x2c, 0xbe, 0x28, 0x39, 0xac, 0x54, 0x28, 0xc3, 0xaf, 0x8a, 0x2b, 0xed, 0x29, 0x2e, 0x29, 0x85, 0xaf, 0x4c, 0x2d, 0xfb, 0x29, 0xa0, 0xa2, 0x68, 0x24, 0x12, 0x2c, 0x49, 0xac, 0xd5, 0x21, 0xf9, 0xab, 0xad, 0x29, 0xaf, 0xac, 0x09, 0xa4, 0xa9, 0xb0, 0x57, 0x2b, 0x05, 0x27, 0x9b, 0x23, 0x05, 0x9e, 0x31, 0xb0, 0x3f, 0xb0, 0xe6, 0x2e, 0xf0, 0x2a, 0x83, 0xad, 0x3d, 0xa9, 0x55, 0xaa, 0x02, 0xad, 0xea, 0xac, 0xdf, 0x13, 0x95, 0xa5, 0x80, 0x29, 0xf1, 0xa5, 0xa4, 0x2b, 0xdf, 0x25, 0x59, 0x2f, 0x71, 0xa8, 0x9c, 0x2d, 0x1c, 0xb0, 0x4d, 0x2c, 0x33, 0xad, 0xb3, 0x2a, 0x2a, 0xa2, 0x90, 0x30, 0x58, 0xa9, 0x52, 0x28, 0x83, 0x2d, 0xf9, 0x2d, 0x32, 0x00, 0x75, 0xa7, 0xb6, 0x29, 0x28, 0x29, 0xe7, 0x29, 0xb5, 0x16, 0x06, 0xa5, 0x45, 0xaf, 0xff, 0x2b, 0xe9, 0x23, 0x1a, 0xa7, 0x29, 0x2d, 0x2f, 0x28, 0x47, 0x1d, 0xc1, 0x2a, 0xfa, 0x26, 0x97, 0x2a, 0xd6, 0xad, 0x92, 0xa6, 0x20, 0x30, 0x51, 0xa6, 0xd0, 0x2d, 0x42, 0x29, 0x22, 0x2d, 0xce, 0x2d, 0x8c, 0xae, 0x29, 0x9a, 0xbf, 0xaa, 0xd8, 0xa5, 0xea, 0xac, 0x73, 0x30, 0x23, 0xac, 0x8d, 0x1e, 0xf6, 0xa9, 0xe8, 0xaf, 0xe2, 0xaf, 0x53, 0x21, 0x66, 0x2a, 0x59, 0x25, 0xa1, 0xa8, 0xdc, 0x26, 0xf6, 0xae, 0xfd, 0xa3, 0x7b, 0xae, 0x10, 0x28, 0xd1, 0x2b, 0x06, 0xb0, 0x21, 0xaf, 0x1c, 0xac, 0xaa, 0xac, 0xd5, 0x29, 0xbd, 0x25, 0x5b, 0x2e, 0x0d, 0x23, 0xcf, 0xa5, 0x44, 0x2a, 0x6d, 0x2a, 0x9b, 0x30, 0x86, 0x25, 0xae, 0x25, 0x2a, 0xa9, 0xca, 0x2e, 0xcb, 0x21, 0x49, 0x2a, 0x87, 0xaf, 0x54, 0x2c, 0x29, 0xab, 0x90, 0x2d, 0x3e, 0x2c, 0xfa, 0xa5, 0x05, 0x2b, 0x70, 0xac, 0xc0, 0x2d, 0x65, 0xa2, 0x47, 0x2b, 0xff, 0xa8, 0x87, 0xa9, 0xee, 0xa9, 0x2e, 0x2d, 0xe0, 0xa9, 0x21, 0xa9, 0x80, 0xa3, 0x31, 0x28, 0x0a, 0xaf, 0xdc, 0xa5, 0xd3, 0x2d, 0xff, 0xab, 0x70, 0x2c, 0xa1, 0xad, 0x53, 0x2c, 0x79, 0x20, 0xe1, 0x29, 0x39, 0xad, 0x1d, 0x2c, 0xa2, 0x92, 0xb3, 0x29, 0xef, 0x9d, 0x42, 0xa6, 0xea, 0xa8, 0x05, 0xaa, 0x8a, 0xa7, 0xff, 0x2c, 0x3e, 0x24, 0x55, 0xa9, 0xb3, 0x2d, 0x17, 0x2b, 0x78, 0xae, 0x46, 0x9d, 0xa9, 0x24, 0x80, 0xa1, 0x76, 0x27, 0xe7, 0xad, 0x6c, 0x2a, 0x71, 0xa8, 0x14, 0x24, 0x12, 0x2c, 0x65, 0x2e, 0x20, 0x2b, 0x8e, 0x21, 0x84, 0xa9, 0x3a, 0x2d, 0x76, 0x28, 0xd3, 0xab, 0xfd, 0xae, 0x8c, 0x2e, 0x8e, 0xa9, 0x60, 0xac, 0x60, 0x30, 0x25, 0x2b, 0x45, 0x2f, 0x8a, 0x9e, 0xea, 0xac, 0x2a, 0x9a, 0xfe, 0x1d, 0x3f, 0x26, 0xc5, 0xa0, 0x57, 0x30, 0xf9, 0xaf, 0x32, 0x28, 0xc8, 0x2e, 0x4f, 0xa8, 0x15, 0x25, 0x87, 0x2d, 0x7f, 0x2f, 0xbb, 0xb0, 0x74, 0x27, 0x65, 0x2c, 0x3c, 0x2c, 0x76, 0x1c, 0xa3, 0xa9, 0x00, 0x27, 0x55, 0xa9, 0x33, 0xae, 0x84, 0x90, 0x80, 0xb0, 0x41, 0xac, 0x6b, 0x2c, 0x79, 0x30, 0x8b, 0xa9, 0xdb, 0x1f, 0x40, 0x2a, 0x4a, 0xa9, 0x3b, 0xa9, 0xaf, 0xa8, 0x1a, 0x29, 0x04, 0xa8, 0x0c, 0x1e, 0xda, 0x1a, 0x53, 0xaa, 0xc3, 0x2d, 0xec, 0x2c, 0x8c, 0x2e, 0xc9, 0xae, 0x20, 0x2c, 0x78, 0xa1, 0x5f, 0x24, 0x95, 0xac, 0x15, 0x29, 0x52, 0x2e, 0xf4, 0x26, 0xf8, 0xad, 0xf3, 0x2b, 0xcc, 0xa4, 0xb4, 0x2d, 0x69, 0xa1, 0xea, 0xab, 0x5a, 0xaa, 0x1d, 0x28, 0x09, 0xa9, 0x84, 0x24, 0x9e, 0xa8, 0x05, 0x26, 0xca, 0x29, 0x80, 0x2c, 0x9c, 0x1f, 0x77, 0xa9, 0xfe, 0xa7, 0xc3, 0x2d, 0xb7, 0x2c, 0x36, 0xa4, 0x1d, 0x26, 0xa2, 0xa2, 0xce, 0x2c, 0x84, 0x98, 0x7e, 0x1d, 0x20, 0x9e, 0x8d, 0xae, 0x6a, 0x2e, 0x96, 0xa5, 0x25, 0x25, 0x21, 0x17, 0xe1, 0xa5, 0x51, 0x26, 0x6b, 0xae, 0xa6, 0xa3, 0x15, 0xa8, 0xea, 0xaa, 0x2d, 0x2e, 0xea, 0x2a, 0xb1, 0x26, 0x09, 0x30, 0x12, 0xab, 0x31, 0x2a, 0xe8, 0x1d, 0x9c, 0x21, 0xa2, 0xab, 0xcf, 0x29, 0xf5, 0x28, 0xb2, 0xa9, 0x6a, 0xa9, 0xb5, 0xaa, 0x46, 0x25, 0x67, 0xa5, 0x90, 0xb0, 0x4c, 0x9a, 0x26, 0x2b, 0xa9, 0xaa, 0xa7, 0xac, 0x1b, 0xac, 0x1a, 0xaa, 0xdf, 0x29, 0xf6, 0xab, 0xf2, 0x29, 0x70, 0xaf, 0x18, 0xac, 0xcc, 0xad, 0x10, 0x20, 0x62, 0x28, 0x34, 0x25, 0xf2, 0x30, 0x18, 0x2c, 0x4a, 0xa7, 0x74, 0x2f, 0x4f, 0xa8, 0x9a, 0x28, 0x18, 0xa3, 0x85, 0xa5, 0x83, 0x2f, 0x62, 0xa4, 0x84, 0xaf, 0x24, 0xaa, 0x06, 0x29, 0x93, 0x2e, 0x56, 0x28, 0x3f, 0xa5, 0xcc, 0xac, 0x11, 0x9c, 0x02, 0x2a, 0x30, 0x2f, 0x7e, 0xae, 0x19, 0x26, 0xd1, 0x2f, 0x4d, 0xa8, 0x26, 0xa1, 0x49, 0x29, 0x70, 0xac, 0xad, 0x2b, 0xaa, 0xad, 0x73, 0xb0, 0xdf, 0x2b, 0xb8, 0xab, 0x35, 0x1e, 0xfb, 0x2b, 0xcc, 0xac, 0x51, 0x20, 0x74, 0x2e, 0x55, 0xb0, 0xad, 0x1f, 0xa8, 0x23, 0x47, 0xae, 0x95, 0x1b, 0xa0, 0xaa, 0x35, 0xaa, 0x6f, 0xa4, 0x86, 0x2d, 0x3a, 0x1e, 0xb4, 0x1c, 0x72, 0xaf, 0x4b, 0x26, 0x87, 0xa8, 0x89, 0x2c, 0x2f, 0xa9, 0x0c, 0x2f, 0x4b, 0x2c, 0x56, 0xa8, 0x82, 0x1e, 0x82, 0x1f, 0x51, 0x2d, 0xc2, 0x9f, 0x16, 0x30, 0xca, 0x2d, 0xe8, 0x2a, 0x4d, 0xa5, 0xa4, 0x2f, 0x90, 0x2d, 0x7c, 0xaa, 0x82, 0xaf, 0x24, 0xad, 0xfc, 0x2d, 0x58, 0xb0, 0xb9, 0x27, 0x46, 0x26, 0x58, 0x2c, 0x87, 0xa7, 0x18, 0xaf, 0xe0, 0xa4, 0xa3, 0x9e, 0xe6, 0x28, 0x37, 0xaf, 0x27, 0x2a, 0xe8, 0x2c, 0xde, 0xad, 0x33, 0xa4, 0xc2, 0x94, 0x11, 0x2c, 0x5f, 0xab, 0x33, 0x2f, 0x42, 0xa8, 0x1b, 0x2c, 0x8d, 0x24, 0x1c, 0xac, 0x4a, 0xa6, 0xbc, 0x1f, 0x46, 0xaa, 0x6f, 0x20, 0xfa, 0x2a, 0x68, 0x2e, 0xdb, 0x2c, 0x16, 0x2a, 0x8e, 0xa4, 0x31, 0x2d, 0x1f, 0x2d, 0x1f, 0x28, 0x3c, 0xad, 0xc7, 0x2d, 0x53, 0xaa, 0x9f, 0xab, 0xe5, 0x22, 0x84, 0xa1, 0x81, 0xaf, 0x95, 0xa7, 0x75, 0x1a, 0xe9, 0xab, 0x0d, 0xae, 0x3d, 0xad, 0x13, 0x2d, 0xbf, 0x23, 0xbe, 0x2b, 0x7d, 0xa7, 0xeb, 0x2e, 0x1f, 0xa5, 0xb4, 0xac, 0x80, 0x25, 0x15, 0x2d, 0xf1, 0x2a, 0x91, 0x2c, 0x52, 0xa9, 0xad, 0xa5, 0x13, 0x2d, 0x79, 0xad, 0xb6, 0x9e, 0x8e, 0xae, 0xd7, 0x24, 0xba, 0x20, 0x25, 0x29, 0xfb, 0x97, 0xe6, 0x29, 0x19, 0x22, 0xe0, 0x1e, 0x54, 0xa6, 0x2f, 0x9c, 0xc5, 0x2e, 0x41, 0xb0, 0x16, 0xad, 0x17, 0x2f, 0x1d, 0x25, 0xae, 0xae, 0xe8, 0xae, 0x19, 0x30, 0x7a, 0xa7, 0xa5, 0xae, 0x29, 0xac, 0x10, 0x29, 0x85, 0x29, 0xba, 0xac, 0x44, 0x2f, 0x7a, 0x29, 0x7e, 0x2c, 0x4f, 0xac, 0x69, 0x2e, 0xe7, 0x25, 0x79, 0x2d, 0x8f, 0x2c, 0xc6, 0x2f, 0x07, 0xad, 0x04, 0xab, 0x3a, 0xb0, 0x01, 0x29, 0xa4, 0x2a, 0x73, 0x24, 0xda, 0x28, 0x53, 0xa6, 0xd9, 0x2a, 0xf5, 0xac, 0xd3, 0x2c, 0xbe, 0x2c, 0xf0, 0xa8, 0x8f, 0xa9, 0xce, 0xad, 0x21, 0xac, 0x76, 0xa8, 0xdf, 0x9b, 0x26, 0x30, 0x23, 0x31, 0x9a, 0x28, 0xfd, 0xa8, 0xa0, 0xa9, 0x7a, 0xac, 0x69, 0x23, 0x8a, 0xad, 0x9f, 0x2b, 0xa7, 0xae, 0x86, 0x22, 0x2d, 0xab, 0x38, 0xa0, 0x1e, 0xac, 0x10, 0x30, 0xe8, 0x26, 0x1b, 0xac, 0x82, 0x2c, 0xa7, 0xa0, 0xaa, 0x2e, 0x24, 0xad, 0xe2, 0x24, 0xe2, 0x2c, 0xb1, 0x2f, 0x0c, 0xa9, 0xb1, 0xb0, 0x15, 0x9a, 0xba, 0x2e, 0xaa, 0xaf, 0xac, 0xaf, 0xee, 0x25, 0x23, 0xa6, 0xa9, 0xa4, 0xbd, 0xad, 0x23, 0xa1, 0xf8, 0x23, 0xf6, 0x28, 0x0a, 0x27, 0x6e, 0x1d, 0xe7, 0x2d, 0x62, 0xb0, 0x15, 0x2d, 0x42, 0x2a, 0xcb, 0x29, 0xaf, 0x21, 0x25, 0x25, 0x38, 0x2c, 0xda, 0x23, 0x79, 0xae, 0xf7, 0x27, 0x4b, 0x2d, 0xbe, 0x2a, 0xf1, 0x24, 0x55, 0xa4, 0x57, 0xaf, 0x7e, 0xb0, 0x2e, 0x2f, 0x39, 0xaa, 0x35, 0x9b, 0xa7, 0x2c, 0x81, 0xa6, 0x05, 0x27, 0x46, 0xab, 0x4b, 0xad, 0x58, 0x30, 0xb8, 0x2c, 0x6e, 0xaa, 0x78, 0xac, 0x15, 0x2c, 0x7e, 0xa2, 0x94, 0x26, 0x2a, 0x2a, 0xf8, 0x2d, 0xd7, 0xaf, 0xe6, 0x2d, 0xf1, 0x2a, 0x55, 0xaf, 0x7c, 0x9c, 0xb6, 0xaa, 0xf8, 0x2c, 0xe4, 0xa4, 0x45, 0x2a, 0x8d, 0xa7, 0x34, 0xa8, 0x1b, 0x2c, 0xfd, 0x2b, 0xa6, 0x2e, 0x40, 0x2d, 0x88, 0xac, 0x0c, 0xa2, 0xcf, 0xa7, 0x85, 0xae, 0x37, 0xaa, 0x6c, 0x18, 0xe9, 0x2d, 0xcd, 0x2e, 0x58, 0xa4, 0xc4, 0x2e, 0x92, 0x2e, 0x45, 0xad, 0xca, 0x29, 0x98, 0xab, 0x73, 0x28, 0x12, 0x18, 0x4e, 0x23, 0xc1, 0x2a, 0xce, 0xab, 0x2f, 0xa3, 0x81, 0xae, 0x95, 0xad, 0x5d, 0xab, 0xd6, 0x27, 0xc3, 0x28, 0xda, 0x99, 0xc1, 0xa8, 0xe8, 0x2c, 0x3d, 0x2c, 0x47, 0x2c, 0x90, 0xaf, 0x8a, 0xab, 0x02, 0xa7, 0x36, 0xa3, 0x69, 0xb0, 0x64, 0xa8, 0x22, 0x30, 0x18, 0x2e, 0x15, 0xb0, 0xa7, 0xae, 0xa4, 0x2b, 0x25, 0x25, 0x89, 0xa8, 0x27, 0xaf, 0x19, 0xa7, 0x16, 0xa8, 0xc8, 0x2d, 0xe0, 0x25, 0x7a, 0x30, 0x78, 0xae, 0xc0, 0xaa, 0xb2, 0xad, 0xe7, 0xb0, 0x60, 0xad, 0x19, 0x2d, 0xcf, 0xad, 0x28, 0xad, 0x29, 0x95, 0x63, 0x28, 0xd8, 0xab, 0x35, 0xae, 0x65, 0xb0, 0x6a, 0x2c, 0x08, 0x24, 0x1f, 0x2c, 0x7c, 0xb0, 0x17, 0x2a, 0xe0, 0x2c, 0x0a, 0xaf, 0x7a, 0xac, 0x0a, 0xac, 0xbe, 0x98, 0x77, 0x9d, 0x50, 0xa6, 0x88, 0xa9, 0x15, 0x2f, 0x1c, 0x30, 0xbf, 0x2f, 0xa5, 0xad, 0x2b, 0x28, 0xbf, 0xa5, 0x1b, 0x2c, 0xe3, 0x29, 0xbc, 0x11, 0x0a, 0x2e, 0xaa, 0xaa, 0x29, 0xad, 0x6c, 0x2b, 0x3b, 0xad, 0x8e, 0xa7, 0xc2, 0xaa, 0xae, 0xa5, 0x5e, 0x2b, 0xa2, 0xad, 0x09, 0xaf, 0x7d, 0x2d, 0x02, 0x29, 0xc4, 0x29, 0x07, 0xad, 0x23, 0x28, 0x22, 0x2e, 0x8c, 0x24, 0x61, 0x2b, 0xe9, 0x2c, 0x58, 0xa7, 0xfd, 0x2e, 0xd0, 0x2a, 0x22, 0xaa, 0x4c, 0x24, 0x37, 0x2b, 0x81, 0xa8, 0xdf, 0x2b, 0xcf, 0x2d, 0xe2, 0x29, 0x26, 0x2a, 0x34, 0xad, 0xaf, 0xab, 0x44, 0x2c, 0x6d, 0x2c, 0xbc, 0xac, 0x17, 0x2d, 0xe1, 0x2d, 0xff, 0xac, 0x67, 0x15, 0xd0, 0x25, 0x7e, 0x1d, 0x77, 0xad, 0x3a, 0x2b, 0xd9, 0x2b, 0x7e, 0x2d, 0x93, 0xa3, 0xa3, 0xa0, 0xcc, 0x2e, 0xee, 0xa6, 0xd3, 0xa5, 0xe4, 0x2a, 0x38, 0x30, 0xa3, 0xa8, 0x7b, 0x27, 0x42, 0xaa, 0x32, 0x28, 0xd5, 0xac, 0x53, 0xaf, 0xaf, 0xae, 0xd8, 0x2c, 0x54, 0xad, 0x06, 0xad, 0x46, 0x2b, 0xbb, 0x30, 0x69, 0xa3, 0x77, 0x2c, 0x92, 0x2a, 0x82, 0xa9, 0x94, 0xac, 0x86, 0xa8, 0x0f, 0x21, 0x7f, 0xa1, 0x83, 0xad, 0x06, 0x1a, 0xc1, 0x24, 0xb4, 0xad, 0x76, 0xab, 0xb1, 0x2d, 0xb5, 0xac, 0xac, 0xac, 0x8e, 0xa0, 0x08, 0x2b, 0x10, 0xad, 0x2c, 0xad, 0x84, 0xa8, 0x98, 0xa7, 0x21, 0x24, 0x25, 0xab, 0x1c, 0x2c, 0xce, 0x24, 0xf2, 0x28, 0x31, 0x29, 0x9e, 0x30, 0x83, 0xa7, 0x93, 0x27, 0x06, 0x2e, 0xbc, 0x2d, 0x5c, 0xa2, 0xa6, 0xdf, 0xff, 0xff, 0x04, 0x00, 0x00, 0x00, 0x00, 0x08, 0x00, 0x00, 0x61, 0xaf, 0x18, 0xb0, 0xbb, 0x28, 0x09, 0x24, 0xb6, 0x25, 0x50, 0xad, 0x7d, 0x29, 0xbc, 0xad, 0x89, 0xad, 0x3e, 0xae, 0x44, 0xa4, 0xcd, 0xb0, 0xee, 0xaf, 0x8c, 0x2d, 0x3d, 0xb0, 0x23, 0xae, 0xf9, 0xae, 0x23, 0x32, 0x44, 0x2e, 0x3c, 0xad, 0x3b, 0xa7, 0x3b, 0x96, 0xac, 0x30, 0x82, 0x24, 0x27, 0xa7, 0x5f, 0x31, 0x1c, 0x1d, 0xe0, 0x2f, 0x86, 0x2e, 0x2b, 0xa4, 0xec, 0xaa, 0x2d, 0x32, 0x57, 0x30, 0x4a, 0x29, 0xfd, 0x9c, 0x62, 0x24, 0x98, 0xa8, 0x28, 0x30, 0x72, 0x2b, 0x2c, 0x32, 0xf6, 0x28, 0x50, 0x2a, 0x19, 0x21, 0x02, 0x34, 0xd7, 0x24, 0xf7, 0xa8, 0xee, 0x16, 0xea, 0x30, 0xf6, 0x30, 0xee, 0xac, 0x5e, 0x28, 0xc3, 0x19, 0xb7, 0xad, 0x2d, 0xa6, 0x76, 0xae, 0x2a, 0x2d, 0x00, 0x31, 0x62, 0xa6, 0x2e, 0x31, 0x1b, 0xb0, 0x90, 0xb1, 0x22, 0x9e, 0x2d, 0x29, 0x17, 0xb1, 0xed, 0x22, 0x4a, 0x31, 0xcc, 0x2e, 0x0b, 0xab, 0x3d, 0x2a, 0xad, 0xae, 0x30, 0xaa, 0x12, 0x30, 0x68, 0x29, 0xd7, 0xa3, 0xe0, 0xab, 0x1c, 0x33, 0x16, 0x32, 0x05, 0xb2, 0xff, 0x28, 0x4f, 0x31, 0x26, 0x32, 0xdc, 0xac, 0xbf, 0xaf, 0x0e, 0x31, 0x53, 0x2c, 0xef, 0xa9, 0xa0, 0x2a, 0x29, 0x28, 0xe6, 0x2c, 0xd5, 0xb0, 0x5f, 0x20, 0xd2, 0xac, 0x9c, 0x2b, 0x0a, 0x2b, 0xca, 0x93, 0xc1, 0xb1, 0xa4, 0xa2, 0x06, 0xb1, 0xe7, 0xb0, 0xf2, 0x25, 0xb8, 0x2d, 0x67, 0x2f, 0xaf, 0xac, 0x2e, 0xae, 0x0a, 0xad, 0x68, 0xa5, 0x0f, 0x31, 0x16, 0xb0, 0x85, 0x9a, 0x0f, 0x2c, 0x36, 0xad, 0x3f, 0x21, 0xf8, 0xa6, 0x67, 0x19, 0x05, 0x28, 0x17, 0xb0, 0x62, 0xb0, 0x39, 0xa9, 0xf5, 0xae, 0xab, 0x30, 0x35, 0xa3, 0xf0, 0x30, 0xd3, 0x9b, 0x95, 0x2e, 0xa5, 0x19, 0xdc, 0xac, 0xb3, 0x1a, 0x28, 0x2f, 0xea, 0x2e, 0x35, 0xa4, 0x9b, 0xa1, 0x59, 0x2c, 0x02, 0x2c, 0x9e, 0x2d, 0x1d, 0xae, 0xe5, 0x31, 0x8f, 0x2a, 0x13, 0x2d, 0x59, 0xae, 0x81, 0x2b, 0x59, 0x27, 0xa9, 0xad, 0xfb, 0xaf, 0x85, 0x2d, 0x01, 0x31, 0xb8, 0xac, 0x7c, 0x24, 0x4c, 0xaa, 0x92, 0xa1, 0x15, 0xa6, 0x1c, 0x8e, 0x9f, 0xad, 0x68, 0xa1, 0xa1, 0xad, 0xba, 0xa3, 0x77, 0x29, 0x42, 0xae, 0x80, 0x2d, 0x16, 0xae, 0xc5, 0xb1, 0xc9, 0xa3, 0xe5, 0xa8, 0x3e, 0xac, 0x18, 0x30, 0x3c, 0xac, 0xa6, 0x2d, 0xd7, 0xae, 0x84, 0x35, 0x03, 0xa9, 0x06, 0x25, 0x81, 0xac, 0x46, 0x31, 0xc6, 0x2d, 0x38, 0x2b, 0xe4, 0xa8, 0x0d, 0x32, 0x28, 0x26, 0x14, 0x27, 0x28, 0xa9, 0x74, 0x27, 0x4f, 0xb0, 0x31, 0x22, 0xa8, 0xaf, 0x2f, 0x2e, 0x5f, 0xae, 0x21, 0xae, 0xc6, 0x2e, 0x09, 0x30, 0x17, 0xb0, 0x18, 0xad, 0x3f, 0xb0, 0x4c, 0xb1, 0x51, 0xb0, 0x75, 0xaf, 0x6d, 0x2c, 0xe9, 0x2f, 0x5f, 0x32, 0x67, 0xb1, 0x51, 0xb2, 0x32, 0x2b, 0x08, 0x27, 0x00, 0xb1, 0x49, 0x2c, 0xe2, 0xb1, 0xd3, 0x1f, 0x46, 0x24, 0x91, 0xac, 0x38, 0xae, 0x79, 0xaf, 0x2a, 0x28, 0xcc, 0x2e, 0x04, 0xb4, 0x3a, 0x2b, 0xa2, 0xad, 0xbf, 0x32, 0xce, 0x2a, 0x12, 0xaf, 0x76, 0x30, 0x26, 0xaf, 0xb0, 0x2d, 0xc9, 0x2e, 0x65, 0x28, 0x0a, 0x9f, 0x1f, 0x32, 0x83, 0x2c, 0x4b, 0xab, 0x2c, 0xad, 0x80, 0x26, 0x99, 0x2a, 0xb0, 0x27, 0x44, 0x2c, 0xae, 0xa7, 0xf6, 0xac, 0x90, 0xa4, 0x5e, 0x30, 0xc8, 0x22, 0xec, 0xa4, 0x7f, 0x30, 0x80, 0xab, 0x7d, 0xac, 0x58, 0xaa, 0x3a, 0x31, 0x57, 0x25, 0x80, 0x28, 0x62, 0x26, 0x91, 0xaa, 0x06, 0xb1, 0x31, 0x29, 0x2c, 0xb2, 0x4e, 0x30, 0xea, 0xae, 0xf6, 0x2e, 0xfd, 0xaa, 0x12, 0xb0, 0x07, 0x92, 0xb4, 0x2b, 0x41, 0x2d, 0xb4, 0x28, 0x78, 0x31, 0xe1, 0xaf, 0xd9, 0x2d, 0xed, 0x25, 0xb7, 0xa8, 0xf8, 0xaf, 0x4c, 0x2e, 0xfc, 0xa1, 0x34, 0xb1, 0x24, 0x31, 0xa4, 0x32, 0x7f, 0xae, 0xc5, 0x31, 0x90, 0x2a, 0x0c, 0x32, 0xbc, 0xb0, 0xd8, 0xab, 0x04, 0x2d, 0xb6, 0x32, 0x9c, 0xa9, 0x81, 0x25, 0xcd, 0xae, 0xd3, 0x30, 0x45, 0xb0, 0x2c, 0x30, 0x75, 0xb0, 0x0b, 0xab, 0x49, 0x32, 0x12, 0x30, 0x10, 0xaa, 0x10, 0x29, 0x33, 0x23, 0x69, 0xa4, 0x3a, 0xb1, 0x8a, 0xad, 0x98, 0xa9, 0xc2, 0x2f, 0xcd, 0x1e, 0xd4, 0x28, 0x6d, 0xac, 0x24, 0xa9, 0x54, 0x27, 0xfa, 0x2a, 0xde, 0xab, 0x03, 0x2e, 0xe7, 0x2b, 0x80, 0x2c, 0x79, 0xac, 0xda, 0x15, 0x65, 0x24, 0x08, 0x31, 0x9e, 0xa7, 0x86, 0x2b, 0x61, 0xb1, 0xd2, 0x1d, 0x33, 0xb1, 0x77, 0x30, 0xdd, 0xb0, 0x29, 0xa8, 0x1b, 0x31, 0xef, 0x24, 0x70, 0x1b, 0x66, 0xaf, 0x2e, 0xa0, 0xf5, 0x28, 0xb4, 0x26, 0x70, 0x28, 0x5e, 0xad, 0x37, 0x2e, 0xbc, 0xb0, 0x0d, 0xaf, 0x34, 0xac, 0xe1, 0x2f, 0x6a, 0xb1, 0xd5, 0x23, 0x87, 0x2f, 0xa5, 0xac, 0x59, 0xb1, 0xc0, 0xb0, 0xcb, 0x2e, 0xa0, 0x2e, 0x08, 0x29, 0x41, 0xaf, 0x02, 0x2c, 0x00, 0xa1, 0xd3, 0x2a, 0x97, 0xac, 0xd3, 0xa2, 0x5a, 0xaf, 0x9b, 0x30, 0x3d, 0x29, 0x78, 0xab, 0x2b, 0xae, 0x7f, 0x28, 0xd4, 0xa9, 0xb5, 0x2d, 0x23, 0x2e, 0xe2, 0xb0, 0x13, 0xb0, 0x56, 0x2b, 0xae, 0xa0, 0xfe, 0xb0, 0x17, 0xa5, 0x85, 0xac, 0x0f, 0xb0, 0xad, 0xae, 0x54, 0xa7, 0x6f, 0xae, 0xee, 0x2c, 0x34, 0xb0, 0xc2, 0xa2, 0x90, 0xa4, 0xea, 0x22, 0x0d, 0xa4, 0x49, 0x2e, 0x2e, 0xad, 0x4c, 0x2c, 0xf6, 0xaa, 0x92, 0x2a, 0xb4, 0xad, 0xe9, 0xab, 0x10, 0xae, 0x5a, 0xa6, 0xd1, 0xa3, 0x4a, 0x25, 0xb8, 0x2b, 0xce, 0xab, 0xdd, 0xac, 0xfc, 0xae, 0x87, 0x30, 0x20, 0x28, 0x6c, 0x2f, 0x95, 0x29, 0x7b, 0x2d, 0xff, 0xa4, 0x34, 0xa6, 0xbd, 0x31, 0xfc, 0x2e, 0x6d, 0x9d, 0x04, 0x2d, 0xce, 0xb1, 0x42, 0xa8, 0x7e, 0x2c, 0xbe, 0x29, 0x33, 0x2c, 0x07, 0x27, 0x04, 0xb0, 0xb8, 0x2a, 0x64, 0xb3, 0x21, 0x27, 0x61, 0xb1, 0x10, 0x1c, 0x6a, 0xad, 0x5f, 0x29, 0xea, 0xb0, 0x98, 0xa9, 0x11, 0xac, 0xb6, 0xb0, 0x23, 0x2e, 0xc0, 0x2e, 0xd2, 0x2c, 0x89, 0x24, 0x82, 0xb0, 0x61, 0x29, 0x16,